{"<s>":0,"<pad>":1,"</s>":2,"<unk>":3,"<mask>":4,"!":5,"\"":6,"#":7,"$":8,"%":9,"&":10,"'":11,"(":12,")":13,"*":14,"+":15,",":16,"-":17,".":18,"/":19,"0":20,"1":21,"2":22,"3":23,"4":24,"5":25,"6":26,"7":27,"8":28,"9":29,":":30,";":31,"<":32,"=":33,">":34,"?":35,"@":36,"A":37,"B":38,"C":39,"D":40,"E":41,"F":42,"G":43,"H":44,"I":45,"J":46,"K":47,"L":48,"M":49,"N":50,"O":51,"P":52,"Q":53,"R":54,"S":55,"T":56,"U":57,"V":58,"W":59,"X":60,"Y":61,"Z":62,"[":63,"\\":64,"]":65,"^":66,"_":67,"`":68,"a":69,"b":70,"c":71,"d":72,"e":73,"f":74,"g":75,"h":76,"i":77,"j":78,"k":79,"l":80,"m":81,"n":82,"o":83,"p":84,"q":85,"r":86,"s":87,"t":88,"u":89,"v":90,"w":91,"x":92,"y":93,"z":94,"{":95,"|":96,"}":97,"~":98,"¡":99,"¢":100,"£":101,"¤":102,"¥":103,"¦":104,"§":105,"¨":106,"©":107,"ª":108,"«":109,"¬":110,"®":111,"¯":112,"°":113,"±":114,"²":115,"³":116,"´":117,"µ":118,"¶":119,"·":120,"¸":121,"¹":122,"º":123,"»":124,"¼":125,"½":126,"¾":127,"¿":128,"À":129,"Á":130,"Â":131,"Ã":132,"Ä":133,"Å":134,"Æ":135,"Ç":136,"È":137,"É":138,"Ê":139,"Ë":140,"Ì":141,"Í":142,"Î":143,"Ï":144,"Ð":145,"Ñ":146,"Ò":147,"Ó":148,"Ô":149,"Õ":150,"Ö":151,"×":152,"Ø":153,"Ù":154,"Ú":155,"Û":156,"Ü":157,"Ý":158,"Þ":159,"ß":160,"à":161,"á":162,"â":163,"ã":164,"ä":165,"å":166,"æ":167,"ç":168,"è":169,"é":170,"ê":171,"ë":172,"ì":173,"í":174,"î":175,"ï":176,"ð":177,"ñ":178,"ò":179,"ó":180,"ô":181,"õ":182,"ö":183,"÷":184,"ø":185,"ù":186,"ú":187,"û":188,"ü":189,"ý":190,"þ":191,"ÿ":192,"Ā":193,"ā":194,"Ă":195,"ă":196,"Ą":197,"ą":198,"Ć":199,"ć":200,"Ĉ":201,"ĉ":202,"Ċ":203,"ċ":204,"Č":205,"č":206,"Ď":207,"ď":208,"Đ":209,"đ":210,"Ē":211,"ē":212,"Ĕ":213,"ĕ":214,"Ė":215,"ė":216,"Ę":217,"ę":218,"Ě":219,"ě":220,"Ĝ":221,"ĝ":222,"Ğ":223,"ğ":224,"Ġ":225,"ġ":226,"Ģ":227,"ģ":228,"Ĥ":229,"ĥ":230,"Ħ":231,"ħ":232,"Ĩ":233,"ĩ":234,"Ī":235,"ī":236,"Ĭ":237,"ĭ":238,"Į":239,"į":240,"İ":241,"ı":242,"Ĳ":243,"ĳ":244,"Ĵ":245,"ĵ":246,"Ķ":247,"ķ":248,"ĸ":249,"Ĺ":250,"ĺ":251,"Ļ":252,"ļ":253,"Ľ":254,"ľ":255,"Ŀ":256,"ŀ":257,"Ł":258,"ł":259,"Ń":260,"Ð¾":261,"ĠÐ":262,"Ð°":263,"Ðµ":264,"Ð¸":265,"Ð¾Ð":266,"Ñģ":267,"ÑĢ":268,"ÑĤ":269,"Ð½":270,"Ð»":271,"Ðº":272,"Ñĥ":273,"Ð²":274,"Ñı":275,"Ð¼":276,"Ñĭ":277,"ĠÐ¿":278,"ÑģÑĤ":279,"Ð´":280,"ĠÐ²":281,"ÑĮ":282,"ĠÑģ":283,"Ñĩ":284,"ÑĢÐ°":285,"ÐµÐ½":286,"Ð¾Ð²":287,"ĠÐ¸":288,"Ð·":289,"Ñħ":290,"Ð¿":291,"Ð¹":292,"ĠÐ½":293,"Ð¾Ð´":294,"ĠÐº":295,"ÑĢÐµ":296,"Ð³":297,"Ð°Ð½":298,"ÑģÐº":299,"Ð¾ÑĢ":300,"Ð¾Ð»":301,"ĠÐ³":302,"Ð¾Ð¼":303,"Ð°Ð»":304,"Ð±":305,"ÐµÑĢ":306,"ĠÐ´":307,"ÑĨ":308,"Ð¾Ð½":309,"Ñİ":310,"Ð¾ÑĤ":311,"ĠÐ¼":312,"ÐµÐ»":313,"Ð½Ñĭ":314,"Ð¾Ð³":315,"ÑĪ":316,"ĠÐ±":317,"Ð¾Ð¹":318,"ĠÐ½Ð°":319,"ÐµÑĤ":320,"Ð¶":321,"ĠÑĤ":322,"Ð¸Ð½":323,"Ð¸ÑĤ":324,"ÑĦ":325,"Ð¾Ñģ":326,"Ð°ÑĤ":327,"ĠÐ°":328,"ĠÐ¿ÑĢ":329,"ÐµÐ½Ð¸":330,"Ð¾Ð±":331,"Ð¸Ð»":332,"Ð¾ÑģÑĤ":333,"Ġ1":334,"Ð¾Ð³Ð¾":335,"Ð°ÑĢ":336,"ĠÐ·":337,"ĠÑĥ":338,"Ñī":339,"Ð¸Ðº":340,"ÐµÐ¼":341,"Ð¸Ð¸":342,"ÑģÑĤÐ²":343,"ĠÐ³Ð¾Ð´":344,"ÑģÑı":345,"Ð»Ð°":346,"ĠÑĩ":347,"Ð¸Ð¼":348,"Ð°Ðº":349,"âĢ":350,"Ñį":351,"Ñĳ":352,"Ð¸Ð¹":353,"ĠÑĢÐ°":354,"Ġ(":355,"âĢĶ":356,"ÐµÐ¹":357,"Ð¾Ðº":358,"Ð°Ð¼":359,"Ð½Ð¾":360,"ÑĢÑĥ":361,"Ð¸Ñĩ":362,"Ð¸Ñı":363,"Ð°Ð²":364,"Â«":365,"Â»":366,"ĠÐ»":367,"Ð½Ð°":368,"Ð¸Ð²":369,"ÐµÐ´":370,"Ð¸Ñģ":371,"ĠâĢĶ":372,"ĠÂ«":373,"ÐµÐº":374,"ĠÑģÑĤ":375,"Ð»Ñı":376,"ĠÐ±Ñĭ":377,"Ð¸Ðµ":378,"Ð¸Ñħ":379,"ĠÐ¾ÑĤ":380,"ĠÑĦ":381,"ĠÐ¾Ð±":382,"ÐµÐ»ÑĮ":383,"Ġ19":384,"ÐµÐ²":385,"ĠÑį":386,"Ð»Ð¸":387,"Ð¾Ð¿":388,"Ġ2":389,"Ð¾Ð·":390,"ĠÐµ":391,"Ð½Ð¾Ð¹":392,"Ð¸Ð·":393,"Ð¾Ð»ÑĮ":394,"ĠÐ¸Ð·":395,"ĠÐ½Ðµ":396,"ÐµÑĢÐµ":397,"ĠÐ¿Ð¾":398,"Ð½ÑĭÑħ":399,"ĠÐ³Ð¾Ð´Ð°":400,"Ð³Ð¾":401,"ÐµÐ½Ð¸Ñı":402,"ĠÑĢ":403,"Ð¾Ð¶":404,"Ð°Ð»ÑĮ":405,"Ð¸ÑĢ":406,"Ð°Ñı":407,"ĠÐ²Ñĭ":408,"ĠÑĢÐµ":409,"Ð½Ð¾Ð³Ð¾":410,"ÐµÑģÐº":411,"ÑģÐ¿":412,"ÑĤÐ¾":413,"ÐºÐ°":414,"ĠÐ·Ð°":415,"ÑĥÑİ":416,"Ð½ÑĭÐ¹":417,"ÑĢÐµÐ´":418,"ÐµÑģÑĤ":419,"Ð¸ÑģÑĤ":420,"Ð´Ð°":421,"ÑĨÐ¸":422,"ĠÐ¶":423,"ÐµÐ½ÑĤ":424,"ĠÑħ":425,"Ð¸ÑĩÐµÑģÐº":426,"Ð¾Ð²Ð°Ð½":427,"ĠÑģÐ²":428,"ĠÐ±ÑĭÐ»":429,"Ð½Ð¾ÑģÑĤ":430,"ĠÐ³Ð¾Ð´Ñĥ":431,"Ð½ÑĭÐ¼":432,"ÑĢÐ°Ð½":433,"Ð½ÑĭÐµ":434,"Ġ20":435,"ÑĥÑĢ":436,"Ð»ÑĮ":437,"ÐµÐ½Ð¸Ðµ":438,"Ð½Ð¸Ðº":439,"ÑģÐºÐ¾Ð¹":440,"ÑģÑģ":441,"ÑģÐºÐ¾Ð³Ð¾":442,"ĠÐ¿Ð¾Ð»":443,"Ð¸Ð´":444,"Ð¾Ñĩ":445,"Ð°Ð´":446,"ÑĤÐ°":447,"Ð¾ÑĤÐ¾ÑĢ":448,"Ð»Ðµ":449,"ĠÑĪ":450,"ÑĢÐ°Ð²":451,"Ð°ÑģÑĤ":452,"ÐµÑģÑĤÐ²":453,"ÑħÐ¾Ð´":454,"ĠÑı":455,"Ð°ÐµÑĤ":456,"ÑıÑĤ":457,"Ð½Ðµ":458,"ÑĥÑĤ":459,"ĠÐ¿Ð¾Ð´":460,"ÑĥÐ´":461,"ÑģÐºÐ¸Ð¹":462,"ÑĥÑĩ":463,"Ð¸ÑĨ":464,"ĠÑĢÐ°Ð·":465,"ÐºÐ¸":466,"Ð¶Ðµ":467,"ĠÐ¿ÑĢÐ¾":468,"ÐµÑĢÐ°":469,"ĠÐºÐ¾ÑĤÐ¾ÑĢ":470,"ĠÑĨ":471,"Ð°ÑĤÑĮ":472,"ÑİÑĤ":473,"Ð°Ñģ":474,"ÑĢÐµÐ¼":475,"ĠÐºÐ¾Ð¼":476,"ÑĨÐ¸Ð¸":477,"Ð¸Ð³":478,"Ð¾Ðµ":479,"ĠÐ¿Ð¾Ñģ":480,"Ð°Ð·":481,"Ð°Ð¼Ð¸":482,"ÐµÐ·":483,"ĠÐ¿ÐµÑĢÐµ":484,").":485,"ĠÑĤÐ°Ðº":486,"ĠÐ¾Ð½":487,"ÐºÐ¾Ð²":488,"ĠÑģÐ¾ÑģÑĤ":489,"ĠÐ¾Ðº":490,"Ð»ÐµÐ½":491,"ÑĥÐ±":492,"Ð½Ð¾Ð¼":493,"ĠÑģÐ¾":494,"Ð°Ñħ":495,"Ð¿ÑĢ":496,"Ð¶Ð´":497,"Ð½Ð°Ñı":498,"ÑĭÑħ":499,"ĠÐ¸Ð¼":500,"Ð¸ÑĤÐµÐ»ÑĮ":501,"Ð°Ð½Ð´":502,"ĠÐºÐ¾Ð½":503,"ĠÑĩÑĤÐ¾":504,"ÐµÑĢÐ²":505,"ĠÐ¾":506,"ÑĭÐ²":507,"ÑĢÐ°Ð·":508,"ĠÐ¾Ñģ":509,"ĠÐ¿ÑĢÐµÐ´":510,"Ð½Ð¾Ð²":511,"ÑĭÐ¹":512,"ÑĭÐµ":513,"ÐµÑģ":514,"Ð¼Ð¸":515,"),":516,"ĠÐ¾Ð´":517,"ÑĢÑı":518,"ÑĢÐ¾Ð²":519,"ÑĳÐ½":520,"ĠÑįÑĤ":521,"ÑĥÐ½":522,"ÑĤÐ¾ÑĢ":523,"ÑĥÐ¿":524,"Ð»ÐµÐ´":525,"Ð°Ð¹":526,"Ð¾Ñı":527,"ĠÐ²Ð¾":528,"ĠÐºÐ°Ðº":529,"Ð¾ÑĢÐ¾Ð´":530,"Ð°Ð»Ð¸":531,"ĠÐ´Ð»Ñı":532,"Ð½Ñı":533,"Ð°Ð»Ð°":534,"ĠÐ¸Ð½":535,"Ð½Ð¾Ðµ":536,"Â».":537,"ĠÐµÐ³Ð¾":538,"ĠÐ´Ð²":539,"ÐµÑĩ":540,"ÑĢÐ°ÑĤ":541,"ÑĢÑĥÐ³":542,"Ð¾Ð½Ð°":543,"Ġ\"":544,"ÐºÐ¾":545,"ÑĥÐ¶":546,"ÑĢÐ¾":547,"ĠÑĥÑĩ":548,"ÐºÑĤ":549,"ĠÐ°ÑĢ":550,"Ġ200":551,"ĠÐ¿ÑĢÐ¸":552,"ÐµÐµ":553,"Ð±Ð¾ÑĤ":554,"ĠÑģÐ¿":555,"Ð¸ÑĤÑĮ":556,"Ð¸ÑģÑĮ":557,"ĠÐ²Ñģ":558,"ĠÑģÐ¾ÑģÑĤÐ°Ð²":559,"Ð»Ð°Ð²":560,"Ð½Ð¾ÑģÑĤÑĮ":561,"Â»,":562,"ĠÑģÐ¾Ð²":563,"ĠÐ¿ÑĢÐµ":564,"ĠÐ°Ð²":565,"Ð¸Ð»ÑĮ":566,"Ġ18":567,"ĠÐ´Ð¾":568,"ÐµÐ³Ð¾":569,"Ð½Ð¾ÑģÑĤÐ¸":570,"ÑĥÑģ":571,"ÐµÑħ":572,"ÐµÑĤÑģÑı":573,"19":574,"00":575,"ĠÐ²ÑĢÐµÐ¼":576,"Ġ3":577,"ÑİÑī":578,"ĠÑĢÑĥ":579,"ĠÑģÐ»":580,"ĠÐ¾Ð¿":581,"Ð¼Ð°":582,"Ð¸Ð»Ð¸":583,"ÑĢÑĭ":584,"ĠÐ¾ÑĢ":585,"Ð¸Ð½Ð°":586,"Ð¾ÑĢÐ°":587,"Ð»Ñİ":588,"Ð·Ð°":589,"Ġ201":590,"Ð°ÑĢÑĤ":591,"Ð»Ð¾":592,"ĠÐ²Ð¾Ð·":593,"ÑĥÑī":594,"Ð°Ð½Ð¸Ñı":595,"ĠÐ³Ð¾ÑĢÐ¾Ð´":596,"Ð´Ðµ":597,"ĠÐ½Ð°Ñĩ":598,"ÑģÑĤÐ²ÐµÐ½":599,"Ð½Ð¸":600,"ÑģÐºÐ¾Ð¼":601,"ÐµÐºÑĤ":602,"ĠÐºÐ°":603,"ĠÑĩÐ°ÑģÑĤ":604,"Ð½Ð°Ñĩ":605,"ĠÐ°Ð½":606,"ÑĥÐ»ÑĮ":607,"ÑģÐºÐ¸Ñħ":608,"Ð½ÑĥÑİ":609,"ĠÐ½Ð°Ð·":610,"ĠÑģÐ²Ð¾":611,"Ð°Ð½Ð¾Ð²":612,"Ð¾ÑģÑģ":613,"Ð»Ð°ÑģÑĤ":614,"ÐµÐ½Ð°":615,"Ð¾Ð»ÑĮÑĪ":616,"Ð¸Ð¾Ð½":617,"ĠÐ¿ÐµÑĢÐ²":618,"Ð°Ð³":619,"Ð±ÑĢÑı":620,"Ð¸Ð±":621,"ĠÐ¸ÑģÐ¿":622,"ÑģÑĤÐ²Ð°":623,"Ð¸ÑĢÐ¾Ð²":624,"ÑĥÐ¼":625,"Ð¸Ñİ":626,"Ð¸ÑĤÐµÐ»":627,"ÑĨÐ¸Ð¾Ð½":628,"ĠÑİ":629,"ĠÑĤÐ°ÐºÐ¶Ðµ":630,"ÑĢÑĥÐ¿":631,"ĠÑģÐ°Ð¼":632,"ÐºÑĥ":633,"ĠÑĢÐ°Ð¹":634,"ÑĭÐ¼":635,"ÑģÐºÐ°Ñı":636,"Ð¼ÐµÑĢ":637,"ÐºÐµ":638,"Ð°ÐµÑĤÑģÑı":639,"ĠÐ¿ÑĢÐ°Ð²":640,"ÐµÐ³":641,"ÑĥÐ·":642,"Ð´ÐµÐ»":643,"ĠÐ±ÑĭÐ»Ð¸":644,"Ð°ÑĤÐµÐ»ÑĮ":645,"Ð°ÑİÑĤ":646,"ÑģÐµÐ»":647,"ÐµÐ½Ð¸Ð¸":648,"ÑĢÐ¸ÑĤ":649,"ÐµÐ¿":650,"Ð°Ð½Ð¸Ðµ":651,"ĠÑĢÐ°Ð±Ð¾ÑĤ":652,"ÐµÐºÐ°":653,"ĠÐ±ÑĭÐ»Ð°":654,"ĠÐºÐ¾ÑĢ":655,"ÑĬ":656,"ÑĥÐ»":657,"Ð²Ð»Ñı":658,"Ð¾ÑģÑĮ":659,"Ð¿Ð¾":660,"ÑĢÐ¸":661,"Ð½ÑĭÐ¼Ð¸":662,"ĠÑĩÐµÐ»":663,"ĠÐ±ÑĭÐ»Ð¾":664,"ÑĳÑĤ":665,"Ð°Ð½Ð°":666,"Ð°Ð½ÑĤ":667,"ĠÐ¿Ð¾ÑģÑĤ":668,"ÐµÑĤÐ°":669,"ĠÐ²ÐµÑĢ":670,"Ð¸Ð¼Ð¸":671,"Ð¿Ð¾Ñģ":672,"ÑģÑĤÐ°Ð²":673,"ĠÐ½Ð¾Ð²":674,"ĠÑĢÐ¾ÑģÑģ":675,"Ìģ":676,"ÐµÐ½ÑĮ":677,"ĠÐ²ÑĢÐµÐ¼Ñı":678,"Ġ4":679,"ĠÐ¾ÑģÑĤ":680,"ÐµÐ±":681,"ĠÐ²Ð¾Ð¹":682,"Ð¿ÑĢÐ°Ð²":683,"Ð¸ÑĢÐ¾Ð²Ð°Ð½":684,"ÑģÑĤÐ²Ð¾":685,"ĠÐ´ÑĢÑĥÐ³":686,"ĠÐ¼ÐµÑģÑĤ":687,"ÑĥÑģÑĤ":688,"ĠÐ¸Ð³":689,"ĠÑģÐ¾Ð±":690,"ÐµÑĢÐ¸":691,"Ð¸Ð»ÑģÑı":692,"Ð»Ð°Ð´":693,"ĠÐ¿ÑĢÐ¸Ð½":694,"Ð°ÑĢÐ°":695,"ÑĤÐ¸":696,"ÑĨÐ¸Ñı":697,"ÑıÐ½":698,"ÑĢÐ¾Ð¼":699,"Ġ199":700,"ĠÐ½Ð¾":701,"ĠÐ¿ÑĢÐ¾ÑĤ":702,"ĠÐºÐ¾Ð»":703,"Ð¾ÑĢÐ¼":704,"ĠÑĢÐ°ÑģÐ¿":705,"Ð¾Ð»ÑĮÐºÐ¾":706,"Ð»Ð¾Ð²":707,"ĠÐ¼Ðµ":708,"ÑĥÐ»ÑĮÑĤ":709,"Ġ5":710,"ÑĥÑħ":711,"ÐµÑĢÐ¶":712,"ÐµÐºÑģ":713,"Ð°ÑģÑĮ":714,"ÐµÐ½Ñĭ":715,"ĠÐ·Ð°Ð¿":716,"ĠÐ¼Ð°ÑĢ":717,"Ð¸Ð»Ð°":718,"ĠÐ¸Ð»Ð¸":719,"ÑĳÐ»":720,"ÑģÑĤÑĥÐ¿":721,"Ġ194":722,"ĠÐ¾Ð±Ð»Ð°ÑģÑĤ":723,"Ð¾ÑĢÑĤ":724,"ĠÑĩÐµÐ»Ð¾Ð²":725,"ÑħÐ¾Ð´Ð¸ÑĤ":726,"ĠÐ¾Ð±ÑĢÐ°Ð·":727,"ÐµÑĨ":728,"ĠÐ¼Ð¾":729,"Ð¸ÐºÐ¸":730,"Ð¸Ð·Ð²":731,"er":732,"Ð¾Ð»ÑĮÐ·":733,"ÑĮÑİ":734,"Ð¾Ð·Ð´":735,"Ð°Ð»ÑģÑı":736,"ĠÐ¾Ð±Ñī":737,"ĠÐ¿Ð¾Ð»ÑĥÑĩ":738,"Ð¿Ð¾Ð»":739,"Ð½ÐµÐ¹":740,"Ġi":741,"Ð»ÑİÑĩ":742,"ĠÐ±Ð¾Ð»ÑĮÑĪ":743,"ÑıÐ·":744,"Ð¿Ð°":745,"ĠÑįÐº":746,"ĠÑıÐ²Ð»Ñı":747,"Ð¸ÐºÐ°":748,"Ð¾Ð»Ð¶":749,"ĠÐ±Ð¾Ð»":750,"ĠÐ¿ÑĢÐ¾Ð²":751,"ĠÐ·Ð°Ðº":752,"ÐµÐ½Ð¸Ð¹":753,"ÑĥÑİÑī":754,"Ð¸Ð½Ñĭ":755,"Ð½Ð°Ðº":756,"ĠÐ¸ÑģÑĤ":757,"Ð¸Ð½Ð³":758,"ĠÐ¿Ð»":759,"ĠÑģÐº":760,"Ð¾ÑĢÐ¾Ð½":761,"Ð³Ð°Ð½":762,"ÑĢÐ¾Ð½":763,"ÑĢÐ°Ð¼":764,"ÐµÑĢÑģ":765,"ĠÐ°Ð»":766,"ĠÐºÐ¾Ð¼Ð¿":767,"Ð°Ð½Ð¸Ð¸":768,"ĠÐ¶Ðµ":769,"Ð¾Ð»Ð¾Ð³":770,"or":771,"ĠÑģÑĢÐµÐ´":772,"ĠÑĢÐ¾Ð´":773,"Ð¾Ð¼Ñĥ":774,"Ð¾Ð³Ð´Ð°":775,"ĠÐ·Ð°Ð²":776,"ĠÐ¿Ð¾ÑģÐ»Ðµ":777,"ÑĳÐ¼":778,"Ð»ÐµÐ½Ð¸Ñı":779,"Ġ6":780,"ĠÐ¸Ñİ":781,"ÑĢÐµÑĤ":782,"ÑĥÑĪ":783,"ÐµÑģÑĤÐ²ÐµÐ½":784,"Ð²ÐµÑĢ":785,"ÐµÐ½Ð¸ÐµÐ¼":786,"ÑĥÐº":787,"ÑĢÐ°Ð¶":788,"ÑĢÐ°Ñģ":789,"ĠÑĢÐ°Ð¹Ð¾Ð½":790,"ĠÐºÐ¾Ð¼Ð°Ð½Ð´":791,"Ð°Ð²ÑĪ":792,"ĠÐ¼Ð°ÑĤ":793,"ÑĢÐ¾Ð¿":794,"Ð´Ð¸":795,"ĠÐ¿ÑĢÐ¾Ð´":796,"ÐµÐ½Ð¸Ñİ":797,"ÑĢÐ¾Ð´":798,"Ð¾Ð²Ð°Ð»":799,"ÑĤÐ°Ðº":800,"ĠÐ¿Ð¾Ðº":801,"Ð¸Ð¶":802,"ĠÑĩÐµÐ¼":803,"ĠÐ»ÐµÑĤ":804,"ĠÑĨÐµÐ½ÑĤ":805,"Ð»Ð¸Ñĩ":806,"ÐºÐ¾Ð¼":807,"ĠÐ³Ð¾Ñģ":808,"Ð±Ð¾ÑĢ":809,"Ð¼Ñĥ":810,"Ð°ÑĪ":811,"ĠÑģÑĤÐ°Ð»":812,"an":813,"Ð»Ð°Ñģ":814,"Ð°ÑĤÐµÐ»":815,"Ð°ÑİÑī":816,"ĠÑĤÐµÑĢ":817,"Ð²ÐµÑĤ":818,"ÑģÐºÐ¸Ðµ":819,"Ð¾ÑĢÐ¸Ð¸":820,"ĠÐ³ÐµÑĢ":821,"ÐµÑģÑģ":822,"ÑĨÐ°":823,"ÑģÐºÐ¾Ðµ":824,"ĠÐ´Ðµ":825,"ÐµÑī":826,"ÐºÐ°Ð·":827,"ĠÐ³ÑĢÑĥÐ¿":828,"Ð°ÑĢÑı":829,"Ð¸ÑĨÐ¸":830,"Ð¸ÑĢÐ°":831,"ĠÐ¾ÑģÐ½Ð¾Ð²":832,"ĠÐ½Ð°ÑģÐµÐ»":833,"on":834,"Ġs":835,"Ð¾Ð²Ð°Ð½Ð¸Ñı":836,"ĠÑģÐµÐ¼":837,"Ð°Ð±":838,"ĠÐ²ÑĭÑģ":839,"ĠÐ¸Ñħ":840,"Ð¸Ð¿":841,"Ð¾Ð½Ñĩ":842,"ĠÐºÐ¼":843,"in":844,"ÑĥÐ´Ð°ÑĢ":845,"ĠÐ¸ÑģÐ¿Ð¾Ð»ÑĮÐ·":846,"ÑĢÐ°ÑĦ":847,"ĠÐµÐ²":848,"Ð¼ÐµÑģÑĤ":849,"ĠÐ»Ñİ":850,"ĠÐ²Ð¸Ð´":851,"ĠÐºÐ»":852,"ÑĮÑı":853,"ĠÐ¾Ð±ÑĬ":854,"Ð½Ð¸ÐºÐ¾Ð²":855,"ĠÑģÐ¾Ð²ÐµÑĤ":856,"Ð¸Ð½Ð¸ÑģÑĤ":857,"ĠÑģÐµÐ²":858,"ĠÐ¼ÐµÐ¶Ð´":859,"Ð¿Ð¸Ñģ":860,"ĠÑĥÑĩÐ°ÑģÑĤ":861,"Ð´Ð¸Ð½":862,"ÐµÐ¹ÑģÑĤÐ²":863,"ĠÐ½Ð°ÑĩÐ°Ð»":864,"ÑĳÑĢ":865,"ĠÐµÑĳ":866,"ĠÑĩÐ¸Ñģ":867,"Ð¸ÐµÐ¼":868,"ĠÐ¿ÑĢÐ¾ÑĤÐ¸Ð²":869,"ĠÑģÐ¼":870,"ĠÐ¾Ð±Ð»Ð°ÑģÑĤÐ¸":871,"ÐµÑĢÐµÐ²":872,"ĠÑĥÑģÑĤ":873,"Ð±Ñĭ":874,"Ð¸Ð·Ð°":875,"ĠÐ¿Ð¾Ð¼":876,"ĠÐ·Ð°Ð½":877,"ĠÑģÐµÑĢ":878,"Ð²Ð¾Ð»":879,"ĠÐ´Ð¶":880,"ÐµÑĢÐ½":881,"Ð¿ÑĢÐµ":882,"ĠÑĤÐ¾Ð¼":883,"ĠÐ¿ÑĢÐµÐ´ÑģÑĤÐ°Ð²":884,"Ð¾Ð²Ð°":885,"ĠÐ½Ð°Ð·Ð²":886,"ĠÐ¼Ð½":887,"Ġ7":888,"ĠÐ¿Ð¾Ð²":889,"ar":890,"ÑĥÑīÐµÑģÑĤÐ²":891,"ÐµÐ½Ð¾":892,"ĠÐºÐ¾ÑĤÐ¾ÑĢÑĭÐ¹":893,"Ð²Ð°":894,"ĠÐ³Ð¾ÑģÑĥÐ´Ð°ÑĢ":895,"ÐµÐ½Ð½Ð¾":896,"ÑģÐºÐ¸Ð¼":897,"Ð½Ð¸ÐºÐ°":898,"ÑıÐ²":899,"ÑıÐ±ÑĢÑı":900,"Ġ()":901,"Ð¸ÑĪ":902,"Ð²Ñĭ":903,"Ð°ÑĤÐ°":904,"ÑıÑī":905,"Ġ198":906,"ĠÑĩÐµÐ»Ð¾Ð²ÐµÐº":907,"Ð¸ÑģÐº":908,"ĠÐ¼Ð¾ÑģÐº":909,"ĠÐ³Ð´Ðµ":910,"ĠÑįÑĤÐ¾":911,"Ġ17":912,"ĠÐ²ÐµÐ»":913,"Ð¿Ð¾ÑģÐ»Ðµ":914,"ĠÑĢÐµÐ·":915,"Ð¾Ð¶Ð´":916,"ĠÑĥÐº":917,"ĠÑģÐ¾Ð·Ð´":918,"ĠÐ³Ð»Ð°Ð²":919,"ÑģÐ¾Ð²":920,"Ð·Ñĭ":921,"ĠÐ¿Ð¾Ð¿":922,"18":923,"ÐµÐ´Ð¸Ð½":924,"Ð²ÐµÑģÑĤ":925,"ĠÑģÐ¾ÑģÑĤÐ°Ð²Ð»Ñı":926,"Ġx":927,"Ġc":928,"ÐµÐ¶":929,"ĠÐ¿ÑĢÐ¾Ð¸Ð·Ð²":930,"ĠÑģÐµÐ»":931,"Ð¾ÑĢÐµ":932,"Ġ193":933,"Ġ%":934,"Ð¸ÑĩÐµÑģÐºÐ¾Ð¹":935,"ÐºÐ¾Ð¹":936,"Ð¾ÑĪ":937,"Ġ8":938,"Ð¾Ð»Ð¾Ð¶":939,"en":940,"Ð¼ÐµÐ½":941,"ÐºÐ¾Ð»":942,"ĠÐ¼Ð¾Ð¶":943,"ÑĢÐ¾Ñģ":944,"Ġm":945,"ĠÐ´Ð°Ð½":946,"ĠÑģÐµÐ»ÑĮ":947,"Ð¸ÑģÑģ":948,"ĠÐ´Ð¾Ð¼":949,"20":950,"ĠÐ±Ð¾Ð»ÐµÐµ":951,"ĠÐ¿Ð°ÑĢ":952,"ÑĨÐµÐ²":953,"ĠÐ¾ÑĢÐ³Ð°Ð½":954,"Ð³Ð°":955,"ÑĭÑĤ":956,"ĠÑĤÐ¾":957,"ĠÑĢÐ°Ñģ":958,"ĠÐ´ÐµÐ»":959,"ĠÐ³ÑĢÑĥÐ¿Ð¿":960,"Ð½Ð°ÐºÐ¾":961,"Ð¸Ð²ÑĪ":962,"ÑĢÐ°Ð´":963,"ĠÐ¿Ð¾Ð·":964,"ĠÑĤÑĢ":965,"ÑĥÐ±Ð»":966,"ĠÑĥÐ½":967,"ÑģÐ°":968,"ĠÐ´ÐµÑĢÐµÐ²":969,"Ð¸ÑĩÐµÑģÐºÐ¸Ñħ":970,"ĠÑĦÑĢÐ°Ð½":971,"Ġf":972,"Ð¾ÑģÑĤÐ¸":973,"Ð¾Ð½Ð¾Ð¼":974,"ĠÐ°Ð»ÑĮ":975,"ĠÐ·Ð°Ð¼":976,"ĠÐºÐ°ÑĢ":977,"Ð²Ð¾":978,"ĠÐ²ÑĤÐ¾ÑĢ":979,"Ð¿Ð¸Ð¾Ð½":980,"Ġ196":981,"ii":982,"ĠÐ´Ð¾ÑģÑĤ":983,"ĠÐ¿Ð¾ÑĤ":984,"ĠÐ°ÑĢÐ¼":985,"Ð¿ÐµÑĢÐ²":986,"ĠÑıÐ²Ð»ÑıÐµÑĤÑģÑı":987,"Ġt":988,"Ġ197":989,"ĠÑģÐµÐ²ÐµÑĢ":990,"ĠÐ¼ÑĥÐ·":991,"la":992,"ÑĤÑĮ":993,"Ð¾Ð±Ñĭ":994,"ÑĪÐ°":995,"ĠÑĢÐ°Ð·Ð²":996,"ĠÑģÐ²ÑıÐ·":997,"ĠÐ¼ÐµÑĤ":998,"ĠÑĢÑĥÑģ":999,"Ð¼Ð°Ð½":1000,"Ð»Ð¸Ð½":1001,"ÐµÑĪ":1002,"ÑĩÐ¸ÑĤ":1003,"ĠÐºÐ¾Ð½ÑĨ":1004,"Ð¾ÑĦ":1005,"ÑĢÐ°Ð±Ð¾ÑĤ":1006,"ÑĢÐµÐ±":1007,"Ð½Ð¸Ð¼":1008,"ĠÐ¼Ð¾Ð½":1009,"ÑĨÐ¸Ñİ":1010,"Ð°Ð»Ð¸ÑģÑĮ":1011,"ĠÐ³Ð¾Ð»":1012,"ĠÑĤÐµ":1013,"Ð»ÐµÐ½Ð¸Ðµ":1014,"ĠÐ¸Ð¼Ðµ":1015,"ĠÐ°Ð´":1016,"ĠÑĢÐ¾ÑģÑģÐ¸Ð¸":1017,"ĠÑĥÐ´":1018,"ÑįÑĤ":1019,"Ð¸ÑģÑĤÐµÐ¼":1020,"es":1021,"ÑĨÑĭ":1022,"Ġ195":1023,"ĠÑĤÐ¾Ð»ÑĮÐºÐ¾":1024,"ĠÐ°ÐºÑĤ":1025,"Ġ15":1026,"ÑĢÐµÐ²":1027,"Ð½Ñĥ":1028,"Ð½ÐµÐµ":1029,"Ġ9":1030,"ÑĭÑĪ":1031,"Ð»Ð°Ð³":1032,"ÐµÑĢÑĤ":1033,"ÑģÑģÑĢ":1034,"Ð°ÑĢÐ´":1035,"ĠÑĤÐ¾Ð³Ð¾":1036,"ĠÐ¿Ð¾ÑģÐ»ÐµÐ´":1037,"ÑĥÐ³":1038,"ĠÐ¸Ð·Ð²ÐµÑģÑĤ":1039,"ĠÐ²Ð¾Ð»":1040,"ĠÐ²Ð¾Ñģ":1041,"ĠÑģÐ¾ÑģÑĤÐ¾Ñı":1042,"ĠÐ½ÐµÑģÐº":1043,"Ġ10":1044,"ĠÑĤÐµÑĢÑĢÐ¸ÑĤ":1045,"ÑĢÐ°Ð»":1046,"ĠÐ´Ð¾Ð»Ð¶":1047,"ĠÐ¾Ñĩ":1048,"ĠÑıÐ·Ñĭ":1049,"ĠÐ½Ð¸Ðº":1050,"Ð¸ÑĢÑĥ":1051,"ĠÐ½ÐµÐ¼":1052,"ÑĢÑĥÐ´":1053,"ĠÑıÐ½":1054,"ÐµÑĤÑĭ":1055,"ÑİÑĤÑģÑı":1056,"al":1057,"ĠÐ·Ð²":1058,"ĠÑģÐ»ÐµÐ´":1059,"ĠÐ±ÐµÐ»":1060,"Ð¿Ð¾Ð´":1061,"ĠÑĤÐµÐ¼":1062,"Ð½Ð¾Ð¼Ñĥ":1063,"Ð´Ð¶":1064,"ĠÐ±ÐµÐ·":1065,"ĠÐ³ÐµÐ½":1066,"Ð¸ÑĤÑģÑı":1067,"Ð°ÑģÑģ":1068,"ĠÐ¾ÑĤÐº":1069,"ĠÐ¿ÑĢÐ¸Ð¼":1070,"ĠÑĤÐµÐ»":1071,"ĠÐ²Ðº":1072,"ĠÐ²Ð¾Ð´":1073,"ĠÑĢÐµÑĪ":1074,"ĠÑĩÐµÐ¼Ð¿Ð¸Ð¾Ð½":1075,"ĠÐºÐ¾ÑĤÐ¾ÑĢÑĭÐµ":1076,"ĠÑįÐ»":1077,"ĠÑģÑĭ":1078,"ÑĥÐµÑĤ":1079,"ĠÑĤÑĥÑĢ":1080,"ĠÐ½Ð°Ð´":1081,"ĠÐ¿Ð¾Ð±":1082,"Ð¸ÑĩÐµÑģÐºÐ¾Ð³Ð¾":1083,"ĠÐ³Ð¾ÑĢÐ¾Ð´Ð°":1084,"Ġ16":1085,"ĠÑģÑĤÐ°ÑĢ":1086,"ĠÑģÐ¸ÑģÑĤÐµÐ¼":1087,"Ð¸ÐºÐ°Ð½":1088,"Ð³Ñĥ":1089,"Ð°Ð»ÑĮÐ½Ð¾Ð¹":1090,"Ð½Ð¾Ñģ":1091,"ĠÑĥÑģ":1092,"Ð¸Ñī":1093,"ÑĤÐ¾Ð¼":1094,"Ġp":1095,"Ġ192":1096,"ÑĢÐ°Ñī":1097,"ĠÐ´ÐµÐ¹ÑģÑĤÐ²":1098,"ÑĢÐµÑģÑĤ":1099,"ĠÑĥÐºÑĢÐ°":1100,"Ð¸ÑĩÐµÑģÐºÐ¸Ð¹":1101,"ÑıÐ´":1102,"ÑıÑĤÑĮ":1103,"Ġd":1104,"Ð°ÑĤÑĮÑģÑı":1105,"ĠÐ¼Ð¾Ð³":1106,"ĠÐ¾ÐºÑĤ":1107,"ĠÐ²ÑĭÐ¿":1108,"Ð¾Ð²Ð°Ð½Ð¸Ðµ":1109,"ÐµÑģÑĤÐ²Ð¾":1110,"ĠÐ¿ÑĢÐ¸Ð²":1111,"ÐµÐ»Ð¸":1112,"ĠÐ¸ÑģÐº":1113,"Ð½Ð¸ÑĨ":1114,"Ð¸Ð½Ðµ":1115,"ÑĢÐ°Ð»ÑĮ":1116,"Ð¼Ñĭ":1117,"ĠÐ¶ÐµÐ½":1118,"ĠÐ²Ð¾Ð¹Ð½Ñĭ":1119,"Ð³ÑĥÑģÑĤ":1120,"ÐµÑĢÐµÐ·":1121,"Ð°Ð»Ð¾ÑģÑĮ":1122,"ĠÐ°Ð»ÐµÐºÑģ":1123,"ĠÑįÑĤÐ¾Ð³Ð¾":1124,"ÐµÑĢÑĪ":1125,"Ð¸Ð»Ð¸ÑģÑĮ":1126,"ÑıÐ»":1127,"ĠÐ·ÐµÐ¼":1128,"Ð¸ÑĦ":1129,"ĠÑĢÐ¾ÑģÑģÐ¸Ð¹":1130,"Ð²ÐµÐ´":1131,"ĠÐ¸Ð½ÑĤ":1132,"Ð³Ð¾Ð²":1133,"Ð°ÑĤÐµ":1134,"ĠÐ¼ÐµÐ´":1135,"ÑģÐºÑĥÑİ":1136,"ĠÐºÑĢÐ°Ñģ":1137,"at":1138,"Ð¿Ð»":1139,"ÑĮÐµ":1140,"ĠÐ²Ð¾ÐµÐ½":1141,"ĠÑģÐµÐ½ÑĤ":1142,"ĠÑĪÐºÐ¾Ð»":1143,"ĠÑįÑĤÐ¾Ð¼":1144,"ĠÐ±ÑĥÐ´":1145,"ĠÑĦÐ¾ÑĢÐ¼":1146,"ĠÐ°Ð²Ð³ÑĥÑģÑĤ":1147,"Ð¾ÑĤÐ¾Ð²":1148,"Ð¾Ð»Ð½":1149,"ÑĢÐ¾Ðº":1150,"Ð¾Ð»Ð¾":1151,"Ð±ÑĥÑĢ":1152,"ÑĢÐµÐ¹":1153,"Ð¸Ð»Ð°ÑģÑĮ":1154,"Ġb":1155,"ĠÑģÑģÑģÑĢ":1156,"Ð¾ÑĢÐ¾Ð²":1157,"ĠÐ½ÐµÐº":1158,"ĠÐ¼Ð¾Ð»":1159,"ÑĤÐ¾ÑĢÐ°":1160,"Ð³Ð»":1161,"Ð¸Ð²ÐµÑĢÑģ":1162,"ÑıÑĤÐµÐ»ÑĮ":1163,"Ð²Ð¾Ð´":1164,"Ð±Ð¾Ð»":1165,"ĠÐ¿Ð°ÑĢÑĤ":1166,"ĠÐ¸Ð¼Ð¿":1167,"\",":1168,"ÑĢÐµÑĩ":1169,"ĠÐ¾Ð½Ð¸":1170,"ĠÑĤÐµÑħ":1171,"ĠÐ³Ð¾ÑĢ":1172,"ĠÑĢÐµÐ·ÑĥÐ»ÑĮÑĤ":1173,"ĠÐ·Ð´":1174,"ĠÐ²ÐµÐ»Ð¸Ðº":1175,"ÑıÐ¼":1176,"ĠÐ¾Ð´Ð¸Ð½":1177,"Ð½Ð¸Ðµ":1178,"ĠÐ¼ÐµÐ¶Ð´Ñĥ":1179,"Ð¼Ð¸Ð½Ð¸ÑģÑĤ":1180,"Ð°ÑİÑĤÑģÑı":1181,"he":1182,"Ð°Ð»Ð¾":1183,"ĠÐ´Ð¸":1184,"Ð°Ð»ÑĮÐ½Ð¾":1185,"ÐµÑĢÐ°ÑĤ":1186,"ĠÐ·Ð°ÑĤ":1187,"ĠÐ¼Ð¸Ð½":1188,"ĠÐ²ÑĭÑģÑĤÑĥÐ¿":1189,"Ð¸ÑĤÐµÐ»ÐµÐ¹":1190,"Ð½ÑĥÑĤ":1191,"ic":1192,"ÐµÑģÑĤÐ²Ð°":1193,"ĠÐ´ÐµÐºÐ°":1194,"ĠÐ°ÑĢÑħ":1195,"ĠÐ¾Ð½Ð°":1196,"Ġ12":1197,"ĠÑĢÐ°ÑģÐ¿Ð¾Ð»Ð¾Ð¶":1198,"Ð¼Ð¾Ð¶":1199,"ĠÑĨÐµÑĢ":1200,"ĠÐ²Ð·":1201,"ĠÐ³Ð¾ÑģÑĥÐ´Ð°ÑĢÑģÑĤÐ²ÐµÐ½":1202,"Ð»Ð¾Ñī":1203,"ĠÐ½Ð°ÑħÐ¾Ð´":1204,"Ð¾Ð²Ð¾Ð¹":1205,"ĠÑĪÑĤ":1206,"Ð°Ð»Ð°ÑģÑĮ":1207,"Ð±Ð¾Ð¼":1208,"ĠÐ²ÑģÐµ":1209,"ĠÐ¸ÑĤ":1210,"ÑĥÑģÐº":1211,"ĠÐ·Ð½Ð°Ñĩ":1212,"ĠÐ¶ÐµÐ»":1213,"ÑĢÐ°Ð¶Ð´":1214,"ĠÐ´ÐµÑĤ":1215,"Ð°Ð¶":1216,"ÐµÐ½ÑĤÐ°":1217,"ĠÐ¾Ð³":1218,"ĠÑģÐ»ÑĥÐ¶":1219,"Ð¾Ñī":1220,"Ð¸ÑĤÑĥ":1221,"Ð¾Ð±Ñī":1222,"Ð²Ð¾ÑĢ":1223,"ĠÑĥÐ½Ð¸Ð²ÐµÑĢÑģ":1224,"Ð°Ð»ÑĮÐ½Ð¾Ð³Ð¾":1225,"Ð°ÐºÑĤ":1226,"ĠÑĤÑĭ":1227,"Ð±Ð°":1228,"Ð´Ð¾":1229,"Ð½Ð¾ÑģÑĤÑĮÑİ":1230,"ĠÐºÐ¾Ð½ÑĤ":1231,"Ð°Ð»ÑĮÐ½ÑĭÑħ":1232,"Ð¸ÑĤÐµÑĤ":1233,"ĠÐ¸Ð½ÑģÑĤ":1234,"10":1235,"ÑĪÐ¸Ð¹":1236,"ÐºÐ¾Ð½":1237,"ÑĢÑĭÑĤ":1238,"ĠÑģÑĤÐ¾ÑĢÐ¾Ð½":1239,"ĠÐ¿Ð¾Ñĩ":1240,"ÐµÑĨÐ¸":1241,"ÐµÑģÑĤÐ²Ðµ":1242,"ĠÐ¶Ð¸Ð·":1243,"ĠÐ½Ð°ÑģÐµÐ»ÐµÐ½Ð¸Ñı":1244,"ÑĢÐµÐ´ÐµÐ»":1245,"ĠÐ¼Ð½Ð¾Ð³":1246,"ĠÐ°Ð¿ÑĢÐµ":1247,"ÑĪÐ¸Ñħ":1248,"ĠÐ¿ÐµÑĢÐµÐ´":1249,"ÑĭÐ¼Ð¸":1250,"ÑĥÑĢÑĭ":1251,"Ð½Ð¸Ð¹":1252,"ĠÑĦÐ¸Ð»ÑĮ":1253,"ĠÐ¿ÑĢÐ¸Ñģ":1254,"ĠÑģÐµÐ±":1255,"Ð¼Ðµ":1256,"Ð³Ð¸":1257,"ÐºÐ°Ñħ":1258,"ĠÐºÐ°Ð·":1259,"ĠÐ¿Ð¾ÑĢ":1260,"Ð½Ð¸ÐºÐ¸":1261,"17":1262,"ÑıÐ¶":1263,"ĠÑĥÐ¿":1264,"ĠÐ³Ð¾Ð´Ð°Ñħ":1265,"Ð¸ÐºÐ¾Ð²":1266,"ĠÑĦÐ¸Ð½":1267,"Ġa":1268,"Ð¸Ð»Ð¾":1269,"Ð»ÐµÑĤ":1270,"ĠÐ¿ÑĢÐ¸Ð·":1271,"Ð´ÐµÑĢÐ¶":1272,"ÑĢÐ¾Ð¹":1273,"Ð³Ðµ":1274,"ĠÐµÑī":1275,"ĠÐ¿Ð¾ÑģÐµÐ»":1276,"ĠÐºÐ¾ÑĤÐ¾ÑĢÑĭÑħ":1277,"ĠÑģÐ¸Ð»":1278,"ÑĤÐ¾Ð²":1279,"ÑħÑĢÐ°Ð½":1280,"ĠÑģÑĪÐ°":1281,"ĠÐºÐ°ÑĤ":1282,"ĠÐ²ÐºÐ»ÑİÑĩ":1283,"Ð¾Ð³ÑĢÐ°ÑĦ":1284,"ĠÐ¼ÑĥÐ·Ñĭ":1285,"ĠÐ¾ÐºÐ¾Ð½Ñĩ":1286,"ĠÑĩÑĤ":1287,"ÑĦÐ¾ÑĢÐ¼":1288,"Ð»Ð¾ÑīÐ°Ð´":1289,"Ð¾ÑģÑĤÑĮ":1290,"Ð¾Ð³Ð»Ð°Ñģ":1291,"ĠÐºÐ¾Ð³Ð´Ð°":1292,"ĠÐ²Ð¾ÑģÑĤ":1293,"ÑĥÑĢÐ°":1294,"ĠÑģÑĤÑĢÐ°":1295,"Ð¾ÐµÐ²":1296,"ĠÐºÐ¾ÑĤ":1297,"ÑĢÑĭÐ²":1298,"ĠÐ°Ð¼ÐµÑĢ":1299,"ĠÐºÐ»ÑĥÐ±":1300,"ÐºÐ¾Ð²Ð¾Ð´":1301,"ĠÐºÐ°Ð¼":1302,"Ð°ÐµÐ¼":1303,"Ð¼ÐµÑĤ":1304,"ÐµÐ·Ð´":1305,"ĠÐ²Ð¾Ð¹ÑģÐº":1306,"Ð°Ð½Ñĭ":1307,"Ġr":1308,"ĠÑĢÐ°Ð¹Ð¾Ð½Ð°":1309,"ĠÐ¿ÑĢÐ¾Ð¸Ð·Ð²Ð¾Ð´":1310,"Ð¸ÑĤÐµÐ»ÑĮÐ½Ð¾":1311,"ĠÐ½Ð¾Ñı":1312,"Ð¸ÐºÐµ":1313,"ÑģÐ¼":1314,"ĠÐ½Ð°ÑĨÐ¸Ð¾Ð½":1315,"ÑĦÐ¾ÑĢ":1316,"Ð¾Ð½Ðµ":1317,"ĠÑĩÐ°ÑģÑĤÑĮ":1318,"ĠÐ¿ÐµÑĢÐ¸":1319,"ĠÐ¿Ð¾Ð»Ð¸ÑĤ":1320,"Ð¸ÑĩÐµÑģÐºÐ¸Ðµ":1321,"ĠÐµÐ²ÑĢÐ¾Ð¿":1322,"ĠÑĩÐ»ÐµÐ½":1323,"ĠÐºÐ°Ñĩ":1324,"ĠÐ¿ÑĥÑĤ":1325,"Ð»Ð°ÑģÑģ":1326,"Ð¾ÑĤÐ°":1327,"ĠÑĦÐµÐ²":1328,"ĠÑģÐ±Ð¾ÑĢ":1329,"Ð±ÑĢÐµ":1330,"ÑĨÐ¸Ð¹":1331,"ĠÐ´Ð¾Ðº":1332,"ÑıÐ¼Ð¸":1333,"ĠÐ¾ÐºÑĢÑĥÐ³":1334,"ĠÐ²Ð¼ÐµÑģÑĤ":1335,"ĠÑģÐ¾ÑģÑĤÐ°Ð²Ðµ":1336,"Ð°Ð»Ðµ":1337,"Ð¸ÐµÐ¹":1338,"ÐºÐ²":1339,"ĠÐºÐ½":1340,"ĠÐ²ÑĭÑĪ":1341,"ĠÑĥÐ¶Ðµ":1342,"ĠÐ´Ð²Ð°":1343,"ĠÑģÑĥÐ´":1344,"Ð½ÐµÐ¼":1345,"ĠÐºÐ°Ð½":1346,"ĠÑĩÐ°ÑģÑĤÐ¸":1347,"Ġ14":1348,"Ð²Ðµ":1349,"ÑģÑĤÐ¾Ñı":1350,"ĠÐ¼Ð¾ÑĢ":1351,"Ð»Ð¸Ð·":1352,"ĠÐ¸ÑģÑĤÐ¾ÑĢ":1353,"Ð¸Ð½Ñĥ":1354,"ÑģÑĤÐ²Ð¾Ð¼":1355,"Ð¿Ð¸ÑĤ":1356,"Ð½Ð¸Ñħ":1357,"ÑįÐ½":1358,"is":1359,"ÑĨÐµÐ½":1360,"ĠÐ²Ð»Ð°Ð´":1361,"Ð»Ð¸Ð²":1362,"Ð·Ð¸Ð´":1363,"ĠÐµÑīÑĳ":1364,"ĠÐ½ÐµÑģÐºÐ¾Ð»ÑĮÐºÐ¾":1365,"ÑĢÐ°ÐºÑĤ":1366,"ĠÐ·Ð°Ð½Ð¸Ð¼":1367,"ĠÐ¿ÐµÑĢÐ¸Ð¾Ð´":1368,"ĠÑıÐ½Ð²":1369,"Ð¾Ð±ÑĢÐ°Ð·":1370,"Ð°Ð»Ð¸ÑģÑĤ":1371,"Ð°Ð»ÑĮÐ½ÑĭÐ¹":1372,"\".":1373,"ÐµÐ½Ð½ÑĭÑħ":1374,"Ð»Ð¾Ð¶":1375,"ÐµÐ½Ð½ÑĭÐ¹":1376,"ĠÐ²ÐµÐºÐ°":1377,"15":1378,"Ð´Ð°Ñĩ":1379,"Ð½Ð¾ÑĪ":1380,"ÐµÐ½Ð´":1381,"Ð°Ð¿":1382,"ĠÐ»Ð¸ÑĤ":1383,"ĠÑĦÐµÐ²ÑĢÐ°":1384,"Ġ13":1385,"ĠÐ½Ð°Ð·ÑĭÐ²":1386,"ÐµÐ²Ð¸Ñĩ":1387,"ĠÑĩÐµÑĢÐµÐ·":1388,"ĠÑĥÐ±":1389,"ĠÐ½ÐµÐºÐ¾ÑĤÐ¾ÑĢ":1390,"ĠÐ¼Ð¾Ð¶ÐµÑĤ":1391,"ĠÑĩÑĤÐ¾Ð±Ñĭ":1392,"ĠÐ¼Ð°Ñı":1393,"ÐµÑĢÐ¾Ð¼":1394,"ĠÑģÐµÐ·":1395,"ĠÑģÑĤÑĢÐ¾":1396,"ĠÑģÐ¿ÐµÑĨÐ¸":1397,"ÐµÑĢÐ¾Ð²":1398,"ĠÐ½Ð°ÑĢÐ¾Ð´":1399,"ĠÐ¼Ð°ÑĤÑĩ":1400,"ĠÐºÑĢÐ°":1401,"ÑĢÐ°ÑĤÐ¸Ð²":1402,"ĠÑģÑĤÐ°Ð½":1403,"Ð¿ÑĢÐ¸":1404,"ĠÐ´Ð²ÑĥÑħ":1405,"ÐµÑĢÐ³":1406,"ĠÐ¿ÐµÑģ":1407,"ĠÐ»Ð¸Ð½":1408,"Ð¸Ð²Ð¸Ð·":1409,"ĠÑĤÐµÑĢÑĢÐ¸ÑĤÐ¾ÑĢÐ¸Ð¸":1410,"ĠÑĥÑĤ":1411,"ĠÐ¾ÐºÐ¾Ð»Ð¾":1412,"ĠÐ½Ð°Ñģ":1413,"ĠÐ¼ÑĥÐ¶":1414,"Ð°ÑĢÐ¾Ð´":1415,"Ġ,":1416,"ĠÐ´Ð¾Ð»":1417,"ĠÑıÐ½Ð²Ð°ÑĢÑı":1418,"Ð¾ÑģÐ¾Ð±":1419,"ĠÐ¿ÐµÑĤ":1420,"Ð´ÐµÐ¼":1421,"ĠÐºÐ¾ÑĢÐ¾Ð»":1422,"ĠÑģÐ¾ÑģÑĤÐ°Ð²Ð»ÑıÐµÑĤ":1423,"ĠÑĥÐ¿ÑĢÐ°Ð²":1424,"12":1425,"ÑĥÑİÑĤ":1426,"us":1427,"ÑĢÐ¸ÑģÑĤ":1428,"ĠÐ·Ð°Ð¿Ð°Ð´":1429,"ĠÐ¿ÑĢÐ¾Ð³":1430,"ÑģÑĤÐ²Ðµ":1431,"ĠÐºÐ¾ÑĤÐ¾ÑĢÐ¾Ð¹":1432,"ĠÑģÑĥÑīÐµÑģÑĤÐ²":1433,"ĠÐ¸Ð½Ð´":1434,"ĠÐ½ÐµÐ´":1435,"ĠÐ½Ð¸Ñħ":1436,"ĠÐ±Ð¾Ð³":1437,"ĠÐºÑĥÑĢ":1438,"ĠÐ°Ð²Ð³ÑĥÑģÑĤÐ°":1439,"ĠÑĢÑĥÐºÐ¾Ð²Ð¾Ð´":1440,"ĠÐ³ÑĢÐ°Ð½":1441,"Ð½Ð¸ÐºÐ¾Ð¼":1442,"ĠÐ¼ÐµÑģÑĤÐ¾":1443,"ÑĢÐµÐ»":1444,"Ð°Ð½Ð¾":1445,"ĠÐµÑģÑĤ":1446,"ĠÐ¿ÑĢÐ¾ÑĦ":1447,"ĠÐºÑĢÑĥÐ¿":1448,"Ð¾Ð²Ð¾ÑĢ":1449,"ĠÐ¾ÑģÐ¾Ð±":1450,"ĠÑįÐºÑģÐ¿":1451,"ĠÑģÐ¾Ñİ":1452,"Ð¼Ð°ÑĤ":1453,"ĠÐ¿Ð»Ð¾ÑīÐ°Ð´":1454,"ĠÐ¿ÑĢÐ¾Ð´Ð¾Ð»Ð¶":1455,"ĠÐ¸ÑİÐ»Ñı":1456,"ĠÐ¾ÐºÑĤÑıÐ±ÑĢÑı":1457,"ÐµÑģÑĮ":1458,"ĠÐ¸Ð·Ð´":1459,"ĠÑĢÐµÐ³":1460,"ĠÐ²ÑģÑĤ":1461,"ĠÐ°Ð»ÐµÐºÑģÐ°Ð½Ð´":1462,"ÐµÑĦ":1463,"ĠÑĥÑģÑĤÐ°Ð½Ð¾Ð²":1464,"ĠÐ´Ð¾ÑĢ":1465,"ĠÑģÐµÐ½ÑĤÑıÐ±ÑĢÑı":1466,"ĠÐ¿Ð¾Ð»ÑĥÑĩÐ¸Ð»":1467,"ĠÑĢÐ°Ð·Ð»Ð¸Ñĩ":1468,"Ð½ÐµÐ²":1469,"ĠÑģÑĩÐ¸ÑĤ":1470,"ĠÐ¾ÑĦ":1471,"ĠÐ´ÐµÐºÐ°Ð±ÑĢÑı":1472,"ĠÐ±Ð¾ÑĢ":1473,"Ð¸Ð·Ð°ÑĨÐ¸Ð¸":1474,"Ð¸ÑĩÐµÑģÐºÐ¸":1475,"ÑģÑģÐ»ÐµÐ´":1476,"ÑıÑģ":1477,"ĠÐ½Ð°Ð·Ð½Ð°Ñĩ":1478,"ÑĢÐ°ÑģÑĤ":1479,"Ð¸Ð½Ð¾":1480,"ĠÑģÐ°Ð½":1481,"ĠÐ¸ÑİÐ½Ñı":1482,"ĠÐ¿Ð¾Ð±ÐµÐ´":1483,"ĠÐ´ÑĢÑĥÐ³Ð¸Ñħ":1484,"Ð¿ÑĢÐ¸Ð¼":1485,"ĠÐ³ÐµÐ½ÐµÑĢÐ°":1486,"ĠÐµÐ´Ð¸Ð½":1487,"ĠÐ¼Ð¸ÑĢÐ°":1488,"Ġg":1489,"ĠÐ½Ð°Ð¿ÑĢÐ°Ð²":1490,"ÑģÐ¿ÑĥÐ±Ð»":1491,"ĠÑģÐ»ÑĥÑĩ":1492,"ĠÐ°ÑĢÐ¼Ð¸Ð¸":1493,"ÑħÐ¾Ð´Ð¸ÑĤÑģÑı":1494,"Ð¸ÑĨÑĭ":1495,"ĠÐ¼ÐµÐ½":1496,"Ð½Ð¾Ð²Ð°Ð½":1497,"ĠÐ°Ð»ÑĮÐ±Ð¾Ð¼":1498,"ĠÑĢÐ°Ð¹Ð¾Ð½Ðµ":1499,"ĠÐ³Ð¾Ð´Ñĭ":1500,"ÑģÐ»":1501,"ĠÐ¼Ð°ÑĢÑĤÐ°":1502,"ĠÐ»ÑİÐ±":1503,"ĠÐºÐ½Ð¸Ð³":1504,"ÐºÐ¸Ñħ":1505,"ĠÐ´Ð¸Ð²Ð¸Ð·":1506,"Ð¾ÑģÑĤÑĢÐ°Ð½":1507,"Ð¾ÑĢÐ°Ñı":1508,"Ð¾Ð½Ð¾Ð²":1509,"ĠÐ¾ÑģÑĤÑĢÐ¾Ð²":1510,"ĠÐ¶Ð¸Ð²":1511,"Ġâ":1512,"ĠÐ¼Ð°Ðº":1513,"Ð°ÑĢÐ¸":1514,"ĠÐ´Ð¾Ð±":1515,"le":1516,"ÑĥÐ´Ð¾Ð¶":1517,"200":1518,"Ð²Ñģ":1519,"Ð°ÑĢÑħ":1520,"ÑĤÐµ":1521,"ĠÐ²Ð¾Ð·Ð¼Ð¾Ð¶":1522,"ĠÑģÐ²Ð¾ÐµÐ¹":1523,"ĠÐºÐ»Ð°ÑģÑģ":1524,"16":1525,"ÐºÐ¸Ð¹":1526,"Ð¾Ð·Ñı":1527,"Ð¸ÑĨÐ¸Ð¸":1528,"ÑĢÑĥÐ¶":1529,"Ð±Ð¾Ð»ÑĮÑĪ":1530,"ĠÐ¿Ð¾Ð¼Ð¾Ñī":1531,"ĠÑĢÐµÑģÐ¿ÑĥÐ±Ð»":1532,"ÐµÑģÐ¿":1533,"ĠÐ´Ð°":1534,"ĠÐ¿Ð¾Ð³":1535,"ÑĢÐµÐ½":1536,"ĠÐºÐ¾ÑĤÐ¾ÑĢÐ°Ñı":1537,"ĠÐ°Ð¿ÑĢÐµÐ»Ñı":1538,"ĠÑĢÐ°Ð½":1539,"ĠÐ¾Ð·":1540,"ĠÐ¼Ð°Ð»":1541,"ĠÐ¾Ð»":1542,"Ð²Ð°ÑĤ":1543,"Ð¿Ð°Ð´":1544,"ĠÐºÑĥÐ»ÑĮÑĤ":1545,"ĠÐ¾Ð¿ÑĢÐµÐ´ÐµÐ»":1546,"ĠÐµÐ¼Ñĥ":1547,"ĠÑģÐ»ÐµÐ´ÑĥÑİÑī":1548,"ĠÑĦÐµÐ´":1549,"ÑĥÐ»Ñı":1550,"ĠÐ¿ÑĢÐµÐ·Ð¸Ð´":1551,"ĠÐ³ÑĥÐ±":1552,"ÑıÑħ":1553,"Ð¸ÑĤÐ°":1554,"Ð½ÐµÐ³Ð¾":1555,"ĠÐ²ÐµÑĢÑħ":1556,"ÐµÐ¼Ñĥ":1557,"ĠÐ·Ð°ÑĤÐµÐ¼":1558,"Ġv":1559,"ÑĥÑĢÐ½":1560,"Ð¾Ð´Ð½Ð°ÐºÐ¾":1561,"ÑĩÐ¸Ð½":1562,"it":1563,"Ð¸Ð»Ð¾ÑģÑĮ":1564,"ĠÑģÐ¾Ð¾ÑĤ":1565,"ro":1566,"Ġ0":1567,"Ð¼Ð¾Ð½":1568,"ĠÑĥÑģÐ¿":1569,"ÑĳÑħ":1570,"ĠÐºÐ¾Ð½ÑģÑĤ":1571,"Ġn":1572,"ĠÐ¾Ð´Ð½Ð°ÐºÐ¾":1573,"Ð±Ñĥ":1574,"ĠÑĤÑĢÐ¸":1575,"ĠÐ»Ð¸ÑĪ":1576,"ĠÐ²ÑħÐ¾Ð´":1577,"ĠÐ´ÐµÑıÑĤÐµÐ»ÑĮ":1578,"Ð¼Ð¸Ð½Ð¸ÑģÑĤÑĢÐ°ÑĤÐ¸Ð²":1579,"Ħĸ":1580,"ĠÐ²ÑģÐµÑħ":1581,"ÐµÐ½Ð½Ð¾Ð¹":1582,"ĠÐ½Ð°Ð³":1583,"Ð¾Ð´Ð°":1584,"ĠÐ¼Ð¾ÑģÐºÐ¾Ð²":1585,"Â²":1586,"ĠÐºÐ¾ÑĤÐ¾ÑĢÐ¾Ð³Ð¾":1587,"14":1588,"ĠÐ°ÐºÑĤÐ¸Ð²":1589,"ÐµÑĢÑĭ":1590,"Ð¸ÑĤÐµÑĤÐ°":1591,"ÑĥÑĢÐµ":1592,"ĠÐ¾ÑĤÐ´":1593,"Ð¿Ð¾Ð½":1594,"ĠÐ¸Ð²":1595,"ĠÐ½Ð¾ÑıÐ±ÑĢÑı":1596,"ĠÐ¸ÑģÑģÐ»ÐµÐ´":1597,"ĠÐ³ÑĢÑĥÐ¿Ð¿Ñĭ":1598,"ĠÑħÑĥÐ´Ð¾Ð¶":1599,"ĠÑİÐ¶":1600,"Ð»ÑģÑı":1601,"Ð°ÑģÑĤÐ²":1602,"ĠÐ¿ÑĢÐ¾Ð¸Ñģ":1603,"ĠÐ¾ÑĤÐ»Ð¸Ñĩ":1604,"Ð°ÑĤÑĭ":1605,"ÑĢÑĮ":1606,"Ð¾Ð´Ðµ":1607,"ĠÐ¿Ð¸Ñģ":1608,"ÑĩÐµÑģÐº":1609,"ÑģÐºÐ¾":1610,"Ð»Ð°Ð½Ð´":1611,"ÑĳÐ½Ð½ÑĭÑħ":1612,"mu":1613,"Ð°Ð»ÑĮÐ½ÑĭÐµ":1614,"ĠÑĥÐ²":1615,"ĠÐ¶ÐµÐ»ÐµÐ·":1616,"ĠÐ²Ð¼ÐµÑģÑĤÐµ":1617,"ÐºÐ°Ð¼Ð¸":1618,"ĠÑĢÐ°Ð·Ð²Ð¸ÑĤ":1619,"Ð¸ÐµÐ²":1620,"ÑĥÐ½Ð°ÑĢÐ¾Ð´":1621,"ÑĢÑıÐ´":1622,"ÑĢÐ¸Ð³":1623,"ĠÐºÐ°ÑĩÐµÑģÑĤÐ²Ðµ":1624,"ĠÐ¿Ð¾Ð´Ð´ÐµÑĢÐ¶":1625,"ÑĪÑĳÐ»":1626,"ÑĢÐ°Ð±":1627,"Ġfor":1628,"ĠÐ²Ð»Ð°ÑģÑĤ":1629,"Ð´ÐµÐ½":1630,"ĠÐ²ÑĭÑģÐ¾Ðº":1631,"ĠÐ¾ÑĤÐ½Ð¾Ñģ":1632,"ĠÑĥÐ»Ð¸":1633,"ĠÑĤÐ¾ÑĢ":1634,"ĠÐ¾ÐºÐ°Ð·":1635,"ĠÐ¾ÑĤÐ´ÐµÐ»":1636,"Ð¸ÑıÑĤ":1637,"ĠÑįÐ½":1638,"Ġ2010":1639,"ĠÑģÑĤÐµÐ¿":1640,"ĠÐ¼ÑĥÐ½":1641,"Ð¸Ð½Ð¾Ð²":1642,"ĠÐ¼Ð¾Ð´":1643,"ĠÐ¿ÐµÑĢ":1644,"ĠÑģÐ²Ð¾Ðµ":1645,"ÑĪÐµÐ¹":1646,"ĠÑįÐºÐ¾Ð½Ð¾Ð¼":1647,"ÑģÐºÐ¾Ð¼Ñĥ":1648,"ÑīÐ¸ÑĤ":1649,"Ð¸ÑĨÐ¸Ð¿":1650,"ÑĩÐ¸Ñģ":1651,"Ð¸Ð»Ð»":1652,"ÑĢÐ¾Ð¼Ðµ":1653,"ĠÐ¸Ð·Ð±":1654,"ĠÑģÐ¾Ð»":1655,"ĠÑģÐ¸Ð¼":1656,"ĠÑĦÐµÐ²ÑĢÐ°Ð»Ñı":1657,"ĠÑģÑĤÑĢÐ°Ð½":1658,"Ġ190":1659,"Ġw":1660,"ÐµÑĢÐ°ÑĨÐ¸Ð¸":1661,"ĠÐºÐ²":1662,"Ð¾Ð²Ð°ÑĤÑĮ":1663,"Ð¸ÑĤÐµÐ»Ð¸":1664,"ĠÐ°Ð½ÑĤ":1665,"ĠÐ°Ð¼ÐµÑĢÐ¸ÐºÐ°Ð½":1666,"Ð¾Ð·ÑıÐ¹":1667,"ĠÐ²ÑĤÐ¾ÑĢÐ¾Ð¹":1668,"ĠÐ°ÐºÐ°":1669,"ĠÐ¿ÑĢÐ¾ÑĦÐµÑģÑģ":1670,"Ð»ÐµÐ¹":1671,"13":1672,"ĠÑĩÐ¸ÑģÐ»Ðµ":1673,"Ð¾Ð¼Ð¸Ð½":1674,"ÑĢÐµÐ¿":1675,"ÑĪÐµ":1676,"Ð°ÑĢÑĮ":1677,"ÑĤÐ°ÐºÐ¶Ðµ":1678,"ĠÐ±ÑĭÑĤÑĮ":1679,"ÐµÐ½Ð½ÑĭÐµ":1680,"ÑĢÐ°Ñħ":1681,"ĠÑĪÐ¸ÑĢ":1682,"ĠÑįÑĤÐ¾Ð¹":1683,"Ð³Ð»Ð°Ð²":1684,"el":1685,"ĠÐ±ÐµÑĢÐµ":1686,"Ð»Ð¾Ð¼":1687,"Ġ.":1688,"ĠÑģÐ¼ÐµÑĢ":1689,"Ġ25":1690,"ÑĢÑĥÐ·":1691,"ĠÐµÑģÑĤÑĮ":1692,"ÑĪÐµÐ³Ð¾":1693,"ĠÑĩÐµÐ»Ð¾Ð²ÐµÐºÐ°":1694,"ĠÐ²ÑĢÐµÐ¼ÐµÐ½Ð¸":1695,"Ð¿ÑĢÐ¸Ð¼ÐµÑĢ":1696,"ĠÑĤÐ°Ð½":1697,"ĠÑĢÑĭ":1698,"ĠÐ½Ð°ÑĥÑĩ":1699,"ĠÐ½Ð°Ð·Ð²Ð°Ð½Ð¸Ðµ":1700,"ĠÐ¿ÑĢÐ°Ð²Ð¸ÑĤÐµÐ»ÑĮ":1701,"Ð¸ÑĤÑĮÑģÑı":1702,"ĠÑĤÐµÐ°ÑĤ":1703,"ĠÑģÐµÐ±Ñı":1704,"ÑĨÐµÑģÑģ":1705,"ĠÑģÐ¾Ð¾ÑĤÐ²ÐµÑĤ":1706,"ĠÐ°ÐºÐ°Ð´ÐµÐ¼":1707,"ĠÐ³Ð°Ð·":1708,"Ð°ÑĢÐ°ÐºÑĤ":1709,"ĠÑģÐ»Ð¾Ð²":1710,"Ð°ÑĢÐ¾Ð²":1711,"ĠÐ³ÑĥÐ±ÐµÑĢÐ½":1712,"ĠÐ¿Ð¾ÐºÐ°Ð·":1713,"ĠÑģÑĢÐµÐ´Ð¸":1714,"ĠÐ¿Ð»Ð°Ð½":1715,"ĠâĦĸ":1716,"ĠÐ¿ÑĢÐ¾Ð³ÑĢÐ°Ð¼":1717,"ĠÑĥÑĩÐ°ÑģÑĤÐ¸Ðµ":1718,"ĠÐ°ÑĢÑĤ":1719,"ĠÑģÐ¾Ð´":1720,"Ð¾ÑĢÑĥÐ¶":1721,"ĠÐ¶ÐµÐ½Ñī":1722,"Ð°Ð½Ð¸ÐµÐ¼":1723,"ĠÐ³Ð¾Ð´Ð¾Ð²":1724,"ĠÑįÐ»ÐµÐºÑĤ":1725,"ÑĥÐ½Ðº":1726,"mula":1727,"ĠÐ¼ÐµÐ¶Ð´ÑĥÐ½Ð°ÑĢÐ¾Ð´":1728,"ÑĳÐ²":1729,"Ð³Ð¾ÑĢÐ¾Ð´":1730,"ÑĦÑĦ":1731,"Ð¸Ð°Ð½":1732,"ĠÑĦÑĥÑĤ":1733,"Ð¾Ð³Ð»Ð°ÑģÐ½Ð¾":1734,"Ð»ÐµÐ¼":1735,"ĠÐ¼ÑĥÐ½Ð¸ÑĨÐ¸Ð¿":1736,"ĠÑģÑĤÐ¾Ð»":1737,"ĠÑĢÐµÐ´":1738,"ĠÑĢÑıÐ´":1739,"ÐµÑĢÐµÐ´":1740,"Ð¸ÑĨÐ°":1741,"ĠÐ¿Ð¾ÑģÑĤÑĢÐ¾":1742,"ĠÐ½ÐµÐ¼ÐµÑĨ":1743,"ĠÐºÑĢÑĭ":1744,"ĠÑģÐ²Ð¾Ñİ":1745,"ĠÐ´Ð¾ÑĢÐ¾Ð³":1746,"ĠÐ²ÐµÐ´":1747,"ĠÑĢÐµÐºÐ¸":1748,"ÑįÑĤÐ¾":1749,"ĠÐºÐ°Ð¶Ð´":1750,"Ð¼ÐµÐ½ÑĤ":1751,"Ð¿ÐµÑĢÐ²ÑĭÐµ":1752,"ĠÑģÐ¾ÑĨÐ¸":1753,"ÐµÐ²Ð°":1754,"ĠÐ¿ÑĢÐ¸Ñĩ":1755,"Ġ30":1756,"ĠÑĤÑĢÐ°Ð½":1757,"ÑģÑĭ":1758,"ÐºÐ¾ÑĢ":1759,"ĠÐ¶ÑĥÑĢÐ½":1760,"ĠÐ½Ð¸ÐºÐ¾Ð»":1761,"Ð·Ð²":1762,"ĠÑĦÐ»":1763,"Ð²Ð¾ÑģÑĤ":1764,"ÑĨÑĥÐ·":1765,"ĠÐ¶Ð¸Ð·Ð½Ð¸":1766,"ĠÑģÑĤÐ°ÑĤ":1767,"ÑıÑĤÑģÑı":1768,"ĠÐ²ÑģÐµÐ³Ð¾":1769,"Ð¸ÑıÑħ":1770,"ĠÐ³Ð¾ÑĢÐ¾Ð´Ðµ":1771,"ÐµÑģÑĤÑĮ":1772,"ĠÑģÐ¾Ð²ÑĢÐµÐ¼":1773,"ĠÐ°Ð½Ð³Ð»":1774,"Ð¾ÐºÐ°":1775,"ĠÐ½Ð°ÑħÐ¾Ð´Ð¸ÑĤÑģÑı":1776,"Ð»Ð°ÑģÑĮ":1777,"Ð°Ð»Ð¸Ð·":1778,"ĠÑģÐ²Ð¾ÐµÐ³Ð¾":1779,"ÑģÐµÐ´":1780,"ĠÐ»ÑĥÑĩ":1781,"Ð°Ñī":1782,"ĠÐ¾ÑĤÐ½Ð¾ÑĪ":1783,"ĠÑĤÐµÑĩ":1784,"st":1785,"Ð°Ð½Ð¸Ð¹":1786,"ĠÐ¿Ð¾ÑıÐ²":1787,"ĠÐ½Ð¸":1788,"Ð°ÑĤÐ¾ÑĢ":1789,"Ġ(\"":1790,"ĠÐ»ÐµÐ½":1791,"ÑģÑĤÐ²Ð¸Ð¸":1792,"ĠÑĩÐµÑĤÑĭ":1793,"ĠÐ¿Ð¾Ð½":1794,"ÑģÑıÑĩ":1795,"ĠÐ½Ð°Ð±":1796,"ÑĥÐ²":1797,"Ð¾Ð½Ð´":1798,"Ð¾Ð±Ð¾Ð´":1799,"ĠÐ½Ð°ÑĩÐ°Ð»Ðµ":1800,"Ġo":1801,"Ð±ÑĥÑĢÐ³":1802,"ÑĨÐ¸ÐµÐ¹":1803,"ĠÑĥÑĢÐ¾Ð²":1804,"ĠÐ¿Ð¾ÑĢÑĤ":1805,"Ð¸Ð´Ð°":1806,"Ð¸ÑĩÐµÑģÐºÐ°Ñı":1807,"Ð³Ð¾ÑĤÐ¾Ð²":1808,"ĠÐ¿ÑĢÐµÐ¼":1809,"re":1810,"ÐºÐ¾Ð³Ð¾":1811,"ĠÐ°Ð·":1812,"ĠÐ¼Ð¾Ð¶Ð½Ð¾":1813,"ĠÐ¾ÑģÐ½Ð¾Ð²Ð°Ð½":1814,"Ð¸Ð½ÑģÐºÐ¾Ð³Ð¾":1815,"ĠÑģÐµÐ»Ð¾":1816,"ĠÑĨÐµÐ»":1817,"Ð¿Ð¾ÑģÐ»ÐµÐ´":1818,"ÑĢÐµÐº":1819,"ĠâĢ":1820,"Ġh":1821,"ĠÑĥÑĩÐ°ÑģÑĤÐ²":1822,"ĠÐ°Ð²ÑĤÐ¾Ð¼":1823,"ÐµÐ½Ð½Ð¾Ð³Ð¾":1824,"ĠÑģÐ¿Ð¾ÑģÐ¾Ð±":1825,"ĠÑģÐ¾Ð²ÐµÑĤÐ°":1826,"Ð½Ð°Ð¼":1827,"Ð°ÑĤÐ¾Ð²":1828,"ĠÐ´Ð²Ð¸Ð¶":1829,"ÐµÐ´ÐµÐ½Ð¸Ñı":1830,"Ð¸ÑģÐ¸Ð¼":1831,"11":1832,"000":1833,"Ð¾Ð²ÑĭÑħ":1834,"Ð½ÐµÑģ":1835,"ĠÐ¸Ð¼ÐµÐµÑĤ":1836,"ĠÐ»ÑİÐ´":1837,"ÑĭÑĩ":1838,"ÐµÐºÑĤÐ¸Ð²":1839,"ĠÐºÐ¾Ð½ÑĨÐµ":1840,"un":1841,"Ð½Ð°ÑģÐµÐ»":1842,"am":1843,"Ġl":1844,"ÑĭÐ²Ð°ÐµÑĤ":1845,"ÑĤÐµÑĢ":1846,"Ð¾Ð»Ð¾ÑĤ":1847,"ĠÑĥÐ³":1848,"ĠÐ¼Ð½Ð¾Ð³Ð¾":1849,"ĠÑģÐ²ÑıÑĤ":1850,"ĠÐ±Ð»Ð°Ð³":1851,"Ġformula":1852,"ĠÐºÐ¾Ð»Ð¸Ñĩ":1853,"ĠÑģÐµÐº":1854,"ĠÐ±Ð°Ð»":1855,"ĠÐºÐ½Ñı":1856,"Ð´Ð»Ñı":1857,"Ð·Ð´":1858,"ĠÐ°Ð±":1859,"ĠÑģÐ¾ÑħÑĢÐ°Ð½":1860,"ĠÐ¼Ð¸Ð½Ð¸ÑģÑĤ":1861,"Ð²Ð¸Ð½":1862,"ĠÑĢÐ°Ð·ÑĢÐ°Ð±Ð¾ÑĤ":1863,"ĠÐ°Ðº":1864,"ĠÑģÐ´ÐµÐ»":1865,"ĠÑĦÑĢÐ¾Ð½":1866,"ĠÑģÐ¾ÑĤ":1867,"ĠÐ´ÐµÐ½ÑĮ":1868,"ĠÑħÐ°ÑĢÐ°ÐºÑĤ":1869,"ÑĢÑĥÑĪ":1870,"ĠÐ¼ÑĥÐ·ÑĭÐº":1871,"ÑĢÐ°Ð¶Ð´Ð°Ð½":1872,"ĠÐ³Ðµ":1873,"ĠÐ¿ÑĢÐµÐ´ÑģÑĤÐ°Ð²Ð»Ñı":1874,"Ð»ÐµÐ¶":1875,"ĠÑĥÐºÐ°Ð·":1876,"ĠÑĦÑĢÐ°Ð½ÑĨÑĥÐ·":1877,"ĠÑģÐ¾Ð±ÑģÑĤÐ²ÐµÐ½":1878,"ÑģÐºÐ°Ð·":1879,"ĠÐ²ÐµÐº":1880,"ÑģÑĤÐ¾ÑıÑī":1881,"ĠÐ¿Ð°Ð¼":1882,"ĠÑģÑĤÐ°Ð»Ð°":1883,"ĠÐ´ÐµÐ¿":1884,"Ð½Ð°ÑģÐµÐ»ÐµÐ½Ð¸Ðµ":1885,"ĠÑįÑĤÐ¾ÑĤ":1886,"ĠÐ²ÑĭÐ¿Ð¾Ð»":1887,"ĠÑģÐ¾Ð¾Ð±Ñī":1888,"ĠÐ¿ÑĢÐ¾Ð²Ð¾Ð´":1889,"ĠÑĢÐ¾Ð¼":1890,"ch":1891,"Ð¸ÑĤÐµÐ»ÐµÐ¼":1892,".,":1893,"ĠÑĥÐ·":1894,"ĠÐ¸ÑģÐºÑĥÑģ":1895,"ÑĥÐ´Ð°":1896,"Ġ(Â«":1897,"ĠÐ¿ÑĢÐ¾ÐµÐºÑĤ":1898,"ĠÑģÐ²Ð¾Ð¹":1899,"Ð¼Ð¸Ð½":1900,"Ð°Ð»ÑĮÐ½Ð¾Ðµ":1901,"Ð½Ñİ":1902,"ĠÑĨÐµÑĢÐºÐ²":1903,"Ð¾ÑģÑĤÐ¾":1904,"Ð¾ÑģÐ»Ð°Ð²":1905,"om":1906,"ÑģÐ¾":1907,"ĠÐ¼Ð¾Ð»Ð¾Ð´":1908,"ĠÑĢÐ°Ð±Ð¾ÑĤÑĭ":1909,"ĠÐ¼Ð°Ð³":1910,"Ð»Ñĥ":1911,"Ð°Ð½Ð¸Ñİ":1912,"et":1913,"ol":1914,"ĠÐ¼Ð°ÑĤÐµÑĢÐ¸":1915,"ĠÑģÐ²ÑıÐ·Ð¸":1916,"Ð³Ð°ÑĢ":1917,"ĠÑģÐ¾Ð²ÐµÑĢÑĪ":1918,"ĠÐ½ÐµÐ·":1919,"ĠÐ¿ÑıÑĤ":1920,"ĠÑĢÐ°ÑģÑģ":1921,"ÑĦÐµÑĢ":1922,"ĠÐ²ÑħÐ¾Ð´Ð¸ÑĤ":1923,"ĠÐ²ÑģÑĤÑĢÐµÑĩ":1924,"ĠÑĢÐµÐ³Ð¸Ð¾Ð½":1925,"Ð¸Ð¼Ð¿":1926,"30":1927,"Ð°Ð»Ð¾Ð³":1928,"ĠÐ±ÑĢÐ°":1929,"Ð¾Ð¶Ð¸Ð²":1930,"ĠÐ½Ð°Ð¿Ð¸Ñģ":1931,"ĠÐ¼Ð°ÑģÑģ":1932,"ĠÐ±ÑĭÐ²":1933,"Ð¸Ð·Ð¼":1934,"ĠÐ¼Ð¾Ð¼":1935,"ĠÑĥÐ½Ð¸Ð²ÐµÑĢÑģÐ¸ÑĤÐµÑĤ":1936,"ÑģÐ°Ð¼":1937,"Ð¾Ð±ÑĢÐ°Ð¶":1938,"ĠÐ¿ÑĢÐ¸Ðº":1939,"Ð¾ÐºÑĢÐ°ÑĤ":1940,"ÑıÐ²Ð»Ñı":1941,"Ġ11":1942,"il":1943,"ĠÐºÐ°ÑĢÑĤ":1944,"ÑĥÑĤÑģÑĤÐ²":1945,"ĠÐ¸ÑģÐ¿Ð¾Ð»Ð½":1946,"Ġ189":1947,"ÐµÐ·Ð´Ð°":1948,"Ð°Ðµ":1949,"ĠÐ¿Ð¾Ð·Ð²Ð¾Ð»":1950,"ĠÑĨÐµÐ½ÑĤÑĢÐ°Ð»ÑĮ":1951,"ĠÑģÐ¾Ð¿":1952,"ÑģÐºÐ¸Ð¼Ð¸":1953,"ĠÑĤÐ¾Ñĩ":1954,"ÑĢÐ°Ð·Ð´":1955,"ĠÐºÐ¾":1956,"ÑĢÐ¾ÑģÑĤÑĢÐ°Ð½":1957,"ĠÑģÑĤÑĥÐ´":1958,"ĠÐ±Ð°Ð·":1959,"ĠÐ¿ÑĢÐ¾Ð±":1960,"ÑģÑĤÑĢÐ¾":1961,"ĠÑģÐ¾Ð´ÐµÑĢÐ¶":1962,"ĠÐ»Ð¸ÑĪÑĮ":1963,"ĠÑģÑĤÑĢÐ¾Ð¸ÑĤÐµÐ»ÑĮ":1964,"ĠÐ¿ÑĢÐ¸Ð³":1965,"ĠÐºÐ¾ÑĢÐ°":1966,"ĠÐ¸ÑģÑĤÐ¾ÑĢÐ¸Ð¸":1967,"Ð¾Ð²Ð°Ð»Ð¸":1968,"ÑĩÑĳÑĤ":1969,"ĠÐ¼Ð¸ÑĢÐ¾Ð²":1970,"ĠÑħÐ¾ÑĤ":1971,"ĠÐ¿ÐµÑĢÐ²Ð¾Ð¹":1972,"ĠÑįÑĤÐ°":1973,"ĠÑĤÑĢÐ°":1974,"ion":1975,"ĠÐºÑĢÐµÑģÑĤ":1976,"Ð¾Ð»Ð¾Ð³Ð¸Ð¸":1977,"ĠÐ²Ð¾ÑģÑģÑĤ":1978,"ĠÐ°Ð²ÑĤ":1979,"ĠÐºÑĥÐ±":1980,"ĠÑħÐ¾ÑĢ":1981,"Ð¿ÐµÑĤ":1982,"ĠÐ´Ð°Ð»ÑĮ":1983,"ÑĤÐ¾ÑĢÐ¾Ð¼":1984,"ĠÐºÐ¾ÑĢÐ¿":1985,"ĠÐ¿ÐµÑĢÐ²ÑĭÐ¹":1986,"Ð°Ð´Ð°":1987,"Ð¸Ð½ÑģÐºÐ¸Ð¹":1988,"ÑĥÑģÐ°":1989,"ĠÐ¾Ð±ÑĢÐ°Ð·Ð¾Ð¼":1990,"ÑĪÐ¸Ð¼":1991,"ĠÐ²ÐµÐ½":1992,"Ð¸ÐºÑĥ":1993,"ĠÐµÐ¿":1994,"ĠÑģÐµÑĢÐµ":1995,"Ð¾ÑĤÑĭ":1996,"Ð¸ÑĤÐµÐ»Ñı":1997,"ĠÑģÐ¾Ð±Ð¾Ð¹":1998,"ĠÐ¿ÑĢÐ¾Ð¼":1999,"ĠÐ³ÑĢÐ°Ð¶Ð´Ð°Ð½":2000,"ĠÐ¸Ð¼ÐµÐ½Ð¸":2001,"ÑģÐ»Ð¸":2002,"ĠÐ¾ÑĤÐ¿ÑĢÐ°Ð²":2003,"ÑĦÐ¾ÑĢÐ¼Ð°":2004,"Ð¸ÑģÐ°":2005,"ĠÐ¾ÑģÑĤÐ°Ð²":2006,"ĠÐ²Ð¾Ð¿":2007,"ĠÐ½ÐµÐ³Ð¾":2008,"ĠÑģÐ¸Ð½":2009,"Ð½Ð¸Ñĩ":2010,"ĠÐ¸Ñģ":2011,"ĠÑĢÐ¾ÑģÑģÐ¸Ð¹ÑģÐºÐ¾Ð¹":2012,"Ð°Ð»ÑĮÐ½Ð°Ñı":2013,"ĠÐ²ÑĭÐ±":2014,"ĠÑĤÑĢÑĥÐ´":2015,"ĠÐ¾ÑģÐ²":2016,"Ð»ÐµÐº":2017,"ÐµÑĢÐ±":2018,"ĠÑĢÐµÐ·ÑĥÐ»ÑĮÑĤÐ°ÑĤÐµ":2019,"ÐµÑģÑĤÐ¸":2020,"ĠÐ°Ð´Ð¼Ð¸Ð½Ð¸ÑģÑĤÑĢÐ°ÑĤÐ¸Ð²":2021,"ÑģÑĢÐµÐ´":2022,"Ð¾Ð½Ð¸":2023,"Ġ2011":2024,"ĠÐ³Ð»":2025,"ĠÑĦÐ¸Ð»":2026,"Ð¾ÑĢÐ¾Ð¶":2027,"ĠÑĢÐµÐ¶":2028,"ĠÐ·Ð°Ñħ":2029,"ĠÐ¾ÑĤÐºÑĢÑĭÑĤ":2030,"ĠÐ¼Ð¸Ð»":2031,"Ð¸ÑħÐ°":2032,"ĠÑģÐ¸Ð»ÑĮ":2033,"ĠÑĤÑĢÐµÑĤ":2034,"Ġ2008":2035,"ÑĤÑĭ":2036,"ĠÐ´Ð°Ð½Ð½ÑĭÐ¼":2037,"Ð¾ÑģÐ½Ð¾Ð²":2038,"Ð¾Ð¶Ð´ÐµÐ½Ð¸Ñı":2039,"Ġ2012":2040,"ÑĪÐ¸Ðµ":2041,"Ġ2009":2042,"ĠÐ¿ÑĢÐµÐ´Ð¿ÑĢ":2043,"ÐµÐ½ÑĤÐ¾Ð²":2044,"Ġ-":2045,"ĠÑıÐ¿Ð¾Ð½":2046,"ÑĮÐµÑĢ":2047,"ÐµÑĢÐ¸Ð¸":2048,"ÑĢÐ¸Ð²":2049,"ĠÐ²Ð¸Ð´Ðµ":2050,"ĠÑģÐ²Ð¾Ð¸Ñħ":2051,"Ð¸ÑĢÐ¾Ð²Ð°Ð»":2052,"Ġ2007":2053,"Ð¶ÐµÐ½":2054,"ĠÐ´Ð¾Ð¿":2055,"ĠÐ´ÑĢÑĥÐ³Ð¸Ðµ":2056,"ĠÐ²Ð½ÑĥÑĤ":2057,"Ð¸Ð±Ð¾Ð»":2058,"ĠÐºÐ¾ÑĢÐ°Ð±":2059,"ĠÐ¿Ð¾Ð»Ð¾Ð¶":2060,"ĠÐ¾ÑĩÐµÐ½ÑĮ":2061,"ĠÐ²ÑĭÑħÐ¾Ð´":2062,"ÑĢÐ¸Ð´":2063,"ĠÐ½ÐµÐ¹":2064,"ÑĢÑĥÐº":2065,"Ð»ÐµÐ½Ñĭ":2066,"ÑģÐºÐ°":2067,"ĠÐ·Ð°Ð±":2068,"ĠÐ¿ÑĢÐ¾ÑĨÐµÑģÑģ":2069,"ĠÑĢÐ°ÑģÑĤ":2070,"Ð»Ð¸Ñı":2071,"Ð¸Ð±Ð¾Ð»ÐµÐµ":2072,"ÐµÑģÑĤÐ²ÐµÐ½Ð½Ð¾Ð¹":2073,"ÐµÐ»Ð°":2074,"Ð±Ðµ":2075,"ĠÐ°ÑĦ":2076,"ĠÑĤÑĭÑģÑıÑĩ":2077,"ĠÐ²Ð¾Ð·ÑĢÐ°ÑģÑĤ":2078,"Ð¿Ð¸ÑģÐ¸":2079,"ÑĢÐ°ÑĤÑĮ":2080,"Ð¸Ð½Ð¾Ð¹":2081,"ĠÐ½Ð°ÑģÑĤÐ¾ÑıÑī":2082,"ĠÐ¸Ð·Ð¼ÐµÐ½":2083,"ĠÐ´ÐµÐ¼":2084,"Ð»Ð¾Ð½":2085,"ĠÐ²Ð¾ÑģÑĤÐ¾Ñĩ":2086,"ĠÑĢÐ°ÑģÐ¿ÑĢÐ¾ÑģÑĤÑĢÐ°Ð½":2087,"ĠÑĢÐ°Ð±":2088,"ĠÐ¼Ð°Ð½":2089,"ÐµÐ½ÐºÐ¾":2090,"ĠÑģÑĤÐ°Ð»Ð¸":2091,"ĠÐ´ÑĢÐµÐ²":2092,"ĠÐ²ÐµÑĢÑģ":2093,"Ġii":2094,"ĠÐ°Ð¿":2095,"199":2096,"ĠÑĤÐµÑħÐ½":2097,"ĠÐ¿ÑĢÐ¾Ñģ":2098,"ĠÑĢÐ¸Ð¼":2099,"Ð¸Ð½ÑģÐºÐ¾Ð¹":2100,"Ð¾ÑıÐ½":2101,"ĠÑĢÐ°Ð±Ð¾ÑĤÐ°Ð»":2102,"ĠÐ½ÐµÐ²":2103,"ĠÐ¿ÑĢÐ¸Ð¼ÐµÐ½":2104,"Ð¾Ñħ":2105,"ĠÐ½Ð¾Ñģ":2106,"ĠÐ»ÐµÑģ":2107,"ĠÐ±Ð¾ÐµÐ²":2108,"Ð¾Ð²Ð°ÑĤÐµÐ»ÑĮ":2109,"Ð²ÑĢÐ°Ñī":2110,"ÑģÑĤÑĢ":2111,"ĠÐ°Ð²Ð¸":2112,"Ð²Ð¾Ð»Ñİ":2113,"Ð´Ñĥ":2114,"ÐºÑĥÑĢ":2115,"ur":2116,"ĠÑĨÐµÑĢÐºÐ²Ð¸":2117,"Ð²Ð°ÑĢÐ´":2118,"Ð¸ÑħÑģÑı":2119,"ĠÐ»Ð¸ÑĤÐµÑĢÐ°ÑĤ":2120,"ĠÑĢÐ°Ð²":2121,"Ġ2006":2122,"ĠÐ¾Ð´Ð½Ð¾Ð¹":2123,"Ð°ÑĤÐ¸Ð²":2124,"ĠÑħÐ°ÑĢÐ°ÐºÑĤÐµÑĢ":2125,"as":2126,"ĠÑĤÐ°Ð¼":2127,"Ġ24":2128,"Ð½ÑıÑı":2129,"Ġ(;":2130,"Ð·Ð°Ð¿Ð°Ð´":2131,"ĠÐºÐ¾ÑĤÐ¾ÑĢÐ¾Ð¼":2132,"Ð¸Ð¼Ð¾":2133,"Ð¸ÑģÐºÐ¾Ð¿":2134,"ĠÐ³ÑĢÐ°ÑĦ":2135,"Ð¾Ð²Ð¸Ñĩ":2136,"ĠÐºÐ¾Ð¼Ð¼Ñĥ":2137,"ÑĥÐµÑĤÑģÑı":2138,"ĠÑģÐµÐ²ÐµÑĢÐ¾":2139,"ĠÐ·Ð°ÐºÐ»ÑİÑĩ":2140,"ÑĢÐµÐ³":2141,"Ð¿ÑĢÐ¾":2142,"ĠÐ²Ð¾Ð·Ð´":2143,"Ð¸ÑĤÑĥÑĤ":2144,"Ġxv":2145,"ÑĢÐ¾Ð»":2146,"ĠÐ°Ð½Ð´":2147,"ĠÑĥÑģÐ»Ð¾Ð²":2148,"Ð½ÑĮ":2149,"ĠÑĢÐ°Ð´Ð¸":2150,"ĠÐ¾Ð±ÑĬÐµÐ´Ð¸Ð½":2151,"50":2152,"ĠÐ·Ð°Ð¿Ð¸Ñģ":2153,"ĠÐ¿ÑĢÐ¸Ð½Ð¸Ð¼":2154,"ĠÐ±Ð°ÑĢ":2155,"ĠÐ°Ð³":2156,"Ð½ÑĥÐ»":2157,"ÐºÐ°Ðº":2158,"ĠÐ¿Ð°ÑĢÐ°":2159,"ÑĨÐ¾Ð²":2160,"ĠÐ·Ð°Ñı":2161,"ÑĥÐ½ÐºÑĤ":2162,"Ð½Ð°ÑĢ":2163,"ÑĢÐµÐ·":2164,"Ð°ÑĤÐµÐ»ÐµÐ¹":2165,"ĠÐ¾Ð¿Ð¸Ñģ":2166,"ĠÑģÑĤÑĢÐ°Ð½Ñĭ":2167,"ĠÑĨÐµÐ½ÑĤÑĢ":2168,"ĠÐ¿Ð°":2169,"ĠÑĨÐµÑĢÐºÐ¾Ð²":2170,"ĠÐ¾Ð´Ð½Ð¸Ð¼":2171,"ÑĩÐ¸Ð²":2172,"ĠÐ»Ð¸Ñĩ":2173,"ĠÐ´ÐµÑĢÐµÐ²Ð½Ñı":2174,"Ð»ÐµÐ½Ð¸Ð¸":2175,"ĠÐ´Ð²Ð¾ÑĢ":2176,"ÑĢÐ°Ð½Ð¸Ñĩ":2177,"ĠÐ¿ÑĢÐ°ÐºÑĤ":2178,"ĠÐ»ÐµÐ²":2179,"ÑĨÐµ":2180,"ĠÐ²ÑĭÐ¿ÑĥÑģÐº":2181,"ÑĥÐ»ÑıÑĢ":2182,"Ð»Ð°ÑĪ":2183,"Ð»ÐµÐ½Ð°":2184,"Ð¾ÑĤÐ¸Ð²":2185,"ĠÑĥÐºÑĢÐ°Ð¸Ð½Ñĭ":2186,"Ð°Ð½ÑĮ":2187,"ĠÑĦÐ¸Ð»ÑĮÐ¼":2188,"ÑĥÐ¼Ð°":2189,"Ð¾ÑģÑĤÐ°Ð²":2190,"ĠÐ¿Ð¾ÑįÑĤ":2191,"ÐµÐ½Ñģ":2192,"Ð²Ð¾Ð·":2193,"ĠÐ¿Ð¾ÑģÑĳÐ»":2194,"Ð¸ÑĩÐµÑģÐºÐ¾Ðµ":2195,"ĠÐ´Ð°Ð¶Ðµ":2196,"ĠÐ¿ÐµÑĢÑģ":2197,"ĠÐºÐ¸Ð½":2198,"Ġ188":2199,"ĠÐ´ÐµÐ²":2200,"ĠÐ±ÐµÑĢ":2201,"ĠÐ¸Ð¼Ð¿ÐµÑĢÐ°":2202,"ĠÐ¿Ð°ÑĤ":2203,"Ð°ÑĤÐµÐ»Ñı":2204,"Ð¼Ð°ÑĢ":2205,"ÑįÐ¹":2206,"Ð°Ð»Ð¾Ð²":2207,"ĠÑģÐ¾Ð·":2208,"Ð°Ð½Ð³":2209,"ing":2210,"ĠÐ¿ÑĢÐ¾ÑĪ":2211,"ÐµÑģÐ¿ÐµÑĩ":2212,"Ð¸ÑĨÐµ":2213,"ĠÐ¿ÑĢÐ¾ÑħÐ¾Ð´":2214,"ĠÐ¿ÑĥÐ½ÐºÑĤ":2215,"Ð°ÑĨÐ¸Ð¸":2216,"Ġ22":2217,"ĠÐ¾ÑĢÐ³Ð°Ð½Ð¸Ð·":2218,"ac":2219,"ĠÑĤÐ¸":2220,"ÑĥÐ½Ð´":2221,"ĠÐ¿ÑĢÐ¾Ð²Ð¸Ð½":2222,"ÑĩÐ¸ÑģÐ»ÐµÐ½":2223,"Ġe":2224,"ĠÐ¼Ð¾Ð³ÑĥÑĤ":2225,"ÐºÐ°Ð¼":2226,"ÑĤÐµÐ½":2227,"ĠÐ¿ÑĢÐ¾Ð¶Ð¸Ð²":2228,"Ð¸Ð»Ð¸Ñī":2229,"Ð¸ÑĩÐµÑģÐºÐ¸Ð¼":2230,"Ġthe":2231,"ĠÐ¿Ð°Ð¼ÑıÑĤ":2232,"Ð²Ð¸Ð´":2233,"ĠÑħÐ¾Ð·ÑıÐ¹":2234,"ĠÐ¼Ð»":2235,"Ġ186":2236,"ĠÑģÐ½":2237,"ĠÐ°ÑĤ":2238,"ĠÐ»ÐµÐ³":2239,"ĠÐ¿ÑĢÐ¸Ñħ":2240,"ÑĭÑĪÐ»ÐµÐ½":2241,"ĠÐ³Ð¾Ð²Ð¾ÑĢ":2242,"ĠÑİÐ³Ð¾":2243,"âĢ¦":2244,"ĠÑĦÐ°Ðº":2245,"ĠÐ¼Ð¸ÑĢ":2246,"ĠÑĢÐµÑģÐ¿ÑĥÐ±Ð»Ð¸ÐºÐ¸":2247,"Ġ2013":2248,"ĠÐ°Ð¼":2249,"ĠÐ½Ð°ÑĩÐ°Ð»Ð°":2250,"ĠÐ²Ð¾Ð¿ÑĢÐ¾Ñģ":2251,"Ġ(,":2252,"ĠÐ¾ÑĦÐ¸ÑĨÐ¸":2253,"ĠÐ¾Ð±ÑĭÑĩ":2254,"ĠÐ³Ð°Ð»":2255,"ÑĪÐ¸ÑĢ":2256,"ĠÐ´Ð°Ð²":2257,"ĠÐ½ÐµÐ¾Ð±":2258,"Ð¸Ð¹ÑģÐºÐ¾Ð³Ð¾":2259,"ĠÐ¾ÑĤÐ´ÐµÐ»ÑĮ":2260,"ÑģÐ¸Ð¼":2261,"ĠÑĩÐµÐ³Ð¾":2262,"ĠÐ¾Ð±ÑĢÐ°Ð·Ð¾Ð²Ð°Ð½":2263,"ĠÐ±ÑĢÐ¸ÑĤ":2264,"ÐºÑĢÐ¾Ð¼Ðµ":2265,"ĠÑģÐ¼ÐµÑĢÑĤÐ¸":2266,"ÑĮÑıÐ½":2267,"Ð¾ÑĢÐ¸Ñı":2268,"Ð¾ÑĢÐ¸":2269,"ÑĢÑĥÐºÑĤ":2270,"ĠÐ·Ð°ÑīÐ¸ÑĤ":2271,"ĠÐ³Ð³":2272,"ÑıÐµÑĤÑģÑı":2273,"ĠÐ¸Ð³ÑĢÐ¾Ðº":2274,"Ð°Ð½Ðµ":2275,"ĠÐ¾Ð±ÐµÑģÐ¿ÐµÑĩ":2276,"ĠÑģÐ¾ÐµÐ´Ð¸Ð½":2277,"Ð±Ð¾":2278,"ÑıÐµÑĤ":2279,"ĠÐ¸Ð½ÑģÑĤÐ¸ÑĤÑĥÑĤ":2280,"ĠÐ¿ÑĢÐ¸Ð·Ð½":2281,"ĠÑĤÐµÑĩÐµÐ½Ð¸Ðµ":2282,"Ð¸Ð·Ð²ÐµÑģÑĤ":2283,"Ð½Ð¾Ð´":2284,"ĠÑĤÑĢÑĳÑħ":2285,"ĠÐºÐ°Ð»":2286,"ÑģÑĥ":2287,"ĠÐ¿Ñģ":2288,"Ð¸Ð»Ð¸Ñı":2289,"ÑĤÑĥ":2290,"Ð¾Ð»Ð°Ð³":2291,"Ġ2014":2292,"Ġ23":2293,"Ð°Ð»Ð¸Ð¸":2294,"ĠÐ¿Ð»Ð¾ÑīÐ°Ð´ÑĮ":2295,"Ð»Ñĭ":2296,"ĠÑįÑĤÐ¸Ñħ":2297,"194":2298,"ÐµÑĤÐµ":2299,"Ð¾ÑĢÑĤÐ°":2300,"ĠÑģÐµÐ»ÑĮÑģÐ¾Ð²":2301,"ÑģÐ¼Ð¾ÑĤ":2302,"Ġ2001":2303,"ĠÑĪÐ¸ÑĢÐ¾Ðº":2304,"ÑģÑĢ":2305,"25":2306,"ÐµÑĤÑĮ":2307,"ÐµÐºÑĤÐ°":2308,"ĠÑģÑĤÐ¾ÑĢÐ¾Ð½Ñĭ":2309,"ĠÐ²Ð°Ñģ":2310,"ĠÐ½Ð°Ð·Ð½Ð°ÑĩÐµÐ½":2311,"ÑĢÐµÐ¶Ð´":2312,"ĠÐ´Ð¾Ñĩ":2313,"ĠÑģÐ¾Ñģ":2314,"ĠÑĢÐ¾Ð»ÑĮ":2315,"Ð°ÑģÑĤÑĭ":2316,"Ð°Ð½ÑĤÐ°":2317,"ĠÐ¼Ð°ÑĪ":2318,"Ð¸ÑģÑĤÐ¾Ð²":2319,"ĠÑĦÑĥÐ½Ðº":2320,"ĠÑĤÐ¾ÑĤ":2321,"ĠÐ·Ð°Ð´":2322,"Ġxi":2323,"ĠÐºÐ¸ÑĤ":2324,"ĠÑĢÐµÐ¹":2325,"ĠÑĤÑĢÐµÐ±":2326,"Ð²ÐµÑĢÐ¶Ð´":2327,"ĠÐ±ÑĢÐ¾Ð½":2328,"Ð¿ÑĢÐµÐ´":2329,"Ð°Ð´Ð»ÐµÐ¶":2330,"Ð¸ÐºÐ¾":2331,"ĠÐ²Ð½Ðµ":2332,"ĠÐ¾Ñħ":2333,"ĠÐ¼Ð¾Ð¼ÐµÐ½ÑĤ":2334,"Ġ2000":2335,"ĠÐ³ÑĢ":2336,"ĠÐ¿ÐµÑĢÐµÐ¿Ð¸ÑģÐ¸":2337,"ÐµÑĢÑħ":2338,"ĠÐ½Ð°ÑĩÐ°Ð»ÑĮ":2339,"Ð¼Ð¾":2340,"ĠÑģÐ¾ÑĤÑĢÑĥÐ´":2341,"ĠÐ¾ÑĤÑģ":2342,"ĠÑıÐ²Ð»ÑıÑİÑĤÑģÑı":2343,"ÐµÑĢÐ°Ð»ÑĮ":2344,"Ð¿Ð¾Ñĩ":2345,"ĠÑĦÑĥÑĤÐ±Ð¾Ð»":2346,"ĠÑģÐºÐ¾ÑĢ":2347,"Ġ187":2348,"ĠÐ¾ÑĤÐµÑĩ":2349,"ĠÑĦÐ¸Ð·":2350,"Ġ26":2351,"ĠÐ·Ð°Ð»":2352,"ĠÐ´Ð»Ð¸Ð½":2353,"ÑģÑĤÐ²Ñĥ":2354,"ÑıÐ±ÑĢÐµ":2355,"ĠÐ±Ð»":2356,"Ð¸ÑĢÐ¾Ð²Ð°Ð½Ð¸Ñı":2357,"Ð¾Ð·Ð½Ð°Ñĩ":2358,"id":2359,"ĠÐ°Ð²ÑĤÐ¾ÑĢ":2360,"Ð»ÐµÐ½Ð¸ÐµÐ¼":2361,"ĠÐ¿ÑĢÐ¾Ð¸Ð·":2362,"ĠÐ¿ÑĢÐµÐ´Ð»Ð¾Ð¶":2363,"Ð¾Ð²ÑĭÐµ":2364,"ĠÐ¾Ð±Ð»Ð°ÑģÑĤÑĮ":2365,"Ð¾Ð²Ð¾":2366,"ĠÐ½ÐµÐ±Ð¾Ð»ÑĮÑĪ":2367,"ĠÐºÐ¾ÑĢÐ¾Ð»ÐµÐ²":2368,"ĠÐ¾ÐºÑĢÑĥÐ³Ð°":2369,"ĠÐ¿Ð°Ð»":2370,"ĠÐ·Ð°ÐºÐ¾Ð½":2371,"ĠÐ´ÐµÑģÑı":2372,"ĠÑĢÐ°Ð±Ð¾Ñĩ":2373,"ÑįÑĢ":2374,"ĠÐ´Ð²Ðµ":2375,"ĠÑĢÐ°Ð·Ð´ÐµÐ»":2376,"Ð°Ð½Ð´Ð°":2377,"ĠÐ¿Ð¾ÑģÐµÐ»ÐµÐ½Ð¸Ñı":2378,"ÑĨÐµÐ½ÑĤ":2379,"ĠÐºÑĢÐ¸ÑĤ":2380,"ĠÐ·Ð°ÑıÐ²":2381,"ĠÐ»Ñĥ":2382,"ÑİÑĢ":2383,"ĠÐ·Ð¾Ð»Ð¾ÑĤ":2384,"ĠÐ¾ÑģÑĥÑīÐµÑģÑĤÐ²":2385,"ĠÐ¼ÐµÐ½ÐµÐµ":2386,"ĠÐ²Ð°Ð»":2387,"ĠÑģÐ¾ÑİÐ·Ð°":2388,"Ð°Ð»ÑĮÐ½ÑĭÐ¼":2389,"ĠÑģÐ¿Ð¾ÑĢÑĤ":2390,"ĠÐ¼Ñĭ":2391,"ĠÑģÐ²Ð¾Ð¸":2392,"ĠÐ¿Ð¾ÑģÑĤÑĥÐ¿":2393,"ĠÑĥÐ¼ÐµÑĢ":2394,"Ð±ÑĭÐ»":2395,"ĠÐ±ÑĥÐ´ÐµÑĤ":2396,"Ð¾Ð²Ð¾Ð³Ð¾":2397,"ĠÐ»Ð¸Ð³":2398,"Ð°ÑĤÐ¾Ð¼":2399,"ĠÑģÑĤÐ°Ð½Ð¾Ð²":2400,"ĠÑģÐµÐ»ÑĮÑģÐºÐ¾Ð³Ð¾":2401,"Ð¸Ð¹ÑģÐºÐ¸Ð¹":2402,"Ġ28":2403,"Ð°ÑĤÐµÐ»ÐµÐ¼":2404,"ĠÐ¾Ð»Ð¸Ð¼Ð¿":2405,"ĠÐ¾ÑĤÐºÑĢÑĭ":2406,"ĠÐ¿ÑĢÐ¸Ð½Ð°Ð´Ð»ÐµÐ¶":2407,"ĠÐ½ÐµÐ¾Ð±ÑħÐ¾Ð´":2408,"ÑĳÐ½Ð½ÑĭÐ¹":2409,"ĠÑģÑĤÑĢÐµÐ»":2410,"ĠÐ´ÑĥÑħ":2411,"ĠÐ²ÑĭÐ¿Ð¾Ð»Ð½":2412,"ĠÑģÐ»Ð¾Ð¶":2413,"ĠÑĢÐ°Ð·Ð¼":2414,"ĠÐ½Ð°ÑĩÐ¸Ð½":2415,"Ð½Ð°ÑĢÑĥÐ¶":2416,"Ð°Ð½Ñģ":2417,"ĠÐ²Ð¾Ð¾ÑĢÑĥÐ¶":2418,"ad":2419,"ĠÑĢÐ°ÑģÐ¿Ð¾Ð»Ð°Ð³":2420,"Ġ2005":2421,"ĠÐ»ÐµÐ¹":2422,"Ð°Ð´Ñĭ":2423,"Ġ27":2424,"ÑģÐºÐ¾ÑĢÐµ":2425,"ÑģÐ²":2426,"Ð¸ÑĢÐµ":2427,"ĠÐ´ÑĢ":2428,"ĠÐ±ÑĢÐ°ÑĤ":2429,"ÑĩÐ¸Ðº":2430,"ĠÑģÐ²Ð¾Ð±Ð¾Ð´":2431,"ÐµÐ½Ð½Ð°Ñı":2432,"ĠÐºÐ¾Ñģ":2433,"Ġin":2434,"ÐµÐºÑģÑĤ":2435,"ĠÑģÑĤÐ°ÑĤÑĮ":2436,"Ð¼ÐµÑĩ":2437,"ĠÐºÐ°Ð²":2438,"Ð³Ð¾Ð´":2439,"ĠÑģÐ²ÐµÑĤ":2440,"ĠÑģÐ¾ÑİÐ·":2441,"ĠÐ´Ð¾ÑģÑĤÐ¸Ð³":2442,"ÑĢÐ°Ð²Ð½":2443,"Ð¸Ð¹ÑģÐºÐ¾Ð¹":2444,"ĠÐ³ÐµÑĢÐ¼":2445,"ĠÑĦÑĢÐ°Ð½ÑĨÐ¸Ð¸":2446,"ÑįÐº":2447,"and":2448,"ÑĪÑĤ":2449,"Ð»ÑĥÑĩ":2450,"Ð°Ð½ÑģÐºÐ¾Ð¹":2451,"ĠÐ¿ÑĢÐµÐ´ÑģÐµÐ´":2452,"ÑģÐ¾Ð³Ð»Ð°ÑģÐ½Ð¾":2453,"ÑĳÐ½Ð½ÑĭÐµ":2454,"ĠÐ¼Ð°ÑģÑĤ":2455,"Ð¸Ð¼ÐµÐ½":2456,"ÐºÐ¸Ð½":2457,"ĠÐ¾Ð±Ð¾ÑĢÐ¾Ð½":2458,"ÐºÐ¸Ðµ":2459,"ĠÐ¸Ð·Ð¾Ð±ÑĢÐ°Ð¶":2460,"198":2461,"Ð´Ð°ÑİÑī":2462,"ĠÐ½ÐµÑģÐºÐ¾Ð»ÑĮ":2463,"Ð³ÐµÑĢ":2464,"ĠÑĩÐµÑĤ":2465,"ĠÐºÐ¾Ð¼Ð¿Ð¾Ð·":2466,"ÑĢÐµÑģÑģ":2467,"ĠÐ¸Ð´":2468,"ĠÑĢÑĥÐ±":2469,"âĢĻ":2470,"ĠÐ»Ð¸Ð±":2471,"Ġ100":2472,"ÑģÐ¼Ð¾ÑĤÑĢÑı":2473,"Ð¸ÐµÑģÑı":2474,"ÐµÑı":2475,"ÐºÐ»":2476,"ĠÐ¼Ð¸Ðº":2477,"ĠÐ¼Ð°ÑĢÑĤ":2478,"ĠÐ°ÑĢÑħÐ¸ÑĤ":2479,"Ġ1941":2480,"Ð½Ð¸Ð¸":2481,"Ġ2004":2482,"ÑĢÐ°Ñĩ":2483,"ĠÐ·Ð°Ð²ÐµÑĢÑĪ":2484,"ĠÑĥÐ¼":2485,"ĠÑģÐ¸ÑģÑĤÐµÐ¼Ñĭ":2486,"Ð´Ð°ÐµÑĤ":2487,"ÐµÑĩÐ°ÑĤ":2488,"Ð¸Ð²Ð°ÐµÑĤ":2489,"ÐµÐ»Ð¸Ñĩ":2490,"ĠÐ²Ð¿ÐµÑĢÐ²ÑĭÐµ":2491,"ÑĩÐ°ÑģÑĤ":2492,"ĠÑĩÐ°Ñģ":2493,"Ð°Ð²Ð¸ÑģÐ¸Ð¼":2494,"Ð°Ð²ÑĪÐ¸Ð¹":2495,"Ð¼Ð¸ÑĤ":2496,"ĠÑĤÐ¾ÑĢÐ³Ð¾Ð²":2497,"ot":2498,"ĠÐ¿ÑĢÐ¸Ð½Ñı":2499,"ĠÐ¿Ð¾Ð»ÑĮÐ·":2500,"ĠÑĤÑĢÑĥ":2501,"ĠÑģÐ°Ð¼Ð¾Ð»":2502,"ĠÐ¼ÐµÑģÑı":2503,"ĠÐ²Ð°Ð¶":2504,"ĠÐ¼Ð¾Ð½Ð°ÑģÑĤÑĭ":2505,"ĠÑĨÐ²ÐµÑĤ":2506,"ĠÑĩÐ°ÑģÑĤÐ¾":2507,"ĠÑħÐ¾Ð´Ðµ":2508,"ĠÑģÐµÐ¼ÐµÐ¹":2509,"ĠÐ¾Ð´Ð½Ð¾Ð³Ð¾":2510,"Ð½Ð¾Ð²ÑĮ":2511,"ĠÑĥÐ½Ð¸Ð²ÐµÑĢÑģÐ¸ÑĤÐµÑĤÐ°":2512,"ĠÐ¼ÐµÑħ":2513,"Ġ2015":2514,"ĠÐµÑģÐ»Ð¸":2515,"ĠÐ¾ÑĢÐ³Ð°Ð½Ð¸Ð·Ð°":2516,"Ð¾Ð¼ÐµÑĤ":2517,"ĠÑģÑĥÐ¼":2518,"ĠÐ¿Ð°ÑĢÑĤÐ¸Ð¸":2519,"Ð»Ð°Ð¼":2520,"ent":2521,"iii":2522,"ÑģÐ¾Ð½":2523,"ĠÐ»Ð¸ÑĨ":2524,"ĠÐ¿Ð°Ð²":2525,"ĠÐ¾Ð´Ð½Ð¾":2526,"ĠÐ¿Ð¾Ð»Ñĥ":2527,"ĠÐ±Ð¾":2528,"ĠÐ±Ð¾Ñı":2529,"Ð°ÑĦ":2530,"ĠÐ²Ð»Ð¸Ñı":2531,"ĠÑĦÐµÐ´ÐµÑĢÐ°ÑĨÐ¸Ð¸":2532,"ĠÐºÐ¾Ð¼Ð¿Ð»":2533,"Ð±ÐµÑĢ":2534,"ĠÐ¸Ð³ÑĢÐ°":2535,"ÑĢÐ°Ðº":2536,"Ġ21":2537,"Ð·Ð°Ð½":2538,"Ð¸Ð¹ÑģÐºÐ¸Ñħ":2539,"Ð¾ÑıÑĤ":2540,"Ð¾Ð·Ð°":2541,"ĠÐ²ÑĭÐ¸Ð³":2542,"Â»)":2543,"ĠÐ²ÑģÑĳ":2544,"ĠÐ¿Ð¾Ð»Ð¾Ð²":2545,"ĠÐ¸Ð·ÑĥÑĩ":2546,"ĠÐºÐ½ÑıÐ·":2547,"ĠÐ¸Ð½ÑĦÐ¾ÑĢÐ¼Ð°":2548,"Ġk":2549,"ĠÑĩÐ¸ÑģÐ»Ð¾":2550,"ĠÐºÐ¾Ð¼Ð°Ð½Ð´Ñĭ":2551,"ÑĢÐµÑĪ":2552,"ĠÐ°Ð²ÑĤÐ¾Ð¼Ð¾Ð±":2553,"ĠÐ¿ÑĢÐ¸Ð±":2554,"Ð¿Ð¾Ð·":2555,"ĠÐ¿ÑĢÐ¾Ð¿":2556,"Ð¼ÑĥÐ½":2557,"ÐºÐ°Ð½":2558,"Ð¸ÑĩÐµÑģÐºÐ¾Ð¼":2559,"ĠÐ¼Ð°Ð¹":2560,"ÑĪÐ°Ñı":2561,"ĠÐ¾ÑĤÐºÐ°Ð·":2562,"ÐµÐ»Ñı":2563,"ĠÐ¿Ð¾ÑĩÑĤÐ¸":2564,"24":2565,"ÐºÐ°ÑĤ":2566,"Ð°Ñĩ":2567,"ÑĮÐ¸":2568,"ÑĦÐµÐ´":2569,"ĠÐ½Ð¾Ð¼":2570,"Ð¸Ð±Ð»Ð¸":2571,"ÑĥÐ±Ð»Ð¸Ðº":2572,"ÑĭÐ²Ð°ÐµÑĤÑģÑı":2573,"ĠÐ±Ð»Ð¸Ð·":2574,"ĠÐ¿Ð»Ð°ÑĤ":2575,"ed":2576,"ĠÑħÑĢÐ¸ÑģÑĤ":2577,"ĠÐ¿Ð¾Ñħ":2578,"Ð¿ÐµÑĤÐµÑĢ":2579,"ĠÐ¿Ð¾ÑģÑĤÐ¾ÑıÐ½":2580,"ĠÐ¸Ð³ÑĢÑĭ":2581,"ĠÐ²Ð½Ð¾Ð²ÑĮ":2582,"ĠÐºÑĢ":2583,"ĠÑĤÐ¸ÑĤ":2584,"ĠÐ²ÐµÑĢÑħÐ¾Ð²":2585,"ĠÐ¶ÐµÐ½ÑīÐ¸Ð½":2586,"ĠÐ¼ÐµÐ»":2587,"ĠÐ²Ð»Ð°ÑģÑĤÐ¸":2588,"Ġ50":2589,"ĠÐ´Ð¸ÑĢÐµÐº":2590,"ĠÐ½Ð°ÑĥÐº":2591,"Ð´Ð²":2592,"Ð¿Ð¾Ñħ":2593,"ĠÐ¾Ð±Ð½Ð°ÑĢÑĥÐ¶":2594,"ig":2595,"ĠÐ¿ÑĢÐ¾Ð¸Ð·Ð²ÐµÐ´":2596,"ĠÐ²Ð¾Ðº":2597,"ÑĪÐ»Ð¸":2598,"ĠÑįÑĤÐ¸":2599,"Ð¸ÑĢÐ¾Ð²Ð°ÑĤÑĮ":2600,"ĠÑĦÐ¾Ð½":2601,"Ð¾Ð´Ð°ÑĢÑı":2602,"ĠÑĤÑıÐ¶":2603,"ÑģÐ»ÐµÐ´":2604,"23":2605,"ĠÐ±Ð°Ð½":2606,"Ð³Ð¾ÑĢ":2607,"ĠÐ¾Ð¿ÐµÑĢÐ°":2608,"ĠÑģÐ¾Ñĩ":2609,"ÑģÑĤÐ²ÐµÐ½Ð½Ð¾":2610,"ĠÐ¿ÑĢÐ¸ÑħÐ¾Ð´":2611,"ÑģÐ»ÑĥÐ¶":2612,"Ð¾Ð½Ð°Ñĩ":2613,"ĠÐ²ÐµÑģ":2614,"ĠÐ·Ð°Ð²Ð¾Ð´":2615,"Ġ1944":2616,"ĠÐ¾Ð±ÑĬÑıÐ²":2617,"ĠÐ¾ÑĢÐ´ÐµÐ½":2618,"ÑĨÐ°Ð¼Ð¸":2619,"ĠÐ¸Ð´Ðµ":2620,"ĠÐ¸ÑģÑĤÐ¾Ñĩ":2621,"ĠÐ¶Ð¸ÑĤÐµÐ»ÐµÐ¹":2622,"ĠÑĥÑĩÑĳ":2623,"Ð¾Ð¸ÑĤ":2624,"ĠÐ³ÑĥÐ±ÐµÑĢÐ½Ð¸Ð¸":2625,"Ð°Ð»Ñĭ":2626,"ĠÐ²ÑģÑĤÑĥÐ¿":2627,"ĠÐ±Ð°ÑĤ":2628,"um":2629,"ĠÐºÐ¾Ð¼Ð¿Ð°Ð½Ð¸Ð¸":2630,"ĠÑĨÐµÐ½ÑĤÑĢÐ°":2631,"ĠÐ¸ÑģÐºÐ»ÑİÑĩ":2632,"ĠÐºÐ°Ð¿Ð¸ÑĤ":2633,"ĠÑħÐ¾Ð»":2634,"ĠÐ¿Ð¾Ð´Ð³Ð¾ÑĤÐ¾Ð²":2635,"ĠÐ³Ð¾Ð»Ð¾Ð²":2636,"ĠÐ¸ÑĢ":2637,"Ð¸ÑĩÐµÑģÐºÑĥÑİ":2638,"ĠÐºÐ¾Ð´":2639,"\")":2640,"ĠÐ²ÑĭÐ±Ð¾ÑĢ":2641,"ĠÐ¼Ð¾ÑģÐºÐ²Ðµ":2642,"ĠÐ³ÑĢÑĥÐ¿Ð¿Ð°":2643,"ĠÐ²ÑĭÐ´ÐµÐ»":2644,"ĠÐ¾Ð±ÑĬÐµÐºÑĤ":2645,"ĠÐ³ÐµÐ½ÐµÑĢÐ°Ð»":2646,"Ð»Ð¾ÑģÑĮ":2647,"ĠÐ´ÐµÐ±":2648,"ÑģÐ¿Ð¾ÑĢÑĤ":2649,"ĠÑĤÐ¸Ð¿":2650,"ĠÐ²Ð¾Ð·Ð½Ð¸Ðº":2651,"Ð¾ÑĢÐ²":2652,"ĠÐ±Ð¾Ð»ÑĮÑĪÐµ":2653,"Ð°ÑĨÐ¸Ð¾Ð½":2654,"ĠÑģÑĭÐ³":2655,"Ð¿Ð¾ÑģÐ»ÐµÐ´ÑģÑĤÐ²Ð¸Ð¸":2656,"Ð¸ÑĩÑĤ":2657,"ĠÑģÐ¾Ð·Ð´Ð°Ð½":2658,"ĠÐ½Ð°Ð¸Ð±Ð¾Ð»ÐµÐµ":2659,"Ð½Ð¾ÑģÑĤÐµÐ¹":2660,"ĠÑĢÐµÐ²Ð¾Ð»Ñİ":2661,"ÑįÐ»":2662,"ÐµÐ½ÑĤÑĭ":2663,"ĠÐºÐ¾ÑĤÐ¾ÑĢÐ¾Ðµ":2664,"ĠÑģÐ²Ð¾Ñĳ":2665,"Ð¾ÐºÐµ":2666,"ĠÐ°ÐºÐ°Ð´ÐµÐ¼Ð¸Ð¸":2667,"ĠÐ½Ð°ÑģÑĤÐ¾ÑıÑīÐµÐµ":2668,"Ð±Ð¸Ð½":2669,"ÐµÑĢÑĮ":2670,"ĠÐ¸Ð¼ÐµÐ»":2671,"ÑģÑĮ":2672,"ĠÑįÐ¼":2673,"ĠÐ³Ð²Ð°ÑĢÐ´":2674,"Ð°Ð»ÑĮÐ½Ð¾Ð¼":2675,"197":2676,"Ð·Ð½Ð°Ñĩ":2677,"196":2678,"ĠÑĢÐ¾Ð»":2679,"ĠÑģÐµÐ¼ÑĮÐµ":2680,"ĠÐ·Ð½Ð°Ðº":2681,"ĠÐ¸Ð¼Ñı":2682,"ĠÑĢÐ¾Ð´Ð¸Ð»ÑģÑı":2683,"ĠÐºÐ¾Ð¼Ð¸ÑģÑģ":2684,"ĠÐ¿Ð¾Ð¿ÑĥÐ»ÑıÑĢ":2685,"ĠÐ±Ð¾ÑĢÑĮ":2686,"Ð»ÑİÐ´":2687,"ia":2688,"Ð¸Ð·Ð¼Ð°":2689,"22":2690,"Ð¾Ð²ÑģÐºÐ¾Ð³Ð¾":2691,"ir":2692,"Ð¾ÑĩÐ½Ð¾":2693,"ĠÐºÐ¾Ð½Ñģ":2694,"ĠÐ±Ð¾Ð»ÑĮÑĪÐ¸Ð½":2695,"ĠÐ¸ÑĤÐ¾Ð³":2696,"ĠÐ¿ÑĢÐ¾Ð±Ð»ÐµÐ¼":2697,"ĠÐ¾ÑĤÐ²ÐµÑĤ":2698,"ĠÐ¿Ð¾ÑģÑĤÐ°Ð²":2699,"ĠÑĤÑĭÑģ":2700,"ĠÑĪÐºÐ¾Ð»Ñĭ":2701,"ÐµÑĢÐ½Ð¾":2702,"ĠÐ¿ÑĢÐ¾Ð¼ÑĭÑĪÐ»ÐµÐ½":2703,"Ð¾Ð½Ñĭ":2704,"ĠÑģÑĤÐµÐ¿ÐµÐ½Ð¸":2705,"Ġ1990":2706,"ĠÐ¿Ð¾Ð´Ð¿Ð¸Ñģ":2707,"ĠÐµÐ²ÑĢÐ¾Ð¿ÐµÐ¹":2708,"Ð¾ÑĤÐµ":2709,"ÑĢÐ°Ð¹":2710,"Ð¶Ð´Ñĭ":2711,"ĠÑĩÐ°ÑģÑĤÐ½Ð¾ÑģÑĤÐ¸":2712,"ÑģÐµ":2713,"ĠÐ²ÐµÑĤ":2714,"ĠÐ¾ÑĤÐµÑĩÐµÑģÑĤÐ²ÐµÐ½Ð½Ð¾Ð¹":2715,"Ġ29":2716,"ĠÐ¾Ð±ÑĢÐ°Ð·Ð¾Ð²Ð°Ð½Ð¸Ñı":2717,"ĠÑĢÐ¾ÑģÑĤ":2718,"ĠÑĤÐ¸Ð¿Ð°":2719,"Ð¾Ð²Ð°Ð»Ð°":2720,"ĠÐ¿ÑĢÐµÐ¿Ð¾Ð´":2721,"ĠÑĥÐ¿ÑĢÐ°Ð²Ð»ÐµÐ½Ð¸Ñı":2722,"ÐºÐ°Ñı":2723,"Ð»Ð°Ð½":2724,"ĠÑįÐ»ÐµÐ¼":2725,"ÑįÑĤÐ°":2726,"ĠÐ²ÑĭÐ¿ÑĥÑī":2727,"Ð¸ÑīÐµ":2728,"ĠÑĢÐ°Ð·Ð»Ð¸ÑĩÐ½ÑĭÑħ":2729,"ĠÑĦÐ¾ÑĢ":2730,"ĠÑģÐ±Ð¾ÑĢÐ½Ð¾Ð¹":2731,"ut":2732,"ÑģÐºÐ¾Ð»ÑĮ":2733,"ĠÑĢÐµÐ´Ð°Ðº":2734,"ÐµÐ½Ð½ÑĭÐ¼":2735,"ĠÑĤÑĥÑĢÐ½Ð¸":2736,"os":2737,"ĠÐ¿Ð¾Ð¶":2738,"40":2739,"ĠÐ¿ÑĢÑıÐ¼":2740,"ĠÑħÐ¾ÑĤÑı":2741,"ĠÑģÐ°":2742,"ĠÐ¾ÑĢÐ³Ð°Ð½Ð¸Ð·Ð°ÑĨÐ¸Ð¸":2743,"ĠÐ´Ð¾ÐºÑĥÐ¼":2744,"Ð¾Ð²ÑģÐºÐ¸Ð¹":2745,"Ð¿ÑĤ":2746,"ĠÐ½Ð¸Ð¼":2747,"ĠÐ°ÑģÑģ":2748,"ĠÐ¼ÐµÑĤÐ¾Ð´":2749,"Ġ1943":2750,"ĠÐ´Ð°Ð»":2751,"ĠÐ½ÐµÐ·Ð°Ð²Ð¸ÑģÐ¸Ð¼":2752,"ĠÐ²ÐµÐ»Ð¸ÐºÐ¾Ð¹":2753,"ĠÐ¾ÐºÑĢÑĥÐ¶":2754,"Ð³Ð¾Ð»":2755,"ĠÑĢÐ°ÑģÑģÐºÐ°Ð·":2756,"ĠÐ»ÑİÐ´ÐµÐ¹":2757,"Ð½Ð¸ÑĨÐ°":2758,"ÑĥÑīÐµÑģÑĤÐ²ÐµÐ½":2759,"ĠÐ²ÑģÐµÐ¼":2760,"ĠÑĥÐ²ÐµÐ»Ð¸Ñĩ":2761,"Ð¸ÑĩÑĤÐ¾Ð¶":2762,"Ð¾ÑģÐ¾ÑĦ":2763,"ĠÐ¿ÑĢÐµÐ·Ð¸Ð´ÐµÐ½ÑĤ":2764,"ĠÐ¿Ð¾Ð»ÑĮ":2765,"ĠÑĤÑĢÐµÐ½":2766,"ĠÐ³Ð¾Ð½":2767,"ĠÐ´Ð¸Ð²Ð¸Ð·Ð¸Ð¸":2768,"ĠÐ¿ÑĢÐ¾Ð²ÐµÐ´":2769,"ĠÐ´Ð¾Ð½":2770,"ÐµÐ¼Ð°ÑĤ":2771,"ĠÐ½Ð¸Ð¶":2772,"ĠÐ¿ÐµÑĢÐµÐ²Ð¾Ð´":2773,"ĠÐ±ÑĢÐ¸Ð³":2774,"Ð¶Ð°":2775,"ĠÐ±ÑĢ":2776,"ec":2777,"ĠÐºÐ¾Ð»Ð¸ÑĩÐµÑģÑĤÐ²Ð¾":2778,"Ð½Ð¸Ñı":2779,"ĠÐ¼Ð¸ÑĢÐ¾Ð²Ð¾Ð¹":2780,"ĠÐ¾ÑģÐ½Ð¾Ð²Ð½Ð¾Ð¼":2781,"ĠÐ¿Ð¾Ð·Ð´":2782,"ĠÑģÐ»Ð°Ð²":2783,"ĠÐ¾Ð±ÑıÐ·":2784,"ÑģÑĤÐ°Ð½":2785,"ĠÑģÐºÐ°Ð·":2786,"ĠÐ´ÐµÑĤÐµÐ¹":2787,"ĠÐ¾ÐºÐ¾Ð½ÑĩÐ¸Ð»":2788,"Ð»ÐµÐ½Ð¾":2789,"ĠÐ³ÑĢÑĥÐ·":2790,"ĠÐ²Ð¾Ð·Ð³Ð»Ð°Ð²":2791,"ĠÐ¿Ð¾ÑģÐ²":2792,"ĠÐµÐ²ÑĢÐ¾Ð¿Ñĭ":2793,"od":2794,"ĠÑĤÐ¾Ð»":2795,"Ð´Ñĭ":2796,"ĠÑĥÑĤÐ²ÐµÑĢÐ¶Ð´":2797,"Ð¾Ñĥ":2798,"ĠÑĢÐ°Ð¼":2799,"ÑģÐºÐµ":2800,"28":2801,"26":2802,"Ð½Ð¾Ð²Ð°":2803,"ÑĳÐ´":2804,"ÑģÐ¸":2805,"Ġ)":2806,"ĠÐ¾Ð±ÑīÐµÑģÑĤÐ²ÐµÐ½":2807,"Ð½Ð¸ÐºÐ°Ð¼Ð¸":2808,"ÑĢÐ°ÑĨÐ¸Ð¸":2809,"ĠÐ¼Ð¼":2810,"ĠÑħÐ¾ÑĢÐ¾ÑĪ":2811,"ĠÑģÐµÐ·Ð¾Ð½Ð°":2812,"ĠÑģÐ°Ð½ÐºÑĤ":2813,"Ð¾Ð²ÐµÐ´":2814,"ĠÑģÑĤÐ°Ð»Ð¾":2815,"ĠÑģÑĤÑĢÐµÐ»ÐºÐ¾Ð²":2816,"ĠÐ¾Ð±Ð¾Ð·Ð½Ð°Ñĩ":2817,"ĠÐ±Ð¸":2818,"ĠÑĩÐµÑģÑĤÑĮ":2819,"ĠÑģÑĬ":2820,"Ð¸Ð»Ñı":2821,"ĠÐ¿ÐµÑĢÐ²Ð¾Ð³Ð¾":2822,"ĠÐ²Ð¸Ð½":2823,"Ð»Ð¸ÑģÑĮ":2824,"Ð¸Ð¼Ð¸ÑĢ":2825,"ĠÑĨÐµÐ»ÑĮ":2826,"Ġxx":2827,"Ð¾Ð¿Ð¸Ñģ":2828,"Ġ2002":2829,"ĠÐ·Ð½Ð°ÑĩÐ¸ÑĤÐµÐ»ÑĮ":2830,"ĠÐ²Ð¾Ð·Ð²ÑĢÐ°Ñī":2831,"ÑĢÐ°Ð³":2832,"ĠÐ²Ð½ÑĥÑĤÑĢÐµÐ½":2833,"ĠÐ¾ÑĤÐ¼ÐµÑĩ":2834,"ĠÐºÐ¾Ð¼Ð¿Ð»ÐµÐºÑģ":2835,"Ð»ÑĥÐ¶":2836,"ĠÑģÐµÐ»Ðµ":2837,"ĠÐ¸Ð²Ð°Ð½Ð¾Ð²":2838,"Ð¸Ð½Ð³ÑĢÐ°Ð´":2839,"ĠÐ·ÐµÐ¼Ð»Ð¸":2840,"ĠÑĪÑĤÐ°":2841,"ĠÐ´Ð¾Ð³":2842,"ĠÐ°Ñį":2843,"Ð´Ð°Ð½":2844,"ĠÐ¿ÑĢÐµÐº":2845,"Ð¾ÐµÐ´Ð¸Ð½":2846,"Ð¾Ð»Ð°":2847,"ÑĥÐ»Ð¸":2848,"ÑĪÐµÐ¼":2849,"ÑģÐºÐ¾Ð»ÑĮÐºÑĥ":2850,"ĠÑģÐµÐ»Ð°":2851,"Ð¾Ð²Ð¾Ð»ÑĮ":2852,"Ð¸ÑıÐ¼Ð¸":2853,"Ð¸ÑĩÐ°":2854,"Ð°ÑİÑīÐ¸Ñħ":2855,"ĠÐ²Ð¸Ðº":2856,"ĠÐ²ÐµÑī":2857,"ÐµÑģÐ»Ð¸":2858,"ĠÐ½Ð°Ð¿ÑĢÐ¸Ð¼ÐµÑĢ":2859,"ĠÐ±ÑĥÑĢ":2860,"ĠÐ¿ÑĢÐ¸ÑĢ":2861,"ĠÑĢÐµÑĩ":2862,"Ð°ÑĤÑĥ":2863,"ĠÐ¼Ð»Ð½":2864,"Ð¾ÑĢÑĭ":2865,"ÐµÐ½Ð½Ð¾Ðµ":2866,"ĠÐ½Ð°ÑģÑĤÑĥÐ¿":2867,"Ð¸Ð¼Ð°":2868,"ĠÐ¼Ð½Ð¾Ð³Ð¸Ñħ":2869,"ĠÑĢÐ¾Ð´Ð°":2870,"ĠÑģÐ¾Ð¾ÑĤÐ²ÐµÑĤÑģÑĤÐ²":2871,"ĠÑģÑĥÐ¿":2872,"ĠÐ·Ð´ÐµÑģÑĮ":2873,"im":2874,"ĠÐ»Ð°ÑĤ":2875,"ĠÑįÐ¿":2876,"ĠÐ±Ð¾Ð»ÑĮÑĪÐ¾Ð¹":2877,"ÑĨÐ¸Ð¿":2878,"Ġ\"Â«":2879,"ĠÑĤÐ²Ð¾ÑĢ":2880,"ĠÐ¼Ð¾Ñī":2881,"Ð¾Ð²ÑģÐºÐ¾Ð¹":2882,"ĠÐ½ÐµÑģÐºÐ¾Ð»ÑĮÐºÐ¸Ñħ":2883,"Ð¸Ð²Ð°Ð»":2884,"ĠÑģÐ¸Ð¼Ð²Ð¾Ð»":2885,"ĠÑĥÐ½Ð¸ÑĩÑĤÐ¾Ð¶":2886,"Ð»Ð¸Ðº":2887,"ĠÐ¸Ð½ÑĤÐµÑĢÐµ":2888,"ĠÑģÑĤÐ°Ð²":2889,"27":2890,"ÑĤÐ°Ñħ":2891,"Ð»ÑıÐ½":2892,"ĠÑĨÐ°ÑĢ":2893,"ÑıÑĩ":2894,"Ġ40":2895,"ÑĢÐ°ÑģÐ¿":2896,"Ð°Ð»Ð»":2897,"21":2898,"ĠÐ²ÐµÑĢÐ½ÑĥÐ»":2899,"ĠÑģÐ»ÑĥÑĩÐ°Ðµ":2900,"ĠÐ¿ÑĢÐµÐ´Ð¿ÑĢÐ¸ÑıÑĤ":2901,"Ð½Ð¾Ð´Ð¾ÑĢÐ¾Ð¶":2902,"ĠÐ¿ÑĢÐ¸ÐºÐ°Ð·":2903,"Ð»Ð¸Ð¶":2904,"Ð²ÑħÐ¾Ð´Ð¸ÑĤ":2905,"ĠÑģÑĩÑĳÑĤ":2906,"ĠÐ±Ð°ÑĪ":2907,"Ġ1999":2908,"iv":2909,"ÐµÐ½Ð¸ÑıÑħ":2910,"ÑĢÑĥÑģ":2911,"Ġof":2912,"ĠÐ¸Ð¼Ð¿ÐµÑĢÐ¸Ð¸":2913,"ĠÑģÑĨÐµÐ½":2914,"ĠÐºÐ¾ÑģÑĤ":2915,"ĠÐ°ÑĤÐ°Ðº":2916,"ĠÐ¾Ð±ÑĥÑĩ":2917,"ra":2918,"ĠÑģÐµÑĢÐ¸Ð¸":2919,"Â»).":2920,"ĠÑĦÐ°Ð¼":2921,"ĠÑģÐ²Ð¾Ð¸Ð¼":2922,"ĠÑĢÐµÐ»Ð¸":2923,"ĠÑģÐ¾Ð±ÑĭÑĤ":2924,"ĠÑĤÐ¾Ð½":2925,"ĠÑĤÐ°ÐºÐ¸Ñħ":2926,"ĠÐºÐ¸ÑĢ":2927,"ĠÐµÐ¿Ð¸ÑģÐºÐ¾Ð¿":2928,"ĠÐ´Ð¾Ð»Ð¶Ð½Ð¾ÑģÑĤÑĮ":2929,"ĠÑĤÐµÐºÑģÑĤ":2930,"ĠÐºÑĥÐ»ÑĮÑĤÑĥÑĢÑĭ":2931,"ÑĤÐ¾Ð½":2932,"ÑĳÐ½Ð½Ð¾Ð³Ð¾":2933,"ĠÐ¼ÐµÑģÑĤÐµ":2934,"ĠÐºÑĥÐ¿":2935,"Ð°ÑĢÑĭ":2936,"ĠÐ³ÐµÑĢÐ¼Ð°Ð½Ð¸Ð¸":2937,"Ð¾Ð²Ð°Ð½Ð¸ÐµÐ¼":2938,"29":2939,"ÐºÐ¸Ð¼":2940,"Ð¸Ð±Ð¸ÑĢ":2941,"Ġst":2942,"ĠÑģÐ¾Ð²Ð¼ÐµÑģÑĤ":2943,"ĠÑĤÐ°Ð¹":2944,"ĠÐ¿ÑĢÐµÐ´Ð¿Ð¾Ð»":2945,"Ð¾Ð½ÑĤ":2946,"Ð·Ð°Ð½Ð¸Ð¼":2947,"ĠÐ°Ð»ÐµÐºÑģÐ°Ð½Ð´ÑĢ":2948,"ĠÑĤÐµÐ¿":2949,"ĠÐºÐ¾Ð½ÐºÑĥÑĢ":2950,"ÑĳÐ¶":2951,"Ð½Ð°Ð´":2952,"Ð±Ð¸ÑĤ":2953,"ĠÐ¿Ð¾Ð¿ÑĭÑĤ":2954,"ĠÑħÑĢÐ°Ð¼":2955,"ÐµÐ¹Ð½":2956,"Ġ1945":2957,"Ð»ÐµÑĩ":2958,"ĠÐ¿ÑĢÐ¾ÑģÑĤ":2959,"ÐºÐ¼":2960,"ĠÐ¿Ð¾Ð»Ð½Ð¾ÑģÑĤÑĮÑİ":2961,"ÐµÐ½Ðµ":2962,"ĠÑĤÐµÐ¼Ð¿":2963,"ĠÐ»Ð¸Ð½Ð¸Ð¸":2964,"ĠÑĩÐµÑĢ":2965,"Ð±Ð¸":2966,"ĠÑģÑĥÐ±":2967,"ĠÐºÑĢÐµÐ¿":2968,"Ð»ÐµÐ²":2969,"ÑĢÐµÑģ":2970,"ĠÐ½Ð¸Ð·":2971,"ĠÐ±ÐµÑĢÐµÐ³Ñĥ":2972,"ĠÐ´Ð¾Ð¼Ð°":2973,"ĠÐ±ÑĢÐ¸ÑĤÐ°Ð½":2974,"ĠÑĥÑģÐ¿ÐµÑħ":2975,"ĠÐ¼Ð½Ð¾Ð¶":2976,"Ð¾ÐºÑģ":2977,"Ð½Ð¾Ð²Ð°Ð½Ð¸Ñı":2978,"Ð°Ð»ÑĮÐ½ÑĥÑİ":2979,"ĠÐ½ÐµÑĤ":2980,"ĠÐµÐ´Ð¸Ð½ÑģÑĤÐ²ÐµÐ½":2981,"Ð½Ð¾Ð³":2982,"Ð¸ÐºÐ¾Ð¼":2983,"ĠÑĩÐµÐ¼Ð¿Ð¸Ð¾Ð½Ð°ÑĤÐ°":2984,"ĠÐ¿ÑĢÐ¾Ð¸Ð·Ð¾ÑĪ":2985,"Ð¿ÑĢÐ¸Ð½":2986,"ĠÐ²Ð¾Ð¹ÑģÐºÐ°":2987,"ĠÐ´Ð¾Ð¿Ð¾Ð»Ð½":2988,"ÐµÑĢÐ¾":2989,"ĠÐ´ÐµÐ±ÑİÑĤ":2990,"ĠÑĩÑĳÑĢ":2991,"Ð¿Ð»Ð¾ÑĤ":2992,"ĠÑģÑĤÐ°Ð½ÑĨÐ¸Ð¸":2993,"ÑĦÐ°":2994,"ĠÐ¸Ð½ÑģÑĤÐ¸ÑĤÑĥ":2995,"ĠÐ¼ÐµÑĤÑĢÐ¾Ð²":2996,"ĠÐ·ÑĢ":2997,"ĠÐ¼ÐµÑħÐ°Ð½":2998,"ÑĢÐ¾Ð´Ð¸Ð»ÑģÑı":2999,"ĠÐ¾Ð±ÑĢÐ°Ð·Ð¾Ð²Ð°Ð½Ð¸Ðµ":3000,"Ð¼Ð°ÑĤÑĢÐ¸Ð²":3001,"ĠÐ±ÐµÐ»Ð¾ÑĢ":3002,"ĠÐ³Ð»ÑĥÐ±":3003,"ĠÐ½ÐµÐºÐ¾ÑĤÐ¾ÑĢÑĭÑħ":3004,"Ġ185":3005,"ĠÐ·Ð½Ð°Ð¼":3006,"ow":3007,"ĠÐ¿ÑĢÐ¸Ð½ÑıÐ»":3008,"Ġxix":3009,"ĠÑĦÐ°ÐºÑĥÐ»ÑĮÑĤ":3010,"ĠÐ²Ð¾ÑģÑģÑĤÐ°Ð½Ð¾Ð²":3011,"ĠÐ¿Ð¾Ð»ÐºÐ°":3012,"ÑĢÐ¸Ñģ":3013,"ĠÑģÐ¾Ð±ÑĢÐ°Ð½":3014,"Ð´Ð¾Ð²":3015,"ĠÐ¾ÑĩÐµÑĢÐµÐ´":3016,"ĠÐ°ÑģÑĤ":3017,"ĠÐ½Ð°Ð³ÑĢÐ°Ð¶Ð´":3018,"ĠÐ¿ÑģÐ¸Ñħ":3019,"Ð¸Ð»Ð¸Ð¸":3020,"ĠÐºÑĢÑĥÐ³":3021,"ĠÐ»Ð¸Ð´":3022,"ÐµÑĢÐµÐ¶":3023,"ÑĳÐ½Ð½Ð¾Ð¹":3024,"ĠÑĥÑĩÐ°ÑģÑĤÐ²Ð¾Ð²Ð°Ð»":3025,"ĠÐ½Ð¾Ð²ÑĭÐ¹":3026,"ÑĥÑģÑģ":3027,"ĠÐ¿Ð»Ð¾ÑĤ":3028,"ÑģÐµÐ¼":3029,"Ð¿Ð¾Ð¼":3030,"ĠÑĢÐ°Ð±Ð¾ÑĤÑĥ":3031,"ĠÐ¿ÐµÑĢÐ²ÑĭÐ¼":3032,"ĠÐ»Ð¸":3033,"ÑĳÑĤÑģÑı":3034,"Â°":3035,"Ð±Ð¾Ð»ÑĮ":3036,"Ġ2003":3037,"ĠÐ¼Ð½Ð¾Ð³Ð¸Ðµ":3038,"Ð²ÑĳÑĢ":3039,"ĠÐ³Ð°":3040,"ĠÑģÐµÑĤ":3041,"ĠÑħÐ¾Ð´":3042,"ĠÑĤÐ¾Ð³Ð´Ð°":3043,"ĠÐ¾Ð´Ð½Ð°":3044,"ĠÑĢÐµÐ¶Ð¸ÑģÑģ":3045,"ÑĤÐµÐ»":3046,"ĠÐ³Ð°ÑĢ":3047,"ĠÐ¿Ð¸ÑģÑĮ":3048,"âĢľ":3049,"ĠÐ¾Ð±ÑīÐµÑģÑĤÐ²Ð°":3050,"Ð¼Ð¾ÑĤ":3051,"ĠÐ´Ð°Ð»ÑĮÐ½ÐµÐ¹":3052,"ĠÑĦÐ¸Ð»Ð¾ÑģÐ¾ÑĦ":3053,"ĠÐ¼Ð¸ÑĤ":3054,"Ġ1942":3055,"ĠÐ¾Ð±ÑĢÐ°ÑĤ":3056,"ÑģÑĢÐµÐ´Ð¸":3057,"ÑįÐ¼":3058,"ĠÐ¾Ð³ÑĢÐ°Ð½Ð¸Ñĩ":3059,"ĠÐ½Ð°Ð»":3060,"ĠÐ¿Ð¾ÑĢÑıÐ´":3061,"ĠÑĥÑĩÐ¸Ð»Ð¸Ñī":3062,"Ð°Ð»ÑĮÑıÐ½":3063,"ĠÑģÐ¼Ð¾Ð³":3064,"ÐµÑĢÑĥ":3065,"ĠÐ¶ÐµÐ»ÐµÐ·Ð½Ð¾Ð´Ð¾ÑĢÐ¾Ð¶":3066,"ĠÐ±Ð¾Ð»Ð³Ð°ÑĢ":3067,"ĠÐ¿ÑĢÐ¸Ð´":3068,"ĠÐ½Ð°Ð·Ð²Ð°Ð½Ð¸ÐµÐ¼":3069,"ĠÐ¼Ð¾ÑĢÑı":3070,"Ð¾ÑĩÐ½Ð¾Ð¹":3071,"ÑĢÐ¾Ð³":3072,"ĠÐ¶Ð¸Ð»":3073,"ĠÐ¸Ð½ÑģÑĤÐ¸ÑĤÑĥÑĤÐ°":3074,"Ð¾Ð²ÑĭÐ¼":3075,"Ð°ÑİÑīÐ¸Ð¹":3076,"ĠÐ´ÐµÐ¿ÑĥÑĤ":3077,"gc":3078,"Ð¸Ð²ÑĪÐ¸Ð¹":3079,"ĠÐ¼Ð°Ñģ":3080,"Ð°Ð½Ð´Ð¸Ð´":3081,"ÑĤÐµÐ¼":3082,"ĠÐ½Ð°ÑģÐ»ÐµÐ´":3083,"ĠÐ½Ð°Ð¹":3084,"ĠÑĦÐ¾ÑĤ":3085,"op":3086,"ÑİÐ¶":3087,"ĠÐ¿ÑĢÐ¸ÑģÐ¾ÐµÐ´Ð¸Ð½":3088,"ĠÐ¾ÑĤÑģÑĥÑĤÑģÑĤÐ²":3089,"ÑįÑĤÐ¾ÑĤ":3090,"ĠÐ¹":3091,"ÐµÐ½ÐµÐ¼":3092,"ĠÑģÐµÐ±Ðµ":3093,"ĠÑĤÑĢÐµÑĤÑĮ":3094,"Ð¾ÑģÐ»Ð¾Ð²":3095,"ĠÑĤÐ¾Ð¿":3096,"ĠÑĩÐµÑĤÑĭÑĢÐµ":3097,"ÑĩÐ°ÑĤ":3098,"ÑıÐ±":3099,"ĠÑįÑģÑĤ":3100,"ĠÐ»ÑĮ":3101,"ĠÑĢÐµÐ·ÑĥÐ»ÑĮÑĤÐ°ÑĤ":3102,"ĠÐ¼ÑĥÐ¶ÑĩÐ¸Ð½":3103,"ĠÐ¼Ð¸ÑħÐ°":3104,"ĠÑģÑĥ":3105,"ÑĢÑĳÑħ":3106,"ĠÐ¸Ð¼ÐµÑİÑĤ":3107,"ĠÐ½Ð¾Ð²Ð¾Ð³Ð¾":3108,"ĠÐ¿ÑĢÐ°Ð²Ð¾ÑģÐ»Ð°Ð²":3109,"ÑħÐ°":3110,"ĠÐ¿ÑĢÐµÐ¿Ð¾Ð´Ð°Ð²":3111,"Ð¾Ð²Ð°Ð²ÑĪ":3112,"Ð¾ÑĢÐ³":3113,"ĠÐ´Ð²Ð¸Ð³":3114,"ĠÐ½Ð¾Ð²Ð¾Ð¹":3115,"ĠÐºÐ¾Ð¿":3116,"ĠÐ½ÐµÐ¾Ð±ÑħÐ¾Ð´Ð¸Ð¼":3117,"Ð°Ð½Ð½ÑĭÑħ":3118,"ĠÐ¼Ð°ÑĢÑĪ":3119,"ÑģÐºÐ¸":3120,"ĠÐ½ÐµÐºÐ¾ÑĤÐ¾ÑĢÑĭÐµ":3121,"ĠÐ¾Ð¿ÑĥÐ±Ð»Ð¸Ðº":3122,"ÑģÐ¾Ð¼":3123,"ĠÐ²ÑĭÑĪÐµÐ»":3124,"ĠÐ¸ÑĤÐ°Ð»Ð¸Ð¸":3125,"ĠÐºÐ¾Ð»Ð¾Ð½":3126,"ĠÐ¿Ð¾Ð¼Ð¾ÑīÑĮÑİ":3127,"ĠÐ¸Ð·Ð±ÑĢÐ°Ð½":3128,"Ð¾ÐºÐ¾Ð¼":3129,"ĠÐºÐ»Ð°Ð´":3130,"ĠÐ±Ð¸ÑĤ":3131,"Ġj":3132,"ÑıÑĢ":3133,"ÑģÑĦ":3134,"ĠÐ´ÐµÑģÑıÑĤ":3135,"ĠÐ²Ð°ÑĢÐ¸":3136,"ÑĢÐµÐ¼ÐµÐ½Ð½Ð¾":3137,"Ð»ÐµÐ³":3138,"ĠÐºÑĢÐ°Ð¹":3139,"Ġ(),":3140,"ÐºÐ°ÑĢ":3141,"ĠÑįÑĢ":3142,"ĠÑĩÐµÐ¼Ð¿Ð¸Ð¾Ð½Ð°ÑĤÐµ":3143,"Ð½Ð°Ð¿ÑĢÐ¸Ð¼ÐµÑĢ":3144,"Ð²ÐµÐ¹":3145,"ÑĪÐ»Ð°":3146,"ĠÐ¾ÑģÐ²Ð¾Ð±":3147,"ĠÐºÐ¸Ð»":3148,"Ð´Ð¾Ð½":3149,"ĠÑģÑĢÐ°Ð¶":3150,"ÑĳÐ·":3151,"ĠÑģÐ¾Ð²ÐµÑĤÑģÐºÐ¾Ð³Ð¾":3152,"ĠÑģÑĭÐ½":3153,"Ð²Ð°ÑĢ":3154,"Ð»Ð°Ð·":3155,"ÑİÐ·":3156,"ĠÐ°Ð»ÑĮÐ±Ð¾Ð¼Ð°":3157,"ĠÐ°ÑĢÑĤÐ¸Ð»Ð»":3158,"Ġ2016":3159,"ĠÐ»Ðµ":3160,"ÐºÑĥÐ¿":3161,"Ð·ÐµÐ¼":3162,"ĠÑĪÑĤÐ°ÑĤ":3163,"ĠÐ½ÑĮÑİ":3164,"Ð¸Ð½Ð°Ð¼":3165,"Ð½Ð°Ñħ":3166,"ĠÐ²Ð½ÐµÑĪ":3167,"Ð¾Ð¿Ð°Ñģ":3168,"ĠÑĢÐµÑĪÐµÐ½Ð¸Ðµ":3169,"ĠÐ¿ÑĢÐ¸Ð½ÑıÑĤ":3170,"ĠÐ·Ð½":3171,"ÑĭÑģ":3172,"ÑĢÐ¾Ð¿Ð¾Ð»":3173,"ĠÑįÑĦÑĦ":3174,"ĠÑĥÑĩÐµÐ±":3175,"ĠÑĢÐµÐº":3176,"ĠÐ¿Ð¾Ð»ÑĥÑĩÐ¸Ð»Ð°":3177,"Ð°Ð½Ð¸":3178,"ĠÑĥÐ´Ð°Ð»Ð¾ÑģÑĮ":3179,"Ð½Ð¸Ð¶":3180,"ĠÐ¿Ð¸ÑĤ":3181,"ÑĦÐ¸Ð½":3182,"ĠÐºÐ¾ÑĤÐ¾ÑĢÑĥÑİ":3183,"Ð¾ÐºÑĥ":3184,"Ð¸ÑģÐ»":3185,"ĠÑĩÐ»ÐµÐ½Ð¾Ð¼":3186,"ĠÐºÐ¾Ð½ÑĦ":3187,"ÐµÐ½Ð¸ÑıÐ¼Ð¸":3188,"ĠÑĤÐ¸ÑĤÑĥÐ»":3189,"Ð°ÐºÑĤÐ¸Ð²":3190,"ĠÐ¿ÐµÑĢÐ²ÑĭÑħ":3191,"ĠÐ±Ð¾Ð»ÑĮ":3192,"ĠÐ¿Ð¾ÑģÐ²ÑıÑī":3193,"ĠÐ´ÑĥÑħÐ¾Ð²":3194,"ÑıÐ²Ð»ÑıÐµÑĤÑģÑı":3195,"ĠÐ·Ð°Ð¼ÐµÑģÑĤ":3196,"ÐºÐ¾Ð³Ð´Ð°":3197,"ĠÐ²Ð¾Ð·ÑĢÐ°ÑģÑĤÐµ":3198,"ĠÐºÐ°Ð·Ð°Ñħ":3199,"Ð¸ÑĨÐ¸Ñı":3200,"ĠÐ»Ð°":3201,"Ð»Ð¸Ð½Ð°":3202,"ĠÐ¿ÑĢÐ¾ÑĦÐµÑģÑģÐ¸Ð¾Ð½":3203,"ĠÐ¾ÑģÐ½Ð¾Ð²Ðµ":3204,"ĠÐ´ÐµÑĢÐµÐ²Ð½Ð¸":3205,"Ð²ÑģÐµ":3206,"ĠÐ¾ÑģÑĥÑīÐµÑģÑĤÐ²Ð»Ñı":3207,"ĠÐ·Ð°Ð´Ð°Ñĩ":3208,"ĠÐ·Ð°ÑħÐ²Ð°ÑĤ":3209,"ĠÑĥÑģÐ¿ÐµÑĪ":3210,"ÐµÐ»Ð¾":3211,"ÐµÐ½Ð¸ÑĤ":3212,"ĠÑģÑĤÑĢÑĥÐºÑĤ":3213,"ĠÐ´ÐµÑıÑĤÐµÐ»ÑĮÐ½Ð¾ÑģÑĤÐ¸":3214,"ĠÑģÑĤÐ°ÑĤÑĥÑģ":3215,"ĠÐ²ÑĭÑģÑĤÐ°Ð²":3216,"Ð°ÑĤÐµÐ»Ð¸":3217,"ĠÐ±Ð°":3218,"ÑĨÑĥ":3219,"ÐµÑĢÑĤÐ°":3220,"Ð¸ÑĤÐµÐ»ÑĮÐ½Ð¾Ð³Ð¾":3221,"ĠÐ´ÑĢÑĥÐ³Ð¾Ð¹":3222,"ter":3223,"ĠâĢŀ":3224,"Ð¸ÑĤÐµÐ»ÑĮÐ½Ð¾Ð¹":3225,"ĠÐ²ÐµÐºÐµ":3226,"Ð´Ð¾Ð¼":3227,"Ð¾Ð±ÑĢÐ¸ÑĤ":3228,"ĠÑģÐ²ÑıÑī":3229,"ÑĢÐ°Ð·Ð´Ð½":3230,"Ð·Ð°ÑĤ":3231,"ĠÑģÐ¾Ðº":3232,"ĠÑĢÑı":3233,"ĠÑıÐ·ÑĭÐºÐ°":3234,"ĠÑĤÑĢÐµ":3235,"ĠÑįÐ½ÐµÑĢÐ³":3236,"ĠÑĢÐµÐ³Ñĥ":3237,"ĠÐ¿ÑĢÐ¾Ð²Ð¸Ð½ÑĨÐ¸Ð¸":3238,"ÐµÐ²Ð¸Ð´":3239,"ÑĢÐ¾Ð±":3240,"ĠÑģÐµÐ²ÐµÑĢÐ½Ð¾Ð¹":3241,"ĠÐ¿Ð¾ÑģÑĤÐ°Ð½Ð¾Ð²":3242,"Ð¾ÑĢÐ¾Ð¼":3243,"ĠÑģÐµÐ½":3244,"ĠÐ³ÐµÑĢÑĨ":3245,"ÑĳÑĤÐ°":3246,"195":3247,"ĠÐ¸Ð¼Ð¿ÐµÑĢÐ°ÑĤÐ¾ÑĢ":3248,"ĠÐ½Ð¾Ñĩ":3249,"Ð¸Ð½Ð´":3250,"ĠÑĥÑĩÑĢÐµÐ¶Ð´":3251,"Ġ().":3252,"ĠÐ½ÑĳÐ¼":3253,"Ð¾ÑģÐ°":3254,"ĠÑĤÑİ":3255,"Ð¸Ð»Ðµ":3256,"60":3257,"ÑĪÐµÐµ":3258,"ĠÑģÐ¾Ð»Ð´":3259,"ĠÐ¾Ð±Ð¾ÑĢ":3260,"ÑĳÑĢÐ°":3261,"ÑıÐ»Ð¸":3262,"ĠÑģÐµÐ·Ð¾Ð½Ðµ":3263,"ĠÑģÑĢÐ°Ð²Ð½":3264,"ĠÐ´Ð¸ÑģÐº":3265,"ĠÐºÑĥ":3266,"ĠÑĤÐ¾Ð²":3267,"ĠÐºÐ¸ÑĤÐ°Ð¹":3268,"Ð½ÐµÐº":3269,"Ð¾Ð²Ð°Ñı":3270,"ĠÑģÐ¸Ð½Ð³":3271,"ĠÐ¾ÑĦÐ¸ÑĨ":3272,"Ġ000":3273,"em":3274,"Ð°Ð½Ð¾Ð¼":3275,"Ð°ÐµÐ²":3276,"Ð¸Ð¼Ðµ":3277,"ĠÐ¿Ð¾Ð·Ð¶Ðµ":3278,"ĠÐ¼ÐµÑĢ":3279,"ÑĮÑİÑĤ":3280,"193":3281,"Ð¸ÑģÐ¾Ðº":3282,"ĠÐ¿Ð¾Ð¼ÐµÑī":3283,"ĠÑĩÐ°ÑģÑĤÑĮÑİ":3284,"ĠÑĢÐ°Ð·Ð²Ð¸ÑĤÐ¸Ñı":3285,"ĠÐ¿ÑĢÐ¾ÑĤÐ¸Ð²Ð½Ð¸ÐºÐ°":3286,"ĠÐ¿Ð¾ÑĢÐ°Ð¶":3287,"ĠÑģÐ±":3288,"ĠÐ¿ÑĢÐ°Ð²Ð°":3289,"ĠÐ¿Ð¾ÑĤÐ¾Ð¼":3290,"Ð³ÐµÐ½":3291,"ĠÐ±Ð¸Ð±Ð»Ð¸":3292,"ĠÑĪÐ°Ñħ":3293,"ĠÐ¿Ð¾ÑĤÐµÑĢ":3294,"Ð¸Ð½ÑĤ":3295,"Ð¸ÐºÐ°ÑĨÐ¸Ð¸":3296,"ÑĭÐ³":3297,"ĠÐ¿ÐµÑĢÐµÑħÐ¾Ð´":3298,"ĠÑıÐ²":3299,"ĠÐ¿ÐµÑģÐ½Ð¸":3300,"Ð°Ð½Ð½ÑĭÐµ":3301,"Ð¾ÑĢÐ°Ñħ":3302,"ĠÑĦÐ°ÐºÑĤ":3303,"ĠÐ¼Ð¾ÑģÑĤ":3304,"ĠÑĢÐ°ÑģÐ¿Ð¾Ð»Ð¾Ð¶ÐµÐ½":3305,"ĠÐ¼Ð¸Ð»Ð»Ð¸":3306,"ÑİÑīÐ¸Ð¹":3307,"ÑĭÐ²Ð°Ð»":3308,"Ð¸Ð²Ð°ÐµÑĤÑģÑı":3309,"Ð¸Ð³Ð¸Ð½":3310,"ĠÐ¾ÑĢÑĥÐ¶":3311,"ÑģÐµÑĢ":3312,"ĠÐ½Ð°ÑģÐµÐ»ÐµÐ½Ð¸Ðµ":3313,"ĠÐ¾ÑĨÐµÐ½":3314,"ÑĢÐ¾ÑĦ":3315,"ĠÐºÐ¾Ð½ÑģÑĤÐ°Ð½ÑĤ":3316,"ĠÑĥÐµÐ·Ð´Ð°":3317,"ÑĭÐ²Ð°ÑİÑĤ":3318,"Ð¾Ð±ÑĭÑĩ":3319,"ĠÐ²Ð¸Ð´Ð¾Ð²":3320,"ĠÑģÐµÐºÑĢÐµÑĤ":3321,"ĠÐºÐ»ÑĥÐ±Ð°":3322,"ĠÐ¸ÑĤÐ°Ð»ÑĮÑıÐ½":3323,"ĠÑģÐ°Ð¼ÑĭÑħ":3324,"ĠÐ¼ÐµÐ½ÑĮ":3325,"Ð¾Ð¿ÑĢ":3326,"ÐµÐ²Ð¾Ð¹":3327,"ĠÐºÑĢÐµÑģÑĤÑĮÑıÐ½":3328,"ĠÐ±ÑĥÐ´ÑĥÑī":3329,"ĠÐ¼Ð°ÑĤÑĩÐµ":3330,"Ð±ÐµÐ»":3331,"Ð¸ÑĤÐ°ÑĢ":3332,"ĠÐºÐ¾Ð½ÑĨÐ°":3333,"ĠÑī":3334,"ĠÑĨÐµÑĢÐºÐ¾Ð²ÑĮ":3335,"ĠÐ¿Ð¾ÑįÑĤÐ¾Ð¼Ñĥ":3336,"ĠÐ¸Ð³ÑĢ":3337,"ÑĤÐ¾Ñĩ":3338,"ĠÐ¸Ð½Ð¶ÐµÐ½":3339,"ĠÐ¿Ð¾Ð³Ð¸Ð±":3340,"ÑĢÐ°Ð»Ð°":3341,"Ð¸ÑģÐ¿":3342,"Ġ1992":3343,"ĠÐ²ÐµÑĢÐ½ÑĥÐ»ÑģÑı":3344,"Â»),":3345,"Ð½Ð¾Ð²ÑĢÐµÐ¼ÐµÐ½Ð½Ð¾":3346,"ĠÐ²Ð¸Ð·":3347,"ĠÐ´Ð½ÐµÐ¹":3348,"Ġ1980":3349,"Ð¸ÑĢÐ¾Ð²Ð°Ð½Ð¸Ðµ":3350,"ĠÐ¿ÑĢÐ¸Ð¾Ð±":3351,"ĠÐºÐ°ÑĦÐµÐ´":3352,"Ð´Ð¸ÑĨÐ¸Ð¾Ð½":3353,"80":3354,"Ġ184":3355,"ĠÐºÐ°Ð½Ð´Ð¸Ð´":3356,"ĠÑĥÐ¿Ð¾Ð¼Ð¸Ð½":3357,"Ð»ÑıÑĢ":3358,"ĠÑĤÐµÐ¼Ð¿ÐµÑĢÐ°ÑĤ":3359,"ĠÐ¿Ð¾Ð´ÑĩÐ¸Ð½":3360,"ĠÐ¾Ð±ÑĭÑĩÐ½Ð¾":3361,"Ð¾Ð»ÐµÑĤ":3362,"ĠÐ´Ð²ÑĥÐ¼":3363,"Ð¸ÑĨÐµÐ¹":3364,"ĠÐ¼Ð»Ð°Ð´":3365,"ĠÑıÐ·ÑĭÐº":3366,"ĠÐ±Ð»Ð°Ð³Ð¾Ð´Ð°ÑĢÑı":3367,"Ð¾Ð¼Ð±":3368,"Ð°ÑĤÐµÐ»ÑĮÐ½Ð¾":3369,"Ð°Ð²Ð»Ð¸Ð²":3370,"Ð¿Ð¾Ðº":3371,"Ð»ÐµÐ½Ð¸Ð¹":3372,"ĠÐ²ÐµÐ»Ð¸ÐºÐ¾Ð±ÑĢÐ¸ÑĤ":3373,"ĠÑģÑĤÐ°Ð´":3374,"ĠÐ¼ÐµÑģÑĤÐ°":3375,"ĠÐ½Ð°ÑģÑĤ":3376,"Ð¾ÑģÑı":3377,"Ġ1991":3378,"ĠÑĢÐ¾Ð±":3379,"ĠÑĤÐ°ÐºÐ¸Ðµ":3380,"Ð¸ÑĤÐµÐ»ÑĮÐ½ÑĭÐ¹":3381,"ĠÐ²ÐµÑģÑĮ":3382,"ÑĥÑİÑīÐ¸Ñħ":3383,"ĠÐ¶Ð¸Ð²Ð¾ÑĤ":3384,"Ð¼Ð°Ð¹":3385,"Ð·Ð°Ð½Ð¸Ð¼Ð°ÐµÑĤ":3386,"Ð¾Ð²ÑĭÐ¹":3387,"Ð¸ÑĤÐµÐ»ÑĮÐ½ÑĭÑħ":3388,"Ð¾Ð³ÑĢÐ°ÑĦÐ¸Ð¸":3389,"Ð»ÐµÐ½Ð¸Ñİ":3390,"ĠÐ»Ð¸Ð±Ð¾":3391,"ÑĥÑĢÑĥ":3392,"Ð¸Ð»ÐµÑĤ":3393,"ĠÐ¾Ð²":3394,"ĠÐ±ÑĢÐ°Ð·":3395,"ĠÐ·ÐµÐ»":3396,"ation":3397,"ĠÐ³ÐµÑĢÐ¼Ð°Ð½":3398,"ĠÐ°ÑĢÐµÑģÑĤ":3399,"ĠÑĩÐµÑĤÑĭÑĢÑĳÑħ":3400,"Ð½ÑĭÐ½Ðµ":3401,"ĠÐ²Ð°ÑĢ":3402,"ÑĮÐµÐ²":3403,"ĠÐ²ÑĭÐ·Ð²":3404,"ĠÐ¿ÐµÑħ":3405,"ĠÐºÐ¾Ð¼Ð¿Ð°Ð½Ð¸Ñı":3406,"Ġ%,":3407,"the":3408,"ÑĢÐ°Ð·Ð´ÐµÐ»":3409,"ĠÑģÐ¾Ð²ÐµÑĤÑģÐºÐ¸Ð¹":3410,"Ð°Ð½Ð½ÑĭÐ¹":3411,"ĠÐ´Ð¼Ð¸ÑĤ":3412,"ĠÐ³Ð¾ÑģÑĥÐ´Ð°ÑĢÑģÑĤÐ²ÐµÐ½Ð½Ð¾Ð³Ð¾":3413,"ÑĤÑĢ":3414,"ÑıÑģÑĮ":3415,"ĠÐ²Ð»Ð°Ð´Ð¸Ð¼Ð¸ÑĢ":3416,"Ð¾Ð²Ð°Ð½Ð°":3417,"ĠÐ¶Ð¸Ð·Ð½ÑĮ":3418,"ÑĭÐ½Ðµ":3419,"Ġ2017":3420,"ĠÐ·Ð°Ð²Ð¾ÐµÐ²":3421,"Ð½Ð¸Ñİ":3422,"Ð¾Ð²Ð°Ð½Ñĭ":3423,"ĠÂ«\"":3424,"ĠÐ¿ÑĢÐ¾Ñĩ":3425,"ÑĤÐ¾ÑĢÐ¾Ð²":3426,"Ð½ÑĥÑĤÑĮ":3427,"ĠÐ´Ð²Ð¸Ð¶ÐµÐ½Ð¸Ñı":3428,"ĠÑıÐ·ÑĭÐºÐµ":3429,"ĠÐ¿ÑĢÐ¾Ð¸ÑģÑħÐ¾Ð´Ð¸ÑĤ":3430,"ĠÐ¼Ð¸ÑĢÐµ":3431,"Ð»Ð°ÑĤ":3432,"ĠÐ°ÑĢÐ¼Ð¸":3433,"ÑĢÐµÑĩÐµÑģÐº":3434,"Ð°Ð½ÑģÐºÐ¾Ð³Ð¾":3435,"Ġiii":3436,"Ġ1930":3437,"ĠÐ³Ð¾ÑģÑĥÐ´Ð°ÑĢÑģÑĤÐ²Ð°":3438,"ĠÑıÑĢ":3439,"ĠÐºÑĥÐ»ÑĮÑĤÑĥÑĢ":3440,"ĠÐ²Ð½Ð¸Ð¼":3441,"ĠÐºÐ¾Ð¼Ð¼ÑĥÐ½Ñĭ":3442,"ĠÑĩÐ¸ÑģÐ»ÐµÐ½":3443,"ĠÐºÐ¾ÑĤÐ¾ÑĢÑĭÐ¼":3444,"ĠÐ½Ð°Ð½":3445,"ĠÐ±ÐµÑģÐ¿":3446,"Ð´ÑĢÑĥÐ³":3447,"ĠÑĢÐ°Ðº":3448,"ĠÑģÑħ":3449,"Ð°ÑıÑģÑĮ":3450,"Ð¿Ð°ÑĢÐ°ÑĤ":3451,"Ġ60":3452,"ĠÑĢÐ°Ð½ÐµÐµ":3453,"ĠÑĢÑĥÐºÐ¾Ð²Ð¾Ð´ÑģÑĤÐ²Ð¾Ð¼":3454,"ĠÐ²Ð¾ÑĢ":3455,"Ġ1960":3456,"ÐºÐ¾Ð²Ð°":3457,"Ð¾Ð»Ð½Ñı":3458,"ĠÐ¿ÐµÑĢÑģÐ¾Ð½Ð°":3459,"ag":3460,"ĠÐ¾Ð±ÑĢÐ°Ñī":3461,"ĠÐ¿Ð¾Ð´Ð¾Ð±":3462,"Ð°ÐºÐ¾Ð²":3463,"ĠÐºÐ¾ÑĢÐ¿ÑĥÑģ":3464,"Ð´Ð°Ð²":3465,"ĠÐ¿Ð¾Ð²ÐµÑĢÑħ":3466,"Ð¸Ð¾":3467,"ĠÐ¼Ð°":3468,"ĠÐ²Ð½":3469,"ĠÐ¾ÑĤÑĢÑıÐ´":3470,"Ġ1920":3471,"ĠÑģÐ°Ð¹":3472,"ÑĥÑı":3473,"Ð´ÐµÑĢ":3474,"Ð²ÐµÑĢÐ³":3475,"ĠÐ±Ð¾Ð¹":3476,"Ġ180":3477,"ĠÐ¿ÑĢÐ¾Ð³ÑĢÐ°Ð¼Ð¼":3478,"ĠÑĥÐ½Ð¸Ð²ÐµÑĢÑģÐ¸ÑĤÐµÑĤÐµ":3479,"ĠÐºÐ¾Ð½ÑĨÐµÑĢÑĤ":3480,"ĠÐ¿ÑĢÐ¸ÑĢÐ¾Ð´":3481,"ĠÐ´Ð¾Ð¼Ð°ÑĪ":3482,"ĠÑħÐ¸Ð¼":3483,"ÑĥÑİÑīÐ¸Ð¹":3484,"Ð¾Ð»Ð¾Ð²":3485,"ĠÐ¼ÐµÐ´Ð¸ÑĨ":3486,"ĠÐ²ÐµÑĢÑģÐ¸Ð¸":3487,"ÑĢÑĥÑĩ":3488,"ÑĥÑİÑĤÑģÑı":3489,"ÑįÐ»ÑĮ":3490,"ĠÑģÐ¾Ð³Ð»Ð°ÑģÐ½Ð¾":3491,"Ð¸ÑĤÐµÐ»ÑĮÐ½ÑĭÐµ":3492,"ĠÐ¼Ð°ÐºÑģÐ¸Ð¼":3493,"Ð²Ð°ÑĢÐµ":3494,"Ð¾ÑĤÐ²Ð¾ÑĢ":3495,"ĠÐ¾ÑģÑĤÑĢÐ¾Ð²Ð°":3496,"Ð°Ð»Ð¾Ð¼":3497,"ÑĨÐ°ÑĤ":3498,"ĠÑĤÐ°":3499,"ÑĥÑĤÑĮ":3500,"Ð·Ð°ÑĤÐµÐ¼":3501,"ĠÐ¿ÑĢÐ¾Ð¸ÑģÑħ":3502,"ĠÐ¾ÐºÐ¾Ð½ÑĩÐ°Ð½Ð¸Ñı":3503,"ĠÑģÐ°Ð¼Ð¾Ð»ÑĳÑĤ":3504,"ĠÑħÑĢÐ¸ÑģÑĤÐ¸Ð°Ð½":3505,"ĠÑįÑĤÐ¸Ð¼":3506,"ĠÐ¿ÑĢÐ¾ÑĤÑıÐ¶":3507,"ĠÑģÑĤÐ¸Ñħ":3508,"ĠÐ±Ð¸Ð±Ð»Ð¸Ð¾ÑĤ":3509,"ĠÐºÐ¸ÐµÐ²":3510,"ĠÐ¿ÑĢÐ¾Ð²ÑĳÐ»":3511,"ĠÐ´Ð¾Ð»Ð¶ÐµÐ½":3512,"ÐµÐ½Ð½":3513,"Ð¶Ð¸":3514,"ÑĨÐ°ÑĢ":3515,"ĠÑĦÐ¸Ð»Ð¸":3516,"ÑıÐ³":3517,"ĠÐ²Ð·Ð°":3518,"ĠÐ¼Ð¸Ð½Ð¸ÑģÑĤÐµÑĢ":3519,"ĠÑİÐ¶Ð½Ð¾Ð¹":3520,"ĠÐ²Ð¾Ð»Ð¾ÑģÑĤÐ¸":3521,"ÑĢÐ¸Ð¸":3522,"ĠÐ¿ÑĢÐ¸Ð²Ð¾Ð´":3523,"ĠÐ¼Ð°ÑĢÐº":3524,"Ġ183":3525,"ĠÐ¸Ð¼ÐµÐ½Ð½Ð¾":3526,"ĠÐºÐ¾Ð¼Ð°Ð½Ð´Ð¸ÑĢ":3527,"ĠÑĤÐ¾Ð¼Ñĥ":3528,"ĠÐ¿ÐµÐ´":3529,"ÐµÐ½Ð·":3530,"ĠÑĢÐ°ÑģÑĪÐ¸ÑĢ":3531,"Ð°ÐºÑĥ":3532,"ĠÑĢÐ°ÑģÐº":3533,"ĠÐ±Ñİ":3534,"ĠÐµÐ¹":3535,"ul":3536,"Ġ1970":3537,"ĠÐ¼Ð¸Ð½ÑĥÑĤ":3538,"ÑĢÐ¸Ð¹":3539,"ĠÐºÑĢÐ¾Ð²":3540,"ĠÐ¶Ð°Ð½":3541,"ĠÐ»Ð¾Ð½Ð´":3542,"Ð³ÑĢÑĥÐ¿":3543,"ĠÐ´Ð¶Ð¾Ð½":3544,"ĠÐ¿ÐµÑĢÐ²Ð¾Ð¼":3545,"ĠÐ½Ð¾ÑĢÐ¼":3546,"ĠÑģÐ¾ÑģÑĤÐ°Ð²Ð»ÑıÐ»Ð¾":3547,"ĠÑĨÐµÐ»ÑĮÑİ":3548,"Ð²Ð°Ð»":3549,"ĠÐ´ÐµÐ¹ÑģÑĤÐ²Ð¸Ñı":3550,"Ġ1998":3551,"ĠÑģÐ¾ÑģÑĤÐ¾Ð¸ÑĤ":3552,"ĠÐ³ÑĢÐµ":3553,"ÑĢÐ°Ð·Ñĥ":3554,"ĠÐ·Ð¸Ð¼":3555,"ĠÐ²ÑģÐµÐ¹":3556,"ĠÑģÐ°Ð¼ÑĭÐ¼":3557,"oc":3558,"ĠÐ¿Ð¾ÑģÐºÐ¾Ð»ÑĮÐºÑĥ":3559,"Ð»Ð°Ð±":3560,"ĠÐ²Ð¾Ð·Ð¼Ð¾Ð¶Ð½Ð¾ÑģÑĤÑĮ":3561,"ĠÐ½Ð¾Ð²ÑĭÑħ":3562,"ĠÐ¿ÑĢÐ¸Ð¼ÐµÑĢÐ½Ð¾":3563,"Ð¾Ð¿Ð¾Ð»":3564,"ĠÐºÐ¾ÑĢÐ¾ÑĤ":3565,"ĠÑģÐ¾Ð³Ð»Ð°Ñģ":3566,"ÑĳÑģ":3567,"Ð¾Ð²Ð°Ð½Ð¸Ð¹":3568,"ĠÑĤÐ°Ð½ÐºÐ¾Ð²":3569,"Ð¸ÑĩÐµÑģÐºÐ¸Ð¼Ð¸":3570,"Ð°ÑĢÐ¼":3571,"Ð¾Ð¶Ð´ÐµÐ½Ð¸Ðµ":3572,"Ð°Ð´Ðµ":3573,"ĠÐ¿Ð¾ÑģÐµÐ»ÐµÐ½Ð¸Ðµ":3574,"ĠÐ¾Ð±Ð²Ð¸Ð½":3575,"Ð¾Ð¿Ð¾Ð»ÑĮ":3576,"Ð´ÐµÐ½Ð°":3577,"ard":3578,"Ġ1997":3579,"Ð°Ð¹Ð´Ð¶":3580,"ĠÐ¾ÑĢÐ¸Ð³Ð¸Ð½":3581,"ĠÑģÐ¿Ð°Ñģ":3582,"ĠÑĥÐµÐ·Ð´":3583,"ĠÐ¿Ð»ÐµÐ¼":3584,"ĠÐ¸ÑģÐ¿Ð¾Ð»ÑĮÐ·ÑĥÐµÑĤÑģÑı":3585,"Ð¸ÑĤÑĭ":3586,"Ġ35":3587,"ĠÐ³Ð¾ÑĤÐ¾Ð²":3588,"ĠÐ¿ÑĤ":3589,"ĠÐ¿ÑĢÐ°Ð²Ð¸ÑĤÐµÐ»ÑĮÑģÑĤÐ²Ð°":3590,"Ġ31":3591,"ÑıÑİÑĤ":3592,"ĠÐ¿ÐµÑĢÐµÐ´Ð°Ñĩ":3593,"ĠÐ²Ð²ÐµÐ´":3594,"Ð¸ÑĤÐµÐ»ÑıÐ¼Ð¸":3595,"ĠÑģÐ°Ð¼Ð¾":3596,"ĠÐºÐ»Ð°Ð´Ð±":3597,"ĠÐ·Ð°ÐºÐ¾Ð½Ñĩ":3598,"Ð¿Ð¿":3599,"Ð°Ð½ÑģÐºÐ¸Ð¹":3600,"ÐºÐ¾Ð´":3601,"Ð´Ð¸Ð½Ðµ":3602,"ĠÐ¸Ð½Ð¾ÑģÑĤ":3603,"ĠÐ²ÐµÑĢÑħÐ¾Ð²Ð½Ð¾Ð³Ð¾":3604,"Ð¸ÑģÑĤÐ°":3605,"ĠÐ¸Ð½Ð¾ÑģÑĤÑĢÐ°Ð½":3606,"ĠÐ»Ð¸ÑĤÐµÑĢÐ°ÑĤÑĥÑĢ":3607,"ĠÑĢÐ°Ð¼ÐºÐ°Ñħ":3608,"ÑĥÐ¶Ð´":3609,"ĠÐ³Ð¾Ð»Ð¾Ñģ":3610,"ÐµÑĢÐ±Ð°Ð¹Ð´Ð¶":3611,"ĠÑģÐ²Ð¸Ð´":3612,"Ð½Ð¸ÑĨÑĭ":3613,"Ð²ÐµÑĤÐ°":3614,"ĠÐ´Ð¾ÑģÑĤÑĥÐ¿":3615,"Ġ1995":3616,"Ð°ÑİÑīÐ¸Ðµ":3617,"Ð¿ÐµÑĢÐµ":3618,"ĠÐ´ÐµÐº":3619,"ÑģÑĤÑĢÐµ":3620,"ĠÐ°Ð½Ð³":3621,"ĠÐ³Ð»Ð°Ð²Ð½ÑĭÐ¼":3622,"ĠÐ¿Ð°Ð½":3623,"Ð²Ð¾Ñģ":3624,"ĠÑģÐ¾ÑĢÐµÐ²":3625,"Ð°Ð½ÑģÐ¾Ð²":3626,"ÐµÐ³Ð¾ÑģÑı":3627,"ĠÑĢÑĥÑģÑģÐºÐ¾Ð¹":3628,"ĠÐ½ÐµÑĳ":3629,"ÐµÑĦÐ¾Ð½":3630,"Ġ1918":3631,"ĠÐ±ÑĥÐº":3632,"Ð¸ÐºÑģ":3633,"ĠÐºÐ¾ÑĢÐ¾Ð»Ñı":3634,"ĠÐ¼Ð¾ÑģÐºÐ¾Ð²ÑģÐºÐ¾Ð¹":3635,"Ð°ÐºÐ°":3636,"ĠÑģÐ¸Ð»Ñĭ":3637,"ÐºÑĢÐ°Ñģ":3638,"ÑĭÐ²Ð°ÑĤÑĮ":3639,"ĠÑĩÑĥÐ²":3640,"ĠÑĪÐºÐ¾Ð»Ñĥ":3641,"ĠÐ·Ð°Ð½ÑıÐ»":3642,"ĠÐ¼Ð°ÑģÑĤÐµÑĢ":3643,"ĠÐ·Ð°Ð³":3644,"Ð°ÑĢÑĤÐ°Ð¼":3645,"ĠÐ¸ÑģÐ¿ÑĭÑĤ":3646,"ĠÐ¿ÑĢÐµÐ·Ð¸Ð´ÐµÐ½ÑĤÐ°":3647,"Ð²Ð¸Ð¶":3648,"Ð²Ð¸":3649,"ĠÑĥÑĩÐµÐ½Ð¸":3650,"ĠÐ±Ð°ÑĤÐ°Ð»ÑĮ":3651,");":3652,"ĠÐ´Ð¾ÑģÑĤÐ°ÑĤ":3653,"ĠÐºÐ¾ÑĢÐ¿ÑĥÑģÐ°":3654,"ĠÑĢÐ¾Ð·":3655,"ĠÑĦÐµÑĢ":3656,"ĠÐºÑĢÑĭÐ¼":3657,"ĠÐ»ÐµÐ½Ð¸Ð½Ð³ÑĢÐ°Ð´":3658,"ĠÐ´Ð½Ñı":3659,"ĠÐ´ÑĢÑĥÐ³Ð¸Ð¼Ð¸":3660,"ĠÐ²ÑģÐºÐ¾ÑĢÐµ":3661,"ĠÐ¼ÑĥÐ½Ð¸ÑĨÐ¸Ð¿Ð°Ð»":3662,"ĠÐ½Ð°Ð±Ð»ÑİÐ´":3663,"ĠÑĤÐµÐ°ÑĤÑĢÐ°":3664,"ÑĥÑģÑĤÑı":3665,"ĠÐºÐ¾Ð¼Ð°Ð½Ð´Ð°":3666,"ĠÐ½Ð°Ð·ÑĭÐ²Ð°ÐµÐ¼":3667,"ĠÐ³Ð¾ÑģÑĥÐ´Ð°ÑĢÑģÑĤÐ²ÐµÐ½Ð½Ð¾Ð¹":3668,"ÑıÐ»Ð°":3669,"ĠÐ´ÐµÑĢÐµÐ²Ð½Ðµ":3670,"ĠÑĢÐ°Ð·Ð¼ÐµÑĢ":3671,"Ð¿ÐµÑĢÐ²ÑĭÐ¹":3672,"ĠÑĦÐ¸Ð»ÑĮÐ¼Ð°":3673,"ÑĩÐµÐ»":3674,"ÐµÐ¹Ð¼":3675,"ĠÐ½Ð°Ð¿":3676,"ÐºÐ¾Ð¿":3677,"ĠÑĤÐµÑĢÑĢÐ¸ÑĤÐ¾ÑĢ":3678,"ÐºÐ¸Ð¼Ð¸":3679,"Ġ1994":3680,"ĠÐ³Ð¸Ð¼":3681,"Ð¿Ð¾ÑģÑĤ":3682,"Ð¸Ð°ÑĤ":3683,"ĠÐ±ÐµÐ·Ð¾Ð¿Ð°Ñģ":3684,"ÑİÑīÐ¸Ñħ":3685,"Ġ1996":3686,"ĠÑħÑĥÐ´Ð¾Ð¶ÐµÑģÑĤÐ²ÐµÐ½":3687,"Ð²ÐµÐ»":3688,"Ð¸ÐºÐ¾Ð¹":3689,"ĠâĢĵ":3690,"70":3691,"ĠÐ²Ð¿Ð¾ÑģÐ»ÐµÐ´ÑģÑĤÐ²Ð¸Ð¸":3692,"Ð½ÐµÑģÐ¼Ð¾ÑĤÑĢÑı":3693,"ĠÐ½ÑĭÐ½Ðµ":3694,"Ð»ÑıÐµÑĤ":3695,"ĠÑģÐµÑĢÐ¸":3696,"ĠÑĢÐ°Ð·ÑĢÑĥÑĪ":3697,"Ð¸ÑĢÑĥÐµÑĤ":3698,"ÑĦÐµÑĢÐµÐ½":3699,"Ð°ÑİÑīÐµÐ¹":3700,"Ð¹Ð¾ÑĢ":3701,"Ð¸Ð¾Ð½Ð°":3702,"Ð°Ð¹Ð»Ð¾Ð²":3703,"ĠÐ¸Ð·ÑĢÐ°":3704,"ĠÐ·Ð°Ñī":3705,"ĠÐ¼Ð¸Ñħ":3706,"ĠÐ³ÐµÑĢÑĨÐ¾Ð³":3707,"ÑĥÑīÐµÑģÑĤÐ²ÐµÐ½Ð½Ð¾":3708,"ĠÐºÑĢÐ¸ÑģÑĤ":3709,"ĠÑĦÑĢÐ¾Ð½ÑĤÐ°":3710,"Ð¼Ð¾ÑĢ":3711,"ĠÐºÑĢÑĥÐ¿Ð½ÐµÐ¹":3712,"Ð·Ð°Ðº":3713,"ĠÐ±Ð°ÑģÑģ":3714,"Ġ1993":3715,"ĠÑģÐ»Ð¾Ð²Ð°":3716,"Ð²Ñĥ":3717,"ĠÐºÐ¾Ð½ÑģÑĤÑĢÑĥÐº":3718,"ĠÐ¿ÑĢÐµÐ´ÑģÑĤÐ°Ð²Ð»ÑıÐµÑĤ":3719,"Ð¾ÑģÑĤÐ°ÑĤ":3720,"ĠÐ¾ÑĢÑĥÐ´":3721,"ĠÐ¿ÑĥÑĤÐ¸":3722,"ĠÐ°Ð²ÑģÑĤ":3723,"ĠÐºÐ¾Ð½ÑĤÑĢÐ¾Ð»":3724,"Ð½ÐµÐ½":3725,"ÑĩÐ°Ñģ":3726,"ĠÐ¿ÐµÑĢÐµÐ¸Ð¼ÐµÐ½":3727,"ĠÐ¿ÑĢÐ°Ð²Ð¾":3728,"ĠÐ¿ÐµÑĢÐ²ÑĥÑİ":3729,"ÑĦÐ¸Ð»ÑĮ":3730,"ĠÑģÑĤÐ°Ð½Ð¾Ð²Ð¸ÑĤÑģÑı":3731,"ĠÑĥÑĢ":3732,"ÐµÐ½ÑĤÐ¾Ð¼":3733,"ĠÐºÐ¸Ð»Ð¾Ð¼ÐµÑĤ":3734,"ĠÐ¿ÑĢÐ¸ÑģÐ²Ð¾":3735,"ĠÑİÐ³":3736,"ÑĢÐ¾Ð·":3737,"ĠÐ¿ÑĢÐ°ÐºÑĤÐ¸ÑĩÐµÑģÐºÐ¸":3738,"ÐµÐ³Ð´Ð°":3739,"Ð¸ÑĩÐ½Ð¾":3740,"ĠÐ°Ð²ÑģÑĤÑĢ":3741,"Ð¿Ð¾ÑģÑĢÐµÐ´":3742,"ĠÐ°Ð½Ð´ÑĢÐµ":3743,"ĠÑĤÑĢÐ°Ð²":3744,"Ð½ÑĥÐ¶Ð´":3745,"ÑĥÑİÑīÐ¸Ðµ":3746,"Ð¸Ð²Ð°":3747,"Ġde":3748,"ĠÐ¿ÐµÑĢÐµÐ½":3749,"ĠÑģÐ°Ð´":3750,"ĠÑĨÐµÐ½ÑĤÑĢÐ¾Ð¼":3751,"ÑĥÐºÐ¸":3752,"ĠÐ¾ÑĤÐ¼ÐµÑĤ":3753,"ĠÐºÑĢÐ°Ñı":3754,"Ð½Ð¸ÑĤ":3755,"ĠÐ¾Ð¿ÐµÑĢÐ°ÑĨÐ¸Ð¸":3756,"ÑĨÐ¸ÑıÑħ":3757,"ĠÑģÐ»ÑĥÐ¶Ð±Ñĥ":3758,"ĠÐºÐ°Ð´":3759,"ÐµÑĢÐ°Ð¼Ð¸":3760,"ĠÐ¸ÑģÑģÐ»ÐµÐ´Ð¾Ð²Ð°Ð½Ð¸Ñı":3761,"Ð¾ÑģÑĤÑĮÑİ":3762,"ĠÐ¿ÑĥÑĪ":3763,"ÑĨÐµÐ¼":3764,"Ð¾ÐºÐ¾Ð½Ñĩ":3765,"Ð°Ð½Ð´Ð°ÑĢÑĤ":3766,"ĠÐ¿Ð°ÑĢÐ¸Ð¶":3767,"Ð²ÐµÐ½":3768,"ĠÐ¿ÑĢÐ¸ÑģÑĥÑĤÑģÑĤÐ²":3769,"ĠÐºÐ¾Ð½ÑĤÑĢÐ°ÐºÑĤ":3770,"ĠÑĢÐ°Ð·Ð½ÑĭÑħ":3771,"ĠÐ¿ÑĢÐ¸ÑĪ":3772,"ĠÐ´Ð²ÑĥÐ¼Ñı":3773,"ĠÐ³Ð¾ÑĢÐ¾Ð´ÑģÐºÐ¾Ð³Ð¾":3774,"ĠÑĥÐ±Ð¸Ð¹":3775,"ĠÐ°ÑĢÑħÐ¸ÑĤÐµÐºÑĤ":3776,"ĠÐ°Ð·ÐµÑĢÐ±Ð°Ð¹Ð´Ð¶":3777,"ĠÐ²ÑĭÐ½ÑĥÐ¶Ð´":3778,"ĠÐ¿Ð¾Ð»ÐºÐ¾Ð²":3779,"ĠÐ¿Ð¾ÑĤÑĢÐµÐ±":3780,"ĠÑģÐµÑĢÐµÐ±ÑĢÑı":3781,"ĠÑģÐ²Ð¸Ð´ÐµÑĤ":3782,"ĠÑıÐ½Ð²Ð°ÑĢÐµ":3783,"ĠÐ²ÑĭÑĢÐ°Ð¶":3784,"ĠÐ¿ÐµÑĢÐ²ÑĭÐµ":3785,"ĠÐ½ÐµÑĦ":3786,"Ð²Ð¸Ð³":3787,"ĠÐ²Ð¾Ð´Ñĭ":3788,"Ð¿Ñĥ":3789,"Ð¿Ð°ÑĢÐ°":3790,"ÑĩÐµÑĢÐµÐ·":3791,"ĠÐ¿ÑĢÐ¸ÑģÑĤ":3792,"ĠÐ¼Ð½ÐµÐ½Ð¸Ñİ":3793,"ĠÐ¿ÐµÑĢÐµÑĪÑĳÐ»":3794,"ĠÐºÐ½Ð¸Ð³Ð¸":3795,"Ġy":3796,"ĠÐ¿ÑĢÐµÑģÑĤ":3797,"ĠÐ¿Ð¾Ð»ÑĮÑĪ":3798,"Ġ1940":3799,"ĠÑħÑĢÐ°Ð½":3800,"Ð¼ÐµÐ´":3801,"ÑĢÐ¸Ñı":3802,"ĠÑģÐ¸ÑģÑĤÐµÐ¼Ð°":3803,"ĠÐ¾ÑģÐ¾Ð±ÐµÐ½Ð½Ð¾":3804,"ĠÐ¾Ð±ÑīÐµÐ³Ð¾":3805,"Ð¿Ð¾Ð²":3806,"Ð±ÑĥÑĢÐ³Ðµ":3807,"Ð±ÐµÑĢÐ³":3808,"ĠÐ³Ð»Ð°Ð²Ð½Ð¾Ð³Ð¾":3809,"ĠÑģÑĦÐ¾ÑĢÐ¼":3810,"ĠÐ´ÑĢÑĥÐ³Ð¸Ð¼":3811,"ĠÑĤÑĢÐ°Ð½ÑģÐ¿Ð¾ÑĢÑĤ":3812,"ĠÐµÐ¿Ð°ÑĢÑħ":3813,"ĠÑĦÐµÐ´ÐµÑĢÐ°Ð»ÑĮ":3814,"ÑĳÐ³":3815,"ĠÐ²Ð¾ÐµÐ½Ð½Ð¾":3816,"ĠÑĢÐ°Ð´":3817,"ĠÑĢÐ¾Ð»Ð¸":3818,"Ð¸Ð²Ð°ÑĤÑĮ":3819,"ĠÐ¿ÑĢÐµÐ¸Ð¼":3820,"ĠÐºÐ°ÑĤÐµÐ³":3821,"ĠÐ³ÐµÐ½ÐµÑĢÐ°Ð»ÑĮ":3822,"Ð³Ð»Ñı":3823,"Ð¿Ñĭ":3824,"ÑģÑĦÑģÑĢ":3825,"ĠÐ¿Ð¾Ð¼Ð¾ÑīÐ¸":3826,"ĠÐ¿ÑĢÐ¾Ð¸Ð·Ð²Ð¾Ð´ÑģÑĤÐ²Ð°":3827,"ĠÐ´ÐµÑıÑĤÐµÐ»ÑĮÐ½Ð¾ÑģÑĤÑĮ":3828,"ĠÐ¾ÑĤÐ»Ð¸ÑĩÐ¸Ðµ":3829,"Ð½ÑİÑİ":3830,"ĠÑĢÐ°Ð·ÑĢÐµÑĪ":3831,"ĠÐ¿ÑĢÐµÐ´Ð¾ÑģÑĤÐ°Ð²":3832,"ĠÐ²ÑĭÐ·":3833,"ÐµÐ½Ð½Ð¾ÑģÑĤÐ¸":3834,"ÐºÐ¾Ðµ":3835,"ĠÐ·Ð°Ð²ÐµÐ´":3836,"ÐºÐ»ÑİÑĩ":3837,"Ð¸Ð½Ð¸":3838,"Ð¸ÑģÑĤÑĭ":3839,"ĠÑĤÐ°ÐºÐ¸Ð¼":3840,"ĠÐ²Ð·Ð°Ð¸Ð¼":3841,"Ġ2018":3842,"ap":3843,"ĠÐºÐ¾Ð½ÑĤÑĢ":3844,"ĠÑĥÐ´Ð°ÑĢ":3845,"ÑĢÐ¸Ðº":3846,"ĠÐ¿Ð¾Ð¼Ð¾Ð³":3847,"ĠÑģÐµÑĢÐµÐ´Ð¸Ð½Ðµ":3848,"ÐµÑħÐ½":3849,"ĠÐ³Ð²Ð°ÑĢÐ´ÐµÐ¹":3850,"ĠÑĪÐºÐ¾Ð»Ðµ":3851,"Ð»ÐµÑĢ":3852,"ĠÐ¿ÑĢÐ¾ÐµÐºÑĤÐ°":3853,"ĠÑĢÐ°Ð±Ð¾ÑĤÐµ":3854,"ĠÐ´ÑĥÑĪ":3855,"ĠÐ¼Ð¾ÑģÐºÐ²Ñĭ":3856,"Ð½Ð°ÑĩÐ°Ð»Ð°":3857,"ĠÐ²Ð°ÑĢÐ¸Ð°Ð½ÑĤ":3858,"Ð¾ÑĢÐ¾Ð½ÐµÐ½":3859,"Ð´Ð°ÑİÑĤ":3860,"ĠÐ¿Ð¾Ð´ÑĤ":3861,"ĠÐºÐ°ÑĢÑĮÐµÑĢ":3862,"ĠÐ»Ð°Ð³":3863,"ÐºÐ¾Ð½ÑģÑĤ":3864,"Ð²ÑĭÑĪ":3865,"ĠÑĥÑģÑĤÑĢÐ¾Ð¹":3866,"ÑĩÐµÑĤ":3867,"ĠÑĢÐµÐ³Ð¸Ð¾Ð½Ðµ":3868,"ĠÐ²ÐµÐ´ÑĥÑī":3869,"ĠÐ¼Ð°Ðµ":3870,"ĠÐ´Ð¾Ð»Ð¶Ð½Ñĭ":3871,"ÑĢÐµÐ»ÑĮ":3872,"ĠÐ½Ð°ÑħÐ¾Ð´Ð¸Ð»ÑģÑı":3873,"ĠÐ¸ÑģÐ¿Ð¾Ð»ÑĮÐ·Ð¾Ð²Ð°Ð»":3874,"ĠÐºÑĤÐ¾":3875,"ÑģÑĤÐ°ÑĤ":3876,"ÑĨÐ²ÐµÑĤ":3877,"ĠÐ¿Ð°Ð¿":3878,"ĠÐºÐ¸Ð½Ð¾":3879,"ĠÑĢÑģÑĦÑģÑĢ":3880,"Ð½ÐµÑĢ":3881,"Ġ1939":3882,"ĠÑģÐ½Ð¾Ð²Ð°":3883,"Ð¸ÑĢÐ¾Ð²Ð°Ð½Ð°":3884,"ĠÐ°ÑĦÑĢ":3885,"ĠÐ¼Ð½Ð¾Ð³Ð¾ÑĩÐ¸ÑģÐ»ÐµÐ½":3886,"ĠÑĩÐ°ÑģÐ¾Ð²":3887,"ĠÐ¿Ð¾Ð»Ðµ":3888,"Ġ179":3889,"ĠÑģÐµÐ½ÑĤÑıÐ±ÑĢÐµ":3890,"ĠÐ²ÑĭÑģÑĤÑĥÐ¿Ð°Ð»":3891,"ĠÐ¿ÑĢÐ¾Ðº":3892,"ĠÐ½Ð¾Ð²ÑĭÐµ":3893,"ĠÐ¿Ð°ÑģÑģ":3894,"ĠÑįÑĤÐ¾Ð¼Ñĥ":3895,"Ð±Ð°Ð½":3896,"ĠÑģÐµÐ»ÑĮÑģÐ¾Ð²ÐµÑĤ":3897,"Ð°Ð´Ð¼Ð¸Ð½Ð¸ÑģÑĤÑĢÐ°ÑĤÐ¸Ð²":3898,"ĠÐ¿ÑĢÐµÐ¾Ð±ÑĢÐ°Ð·":3899,"ÑģÐ¾Ð»":3900,"ĠÐ¿ÑĢÐ¸Ð»":3901,"ĠÑĦÐ¸Ð³":3902,"ÑģÐµÐ½":3903,"ĠÐ´Ð¾Ð»Ð¶Ð½Ð¾ÑģÑĤÐ¸":3904,"ĠÑĢÐ°ÑģÑģÑĤÐ¾Ñı":3905,"ÑĢÐ°Ð»Ð¸":3906,"ĠÐ¸ÑģÐ¿Ð¾Ð»Ð½Ñı":3907,"ĠÑģÑĩÐ¸ÑĤÐ°ÐµÑĤÑģÑı":3908,"ĠÑĤÑĢÐ°Ð´Ð¸ÑĨÐ¸Ð¾Ð½":3909,"ÑĢÐ°Ð±Ð°ÑĤ":3910,"ĠÐ´Ð²Ð¾ÑĢÑıÐ½":3911,"ĠÑģÐ¾Ð²ÐµÑĤÑģÐºÐ¾Ð¹":3912,"ĠÐ¿Ð»Ð¾":3913,"ÑĢÐ¾ÑģÑĤ":3914,"ĠÑģÐ¿Ð¾ÑĢÑĤÐ¸Ð²":3915,"ĠÐºÐ¾ÑģÐ¼":3916,"ĠÐ½Ð°Ð³ÑĢÐ°Ð´":3917,"ĠÐ¸Ð½Ð´ÐµÐºÑģ":3918,"Ð°Ð³Ð¾Ð³":3919,"ĠÐºÐ¾Ð¼Ð¼ÑĥÐ½":3920,"ĠÐ´Ð¾ÑĢÐ¾Ð³Ð¸":3921,"Ð³Ð¸Ð¾Ð·":3922,"ÑĥÐºÑĤ":3923,"ĠÐ²Ð¸ÑĤ":3924,"ÑħÐ¾Ð·":3925,"ĠÑĤÐ°ÑĤ":3926,"ers":3927,"ĠÐ¿ÑĥÐ±Ð»":3928,"ĠÐ½Ð°Ð³ÑĢÐ°Ð¶Ð´ÑĳÐ½":3929,"Ð¸ÑģÐ»Ð°Ð²":3930,"ĠÐ²ÐµÑĩ":3931,"ĠÑĪÐºÐ¾Ð»Ð°":3932,"ĠÐ¿Ð¾ÑħÐ¾Ð´":3933,"ĠÐ¿Ð¾Ð´ÑĢÐ°Ð·Ð´ÐµÐ»":3934,"ĠÐ¿Ð¾ÑģÑĳÐ»Ð¾Ðº":3935,"ĠÑĥÐ¿ÑĢÐ°Ð·Ð´Ð½":3936,"Ð°Ð¼ÐµÑĢ":3937,"ĠÐ°ÑĢÑħÐ¸Ðµ":3938,"ĠÐ¿Ð¾Ð²ÑĭÑĪ":3939,"ÑĩÐµÐ¼":3940,"Ð¸Ð½Ð³Ð°":3941,"ĠÑģÐ¾ÑĤÑĢÑĥÐ´Ð½Ð¸Ñĩ":3942,"Ð¿Ðµ":3943,"ĠÐ°Ð²Ð³ÑĥÑģÑĤÐµ":3944,"ÐµÐ»ÐµÐ¹":3945,"ĠÑĢÑĦ":3946,"ie":3947,"ĠÐ´ÐµÐºÐ°Ð±ÑĢÐµ":3948,"ĠÐ¸Ð½Ð¾Ð³Ð´Ð°":3949,"..":3950,"ĠÑģÐ¾Ð»Ð´Ð°ÑĤ":3951,"ĠÐ¿ÑĢÐµÐ´ÐµÐ»":3952,"Ð¿ÐµÑĤÐµÑĢÐ±ÑĥÑĢÐ³":3953,"ĠÐ½Ð°ÑĨÐ¸Ð¾Ð½Ð°Ð»ÑĮÐ½Ð¾Ð¹":3954,"ĠÐ·Ð²Ð°Ð½Ð¸Ðµ":3955,"ĠÐ¾ÑĤÑĨÐ°":3956,"ĠÑģÐ¾Ð·Ð´Ð°Ð½Ð¸Ñı":3957,"ta":3958,"Ð¾ÑĩÐ½ÑĭÑħ":3959,"ÑĢÐ°ÑģÐ¿Ð¾Ð»Ð¾Ð¶":3960,"ĠÐ³Ð¾Ð¼":3961,"ÑĭÐº":3962,"Ð»ÐµÐºÑĤÐ¸Ð²":3963,"ĠÐ¿ÐµÑĢÐµÑģ":3964,"./":3965,"Ð¾Ð²Ð°Ð»Ð¾":3966,"Ġ1917":3967,"ĠÐ¿ÑĢÐ¸Ð½ÑĨÐ¸Ð¿":3968,"ĠÐ¿Ð»Ð°Ð²":3969,"ĠÑģÐ¾Ð³":3970,"ĠÑģÐµÑģÑĤ":3971,"Ð±Ð°ÑĢ":3972,"ĠÐ²ÐµÐ»Ð¸Ñĩ":3973,"ĠÑĢÐ°Ð·Ð²ÐµÐ´":3974,"ĠÑĢÐ°ÑģÑģÐ¼Ð°ÑĤÑĢÐ¸Ð²":3975,"ĠÐ¿ÑĢÐ¾ÑģÑĤÑĢÐ°Ð½":3976,"ĠÐ¼ÐµÑĩ":3977,"Ð²Ð¼ÐµÑģÑĤ":3978,"Ð½ÐµÐºÐ¾ÑĤÐ¾ÑĢ":3979,"ÑħÐ¾ÑĤ":3980,"ĠÑģÐ²Ð¾ÑĳÐ¼":3981,"ĠÐ¼Ð¾ÑģÐºÐ¾Ð²ÑģÐºÐ¾Ð³Ð¾":3982,"Ð°ÑĤÐ¾ÑĢÐ°":3983,"ĠÐºÐ¾Ð¼Ð¿ÑĮÑİÑĤ":3984,"ĠÑģÐµÐ³":3985,"ĠÐºÑĥÐ·":3986,"ĠÐ½Ð¸Ð¶Ðµ":3987,"ÑĢÐ°Ð¼Ð°":3988,"ĠÐ¼Ð°ÑĢÑĤÐµ":3989,"Ġ1950":3990,"Ð¼Ð°Ðº":3991,"ĠÐ³Ð¸Ð´":3992,"ĠÑģÐ°Ð»":3993,"ĠÐ½ÐµÐ¿ÑĢ":3994,"ĠÐµÐ³":3995,"ĠÐ¿Ð¾ÑĢÑĤÑĥÐ³":3996,"ĠÐ¾ÑĢÐ´ÐµÐ½Ð°":3997,"Ð¿ÐµÑĢ":3998,"ĠÐ²ÐºÐ»ÑİÑĩÐ°Ñı":3999,"ĠÐ¾Ð±Ð»Ð°":4000,"ĠÐ¾Ð´Ð½Ð¾Ð¼":4001,"ĠÐ¸ÑģÐºÑĥÑģÑģÑĤÐ²Ð°":4002,"ĠÐ¾ÑĤÐ²":4003,"Ð¶ÐµÐ»":4004,"ĠÐ¿Ð°ÑĤÑĢÐ¸":4005,"Ð¸ÑģÑĤÐ°Ð½":4006,"\").":4007,"ĠÐ²ÑĤÐ¾ÑĢÐ¾Ð³Ð¾":4008,"ĠÐ¿Ð¾Ð»Ðº":4009,"ĠÑģÐµÐ·Ð¾Ð½":4010,"ĠÑįÑĤÑĥ":4011,"ĠÑģÑĢÐ¾Ðº":4012,"ĠÐ³ÐµÑĢÐ¾Ñı":4013,"ĠÐ´Ð°ÑĤ":4014,"ĠÐ¾ÑĤÐ½Ð¾ÑĪÐµÐ½Ð¸Ñı":4015,"ĠÐ°ÑĢÑĤÐ¸Ð»Ð»ÐµÑĢ":4016,"ĠÐ¿Ð»Ð¾ÑīÐ°Ð´Ð¸":4017,"ÑĦÑĢÐ°Ð½":4018,"ÑİÐ½":4019,"ÑıÐ±ÑĢÑĮ":4020,"ÑĢÐµÑī":4021,"ĠÑĤÐ°Ð»":4022,"ĠÐºÑĢÐ¾Ð¼Ðµ":4023,"ĠÐ²ÑģÐ¿":4024,"ĠÐ´Ð¾Ð»Ð»":4025,"Ġ1989":4026,"ĠÐ·Ð°Ð¼ÐµÑĤ":4027,"ĠÐ¿ÑĮ":4028,"ĠÑĦÐ¸Ð½Ð°Ð½ÑģÐ¾Ð²":4029,"ÑİÑīÐ¸Ðµ":4030,"ĠÐ¾ÐºÑĤÑıÐ±ÑĢÐµ":4031,"Ð±ÐµÐº":4032,"Ð½Ð¾Ðº":4033,"ĠÐºÐ°Ð½ÑĤ":4034,"Ð°Ð²ÑĤÐ¾ÑĢ":4035,"ĠÐ¿ÐµÑĢÐµÐµÑħ":4036,"Ð±Ð¾Ð¹":4037,"ĠÑģÑĤÑĢÐ°Ð½Ðµ":4038,"Ð¾ÑĢÐ³Ð°Ð½":4039,"ÑĪÐ¸":4040,"ÐºÐµÑģÑĤ":4041,"ĠÐ´ÑĢÐ°Ð¼":4042,"ĠÐºÐ¾Ð¼Ð¸ÑĤÐµÑĤÐ°":4043,"ĠÐ°Ð»ÐµÐºÑģÐ°Ð½Ð´ÑĢÐ°":4044,"ĠÐ¿ÑĢÐ°Ð·Ð´":4045,"ĠÐºÐ°ÑĢÑĮ":4046,"ÑģÐºÐ¾Ð²":4047,"ĠÐ¾Ð·Ð½Ð°Ñĩ":4048,"ĠÑģÑĢÐ°Ð·Ñĥ":4049,"ĠÐ³Ð¾ÑģÑĥÐ´Ð°ÑĢÑģÑĤÐ²ÐµÐ½Ð½ÑĭÐ¹":4050,"ĠÐ¿ÑĢÐ¾Ð¸ÑģÑħÐ¾Ð´":4051,"ĠÐ¿ÑĢÐµÑģÑĤÑĥÐ¿":4052,"ĠÑģÐ²ÑıÑĤÐ¾Ð³Ð¾":4053,"Ġ70":4054,"ĠÑģÐ¸Ð³":4055,"ĠÐ¾ÑĩÐµÑĢÐµÐ´ÑĮ":4056,"ĠÐ¿ÑĭÑĤ":4057,"ĠÐ½ÐµÐ¿Ð¾ÑģÑĢÐµÐ´":4058,"Ð°ÑģÐ°":4059,"ĠÐ¿ÐµÐ²":4060,"ÑģÑĤÐ°ÑĢ":4061,"Ð²Ð¾Ð¹":4062,"ĠÑģÐµÐ¼ÑĮÐ¸":4063,"art":4064,"ÑıÑİÑĤÑģÑı":4065,"ĠÐ²Ð»Ð°":4066,"Ð°Ð½Ð°Ð²Ð»Ð¸Ð²":4067,"ĠÐ´Ð¾Ð±Ð°Ð²":4068,"Ð°Ð¼Ð°":4069,"ĠÑĨÐµÐ½ÑĤÑĢÐµ":4070,"ĠÑĢÐ¾ÑģÑģÐ¸Ð¹ÑģÐºÐ¸Ð¹":4071,"bo":4072,"ĠÐ´Ð¸Ð¿":4073,"ĠÑĥÐºÑĢÐ°Ð¸Ð½":4074,"ĠÑģÐµÐ¹":4075,"ĠÐ¾ÑĢÐ´ÐµÐ½Ð¾Ð¼":4076,"ĠÑĥÑģÐ¸Ð»":4077,"Ð¶Ð´Ðµ":4078,"ĠÐ´Ð°Ð½Ð½ÑĭÑħ":4079,"31":4080,"ÑĢÐ¸Ñħ":4081,"ĠÑĥÐ¿ÑĢÐ°Ð²Ð»Ñı":4082,"ĠÐ¼Ð¸ÐºÑĢÐ¾":4083,"ĠÐ¿ÑıÑĤÑĮ":4084,"ĠÐºÐ°Ð¿":4085,"ÑĳÐ½Ð½Ð°Ñı":4086,"ÐºÐ¾Ð»ÑĮ":4087,"ĠÑĩÐµÐ¼Ð¿Ð¸Ð¾Ð½Ð°ÑĤ":4088,"ĠÐ½Ð°ÑĩÐ°Ð»Ð¾":4089,"ĠÑģÐ¾Ð¾ÑĤÐ²ÐµÑĤÑģÑĤÐ²Ð¸Ð¸":4090,"ĠÐ½ÐµÑģ":4091,"ĠÐ·Ð°Ð¼ÐµÐ½":4092,"ĠÑĪÐµÑģÑĤ":4093,"Ð¸ÑĨÑĥ":4094,"ĠÐ°Ð»ÐµÐºÑģÐ°Ð½Ð´ÑĢÐ¾Ð²":4095,"ĠÑįÑģÐº":4096,"\"),":4097,"Ð»Ð°Ð¼ÐµÐ½ÑĤ":4098,"ĠÐ½Ð°ÑĢ":4099,"ĠÐºÐ°ÑĢÑĮÐµÑĢÑĥ":4100,"ÑĩÐ»ÐµÐ½":4101,"ĠÐ²Ð¸Ð»ÑĮ":4102,"ĠÐ¿Ð¾ÑģÑĤÑĥÐ¿Ð¸Ð»":4103,"ĠÑĨÐ¸Ðº":4104,"ĠÑĢÐ°Ð·Ð³":4105,"ĠÑĦÐµÑģÑĤ":4106,"ĠÐ´ÑĥÐ±":4107,"ĠÐ³ÑĢÐ¸Ð³":4108,"ĠÐ²ÐµÐ»Ð¸ÐºÐ¾Ð±ÑĢÐ¸ÑĤÐ°Ð½Ð¸Ð¸":4109,"Ð³Ð¸Ð¾Ð½Ð°":4110,"ĠÑĢÑıÐ´Ð¾Ð¼":4111,"ĠÐ¾Ð¿Ð°Ñģ":4112,"Ð²ÑĢÐ°ÑĤ":4113,"ĠÐ¸Ð³ÑĢÐ°Ñħ":4114,"ĠÐ³Ð»Ð°Ð²Ðµ":4115,"ĠÐ±Ð¾Ð¼Ð±":4116,"ĠÐ¼Ð¸ÑģÑģ":4117,"ĠÐºÐ»Ð°Ð´Ð±Ð¸ÑīÐµ":4118,"ÑģÑĤÑĢÐ¾Ð¹":4119,"ĠÐºÑĢÐ°ÑģÐ½Ð¾Ð¹":4120,"Ð½Ð°Ð²":4121,"Ð²ÐµÑĢÐ¶":4122,"ÑĤÐ°ÐºÐ¸Ð¼":4123,"ĠÑĥÑĩÐ¸Ð»Ð¸ÑīÐµ":4124,"ĠÐºÑĥÐ±ÐºÐ°":4125,"Ð±ÑĥÐ´":4126,"ĠÐ²Ð¾Ð¹Ð½Ðµ":4127,"ĠÑĤÐµÑħÐ½Ð¾Ð»Ð¾Ð³":4128,"ĠÐ¾Ð¿ÑĭÑĤ":4129,"ĠÐºÐ°ÑĤÐ¾Ð»":4130,"ÐºÐ¸Ð½Ð°":4131,"ĠÑįÐ¿Ð¾Ñħ":4132,"ĠÐ°Ð²ÑģÑĤÑĢÐ°Ð»":4133,"all":4134,"ĠÐ·Ð°Ð¿Ð°Ð´Ð½Ð¾Ð¹":4135,"ĠÐ¸ÑİÐ½Ðµ":4136,"ĠÐ°Ð¿ÑĢÐµÐ»Ðµ":4137,"ĠÐ¾Ð»Ð¸Ð¼Ð¿Ð¸Ð¹ÑģÐºÐ¸Ñħ":4138,"ÑĥÐºÐ¾Ð²":4139,"Ð¾ÑģÑĤÐ¾ÑıÑĤÐµÐ»ÑĮ":4140,"ÑĢÑĥÑĤ":4141,"ĠÐ¾Ð±Ð¾ÑĢÐ¾Ð½Ñĭ":4142,"og":4143,"Ġ80":4144,"ĠÑģÐ¾ÑģÑĤÐ°Ð²Ð°":4145,"ĠÐ½Ð°Ð¿ÑĢ":4146,"ĠÑĢÑıÐ´Ð°":4147,"ĠÐ²ÑĭÐ¿ÑĥÑģÑĤ":4148,"ĠÐ¿ÐµÑĤÑĢÐ¾Ð²":4149,"ĠÐµÐ²ÑĢÐµÐ¹":4150,"ĠÐ¿Ð¾Ð»Ñı":4151,"ĠÐºÐ²Ð°ÑĢÑĤ":4152,"ÑģÑĤÐ²Ð¸Ðµ":4153,"ĠÐ·Ð´Ð°Ð½Ð¸Ñı":4154,"Ð¿Ð°ÑĢ":4155,"ĠÑģÐ¸ÑĤÑĥ":4156,"ĠÑĩÐ¸ÑģÐ»Ð°":4157,"est":4158,"ĠÐ¿ÑĢÐ¾Ð³ÑĢÐ°Ð¼Ð¼Ñĭ":4159,"190":4160,"Ð°Ð²ÑĪÐ¸Ñħ":4161,"ĠÑĢÐ¾Ð¼Ð°Ð½":4162,"ĠÐ·Ð°Ð²Ð¸ÑģÐ¸Ð¼":4163,"ĠÐ³ÑĢÐµÑĩÐµÑģÐº":4164,"ĠÐ¸Ð²Ð°Ð½":4165,"ĠÐ¾ÑĤÐµÑĨ":4166,"Ð¸ÑĢÐ¾Ð²Ð°Ð»Ð¸":4167,"ĠÑĢÐ°Ð·Ð²Ð¸ÑĤÐ¸Ðµ":4168,"ÑİÑģ":4169,"ĠÐ²Ð¾ÐµÐ½Ð½Ð¾Ð³Ð¾":4170,"ÑıÑģÐ½":4171,"ĠÐ¿ÑĢÐ¾ÑĦÐµÑģÑģÐ¾ÑĢ":4172,"ĠÑĢÐµÑĦÐ¾ÑĢÐ¼":4173,"ĠÑĩÐ¸ÑĤ":4174,"ĠÐ¸ÑİÐ»Ðµ":4175,"ÐµÐµÐ²":4176,"ĠÐ½Ð°ÑģÐµÐ»ÑĳÐ½Ð½ÑĭÑħ":4177,"ĠÐºÐ°Ð¼Ð¿":4178,"ĠÐµÐºÐ°ÑĤ":4179,"ĠÐ¼Ð¾Ð»Ð¾Ð´ÑĳÐ¶":4180,"ĠÐ¿ÑĢÐ¾ÑĤÑıÐ¶ÐµÐ½Ð¸Ð¸":4181,"ĠÐ½Ð°ÑĢÑĥÑĪ":4182,"ĠÐ·Ð°ÑĢ":4183,"ĠÑģÑĢÐµÐ´ÑģÑĤÐ²":4184,"ĠÐ¿ÐµÑĤÐµÑĢ":4185,"ĠÑĦÐ°Ð¼Ð¸Ð»Ð¸Ñı":4186,"Ð¾Ð½Ð°ÑĩÐ°Ð»ÑĮÐ½Ð¾":4187,"ĠÐ²ÑģÐµÐ³Ð´Ð°":4188,"ĠÐ°ÑĢÐ³":4189,"ÐµÑĢÐ¸Ð¼":4190,"Ð±Ð»":4191,"ĠÑĩÐµÑĤÐ²ÑĳÑĢ":4192,"ay":4193,"ĠÑĩÐµÑĢÐ½":4194,"ÐµÐ¹ÑģÑı":4195,"ĠÑĢÐµÐ·ÑĥÐ»ÑĮÑĤÐ°ÑĤÐ°Ð¼":4196,"ĠÐ´Ð¾ÐºÑĥÐ¼ÐµÐ½ÑĤ":4197,"ĠÑģÑĤÑĢ":4198,"ĠÐ±Ð¾Ð»ÑĮÑĪÐ¾Ðµ":4199,"Ð¾ÑĤÑĥ":4200,"Ġch":4201,"ÑĪÑĤÐ°":4202,"ĠÐ·Ð°Ð½ÑıÑĤ":4203,"ĠÑĥÐ»Ð¸ÑĨÑĭ":4204,"35":4205,"ÑģÑĤÐ²ÐµÐ½Ð½ÑĭÑħ":4206,"ĠÐ¿ÑĢÐµÐ´Ð¿ÑĢÐ¸Ð½":4207,"ĠÑĦÑĥÑĤÐ±Ð¾Ð»ÑĮ":4208,"ĠÑĢÐ°Ð·Ð¼ÐµÑī":4209,"90":4210,"ĠÐºÐ¾Ð»Ð»ÐµÐºÑĤÐ¸Ð²":4211,"Ð»Ð¸ÑĪ":4212,"ÑģÑĤÑĢÐ°":4213,"ĠÐ¿Ð¾Ð»ÑĥÑĩÐ¸Ð»Ð¸":4214,"ÑĥÑİÑīÐµÐ³Ð¾":4215,"Ð¾Ð´Ð½Ñı":4216,"ÑĥÑİÑīÐ¸Ð¼":4217,"ÑĤÐ°Ð½":4218,"up":4219,"ce":4220,"ÑģÑĤÐ¾":4221,"ĠÑĨÐµÐ½ÑĤÑĢÐ°Ð»ÑĮÐ½Ð¾Ð¹":4222,"Ð¾ÑĤÑĢÐµÐ±":4223,"Ð¾Ð´Ð¸Ð½":4224,"ÑĥÐµÐ¼":4225,"ĠÐºÐ»ÐµÑĤ":4226,"ĠÐ´Ð¸Ð½":4227,"Ð²ÑģÐµÐ³Ð¾":4228,"Ð³ÐµÐ¹":4229,"ĠÐ´ÑĥÐ¼":4230,"Ð¸ÑĢÐ¾Ð²Ð°Ð½Ñĭ":4231,"ÐµÑģÑĤÐ²Ð¾Ð¼":4232,"Ġ1919":4233,"Ð¶ÐµÐ³Ð¾Ð´":4234,"ĠÑģÑĭÐ½Ð°":4235,"ĠÐ¸Ð»":4236,"ip":4237,"ĠÑģÐ»ÑĥÐ¶Ð¸Ð»":4238,"ĠÐ½Ð°ÑģÑĩÐ¸ÑĤ":4239,"Ð¾Ð½Ð¾Ñģ":4240,"ĠÐ¿ÑĢÐ¾ÑıÐ²":4241,"ĠÐ¿Ð»ÐµÐ½":4242,"ÑĳÐ·Ð´":4243,"ÑĤÐµÑĢÑĢÐ¸ÑĤ":4244,"64":4245,"ĠÐ°Ð´Ð¼Ð¸Ð½Ð¸ÑģÑĤ":4246,"ĠÐ³ÐµÑĢÐ¾":4247,"ĠÑģÐ°Ð¼Ð¾Ð³Ð¾":4248,"ĠÑĩÐµÑħ":4249,"ĠÑĢÐµÐ»Ð¸Ð³Ð¸Ð¾Ð·":4250,"Ð¾ÑģÑĤÑĢÐ¾Ð²":4251,"ĠÑģÑĥÑħ":4252,"Ð½Ð°Ð·Ð½Ð°Ñĩ":4253,"ĠÑĢÐµÐ²Ð¾Ð»ÑİÑĨÐ¸Ð¸":4254,"ĠÑģÐ¿ÐµÐºÑĤ":4255,"ĠÐ³Ñĥ":4256,"ĠÑģÐµÐ»ÑĮÑģÐºÐ¾Ðµ":4257,"ĠÐ°Ð½Ð°Ð»Ð¾Ð³":4258,"ĠÐºÐ°Ð²Ð°Ð»":4259,"ĠÑģÐ¾ÑĨÐ¸Ð°Ð»Ð¸ÑģÑĤ":4260,"ĠÑģÐ¾ÑģÑĤÐ¾ÑıÐ½Ð¸Ñİ":4261,"ĠÐ¾ÑĤÐ½Ð¾ÑģÐ¸ÑĤÑģÑı":4262,"Ð½Ð¸ÐºÐµ":4263,"ĠÐ½Ð¾ÑıÐ±ÑĢÐµ":4264,"Ð¿Ð¾Ð»Ð¸ÑĤ":4265,"Ð¾Ð·Ð²":4266,"Ð¾ÑĨÐ¸":4267,"ĠÑģÐ»ÐµÐ´ÑĥÑİÑīÐ¸Ðµ":4268,"Ð°ÑıÑģÑı":4269,"ĠÐ¾Ð±Ð¾ÑĢÑĥÐ´":4270,"ĠÐºÐ¾Ð¼Ð¿Ð¾Ð·Ð¸ÑĤ":4271,"ĠÑģÐ»ÑĥÐ¶Ð±Ñĭ":4272,"ÑģÐµÐ²":4273,"ĠÐ¿ÑĢÐµÐ¼Ð¸Ð¸":4274,"ĠÐ¼Ñĥ":4275,"ĠÐ¾ÑģÑĤÐ°Ð½Ð¾Ð²":4276,"ÑĨÐµÐ½Ð¸":4277,"ÑĥÑĢÐ³":4278,"ĠÑģÐµÑĢÑĮ":4279,"ĠÐ²Ð¾Ð·Ð´ÑĥÑĪ":4280,"Ð¾ÑħÑĢÐ°Ð½":4281,"ĠÑĩÐµÑĢÑĤ":4282,"ĠÐ²ÑĭÑĪÐµ":4283,"ĠÐ²Ð´":4284,"ĠÑĤÐ°Ð±":4285,"ĠÐ»Ð¾Ð´":4286,"ĠÑĨÐ¸":4287,"ĠÐºÐ¾Ð½ÑģÑĤÐ¸ÑĤÑĥ":4288,"Ð½Ð°Ð·Ð²":4289,"ĠÐºÐ½ÑıÐ¶":4290,"ĠÑģÑĭÐ³ÑĢÐ°Ð»":4291,"ĠÐ³Ð¾ÑĢÐ¾Ð´ÑģÐºÐ¾Ð¹":4292,"ĠÑģÐµÐ»ÑĮÑģÐ¾Ð²ÐµÑĤÐ°":4293,"Ð¸ÑĢÑĥÐµÑĤÑģÑı":4294,"ĠÑģÐ¿Ð¸ÑģÐº":4295,"Ġ45":4296,"ĠÑģÐµÑĢÐ±":4297,"ĠÐ·Ð´Ð°Ð½Ð¸Ðµ":4298,"ĠÐ¿ÑĢÐ°Ð²Ð¸ÑĤÐµÐ»ÑĮÑģÑĤÐ²Ð¾":4299,"ÑĤÐ¾Ð²ÑĭÐ¹":4300,"ĠÐ¼ÐµÐ´Ð°Ð»ÑĮ":4301,"ÐµÑĢÐº":4302,"ĠÑĢÐ°ÑģÐ¿Ð¾Ð»Ð¾Ð¶ÐµÐ½Ð°":4303,"Ð¾Ð´Ð½":4304,"ĠÑĤÑıÐ¶ÑĳÐ»":4305,"ĠÐ¶ÑĥÑĢÐ½Ð°Ð»Ð¸ÑģÑĤ":4306,"Ð°Ð»Ð¸ÑĦ":4307,"ÑĭÐ´":4308,"Ð¿Ð°ÑĤ":4309,"ĠÐµÐ²ÑĢÐ¾Ð¿Ðµ":4310,"ĠÐ¿ÑĢÐ¸ÑĤ":4311,"ĠÑĦÐµÐ²ÑĢÐ°Ð»Ðµ":4312,"ĠÐ½ÑĥÐ¶":4313,"ĠÐ¿ÐµÐ´Ð°Ð³Ð¾Ð³":4314,"Ð¾Ð°Ð½":4315,"ĠÐ°Ð²Ð¸Ð°ÑĨÐ¸Ð¾Ð½":4316,"ÑįÑĤÐ¸":4317,"ĠÐ±Ð°ÑģÑģÐµÐ¹":4318,"Ð¸Ð½Ð¾Ð¼":4319,"ÑĥÑį":4320,"ĠÐ²Ð¼ÐµÑģÑĤÐ¾":4321,"Ð¾Ð²Ð°Ð½Ð¸Ð¸":4322,"ĠÐºÑĢÐ°ÑĤ":4323,"ĠÐ²ÑĭÑĪÐ»Ð°":4324,"ĠÐºÐ»Ð¸":4325,"ĠÐ´Ð¾ÑĩÑĮ":4326,"ĠÑĦÐ»Ð¾ÑĤÐ°":4327,"ĠÐ»ÐµÑĩ":4328,"ĠÐ¼Ð½Ð¾Ð¶ÐµÑģÑĤÐ²Ð¾":4329,"ĠÑįÐºÑģÐ¿ÐµÐ´":4330,"Ð»Ð¸ÑĤ":4331,"ĠÐ´Ð¸Ð¿Ð»Ð¾Ð¼":4332,"ĠÐ°Ð²ÑĤÐ¾Ð¼Ð¾Ð±Ð¸Ð»ÑĮ":4333,"Ð»ÐµÐ½Ð½ÑĭÐµ":4334,"Ð¿ÑĢÐ¾Ð´":4335,"ĠÐ°Ð¹":4336,"ĠÐ¾ÑĤÑģÑĤÐ°Ð²":4337,"ÑĪÑĥÑİ":4338,"Ð´Ð¸Ð½Ð°Ð¼":4339,"Ð²ÑĭÑģ":4340,"ĠÑģÑĤÑĢÐ¾Ð¸ÑĤÐµÐ»ÑĮÑģÑĤÐ²Ð¾":4341,"ĠÑģÐ°Ð¼Ð¾Ð¹":4342,"Ð´ÑĢ":4343,"ĠÐ±ÐµÐ¶":4344,"Ð»ÑıÐµÑĤÑģÑı":4345,"th":4346,"ĠÐ¸Ð½ÑĤÐµÑĢÐµÑģ":4347,"ĠÑĥÑģÐ»Ð¾Ð²Ð¸ÑıÑħ":4348,"ÑģÐ¸Ð½":4349,"Ð·Ð¸Ð¸":4350,"ĠÐ±Ð¾ÐµÐ²ÑĭÑħ":4351,"ĠÐ·Ð½Ð°ÑĩÐµÐ½Ð¸Ðµ":4352,"ÑĨÐ¸Ðº":4353,"ĠÐ¾Ð±ÑīÐ¸Ð½Ñĭ":4354,"ĠÑĦÐ¸Ð»ÑĮÐ¼Ðµ":4355,"ĠÑĥÑģÑĤÑĥÐ¿":4356,"ĠÑĨÐ²ÐµÑĤÐ°":4357,"ĠÑĤÐµÑĢÐ¼Ð¸Ð½":4358,"Ð¸Ð¹ÑģÐºÐ¾Ð¼":4359,"ĠÐ´Ð¾Ð³Ð¾Ð²Ð¾ÑĢ":4360,"ĠÑģÐ¾Ð³Ð»Ð°ÑĪ":4361,"ÑĳÑĢÐ¾Ð¼":4362,"ĠÑĩÐ»ÐµÐ½Ð¾Ð²":4363,"Ð²ÐµÑĢÐ´":4364,"Ð¸ÑģÑĤÐ¸ÑĩÐµÑģÐºÐ¸Ð¹":4365,"ĠÑģÐ°Ð¼Ð¾ÑģÑĤÐ¾ÑıÑĤÐµÐ»ÑĮ":4366,"ov":4367,"ĠÐ¾Ð´Ð½Ð¾Ð²ÑĢÐµÐ¼ÐµÐ½Ð½Ð¾":4368,"ĠÑģÐ¾ÑĩÐ¸Ð½":4369,"ĠÑıÐ¿Ð¾Ð½Ð¸Ð¸":4370,"Ð´Ð°ÐµÑĤÑģÑı":4371,"ÑĤÐ°Ð¼":4372,"ĠÐ¿ÑĢÐ°Ð²Ð¸Ð»Ð¾":4373,"Ð¸Ð²Ð°ÑİÑĤ":4374,"ĠÑģÐ¾Ð¾ÑĢÑĥÐ¶":4375,"ÐºÑĥÑĤ":4376,"ĠÐ¼Ð°ÑĤÐµÐ¼Ð°ÑĤ":4377,"ae":4378,"ĠÐ³Ð¸Ð±":4379,"ÐµÐ½Ð½Ð¾Ð¼":4380,"ĠÐ¿ÑĢÐµÐ·Ð¸Ð´Ð¸":4381,"ĠÐ¿ÑĢÐ¾Ð¸Ð·Ð²ÐµÐ´ÐµÐ½Ð¸Ñı":4382,"ĠÐ´ÐµÑĢÐ¶":4383,"ĠÐ¸Ð½ÑģÑĤÑĢÑĥ":4384,"ĠÐ±Ð¾Ð³Ð°ÑĤ":4385,"ĠÐ¿ÑĢÐ°Ð²Ð»ÐµÐ½Ð¸Ñı":4386,"ĠÑģÐµÐ¼ÐµÐ¹ÑģÑĤÐ²Ð°":4387,"ĠÐ¿Ð»Ð°ÑģÑĤ":4388,"ĠÐ³Ð¸Ð¿":4389,"Ð¸Ð´ÐµÑĢ":4390,"ĠÐ³ÑĢÑĥ":4391,"ĠÐ¸ÑĤÐ¾Ð³Ðµ":4392,"ĠÑıÐ·ÑĭÐºÐ¾Ð²":4393,"ĠÑĦÑĳÐ´":4394,"ĠÑĤÑĥÑĢÐµ":4395,"ĠÑģÑĤÐ°Ð½Ð´Ð°ÑĢÑĤ":4396,"ĠÐ¿Ð°ÑģÑģÐ°Ð¶":4397,"ĠÑģÐ²Ð¸Ð´ÐµÑĤÐµÐ»ÑĮ":4398,"ĠÐ¼Ð°ÑĪÐ¸Ð½":4399,"ĠÐ²Ð¾Ð·Ð´ÑĥÑħ":4400,"ĠÐ¾ÑĤÑĢÐ°Ð¶":4401,"ĠÐ±Ð»Ð¾Ðº":4402,"ĠÑĢÐ¸Ñģ":4403,"ĠÐ²Ð¾ÐµÐ²":4404,"ĠÐ²ÑĢÐ°Ñĩ":4405,"ĠÐ²Ð°ÑģÐ¸Ð»ÑĮ":4406,"Ġz":4407,"ĠÐ²Ð¼":4408,"Ð´Ð°Ð»":4409,"ĠÑĢÑĥÑģÑģÐºÐ¾Ð³Ð¾":4410,"Ð¾ÑĩÐ½ÑĭÐ¹":4411,"ĠÐ´Ð¾ÑģÑĤÐ°ÑĤÐ¾ÑĩÐ½Ð¾":4412,"ĠÐ´ÐµÐ½":4413,"ĠÐ±ÐµÐ´":4414,"ÑĨÐ¸Ð¾Ð½Ð½Ð¾Ð¹":4415,"ĠÐ²ÐµÑĢÐ¾ÑıÑĤ":4416,"ĠÐºÐ°Ð»Ð¸":4417,"ĠÐ¿Ð¸Ð»":4418,"ĠÐ¸Ð¼ÐµÐ»Ð¸":4419,"ĠÐ²Ð½Ð¸Ð¼Ð°Ð½Ð¸Ðµ":4420,"ĠÑģÐ¾Ð¿ÑĢÐ¾Ð²":4421,"ĠÑģÑİÐ¶":4422,"Ð¾Ð½ÑĩÐ°Ð»ÑģÑı":4423,"ĠÐ°ÑĢÑħÐ¸ÑĤÐµÐº":4424,"ĠÐ¿Ð¾Ð·Ð¸ÑĨÐ¸Ð¸":4425,"ÑĢÐµÐ³Ð¸Ð¾Ð½":4426,"ĠÐ²Ð»Ð¸ÑıÐ½Ð¸Ðµ":4427,"ĠÐ±ÐµÐ»ÑĮ":4428,"ĠÑģÐ¾ÑģÐµÐ´":4429,"ĠÐºÐ¸ÑģÐ»":4430,"ĠÐ¼ÑĥÐ·ÐµÐ¹":4431,"ĠÐ¿ÑĢÐ¾Ð¸Ð³":4432,"ĠÐ½Ð°ÑħÐ¾Ð´ÑıÑĤÑģÑı":4433,"ĠÐ½Ð°ÑĩÐ°Ð»Ð¸":4434,"ĠÑĦÐ¸ÑĢ":4435,"ĠÐ±Ð¾Ð»ÑĮÑĪÐ¸Ð½ÑģÑĤÐ²Ð¾":4436,"ĠÑħÐ¾ÑĢÐ¾ÑĪÐ¾":4437,"ĠÐ±ÐµÐ»Ð¾ÑĢÑĥÑģ":4438,"ĠÐ½Ð¸ÐºÐ¾Ð»Ð°Ð¹":4439,"ĠÐ¼ÑĥÑģ":4440,"Ð°Ð»ÐµÐºÑģ":4441,"ĠÐ±Ð¾Ð»ÐµÐ·":4442,"Ð¸Ð»Ð¸Ð¹":4443,"Ð¸Ð·Ð°ÑĨÐ¸Ñı":4444,"ĠÐ¸Ð³ÑĢÐ°Ð»":4445,"se":4446,"ĠÑĢÐ°Ð·Ð»Ð¸ÑĩÐ½ÑĭÐµ":4447,"Ð¾Ð²ÐµÑĢ":4448,"ĠÐ´Ð¾ÑħÐ¾Ð´":4449,"qu":4450,"Ð°Ð´Ð¼Ð¸Ð½Ð¸ÑģÑĤÑĢÐ°ÑĤÐ¸Ð²Ð½ÑĭÐ¹":4451,"ĠÑģÑģÑĢ":4452,"Ð°ÐºÐ¸":4453,"Ð¿Ð¾Ð·Ð¶Ðµ":4454,"Ð°Ð»ÑĮÐ½ÑĭÐ¼Ð¸":4455,"ĠÑģÑĤÑĢÐµÐ¼":4456,"Ð»Ð¾Ð¿":4457,"ĠÐ³ÐµÐ¾ÑĢÐ³":4458,"ĠÐ±ÑĭÑģÑĤÑĢÐ¾":4459,"ĠÑĦÐ¾ÑĢÐ¼Ñĭ":4460,"Ð°ÑĢÑĮÐºÐ¾Ð²":4461,"ĠÑĢÐµÐ±":4462,"ĠÐ¾Ð¶":4463,"ÑĪÐ¸Ð½":4464,"ĠÐ¶ÐµÐ½ÑīÐ¸Ð½Ñĭ":4465,"Ð¸ÑĢÐ¾Ð²Ð°Ð½Ð½ÑĭÑħ":4466,"ĠÐ¿ÑĢÐ¸Ð³Ð»Ð°ÑĪ":4467,"ÑĥÐ¶Ðµ":4468,"ĠÑģÐ¿ÐµÑĨÐ¸Ð°Ð»Ð¸ÑģÑĤ":4469,"ĠÑĤÑĥÑĢÐ½":4470,"ĠÐ¾Ð³ÑĢÐ¾Ð¼":4471,"Ð°Ð¼ÐµÑĢÐ¸ÐºÐ°Ð½":4472,"ĠÐºÐ¾Ð¼Ð°Ð½Ð´Ñĥ":4473,"ĠÐ²Ð¾ÐµÐ½Ð½ÑĭÑħ":4474,"ĠÑĤÑĢÐ°Ð´":4475,"ĠÐ·Ð°Ð±Ð¾Ð»":4476,"ĠÐ¸ÑģÐ¿Ð¾Ð»ÑĮÐ·Ð¾Ð²Ð°ÑĤÑĮ":4477,"ÑĨÐ°Ð¼":4478,"ĠÐ¿ÑĢÐ¾ÑħÐ¾Ð´Ð¸ÑĤ":4479,"Ð·Ð°Ð¼":4480,"ĠÑĤÐµÐ»Ð°":4481,"ĠÐµÐ³Ð¸Ð¿":4482,"Ð¶ÐµÐ¹":4483,"ĠÐ¿Ð¾ÐºÐ°":4484,"ĠÐ°ÑĢÐ¼Ð¸Ñı":4485,"Ð»ÑıÐ½Ð´":4486,"ĠÑģÑĤÐ°Ð½ÑĨÐ¸Ñı":4487,"ĠÑĪÑĤÐ°ÑĤÐ°":4488,"ĠÑģÐ¸Ð±Ð¸ÑĢ":4489,"ĠÑĥÐ»Ð¸ÑĨÐ°":4490,"ĠÑĥÑĢÐ¾Ð²Ð½Ñı":4491,"ĠÐ²Ð¾ÑģÐ¿":4492,"ĠÑĤÐ²Ð¾ÑĢÑĩ":4493,"ÑĩÐ¸ÐºÐ¾Ð²":4494,"Ð°Ð»Ñĥ":4495,"ĠÑĪÐ²ÐµÐ´":4496,"ĠÐ´Ð¸Ð²Ð¸Ð·Ð¸Ñı":4497,"ĠÐ±ÐµÐ·Ð¾Ð¿Ð°ÑģÐ½Ð¾ÑģÑĤÐ¸":4498,"Ð¸ÑĢÐ°ÑĤ":4499,"ĠÐ¿Ð¾Ð»Ð½Ð¾Ð¼":4500,"ĠÐ½Ð°Ð»Ð¸Ñĩ":4501,"ĠÑĩÐµÐ»Ð¾Ð²ÐµÑĩ":4502,"Ð°ÑĨÐ¸Ñı":4503,"Ð½Ð¸ÐºÑĥ":4504,"ĠÐ¿Ð¾Ð·Ð´Ð½ÐµÐµ":4505,"Ð»Ð¸Ð±Ð¾":4506,"ÑĥÑĩÐ°ÑģÑĤ":4507,"ÐµÐ½Ð½ÑĭÐ¼Ð¸":4508,"ĠÐ²Ð¾ÑģÑĤÐ¾ÑĩÐ½Ð¾Ð¹":4509,"ub":4510,"ÑĢÐ°Ð½Ñĭ":4511,"ÑģÑĤÐ²ÐµÐ½Ð½ÑĭÐ¹":4512,"Ð°Ð´ÑĮ":4513,"ĠÑĢÐ°ÑģÐ¿Ð¾Ð»Ð°Ð³Ð°ÐµÑĤÑģÑı":4514,"ĠÑįÐ»ÐµÐºÑĤÑĢÐ¾Ð½":4515,"ÑĤÐµÐ½Ð°Ð½ÑĤ":4516,"ĠÐ´Ñį":4517,"ĠÐ½Ð°Ð·Ð²Ð°Ð½Ð¸Ñı":4518,"ĠÐ²ÑĭÐ±Ð¾ÑĢÐ¾Ð²":4519,"ĠÐ¾Ð¼":4520,"ĠÑĤÑĥ":4521,"ÐµÐ½ÑģÐºÐ¾Ð³Ð¾":4522,"Ġ90":4523,"Ð·Ð°Ð¿":4524,"Ġ1938":4525,"ĠÐ°ÑĢÐ¼ÑıÐ½":4526,"ĠÐºÐ¾Ð»ÑĮ":4527,"Ð¼ÑĥÐ·":4528,"ĠÐ±Ð¾ÑıÑħ":4529,"ĠÐ¿Ð°ÑĢÑĤÐ¸Ð¹":4530,"ĠÑįÐ²":4531,"ĠÐ¼Ð¸ÑħÐ°Ð¸Ð»":4532,"ĠÑģÑĤÐµÐ½":4533,"ĠÑĪÐ²ÐµÐ¹":4534,"ĠÐ¼Ð¸ÑħÐ°Ð¹Ð»Ð¾Ð²":4535,"ĠÐ°Ð½Ð³Ð»Ð¸Ð¸":4536,"Ð°Ð½Ð½Ð¾Ð¹":4537,"ĠÐºÐ¾ÑĤÐ¾ÑĢÐ¾Ð¼Ñĥ":4538,"ĠÑģÐ¸Ð´":4539,"ÑĤÐµÐ»ÐµÑĦÐ¾Ð½":4540,"ord":4541,"Ð¸ÑģÑĤÑĢ":4542,"ĠÐ½Ð¸Ñĩ":4543,"ÑĥÐ½Ð°":4544,"ÑħÐ¾ÑĤÑı":4545,"Ð¶Ð¸Ð²":4546,"ÑĭÐ²Ð°Ð»Ð¸":4547,"ĠÐ³ÑĢÐ°Ð¼":4548,"Ġ1937":4549,"Ð¾Ð²Ð¾Ðµ":4550,"ĠÑĤÐµÐ¾ÑĢÐ¸Ð¸":4551,"ÐµÐ½ÑģÐºÐ¸Ð¹":4552,"ĠÐ´Ð»":4553,"ĠÐºÐ¾Ð½ÑĦÐ»Ð¸Ðº":4554,"ÑĢÐ°Ð½Ð°":4555,"ĠÐ¾ÐºÐºÑĥÐ¿":4556,"ĠÐ¿ÑĥÑģÑĤ":4557,"ĠÑģÐ¸Ð»ÑĮÐ½Ð¾":4558,"ĠÑģÐ¿Ð¸ÑģÐ¾Ðº":4559,"ÐµÐ²ÑģÐºÐ¸Ð¹":4560,"ÑĳÐ½Ð½ÑĭÐ¼":4561,"ĠÑįÐ¿Ð¸Ð·":4562,"Ð´ÐµÑĤ":4563,"ÑĦÐ¸Ð»ÑĮÐ¼":4564,"ĠÐ¿Ð¾Ð¸ÑģÐº":4565,"ĠÐ¿ÑĢÐµÐ´Ð¿Ð¾Ð»Ð°Ð³":4566,"Ð¾Ð±Ð¾ÑĢ":4567,"ĠÐ¿Ð¾ÐºÐ¸Ð½":4568,"Ð²ÐµÑĢÑħ":4569,"ĠÐ¿Ð¾Ð´Ð²ÐµÑĢÐ³":4570,"ĠÐ¿Ð¾Ð±ÐµÑĢÐµÐ¶":4571,"Ġ1988":4572,"ÐºÐ¸Ð¿Ð°":4573,"ĠÐ»Ð°Ð²":4574,"ĠÐ³Ð¾ÑģÑĤ":4575,"ĠÐ²Ð¾ÑĢÐ¾Ð½":4576,"ÑĥÑĩÐ¸":4577,"ÑĢÐ¾ÑĪ":4578,"ĠÐºÐ¾Ð»Ð»ÐµÐº":4579,"Ð¾ÐºÐ¾":4580,"ĠÑĤÐ°ÐºÐ¾Ð¹":4581,"ĠÐ¿Ð¾Ð²ÑĤÐ¾ÑĢ":4582,"ĠÑĢÑĥÑģÑģÐºÐ¸Ð¹":4583,"ĠÐ¸Ð½ÑĤÐµÑĢ":4584,"ĠÐ»Ð¸Ð³Ð¸":4585,"ĠÑģÐ¿ÑĥÑģÑĤÑı":4586,"Ð¾Ð¶Ðµ":4587,"Ð°Ð»ÑĮÐ½Ð¾ÑģÑĤÐ¸":4588,"ĠÐ¾Ð½Ð¾":4589,"ĠÐ¶ÑĥÑĢÐ½Ð°Ð»Ð°":4590,"ÑĦÐ¾Ð½":4591,"ĠÐ½ÐµÑģÐ¼Ð¾ÑĤÑĢÑı":4592,"ĠÐ³Ð¸Ð¼Ð½Ð°":4593,"ĠÐ´Ð¾Ð»Ð»Ð°ÑĢÐ¾Ð²":4594,"ĠÐ¿Ð¸ÑģÐ°Ð»":4595,"ĠÐ½Ð°ÑĤ":4596,"Ð±Ð»Ð°Ð³":4597,"34":4598,"Ð½ÐµÐºÐ¾ÑĤÐ¾ÑĢÑĭÐµ":4599,"ĠÐ¿Ð¾Ð½Ð¸Ð¼":4600,"ĠÑģÐ»Ð¾Ð²Ð°Ð¼":4601,"Ð°Ð¹Ð½":4602,"ÑĨÐ¸Ð¾Ð½Ð½ÑĭÑħ":4603,"Ð»Ð¸ÑģÑĤ":4604,"ĠÐ½Ð°Ð¿Ð¸ÑģÐ°Ð»":4605,"ĠÐ²Ð¸Ð´Ð°":4606,"ĠÐ²Ð¾ÑģÐ¿Ð¸ÑĤ":4607,"ĠÐ¸Ð½Ð¸ÑĨÐ¸":4608,"ÐµÐ½ÑĮÑİ":4609,"ĠÐ²Ð°Ð½":4610,"ĠÐ¾Ð´Ð½Ñĥ":4611,"ĠÐ¼Ð¾ÑĢÐµ":4612,"Ñĸ":4613,"ĠÑĢÐµÐºÐµ":4614,"ĠÐ¾ÐºÐµ":4615,"ĠÐ¼Ð°Ð»ÑĮ":4616,"ÑıÑĤÑĮÑģÑı":4617,"ĠÐ¸Ð·Ð³Ð¾ÑĤÐ¾Ð²":4618,"Ð¾ÑĤÐ¾Ð¹":4619,"ĠÐºÐ¿":4620,"ĠÐ¼ÐµÐ¶":4621,"Ġ2019":4622,"ÑĩÐ¸Ð½Ñĭ":4623,"ĠÑĤÑĢÑĥÐ´Ð°":4624,"Ġ/":4625,"ĠÑĢÐµÐ°Ðº":4626,"ĠÐ²Ð°Ð³":4627,"ĠÑĩÐ¸ÑģÑĤ":4628,"ĠÑĢÐµÐ³ÑĥÐ»ÑıÑĢ":4629,"ĠÑģÑĤÐ¾Ñı":4630,"ĠÐ¾Ð±ÑīÐµÐ¹":4631,"ÐµÐ½Ð½ÑĥÑİ":4632,"ĠÐ¿Ð¾Ð·Ð²Ð¾Ð»ÑıÐµÑĤ":4633,"ĠÐ»ÑİÐ´Ð¸":4634,"ĠÑģÑĦ":4635,"ÐµÐ½ÑģÐºÐ¾Ð¹":4636,"85":4637,"Ð¿Ñģ":4638,"ĠÐ¸Ð½ÑĦ":4639,"ĠÐ¼ÑĥÐ·ÑĭÐºÐ°Ð½ÑĤ":4640,"ĠÑģÐ±Ð¾ÑĢÐ½ÑĥÑİ":4641,"Ð¸ÑĤÐµÐ»ÑĮÐ½Ð¾Ðµ":4642,"ĠÐ½ÐµÐ´Ð¾ÑģÑĤÐ°ÑĤ":4643,"ĠÐ²Ð¾ÐµÐ½Ð½Ð¾Ð¹":4644,"ĠÑģÐ¿ÑĢÐ°Ð²":4645,"ĠÑĢÐ°Ð±Ð¾ÑĤÐ°ÑĤÑĮ":4646,"ĠÐ¿ÐµÑĩÐ°ÑĤ":4647,"ÐµÐ½ÑĮÑĪ":4648,"ĠÑĩÐµÑĤÐ²ÐµÑĢ":4649,"ĠÐ¼Ð¾Ð³Ð»Ð¸":4650,"Ð»Ð°Ð½Ð´Ð¸Ð¸":4651,"Ð°ÑĢÐ´Ð°":4652,"ĠÐ¾ÑĪ":4653,"ĠÐºÐ¾Ð½ÐµÑĩ":4654,"ĠÑĤÑĢÐ¾":4655,"ĠÐ½Ð°ÑĨÐ¸Ð¾Ð½Ð°Ð»ÑĮÐ½Ð¾Ð³Ð¾":4656,"ÐµÐ²ÑĭÑħ":4657,"ĠÐ¸Ð³ÑĢÐµ":4658,"Ð¿ÑĢÐ¾Ð²":4659,"ĠÐ½Ð°Ð¼":4660,"Ð¾ÑĩÐ½Ð¾Ð³Ð¾":4661,"ĠÐ½ÐµÐ¸Ð·Ð²ÐµÑģÑĤ":4662,"ĠÐ¿Ð°Ð´":4663,"ĠÑħÐ°ÑĢ":4664,"ĠÐ¸ÑģÐºÑĥÑģÑģÑĤÐ²":4665,"Ð¿Ð¾ÑĩÑĤÐ¾Ð²ÑĭÐ¹":4666,"ĠÑĤÐ¾Ð²Ð°ÑĢ":4667,"Ð·Ð´ÐµÑģÑĮ":4668,"Ġxviii":4669,"Ð¸Ð¼Ð°ÑĤ":4670,"ÑģÐ°Ð½":4671,"ĠÐ»Ð°Ð±":4672,"ĠÐ¿Ð¾Ð½ÑıÑĤ":4673,"Ð½Ð¸ÐºÐ°Ð¼":4674,"ĠÑĥÑģÑĤÐ°Ð½Ð¾Ð²Ð»ÐµÐ½":4675,"ÑĤÐ¸Ð½Ð³":4676,"Ð¾Ð´ÐµÐ¹ÑģÑĤÐ²":4677,"ĠÑģÐ¸ÑĢ":4678,"ĠÑģÑĤÐ¾":4679,"ĠÐºÐ¾ÑĢÐµ":4680,"ĠÑģÑĤÑĢÐ°Ð½Ð°Ñħ":4681,"ÑĩÐµÐ¼Ð¿Ð¸Ð¾Ð½":4682,"ht":4683,"ĠÐ·Ð°ÐºÐ°Ð·":4684,"ĠÐ¿ÑĥÐ½ÐºÑĤÐ¾Ð²":4685,"Ð¾Ð²Ð°Ð»ÑģÑı":4686,"Ġ36":4687,"ĠÑĦÐ°Ð±":4688,"ÐµÑģÐ°":4689,"ĠÐ½Ð¸ÐºÐ¾Ð»Ð°":4690,"ĠÐ´Ð¸ÑģÑģ":4691,"ĠÐ¼Ð¸ÑĤÑĢÐ¾Ð¿Ð¾Ð»":4692,"Ġ1946":4693,"ĠÐ½Ð°Ð¿ÑĢÐ°Ð²Ð»ÐµÐ½":4694,"ĠÐ°Ð²ÑĤÐ¾Ð±":4695,"Ð¾Ð¿ÑĢÐ¸ÑıÑĤ":4696,"ÐµÑĢÐ´":4697,"ĠÐ½Ð¾Ð³":4698,"ÑĤÐ°Ð¹":4699,"ĠÑįÐºÑģÐ¿ÐµÑĢÐ¸Ð¼":4700,"ĠÐ½Ð¾Ð²Ð³Ð¾ÑĢÐ¾Ð´":4701,"ĠÐ·Ð½Ð°Ð¼ÐµÐ½Ð¸ÑĤ":4702,"Ð²ÑģÐºÐ¾ÑĢÐµ":4703,"ĠÐ´Ð¾ÑģÑĤÐ¸Ð¶":4704,"ĠÐ²Ð¾ÐºÑĢÑĥÐ³":4705,"Ð°Ð½Ð¸ÐµÐ¹":4706,"ĠÑģÑĥÑīÐµÑģÑĤÐ²ÑĥÐµÑĤ":4707,"ÐµÑĢÐ¸Ð½":4708,"ĠÐºÐ¾Ð¼Ð¼ÑĥÐ½Ð°":4709,"ĠÐ±ÑĢÐ°Ð·Ð¸Ð»Ð¸Ð¸":4710,"ĠÐ±ÐµÐ½":4711,"ĠÐ°ÑĢÑħÐ¸ÐµÐ¿":4712,"ĠÐ·Ð½Ð°ÑĩÐ¸ÑĤÐµÐ»ÑĮÐ½Ð¾":4713,"ĠÐ²ÑģÑı":4714,"Ð¾ÐºÐ¾Ð»":4715,"ĠÐ´Ð²Ð¸Ð¶ÐµÐ½Ð¸Ðµ":4716,"ĠÐ¾Ð±Ð»Ð°Ð´":4717,"Ð°Ð½Ð½Ð°Ñı":4718,"Ð¾Ð²Ð°Ð½Ð¾":4719,"ÑĥÐ°":4720,"ĠÑģÐ¿Ð¾ÑĢÑĤÐ°":4721,"Ð¾Ð²Ð¾Ð»ÑĮÐ½Ð¾":4722,"ÑĢÐ°Ð±Ð¾ÑĤÐ°Ð»":4723,"ĠÐ¿ÑĢÐµÐ¼ÑĮÐµÑĢ":4724,"ÑĤÐµÐ»ÐµÑĦÐ¾Ð½Ð½ÑĭÐ¹":4725,"ĠÐ°ÑĢÐ¼Ð¸Ñİ":4726,"Ð³ÐµÐ»ÑĮ":4727,"ĠÐ²Ð¾Ð·Ð¼Ð¾Ð¶Ð½Ð¾":4728,"ĠÑģÐµÑĢÐ´":4729,"ĠÐ»ÑĳÐ³":4730,"ÐµÐ½Ð¸ÑıÐ¼":4731,"Ð½Ð°ÑħÐ¾Ð´Ð¸ÑĤÑģÑı":4732,"ĠÐ²ÑģÑİ":4733,"ĠÑģÑĤÑĢÐ¾Ð¸ÑĤÐµÐ»ÑĮÑģÑĤÐ²Ð°":4734,"ĠÐ·Ð²ÐµÐ·Ð´":4735,"ill":4736,"ĠÐ²Ð»Ð°ÑģÑĤÑĮ":4737,"ĠÐ³ÑĢÑĥÐ¿Ð¿Ñĥ":4738,"ĠÐ°ÑįÑĢÐ¾Ð¿":4739,"ĠÑĢÐ¾Ðº":4740,"ĠÐ³ÐµÑĢÐ¾Ð¹":4741,"ĠÐµÐ¶ÐµÐ³Ð¾Ð´":4742,"ÑĥÑģÑģÐ¸Ð¸":4743,"Ð¿ÑĢÐ¾Ð¸Ð·Ð²":4744,"ĠÐ´ÐµÑĢÐµÐ²ÑıÐ½":4745,"ĠÑĪÑĤÑĥÑĢ":4746,"Ð½Ð°Ð±":4747,"Ð½ÑĥÐ²":4748,"ĠÐ²Ð¸ÐºÑĤÐ¾ÑĢ":4749,"ĠÑĨÐµÐ»Ð¾Ð¼":4750,"tr":4751,"ĠÐ¿ÐµÑĢÐµÐ²ÐµÐ´":4752,"ĠÐ¿ÑĢÐµÐ·Ð¸Ð´Ð¸ÑĥÐ¼Ð°":4753,"ĠÐ²ÑģÑĤÑĢÐµÑĤ":4754,"ĠÐ´Ð¸Ñģ":4755,"Ð¼ÐµÐ½Ð¸":4756,"ĠÑģÐ²ÑıÑīÐµÐ½":4757,"Ð¼Ð¾Ð»":4758,"ĠÑĥÐ»":4759,"ĠÐ»ÐµÐº":4760,"ĠÐ¸Ð½ÑģÑĤÑĢÑĥÐ¼ÐµÐ½ÑĤ":4761,"45":4762,"ĠÐ³ÑĢÑĥÐ¿Ð¿Ðµ":4763,"ĠÐ°Ñħ":4764,"ĠÐ¿ÐµÑģÐ½Ñı":4765,"ĠÐ¿Ð¾ÐµÐ·Ð´":4766,"ĠÑįÐ»ÐµÐºÑĤÑĢ":4767,"ĠÑģÑĥÐ´Ð°":4768,"ĠÐºÐ»Ð°ÑģÑģÐ°":4769,"ÐµÐ»Ð»":4770,"ĠÑĦÐ»Ð¾ÑĤ":4771,"ĠÐ¾Ð´Ð½Ð¾Ð¸Ð¼":4772,"ĠÐ½Ð¸ÐºÐ°Ðº":4773,"ĠÐ³Ð¾ÑĢÐ¾Ð´Ð¾Ð²":4774,"Ð¾ÑģÑĤÑĢÐ¾":4775,"ÑĥÐ³Ð¾Ð»ÑĮ":4776,"ĠÐ·Ð°ÑıÐ²Ð¸Ð»":4777,"Ð½Ð°Ð¸Ð±Ð¾Ð»ÐµÐµ":4778,"ĠÐ¿Ñĭ":4779,"ĠÐ¿ÐµÑģÐµÐ½":4780,"ĠÐ¿ÐµÑħÐ¾ÑĤ":4781,"ĠÐ»Ð¸ÑģÑĤ":4782,"ÐµÑĢÑĤÐ²":4783,"ÑīÐ¸Ðº":4784,"ĠÐ´ÐµÐ¿Ð°ÑĢÑĤÐ°Ð¼":4785,"ĠÐ·Ð°Ð±Ð¸Ð»":4786,"ÑģÑĥÑĢ":4787,"ĠÐ¿ÑĢÐ¸Ð±Ñĭ":4788,"ĠÐ´Ð°Ð»ÑĮÐ½ÐµÐ¹ÑĪÐµÐ¼":4789,"Ð»ÑıÐ»":4790,"ÑĥÐ¼ÐµÑĢ":4791,"Ġ[":4792,"ĠÐ±ÐµÑĢÐ»Ð¸Ð½":4793,"ĠÐºÐ»ÑİÑĩ":4794,"ĠÑģÐµÑĢÑĮÑĳÐ·":4795,"ÑģÐºÐ¾ÑĢ":4796,"ĠÐ´ÐµÐ¼Ð¾ÐºÑĢÐ°ÑĤ":4797,"ĠÐ±ÑĢÐ¾Ð½Ð·":4798,"ĠÑįÐºÑģÐ¿Ð»Ñĥ":4799,"ĠÑģÐ¾ÑģÑĤÐ¾ÑıÐ»ÑģÑı":4800,"Ð¼Ð°Ð½Ð°":4801,"Ð¸Ð½ÑģÐºÐ¾Ð¼":4802,"ĠÑģÐµÑĢÐ³Ðµ":4803,"Ð»Ð»":4804,"Ð°ÑĢÐ¸Ð¸":4805,"ÐµÐºÐ°Ð½":4806,"ĠÑĢÐµÐºÐ°":4807,"ÐµÐºÐ¾Ð¼":4808,"Ð±ÑĥÑĢÐ³Ð°":4809,"ĠÑĤÐ¸Ñħ":4810,"ÑĢÐ¸ÑĨ":4811,"ÑĢÐ¾ÑģÑģ":4812,"ĠÐ²Ð¾Ð¹ÑģÐºÐ°Ð¼Ð¸":4813,"ĠÑĦÐ¾ÑĢÐ¼Ñĥ":4814,"ĠÐ²ÐºÐ»ÑİÑĩÐ°ÐµÑĤ":4815,"Ð¾Ð½Ð¸Ð¼":4816,"ĠÐ¿ÐµÑĢÐ²Ð°Ñı":4817,"ĠÑĥÐ³Ð»":4818,"Ð²ÑĤÐ¾ÑĢ":4819,"Ð¿Ð¾ÑĢ":4820,"ĠÑģÑĤÐ¾ÑĢÐ¾Ð½Ñĥ":4821,"ĠÐ¼Ð°ÑĤÑĩÐµÐ¹":4822,"ĠÐ¿ÑĥÑĤÑĳÐ¼":4823,"ĠÐ¾Ð·ÐµÑĢÐ°":4824,"ngc":4825,"ĠÐ»Ð¸Ð²":4826,"Ð·Ð°Ð²":4827,"ÑıÑİÑī":4828,"ant":4829,"ge":4830,"Ð»ÑİÐ±":4831,"ĠÑģÐ¸ÑģÑĤÐµÐ¼Ðµ":4832,"ĠÑĥÐ´Ð¾ÑģÑĤÐ¾":4833,"Ð¿ÐµÐ´":4834,"ĠÐ·Ð°Ð²Ð¾Ð´Ð°":4835,"ĠÐ»Ð¸Ðº":4836,"ĠÐ´Ð¾ÐºÑĤÐ¾ÑĢ":4837,"ĠÐºÑĢÐ°ÑģÐ½Ð¾":4838,"Ð·Ð¾Ð»Ð¾ÑĤ":4839,"ĠÐ·Ð½Ð°ÐºÐ¾Ð¼":4840,"ĠÐ¿Ð¾Ð´ÑħÐ¾Ð´":4841,"Ð¸ÑıÐ¼":4842,"Ð¸ÑĤÐ¾Ð²":4843,"Ð±ÑĭÐ²":4844,"Ð¾Ð³ÑĢÐ°Ð´":4845,"ÑĦÐ¸Ð»":4846,"ĠÐ½Ð°ÑĥÑĩÐ½Ð¾":4847,"ĠÐ´Ð¾Ð¼Ðµ":4848,"ĠÐºÐ°Ð¶Ð´ÑĭÐ¹":4849,"Ð»Ð¸Ð¶Ð°Ð¹":4850,"ĠÐ¸Ð·Ð²ÐµÑģÑĤÐ½ÑĭÐ¹":4851,"ÐºÑģ":4852,"ĠÐ¿ÑĢÐ¸Ð·Ð²":4853,"ĠÐ¿ÑĢÐµÐ´Ð½Ð°Ð·Ð½Ð°Ñĩ":4854,"ĠÐ²ÑĭÐ²Ð¾Ð´":4855,"ÑĥÐ³Ð¸":4856,"ĠÑĦÑĥÑĤÐ±Ð¾Ð»Ð¸ÑģÑĤ":4857,"ĠÑĤÑĥÑĢÐ½Ð¸ÑĢÐ°":4858,"ĠÐ¿ÑĥÑĤÐµÑĪ":4859,"ĠÑģÐºÑĥÐ»ÑĮ":4860,"Ð¸ÑĨÐ¸Ð¹":4861,"ĠÐ¿ÑĢÐ¾Ð´ÑĥÐºÑĤ":4862,"ĠÐ¿Ð¸ÑģÐ°ÑĤÐµÐ»ÑĮ":4863,"Ð³Ð¾Ðµ":4864,"Ġ1987":4865,"ĠÐ¸Ð½ÑĦÐ¾ÑĢÐ¼Ð°ÑĨÐ¸Ð¸":4866,"Ð»ÐµÐ±":4867,"ÑģÑĥÑīÐµÑģÑĤÐ²":4868,"if":4869,"ĠÑıÐ²Ð»ÑıÐ»ÑģÑı":4870,"ĠÐ¼ÐµÑģÑıÑĨÐµÐ²":4871,"ĠÐ±Ð¸Ð·":4872,"ĠÐ¾ÑģÐ²Ð¾Ð±Ð¾Ð¶Ð´":4873,"ĠÐ±Ð¸Ð±Ð»Ð¸Ð¾ÑĤÐµÐº":4874,"ĠÐ¼ÑĥÐ·ÑĭÐºÐ¸":4875,"ĠÐ°ÑĢÐ°Ð±":4876,"ÑĢÐ´":4877,"ĠÐ¿ÑĢÐ¾ÑģÑĤÐ¾":4878,"ĠÐ¸Ð·Ð²ÐµÑģÑĤÐ½Ð¾":4879,"ĠÐ¸ÑģÑĤÑĢÐµÐ±":4880,"ÑĨÐ¾Ð¼":4881,"ĠÑĥÐ±Ð¸ÑĤ":4882,"Ġ500":4883,"ĠÐºÐ¾Ð¼Ð¸ÑģÑģÐ¸Ð¸":4884,"Ð±ÑĢ":4885,"ĠÐ¿Ð¾ÑĤÐ¾Ð¼Ñĥ":4886,"Ð¸Ð´Ð¾Ð²":4887,"ĠÐ·Ð°Ð¿Ð°Ñģ":4888,"ĠÐ°Ð²ÑĤÐ¾Ð¼Ð°ÑĤ":4889,"ĠÑĢÑĭÐ±":4890,"Ð±Ð¸Ð»":4891,"ĠÑĦÐ°ÐºÑĥÐ»ÑĮÑĤÐµÑĤ":4892,"Ġ1986":4893,"ĠÐ±Ð¾Ð¶":4894,"Â»\"":4895,"ĠÐ²ÑĭÐ¿Ð¾Ð»Ð½Ñı":4896,"ĠÐ½Ð¸Ð´ÐµÑĢ":4897,"ĠÐ¾ÑĢÐºÐµÑģÑĤ":4898,"75":4899,"ĠÐ¾ÑģÐ½Ð¾Ð²Ð½Ð¾Ð¹":4900,"Ð¸Ð¹ÑģÐºÐ°Ñı":4901,"ĠÑĥÐ¼ÐµÐ½ÑĮÑĪ":4902,"Ð¼Ð¾Ð¶Ð½Ð¾":4903,"ĠÐ¶ÐµÐ»ÐµÐ·Ð½Ð¾Ð¹":4904,"Ð¾Ð½Ñĥ":4905,"ÐµÐ·Ð´Ðµ":4906,"ĠÑĢÐ°ÐºÐµÑĤ":4907,"Ġiv":4908,"ĠÐ°Ð²ÑĤÐ¾Ð½Ð¾Ð¼":4909,"ĠÑįÑĦ":4910,"ĠÑįÐºÐ¸Ð¿Ð°":4911,"ĠÐ·ÐµÐ¼Ð»Ñı":4912,"ĠÐ¾ÑĢÐ³":4913,"Ð¾ÐºÐ¾Ð½ÑĩÐ¸Ð»":4914,"ud":4915,"Ð³Ð¾Ñģ":4916,"ĠÐ¾ÐºÑĢÐ°":4917,"Ð²Ð°Ð¶":4918,"ĠÐ³Ð»Ð°Ð·":4919,"Ð°Ð´Ð¶":4920,"Ð²Ð¼ÐµÑģÑĤÐµ":4921,"ĠÐ¾Ð±ÑĬÑĳÐ¼":4922,"ĠÑįÐ´":4923,"ÑħÐ¾Ð·ÑıÐ¹":4924,"Ð¼Ð½Ð¾Ð³":4925,"ÑĩÐ°Ð¹":4926,"ÑĩÐ¸":4927,"ĠÐ¼ÐµÑĤÐ°Ð»Ð»":4928,"ĠÐ´Ð»Ð¸Ð½Ð¾Ð¹":4929,"ĠÐ¿Ð¾ÑĢÑĥÑĩ":4930,"ÑĥÐ¹":4931,"Ð·Ðµ":4932,"ĠÑĢÑĥÑģÑģÐºÐ¸Ñħ":4933,"ĠÑĥÑģÐ»":4934,"ĠÑģÐ¾Ð²Ð¼ÐµÑģÑĤÐ½Ð¾":4935,"ĠÐ³ÑĢÐ°Ð½Ð¸ÑĨÑĭ":4936,"ĠÑĪÐ²ÐµÐ¹ÑĨÐ°ÑĢ":4937,"ĠÐ±Ð°Ð·Ðµ":4938,"ĠÑģÐ½Ð¸Ð¼":4939,"ĠÐ¾ÑĤÐ½Ð¾ÑģÐ¸ÑĤÐµÐ»ÑĮÐ½Ð¾":4940,"ĠÐ´Ð¾ÐºÐ°Ð·":4941,"ĠÐ¸Ð»ÑĮ":4942,"ĠÐ¸Ð¼Ð¿ÐµÑĢÐ°ÑĤÐ¾ÑĢÐ°":4943,"Ð½ÐµÑĤ":4944,"ĠÐ³Ð»Ð°Ð²Ð½ÑĭÐ¹":4945,"Ð°ÑĤÐ¾":4946,"ĠÐ·Ð°ÐºÑĢÑĭÑĤ":4947,"ĠÐ¸Ð½ÑĤÐµÑĢÐ½":4948,"ĠÑĪÑĤÐ°Ð±Ð°":4949,"ĠÐ¿Ð°ÑĢÑĤÐ¸Ñı":4950,"ĠÐ°ÐºÑĤÐ¸Ð²Ð½Ð¾":4951,"ĠÑģÐ½Ð°ÑĩÐ°Ð»Ð°":4952,"ÂŃ":4953,"ÑĢÐ°Ð´Ð°":4954,"ÑĭÐ´ÑĥÑī":4955,"ĠÐºÐ¾Ð½ÑģÐµÑĢÐ²":4956,"ÑĢÐ³":4957,"ĠÐ¿ÐµÑĢÐ²Ð¾Ðµ":4958,"ĠÐ´ÐµÐ¹ÑģÑĤÐ²Ð¸Ð¹":4959,"ĠÐ¿ÐµÑĩ":4960,"ÑĢÐ¾Ð½Ð¾Ð¼":4961,"38":4962,"ĠÐ¿Ð¾ÑģÐµÑī":4963,"Ð¿Ð¸ÑģÑĮ":4964,"ÑĢÑıÐ´Ð°":4965,"Ð°Ð¼ÐµÑĤ":4966,"ĠÐ½Ð°Ð´Ðµ":4967,"Ð¸ÑĢÐ¾Ð²Ð°Ð»Ð°":4968,"ĠÑĢÐ°Ð´Ð¸Ð¾":4969,"ÐµÑĳ":4970,"ÑģÑĤÐ²ÐµÐ½Ð½Ð¾Ð¹":4971,"ÑħÐ¾Ð²":4972,"ĠÐ¿ÐµÑĢÐ¸Ð¾Ð´Ð°":4973,"ĠÐ¸Ð²Ð°Ð½Ð¾Ð²Ð¸Ñĩ":4974,"ĠÐ³Ð¾ÑģÑĥÐ´Ð°ÑĢÑģÑĤÐ²":4975,"ĠÐ²ÐµÑĢÑĤ":4976,"Ð¸Ð´Ðµ":4977,"ĠÐ±Ð¾Ð»ÑĮÑĪÐ¾Ð³Ð¾":4978,"ĠÑĢÐ°Ð±Ð¾ÑĤÐ°ÐµÑĤ":4979,"ĠÐºÑĢÐµÐ¹":4980,"ĠÐ´ÐµÐ²ÑĥÑĪ":4981,"ĠÑģÐ¾ÑģÑĤÐ°Ð²Ð»ÑıÐ»Ð°":4982,"Ð¸Ð½ÑģÐºÐ°Ñı":4983,"ÑĥÐ¼Ð°Ð½":4984,"Ð¿Ð¾ÑĢÑĤ":4985,"ÐµÑĢÐ°ÑĤÐ¸Ð²":4986,"ĠÐ°ÑģÑģÐ¾ÑĨÐ¸":4987,"Ġ1985":4988,"ÑĨÐ¸Ð¾Ð½Ð½Ð¾Ð³Ð¾":4989,"ĠÑģÐ¼ÐµÑĢÑĤ":4990,"ÐµÐ²Ð¾":4991,"ĠÐ±Ð¾Ð»Ð³Ð°ÑĢÐ¸Ð¸":4992,"Ð¿Ð¾ÑģÐ¾Ð±":4993,"ĠÐ²ÑħÐ¾Ð´ÑıÑĤ":4994,"ĠÐ½ÐµÑĥ":4995,"ĠÐºÑĥÑĢÑģ":4996,"ĠÐ¿Ð¾Ð´Ð°Ð²":4997,"Ġ65":4998,"ĠÐµÐ²ÑĢÐµ":4999,"ĠÑģÐ²ÑıÑĤÐ¾Ð¹":5000,"ĠÑĦÑĥÐ½ÐºÑĨÐ¸Ð¾Ð½":5001,"ÑĮÑıÐ¼Ð¸":5002,"ÐµÐºÐ°ÐµÑĤ":5003,"ĠÑĤÐ¾ÑĩÐºÐ¸":5004,"ĠÑİÐ³Ðµ":5005,"Ġ38":5006,"ĠÐ¾Ð±ÑıÐ·Ð°Ð½":5007,"ĠÐ¿Ð»Ð°":5008,"ĠÐ½Ð¸Ð¼Ð¸":5009,"ÑĥÐ»ÐµÐ¼":5010,"ĠÑģÐ²Ð¾Ð¸Ð¼Ð¸":5011,"ĠÑģÑĤÑĢÐ°ÑĤ":5012,"ĠÐ¾ÑģÐ½Ð¾Ð²Ð½ÑĭÑħ":5013,"ĠÑģÐ½Ñı":5014,"ĠÐ¼Ð¾ÑģÐºÐ²Ð°":5015,"ÐµÐ½ÑĤÐ°Ð¼Ð¸":5016,"Ġ178":5017,"ĠÐ¼ÐµÑĢÐµ":5018,"Ð¸ÑĨÐ¸Ñİ":5019,"Ġ1929":5020,"Ð¸Ð¼ÑģÑı":5021,"Ð¾Ð½Ð¸Ð¸":5022,"Ð°Ð¼Ð±":5023,"ĠÐ¿ÑĢÐ¸Ðµ":5024,"ĠÐ¸Ð·Ð²ÐµÑģÑĤÐµÐ½":5025,"ĠÑģÐµÐ²ÐµÑĢÐµ":5026,"37":5027,"ÑĨÐ¾":5028,"Ġ1926":5029,"ĠÐ¼Ð°Ð³Ð°Ð·":5030,"ĠÑħÑĢÐ°Ð¼Ð°":5031,"ĠÐ¸Ð½ÑĤÐµÑĢÐ²":5032,"ĠÐ¼ÑĥÐ½Ð¸ÑĨÐ¸Ð¿Ð°Ð»ÑĮÐ½Ð¾Ð³Ð¾":5033,"ÑĥÐºÐ°":5034,"ĠÐ°Ð¿Ð¿Ð°ÑĢÐ°ÑĤ":5035,"ĠÐºÐ°ÑĢÐ»":5036,"Ð¸ÑĤÐ¸":5037,"ĠÑģÐ¾Ð¾ÑĤÐ²ÐµÑĤÑģÑĤÐ²ÐµÐ½Ð½Ð¾":5038,"ĠÑģÐ¾Ð±Ð¸ÑĢÐ°":5039,"ĠÐ¿ÑĢÐ¾Ð¸Ð·Ð²Ð¾Ð´ÑģÑĤÐ²Ð¾":5040,"ĠÐºÐ³":5041,"ĠÐ´Ð¾Ð²Ð¾Ð»ÑĮÐ½Ð¾":5042,"ĠÑįÑĦÑĦÐµÐºÑĤÐ¸Ð²":5043,"ĠÐ²Ð½ÐµÑģ":5044,"ĠÑħÐ°ÑĢÑĮÐºÐ¾Ð²":5045,"ĠÐ´Ð¸Ð·":5046,"ĠÐ·Ð°Ð¿Ð¸ÑģÐ¸":5047,"Ġand":5048,"ĠÐ»ÐµÐ½Ð¸Ð½Ð°":5049,"ĠÑģÐ¾Ð¼":5050,"ĠÐ·Ð°Ð²Ð¸ÑģÐ¸Ð¼Ð¾ÑģÑĤÐ¸":5051,"Ð½Ð°ÐºÐ¾Ð¼":5052,"ĠÐ°ÐºÑĤÑĳÑĢ":5053,"ĠÐ½ÐµÐ¾Ð´Ð½":5054,"ĠÐºÐ½Ð¸Ð³Ðµ":5055,"ĠÑģÑĢÐµÐ´Ð½ÐµÐ¹":5056,"Ð´Ð¾Ðº":5057,"ÐµÐºÐ¾":5058,"ĠÐ´Ð½Ðµ":5059,"ĠÐ¿Ð¾ÐºÑĢÐ¾Ð²":5060,"Ð¸Ð´Ñĥ":5061,"ĠÐ³ÑĢÐ¸Ð³Ð¾ÑĢ":5062,"ĠÐ¿ÐµÑĢÐ²ÐµÐ½":5063,"ÑĢÐ¾ÑģÐ»Ð°Ð²":5064,"ĠÐ±Ð¾ÑĢÐ¸Ñģ":5065,"Ġ1965":5066,"ĠÐ²ÑĭÐ¸Ð³ÑĢÐ°Ð»":5067,"ĠÐ¿ÑĢÐ¸Ð½Ð¸Ð¼Ð°Ð»":5068,"und":5069,"ĠÐ°Ð·Ð¸Ð¸":5070,"ĠÑģÐ¾Ð·Ð´Ð°Ð²":5071,"Ð°ÑħÐ°":5072,"ĠÐ¿ÐµÐ½Ñģ":5073,"Ð¿ÐµÑĢÐµÐ´":5074,"ĠÑģÐ¾ÑģÑĤÐ¾ÑıÐ»Ð°ÑģÑĮ":5075,"ĠÐ¿Ð¾ÑģÐ»ÐµÐ´Ð½Ð¸Ð¹":5076,"ĠÐ¿ÑĢÐ¾ÑĤÐµÑģÑĤ":5077,"ĠÑĤÑĥÑĢÐ½Ð¸ÑĢÐµ":5078,"ĠÑģÑĨÐµÐ½Ð°ÑĢ":5079,"ĠÑĤÐ¾Ð¹":5080,"ĠÑģÐ»ÑĥÑĩÐ°Ð¹":5081,"ab":5082,"Ð¾Ð²Ð°Ð½Ð¸Ñİ":5083,"ĠÑģÑĤÐ¾ÑĢÐ¾Ð½Ðµ":5084,"ĠÐ±Ð¾Ðº":5085,"ĠÑģÐ»ÐµÐ´ÑĥÐµÑĤ":5086,"Ð½Ð°Ð»":5087,"ĠÐ°Ð¼ÐµÑĢÐ¸ÐºÐ°Ð½ÑģÐºÐ¸Ð¹":5088,"ĠÑĢÑĭÐ½":5089,"Ġ1968":5090,"ĠÐ¿Ð¾ÑģÐµÑĤ":5091,"ĠÐ¾ÑĪÐ¸Ð±":5092,"ĠÐ¶Ð¸Ð²Ð¾Ð¿Ð¸Ñģ":5093,"ĠÑģÐ¼Ð¾Ð»":5094,"Ġ%.":5095,"ĠÐ·Ð°Ð½Ð¸Ð¼Ð°Ð»ÑģÑı":5096,"ĠÑĢÐµÐ²":5097,"ÑĢÐ¸Ð½":5098,"ĠÐ¿Ð¾Ð±ÐµÐ´Ñĭ":5099,"65":5100,"ĠÐ¿Ð°ÑĢÐ»Ð°Ð¼ÐµÐ½ÑĤ":5101,"Ð¾ÑĢÐµÑĨ":5102,"ÑĨÐ°ÑĤÑĮ":5103,"ĠÑĢÑĥÐ¼Ñĭ":5104,"Ð¸Ð²ÑĪÐ¸ÑģÑĮ":5105,"ine":5106,"ĠÐ·Ð°ÑīÐ¸Ñī":5107,"ĠÐºÐ¾Ð½ÑģÑĤÐ°Ð½ÑĤÐ¸Ð½":5108,"ĠÐ¿ÐµÑĢÐµÐ¼":5109,"Ġ1959":5110,"ĠÐ´ÐµÐ±ÑİÑĤÐ¸ÑĢÐ¾Ð²Ð°Ð»":5111,"ĠÐ±ÐµÐ³":5112,"ĠÐ¿ÑĢÐµÐ´ÑĭÐ´ÑĥÑī":5113,"Ð¸Ð²Ð°Ð½Ð¸Ñı":5114,"Ð²ÐµÑģ":5115,"ĠÐºÐ°Ñģ":5116,"Ġ34":5117,"ĠÐ¿Ð¾Ð»Ð¾Ð²Ð¸Ð½Ðµ":5118,"33":5119,"io":5120,"Ð¹ÑĤÐ¸":5121,"ĠÑģÐ°Ð¼Ð¾Ð¼":5122,"ĠÐ´Ð°ÑĢ":5123,"Ð¾ÐºÑĢÐ°ÑĤÐ½Ð¾":5124,"ĠÐ¿ÑĢÐµÐ´Ð¿Ð¾Ð»Ð¾Ð¶":5125,"ĠÐ´Ð¸ÑģÑģÐµÑĢÑĤÐ°":5126,"Ġu":5127,"ĠÐ¿ÑĢÐµÐ´ÑģÑĤÐ°Ð²Ð¸ÑĤÐµÐ»ÐµÐ¹":5128,"ĠÐ¿ÑĢÐ¾Ð¸ÑģÑħÐ¾Ð¶Ð´ÐµÐ½Ð¸Ñı":5129,"Ġ1948":5130,"ĠÐ¿ÑıÑĤÐ¸":5131,"ÐºÐ¾Ð¼Ð°":5132,"Ð½ÐµÑĩ":5133,"ĠÐºÐ½ÑıÐ·Ñı":5134,"Ð¸ÑĤÐµÐ»ÑĮÐ½ÑĭÐ¼":5135,"ĠÐ·Ð½Ð°ÑĩÐµÐ½Ð¸Ñı":5136,"ĠÐ¸ÑģÑģÐ»ÐµÐ´Ð¾Ð²Ð°Ð½Ð¸Ð¹":5137,"Ð¿Ð»Ð¾ÑĤÑĮ":5138,"ĠÐ¿Ð¾Ð±ÐµÐ´Ñĥ":5139,"Ð¸Ð¼Ð¾ÑģÑĤÑĮ":5140,"ĠÐºÑĢÑĥÐ¿Ð½ÑĭÑħ":5141,"ĠÐ²ÐµÐ»Ð¸ÐºÐ¾Ð³Ð¾":5142,"ĠÑĪÐ°ÑĢ":5143,"ĠÐºÐ¾ÑĢÐ°Ð±Ð»Ñı":5144,"Ġ1984":5145,"ĠÐºÐ¾Ð½ÑĦÐµÑĢÐµÐ½":5146,"ĠÐ²ÑĢÑĥÑĩ":5147,"ĠÑģÑĥÑĤ":5148,"Ð¿ÐµÑĩÐ°ÑĤ":5149,"Ð¾ÑĢÐ°ÑĤÐ¾ÑĢ":5150,"ÐµÐ¼ÑĭÑħ":5151,"ĠÂ°":5152,"ĠÐ¿ÑĢÐµÐ¸Ð¼ÑĥÑīÐµÑģÑĤÐ²ÐµÐ½Ð½Ð¾":5153,"ĠÐ¸Ð·Ð´Ð°ÑĤÐµÐ»ÑĮ":5154,"ĠÑĩÐ°ÑģÑĤÐµÐ¹":5155,"ĠÐ¼ÑıÑĩ":5156,"ĠÐ±Ð°Ð¹":5157,"ĠÑĪÐ¾ÑĤ":5158,"ĠÑħÐ¾Ðº":5159,"ĠÑĦÑĢÐ¾Ð½ÑĤ":5160,"av":5161,"ĠÐ»Ð¾Ð³":5162,"Ð¼ÐµÑĢÑĩÐµÑģÐº":5163,"ÐµÐ²ÑģÐºÐ¾Ð³Ð¾":5164,"ÑĢÐµÐ¼Ñı":5165,"ĠÑĢÐ°ÑģÐ¿Ð¾Ð»Ð¾Ð¶ÐµÐ½Ñĭ":5166,"ĠÑĦÐµ":5167,"ĠÑħÐ¾Ð·ÑıÐ¹ÑģÑĤÐ²":5168,"ĠÑĪÐ¸ÑĢÐ¾ÐºÐ¾":5169,"Ð¾ÐºÐ¾Ð»Ð¾":5170,"ĠÐ¸Ð¾Ð°Ð½":5171,"Ð¸ÑĢÐ¾Ð²Ð°Ð½Ð¾":5172,"ĠÐ¿ÑĢÐ¾Ð¼ÑĭÑĪÐ»ÐµÐ½Ð½Ð¾ÑģÑĤÐ¸":5173,"ĠÐ²Ð¾ÑģÑĮ":5174,"ĠÐ±Ð¾Ð¼Ð±Ð°ÑĢÐ´":5175,"Ð¼Ð°Ð»":5176,"ĠÑĤÐ°ÑĤÐ°ÑĢ":5177,"ĠÐ´Ð¾Ð»Ð¶Ð½Ð°":5178,"ÑĪÐ¸Ð¼Ð¸":5179,"ĠÑģÐ°Ð²":5180,"Ð¾Ð´Ð°ÑĤÐµÐ»ÑĮ":5181,"ĠÐ¼Ð°ÑĤÑĮ":5182,"Ġ1921":5183,"ĠÐ¿Ð¾Ð»Ð¾Ñģ":5184,"Ġ1936":5185,"ĠÑģÑĤÐ°ÑĢÑĪÐ¸Ð¹":5186,"ĠÐ¸Ð¼ÐµÐ½ÐµÐ¼":5187,"Ġ1922":5188,"Ð¿Ð¾Ð»ÑĮ":5189,"Ð»ÐµÑĢÐ°":5190,"ÑĥÐ»ÑĮÐ¼Ð°Ð½":5191,"Ð¼ÐµÐ¶Ð´":5192,"Ð¾Ð²ÐºÐ°":5193,"Ð¿Ð¾ÑįÑĤ":5194,"ĠÑģÐµÐ¼ÑĮ":5195,"ĠÐ·ÐµÐ¼ÐµÐ»ÑĮ":5196,"ĠÐ¿Ð¾ÑģÐ»ÐµÐ´Ð½Ð¸Ðµ":5197,"ĠÐ´Ð¾ÑĩÐµÑĢÐ¸":5198,"ÑĤÐ¾Ð³Ð´Ð°":5199,"ĠÐ»ÑĥÑĩÑĪÐ¸Ñħ":5200,"ĠÐ·ÑĢÐµÐ½Ð¸Ñı":5201,"ib":5202,"ĠÐ½Ð°ÑĩÐ°Ð»ÑĮÐ½Ð¸ÐºÐ°":5203,"ĠÐ²Ð¾ÑģÑĤÐ¾ÐºÐµ":5204,"Ð¿Ð¾Ð¼Ð¸Ð¼Ð¾":5205,"ĠÐ¸ÑģÐ¿Ð°Ð½Ð¸Ð¸":5206,"ĠÐ¿ÑĢÐµÐ´Ð»Ð°Ð³":5207,"ĠÐºÐ¾Ð¶":5208,"Ġ1979":5209,"Ð¾Ð²ÑĥÑİ":5210,"Ð¾ÑĢÑĦ":5211,"ĠÐ³ÑĢÐ°Ð¶Ð´Ð°Ð½ÑģÐºÐ¾Ð¹":5212,"ĠÑģÐ½ÑıÑĤ":5213,"Ð¾Ð»Ð¾Ð³Ð¸Ñı":5214,"32":5215,"ĠÐ±Ð°Ðº":5216,"ĠÑģÐ¸Ð»Ñĥ":5217,"ĠÑĨÐµÐ½":5218,"ĠÐ²Ð·ÑıÑĤ":5219,"ak":5220,"ÑĪÐµÐ»":5221,"ÑĨÐµÐ¿":5222,"ĠÑĥÐ¿Ð¾ÑĤÑĢÐµÐ±":5223,"ÐµÑīÑĳ":5224,"Ð¾ÑĢÐ¾Ð³":5225,"ĠÐ¸Ð½ÑģÑĤÐ¸ÑĤÑĥÑĤÐµ":5226,"ph":5227,"ÑģÑĤÐ²ÐµÐ½Ð½Ð¾Ð³Ð¾":5228,"ĠÐ¸ÑģÑĤÐ¾ÑĢÐ¸Ñİ":5229,"ĠÑĥÐ»Ð¸ÑĨÐµ":5230,"ĠÐ½ÐµÐ°ÐºÑĤÐ¸Ð²":5231,"ĠÑģÐ¾Ð¿ÑĢ":5232,"ÑĩÐ¸ÐºÐ°":5233,"ÐµÑģÑĤÐ²Ñĥ":5234,"Ð¿ÑĢÐ¾Ñģ":5235,"ĠÑĥÑĢÐ¾Ð²Ð½ÐµÐ¼":5236,"ÐºÐ°Ð»":5237,"ĠÑĥÑĩÐ°ÑģÑĤÐ½Ð¸Ðº":5238,"ĠÑĤÐµÐ°ÑĤÑĢÐ°Ð»ÑĮ":5239,"ĠÐºÐ¾Ð¼Ð¸ÑĤÐµÑĤ":5240,"ĠÐ¿ÑĢÐ¾Ð´ÑĥÐº":5241,"ĠÐ´ÐµÐ¼Ð¾Ð½":5242,"Ð¾Ð»Ð¾Ð³Ð¸ÑĩÐµÑģÐºÐ¸Ñħ":5243,"Ð°Ð¾":5244,"Ġ1975":5245,"ĠÑĤÑĢÐµÐ½ÐµÑĢ":5246,"Ð¸Ð¼Ð¾ÑģÑĤÐ¸":5247,"ÑģÐµÐ»Ð¾":5248,"Ġ37":5249,"Ġ1954":5250,"Ð¼ÐµÐ¹":5251,"Ð¾Ð²Ð¾Ð¼":5252,"ĠÐ¿ÑĢÐµÐ¶Ð´Ðµ":5253,"Ð°Ð»Ð¸Ð·Ð°ÑĨÐ¸Ð¸":5254,"ĠÑĢÐ°Ð±Ð¾ÑĤÐ°":5255,"Ġ1924":5256,"ÑĳÐ½Ð½Ð¾Ðµ":5257,"Ð¿Ð¾Ð±":5258,"ĠÐ¼ÐµÐ¶Ð´ÑĥÐ½Ð°ÑĢÐ¾Ð´Ð½Ð¾Ð³Ð¾":5259,"Ð¸Ð²Ð°Ð»Ð¸":5260,"Ð¸ÑģÑģÐ»ÐµÐ´":5261,"Ð½Ð¾Ð¶":5262,"ÐµÐ²Ð¸ÑĩÐ°":5263,"ĠÐ¿ÑĥÑĤÑĮ":5264,"ĠÑħÐ¾Ð·ÑıÐ¹ÑģÑĤÐ²Ð°":5265,"ĠÐ¼ÑĭÑĪ":5266,"ĠÑģÐ¾Ð¿ÑĢÐ¾ÑĤÐ¸Ð²":5267,"ÐºÐ¸ÑĢ":5268,"ĠÐ¾ÑĦÐ¸ÑĨÐ¸Ð°Ð»ÑĮÐ½Ð¾":5269,"Ð¸Ð½ÑĮ":5270,"ĠÐ¿Ð¾Ð»Ð¾Ð¶ÐµÐ½Ð¸Ðµ":5271,"Ð½Ð°ÑĩÐ°Ð»ÑĮÐ½Ð¾":5272,"Ġ1935":5273,"ĠÐ¸ÑģÑħÐ¾Ð´":5274,"Ð¾ÑĢÐ´":5275,"Ð¼Ð¾Ñģ":5276,"ĠÐ»ÐµÐ¾Ð½":5277,"ÑĨÐºÐ¸Ð¹":5278,"ĠÐ¿Ð¸Ñī":5279,".)":5280,"ĠÑģÐµÑĢÐ³ÐµÐ¹":5281,"Ð½Ð°Ð·Ð²Ð°Ð½Ð¸Ðµ":5282,"ĠÐ¼ÐµÐ´Ð°Ð»Ð¸":5283,"ĠÐ»ÐµÐ´":5284,"Ġ1973":5285,"ĠÐ¿ÐµÑĢÐµÑģÐµÐ»":5286,"Ã©":5287,"ĠÐ°Ð´Ð¼Ð¸Ð½Ð¸ÑģÑĤÑĢÐ°ÑĤÐ¸Ð²Ð½Ð¾":5288,"ĠÐ±ÑĥÐ´ÑĥÑĤ":5289,"ĠÐ¿ÑĢÐµÐ´ÑģÑĤÐ°Ð²Ð¸ÑĤÐµÐ»Ð¸":5290,"Ð¿Ð»Ð¾ÑīÐ°Ð´":5291,"ĠÐ¸Ð¼ÐµÐ½":5292,"ĠÑĨÐº":5293,"ĠÐ²ÑģÑĤÑĥÐ¿Ð¸Ð»":5294,"ÐµÑĢÐ¸Ñı":5295,"Ð¸Ð´Ñĭ":5296,"ĠÑįÑģÐºÐ°Ð´":5297,"Ð¾ÑģÐº":5298,"ĠÑĦÐ¾ÑĢÐ¼Ðµ":5299,"ĠÐ±ÑĢÐ¸Ð³Ð°Ð´Ñĭ":5300,"ĠÐ²Ð¾ÑĪÐ»Ð¸":5301,"ĠÐ¿ÑĢÐ¾Ð´Ð°Ð¶":5302,"ĠÐ¿ÑĢÐµÐ´ÑģÐµÐ´Ð°ÑĤÐµÐ»ÑĮ":5303,"ĠÑģÐ²ÐµÐ´ÐµÐ½Ð¸Ñı":5304,"ĠÐ¸Ð·Ð³":5305,"ÑģÑĤÐ°":5306,"ĠÐ±Ð¾Ð»ÑĮÑĪÑĥÑİ":5307,"ĠÐ½Ð°Ð¿ÑĢÐ°Ð²Ð»ÐµÐ½Ð¸Ñı":5308,"Ġ1958":5309,".Â«":5310,"Ġ1982":5311,"ĠÐ·Ð°ÑģÑĤÐ°Ð²":5312,"ĠÑĤÑĢÐ°Ð½Ñģ":5313,"ÑĭÐ²Ð°Ñı":5314,"ĠÐ½Ð°ÑĥÑĩÐ½ÑĭÑħ":5315,"ĠÐ¿Ð¾Ð¼Ð¾ÑīÑĮ":5316,"Ð¸ÐºÐ°Ð¼Ð¸":5317,"ĠÐ¾ÑģÑĤÑĢÐ¾Ð²Ðµ":5318,"Ð°ÐµÐ¼ÑĭÑħ":5319,"ĠÐ²Ð¾Ð»ÑĮ":5320,"ĠÐ²Ð¾Ð·Ð¼Ð¾Ð¶Ð½Ð¾ÑģÑĤÐ¸":5321,"ĠÐ·Ð²ÑĳÐ·Ð´":5322,"ĠÑıÐº":5323,"ĠÐ¿ÑĥÐ½Ðº":5324,"ĠÑĥÐ»ÑĥÑĩ":5325,"ĠÑĢÐµÐºÐ¾ÑĢ":5326,"Ð¾ÑĩÐ½ÑĭÐµ":5327,"Ð¾ÑĢÐ´Ð¶":5328,"ĠÐ¿ÑĢÐ¾Ð¸Ð·Ð¾ÑĪÐ»Ð¾":5329,"ne":5330,"Ð´Ð²Ð°":5331,"ĠÐ¿ÑĢÐ¾ÑĢ":5332,"ĠÑĢÐ¾ÑģÑģÐ¸Ñı":5333,"ĠÐ¿Ð°ÑĤÑĢÐ¸Ð°ÑĢÑħ":5334,"ĠÐ¼Ð¾Ð½Ð°ÑģÑĤÑĭÑĢÑı":5335,"ĠÑĢÐ°Ð·Ð°":5336,"ĠÐ¼Ð¾Ð´ÐµÐ»Ð¸":5337,"Ð½ÐµÐ¼Ñĥ":5338,"ÐµÐ¿ÐµÐ½Ð½Ð¾":5339,"ĠÐ¸Ð·Ð¼ÐµÐ½ÐµÐ½Ð¸Ñı":5340,"Ð°ÑĤÐ¾ÑĢÐ¾Ð¼":5341,"Ð¾Ð·Ð³":5342,"ĠÐ¾ÑħÑĢÐ°Ð½":5343,"ĠÑĢÐ°ÑģÑĤÐµÐ½Ð¸Ð¹":5344,"ĠÐ¿ÑĢÐ¸Ð½ÑıÑĤÐ¾":5345,"ÐµÐ½ÑĨÐ¸":5346,"Ð»Ð°Ð¹":5347,"ĠÑĢÐµÐ·ÐµÑĢÐ²":5348,"ĠÑĥÐ»Ð¸ÑĨ":5349,"Ġ1956":5350,"189":5351,"Ġ32":5352,"Ð½Ð°ÑĨÐ¸Ð¾Ð½":5353,"Ġ1966":5354,"ÑĭÐ»":5355,"ĠÐ²ÑħÐ¾Ð´Ð¸Ð»":5356,"ÑģÐºÐ¾ÑħÐ¾Ð·ÑıÐ¹":5357,"Ġ1963":5358,"ĠÐ°ÑĢÑħÐ¸ÐµÐ¿Ð¸ÑģÐºÐ¾Ð¿":5359,"ĠÐ°ÑĢÑħÐµ":5360,"Ð¾ÐºÑĢÑĥÐ³":5361,"Ġ+":5362,"ĠÐ¾ÑĢÐ³Ð°Ð½Ð¸Ð·Ð°ÑĨÐ¸Ñı":5363,"Ð¸Ð¹ÑģÐºÐ¸Ðµ":5364,"ĠÑģÐ»ÐµÐ´ÑĥÑİÑīÐ¸Ð¹":5365,"Ð¾Ð´Ñĭ":5366,"Ð»ÑıÑĤÑĮ":5367,"ĠÐ¼ÐµÐºÑģ":5368,"ĠÑĥÐ²Ð¸Ð´":5369,"ĠÑĩÐ°ÑĢ":5370,"ĠÐ¾Ð±ÑģÐ»ÑĥÐ¶":5371,"ĠÑħÐ°Ð½":5372,"ĠÐ¼ÐµÐ¼":5373,"ĠÑĥÐ»ÑĥÑĩÑĪ":5374,"ĠÐ¾ÑĤÑģÑĤÑĥÐ¿":5375,"ĠÐ¸ÑģÐ¿Ð¾Ð»ÑĮÐ·Ð¾Ð²Ð°Ð½Ð¸Ñı":5376,"Ð¿ÐµÑģ":5377,"Ð¼Ð¾Ð¹":5378,"ĠÐ¾ÑĤÐ½Ð¾ÑĪÐµÐ½Ð¸Ð¸":5379,"ĠÐ¾Ð±Ð¸ÑĤ":5380,"ĠÐºÐ¾Ð¼Ð°Ð½Ð´Ð¸ÑĢÐ°":5381,"ĠÑĤÑİÑĢÑĮ":5382,"ĠÐ±Ð¾Ð»ÑĮÑĪÐ°Ñı":5383,"ÑĢÐ°Ð½ÑĤ":5384,"):":5385,"Ð»Ð¾ÑĤ":5386,"ĠÑĤÐµÑĢÑĢÐ¸ÑĤÐ¾ÑĢÐ¸Ñı":5387,"ÑĢÐ¸Ð¿":5388,"Ð°Ð²ÑĪÐ¸Ðµ":5389,"ĠÐ¼ÑĥÐ·ÐµÑı":5390,"36":5391,"ĠÐ¾ÑĤÐ´ÐµÐ»ÐµÐ½Ð¸Ñı":5392,"ĠÐ³Ð°Ð·ÐµÑĤÑĭ":5393,"Ð¸Ð³ÑĢÐ°":5394,"Ġxvii":5395,"ĠÐ¿Ð°Ðº":5396,"ĠÐºÐ¾Ð¼Ð°Ð½Ð´Ðµ":5397,"ĠÐ´Ð²Ð¾ÑĢÐ¾Ð²":5398,"Ġto":5399,"ist":5400,"ĠÐ¿Ð»Ð¾ÑĤÐ½Ð¾ÑģÑĤÑĮ":5401,"ind":5402,"Ð¾Ð½Ð¸Ðº":5403,"ĠÑĢÐµÑĪÐµÐ½Ð¸Ñı":5404,"ĠÐ½Ð°ÑħÐ¾Ð´ÑıÑī":5405,"ĠÑĤÐ¾Ðº":5406,"ĠÐ¿Ð°ÑĢÐº":5407,"Ð°ÑĢÐµ":5408,"ĠÐ²Ð·ÑĢÑĭÐ²":5409,"ĠÑĥÐ¿ÑĢÐ°Ð²Ð»ÐµÐ½Ð¸Ðµ":5410,"Ġcom":5411,"ĠÐ½Ð°ÑĥÐºÐ¸":5412,"ÐºÐ¾Ð¼Ð°Ð½Ð´":5413,"ĠÑģÐ¾Ð²ÑĢÐµÐ¼ÐµÐ½Ð½Ð¾Ð¹":5414,"ÐµÐ¶Ð´":5415,"Ġ1983":5416,"ĠÐ¼Ð¾Ð´ÐµÐ»ÑĮ":5417,"Ġla":5418,"Ġ300":5419,"ĠÐºÐ¾Ð½Ð³":5420,"ĠÐ¸Ð³ÑĢÐ¾Ð²":5421,"ÑģÑĤÐ°ÑĤÐ¸ÑģÑĤÐ¸ÑĩÐµÑģÐºÐ¸Ð¹":5422,"Ġ1976":5423,"Ð°ÑİÑīÐ°Ñı":5424,"Ð¾Ð½ÑĮ":5425,"ĠÐ³Ð°Ð²":5426,"Ð¸ÑĢÐ¾Ð²ÐºÐ¸":5427,"ĠÑĤÐµÐ»ÐµÐ²Ð¸Ð´":5428,"ÑĭÐ½":5429,"Ð²Ð¿Ð¾ÑģÐ»ÐµÐ´ÑģÑĤÐ²Ð¸Ð¸":5430,"ÑĩÐ°Ð½":5431,"ĠÐ´ÐµÐ»Ð¾":5432,"ĠÑģÐ»ÑĥÑĩÐ°Ñı":5433,"ĠÐ¾ÑģÐ°Ð´":5434,"ĠÐ²ÑĭÐ±Ð¾ÑĢÐ°Ñħ":5435,"ĠÑĤÑĥÑĢÐ½Ð¸ÑĢ":5436,"Ð¸ÑĤÐ¾Ð¼":5437,"Ġ1972":5438,"Ġ1962":5439,"ĠÐ¼Ð¸Ð½Ð¸Ð¼":5440,"ĠÑģÑĥÐ¿ÑĢÑĥÐ³":5441,"Ġ1967":5442,"Ð²Ð¿ÐµÑĢÐ²ÑĭÐµ":5443,"Ð¾Ð²Ð°ÑĤÑĮÑģÑı":5444,"Ð¿Ð¾Ð·Ð´":5445,"Ġ1974":5446,"ĠÐ»ÑĮÐ²":5447,"ĠÑĢÐ¾Ñģ":5448,"ĠÐ½Ð°Ð¿Ð°Ð´":5449,"ĠÐ´ÑĢÐ°Ð¼Ð°ÑĤ":5450,"Ð¿Ð¾ÑĤ":5451,"ĠÐ¿Ð¾ÑģÐ»ÐµÐ´Ð¾Ð²Ð°ÑĤÐµÐ»ÑĮ":5452,"Ð½Ð¸ÐºÐ°Ñħ":5453,"Ð¸Ð½ÑģÐºÐ¸Ñħ":5454,"ĠÐ½Ð°ÑĩÐ°Ð»Ð¾ÑģÑĮ":5455,"ĠÑĩÐµÑĤÐ²ÑĳÑĢÑĤ":5456,"ÑģÐ¾ÑģÑĤÐ°Ð²":5457,"ĠÐ·Ð°Ð¼ÑĥÐ¶":5458,"ĠÐ½ÐµÑĥÐ´Ð°Ñĩ":5459,"ĠÑĥÐ»ÑĮ":5460,"ÑĤÐ¾ÑĢÑĭ":5461,"ĠÑģÑĢÐµÐ´ÑģÑĤÐ²Ð°":5462,"ĠÑĢÑĥÐº":5463,"ĠÐ¾ÐºÑĢÑĥÐ³Ðµ":5464,"ĠÐ¶Ð¸Ð²Ð¾ÑĤÐ½ÑĭÑħ":5465,"ĠÑĦÑĥÐ½ÐºÑĨÐ¸Ð¸":5466,"ĠÐ½Ð°Ð¿ÑĢÐ°Ð²Ð»ÐµÐ½Ð¸Ð¸":5467,"ĠÐ½Ð¸ÐºÐ¾Ð³Ð´Ð°":5468,"ĠÐ¶ÑĥÑĢÐ½Ð°Ð»":5469,"ĠÑģÐ¿Ð¾ÑģÐ¾Ð±ÑģÑĤÐ²":5470,"Ð¸ÑģÑĤÐ¾Ð¼":5471,"Ġ1978":5472,"ĠÑĩÐ¸ÑģÐ»ÐµÐ½Ð½Ð¾ÑģÑĤÑĮ":5473,"Ġ1964":5474,"ÑįÐ»ÐµÐºÑĤ":5475,"ĠÐºÐ¾Ð½ÑĤÑĢÐ¾Ð»ÑĮ":5476,"ĠÐµÐ²Ð³":5477,"ĠÑģÐ½Ð¸Ð¶":5478,"Ð¾ÑĤÐ°Ð½":5479,"ĠÐ²ÑĤÐ¾ÑĢÐ¾Ð¼":5480,"ess":5481,"ĠÐ²Ð¸ÑĨÐµ":5482,"ÑĨÐºÐ¾Ð³Ð¾":5483,"ĠÑģÐµÐ»ÑĮÑģÐºÐ¾ÑħÐ¾Ð·ÑıÐ¹":5484,"ĠÑģÐ¾ÑĢÐµÐ²Ð½Ð¾Ð²Ð°Ð½Ð¸Ñı":5485,"78":5486,"ĠÐ¼Ð°ÑĤÑĩÐ°":5487,"ĠÐ·Ð°ÐºÐ¾Ð½Ð¾Ð´Ð°ÑĤÐµÐ»ÑĮ":5488,"ÑģÑĥÐ´":5489,"ĠÑĩÐµÑĢÐµ":5490,"Ð¿Ð¾Ð¿":5491,"ĠÐ²Ð²":5492,"ĠÐ¿Ð¸ÑĪ":5493,"ÑĥÐºÐ°Ð·":5494,"ĠÐ½Ð¾Ð²Ð°Ñı":5495,"ĠÐ¿Ð°ÑĢÑĤÐ¸Ð·":5496,"Ð¿Ð»Ð¾ÑĤÐ½Ð¾ÑģÑĤÑĮ":5497,"Ġ1923":5498,"ĠÐ·Ð°ÑīÐ¸ÑĤÑĭ":5499,"Ġ150":5500,"ÑĪÐ°Ð²":5501,"Ð³Ð¾Ð²Ð¾ÑĢ":5502,"ĠÐ¿Ð»Ð°ÑĤÑĦÐ¾ÑĢÐ¼":5503,"ÑĳÐ¹":5504,"ĠÐ¿ÑĥÐ±":5505,"Ð¼Ð°Ñħ":5506,"ĠÑĪÐ¾Ñĥ":5507,"ÐºÐ¾Ð²Ð¾":5508,"ÑĩÐµÐ½ÐºÐ¾":5509,"76":5510,"ĠÑĢÐµÑĪÐ¸Ð»":5511,"ĠÑģÐµÑĤÐ¸":5512,"ĠÐ¾Ð´ÐµÑĢÐ¶":5513,"ĠÐ½Ð°Ð·ÑĭÐ²Ð°ÑİÑĤ":5514,"Ð´ÑĢÑĥÐ³Ð¸Ðµ":5515,"ĠÐ»Ð°Ð·":5516,"ĠÐ»ÑİÐ±Ð¾Ð²":5517,"ĠÐ½Ð¾ÑĢÐ²":5518,"Ð°ÑīÐµ":5519,"Ð½Ð¾Ð¿":5520,"ĠÐºÐ¾Ð¼Ð°Ð½Ð´Ð¾Ð²Ð°Ð½Ð¸ÐµÐ¼":5521,"Ð¹Ð¾ÑĢÐº":5522,"ĠÑĤÐ¸Ð¼":5523,"ĠÑĤÐ¾Ð²Ð°ÑĢÐ¸Ñī":5524,"ĠÐ³ÐµÐ½ÐµÑĢÐ°Ð»Ð°":5525,"Ð¼Ð¾ÑĤÑĢ":5526,"ĠÐ¾Ð±Ðµ":5527,"ĠÐ¿Ð¾ÐºÐ¾Ð»":5528,"Ð¼Ð¼":5529,"ĠÐ»Ð¸ÑĤÐµÑĢÐ°ÑĤÑĥÑĢÑĭ":5530,"ĠÑĥÐ¸Ð»ÑĮ":5531,"ĠÐ·Ð´Ð¾ÑĢÐ¾Ð²":5532,"ĠÐ¿Ð¾ÑģÑĳÐ»ÐºÐ°":5533,"ĠÐ±Ð¾ÑĢÑĮÐ±Ñĭ":5534,"ĠÑĥÑĢÐ¾Ð²Ð½Ðµ":5535,"ĠÐ¿ÑĢÐµÐ´Ð¼ÐµÑĤ":5536,"Ġ1981":5537,"Ð½Ð°Ð¹":5538,"ĠÐ²ÐµÑģÑĮÐ¼Ð°":5539,"ĠÐºÐ°ÑĤÐµÐ³Ð¾ÑĢÐ¸Ð¸":5540,"ĠÐ»ÐµÐ¹Ð±":5541,"ÑĢÐ°Ð´Ðµ":5542,"ÑīÐ¸ÐºÐ¾Ð²":5543,"ÐºÐ¾Ð²ÑģÐºÐ¾Ð³Ð¾":5544,"Ġsp":5545,"ĠÐ¿Ð¾Ð²ÐµÑĢÑħÐ½Ð¾ÑģÑĤÐ¸":5546,"ĠÑĢÐ°Ð·Ð½Ð¾":5547,"Ġ1957":5548,"ĠÐ´Ð¸Ð½Ð°ÑģÑĤ":5549,"ĠÐºÐ°ÑĤÐ°Ð»Ð¾Ð³":5550,"Ð¸Ð½Ð°Ñħ":5551,"ĠÐ±ÐµÑĢÐµÐ³":5552,"Ð¸Ð¶Ðµ":5553,"Ġ1961":5554,"Ð»ÐµÐ½Ð½ÑĭÑħ":5555,"ĠÐ½Ð°ÑĩÐ°Ð»Ð°ÑģÑĮ":5556,"ĠÐ¿ÑĢÐ¾Ð¶Ð¸Ð²Ð°Ð»Ð¾":5557,"ĠÐ¿Ð¾ÑģÑĤÐ¾ÑıÐ½Ð½Ð¾":5558,"ĠÐ½Ð°Ð·ÑĭÐ²Ð°ÐµÑĤÑģÑı":5559,"ÑĢÐ¾ÑĤ":5560,"ĠÐ¸ÑģÑĩ":5561,"Ð³Ð¾Ð»ÑĮ":5562,"ĠÐ±Ð°Ð±":5563,"Ġ1947":5564,"ĠÐ²ÑĢÐµÐ¼ÐµÐ½ÐµÐ¼":5565,"Ġ1977":5566,"ĠÐ¿ÑĢÐµÐºÑĢÐ°ÑĤ":5567,"ĠÐ±Ð¾Ð±":5568,"ĠÐ¼Ð¸Ð½Ð¸ÑģÑĤÐµÑĢÑģÑĤÐ²Ð°":5569,"ĠÐºÐ¾Ð¼Ð¿Ð°Ð½Ð¸ÐµÐ¹":5570,"ĠÐ³Ð¾Ð²Ð¾ÑĢÐ¸ÑĤ":5571,"Ð¿Ð»Ð¾ÑīÐ°Ð´ÑĮ":5572,"ĠÐ¸Ð¼ÐµÐµÑĤÑģÑı":5573,"ĠÑįÐºÐ¾Ð½Ð¾Ð¼Ð¸ÐºÐ¾":5574,"ĠÐ»ÐµÐ¶":5575,"ĠÑģÑĤÐ°ÑĢÑĤ":5576,"Ð¸ÑĦÐ¸ÐºÐ°":5577,"ĠÑĥÐ´Ð°Ð»":5578,"ÑĥÐºÑĢÐ°":5579,"ĠÑĢÐ°Ð½ÐµÐ½":5580,"ÑĢÐ¾Ð²Ð¾Ð»ÑĮ":5581,"ĠÑģÐ¸ÑģÑĤÐµÐ¼Ñĥ":5582,"ÑģÑĤÐ²ÐµÐ½Ð½ÑĭÐµ":5583,"Ġ39":5584,"ÑĤÐ¾ÑĢÐ°Ñı":5585,"ÑĳÑģÑĤ":5586,"end":5587,"ÑĥÐ»Ñĭ":5588,"Ð¼Ð¾Ð²":5589,"Ð¾Ð¿Ð¾Ð»Ð¾Ð¶":5590,"ĠÐ´Ð¾Ð»Ð³":5591,"ĠÐ¿Ð¾ÑıÐ²Ð¸Ð»Ð¸ÑģÑĮ":5592,"ĠÐ½Ð¸Ð´ÐµÑĢÐ»Ð°Ð½Ð´":5593,"ĠÑĢÐ°ÑģÐ¿ÑĢÐµÐ´ÐµÐ»":5594,"ĠÐ½ÐµÐºÐ¾ÑĤÐ¾ÑĢÐ¾Ðµ":5595,"ĠÐ¿ÑĢÐµÐ´ÑģÐµÐ´Ð°ÑĤÐµÐ»Ñı":5596,"ĠÐ¼Ð°Ð»ÐµÐ½ÑĮ":5597,"ĠÑĪÑĤÐ°Ð±":5598,"48":5599,"ĠÐ±ÐµÐ»ÑĮÐ³":5600,"ĠÑĢÑĥÐ±Ð»ÐµÐ¹":5601,"ĠÐ¸ÑģÐ¿Ð¾Ð»ÑĮÐ·ÑĥÑİÑĤÑģÑı":5602,"Ð¾ÑĩÐºÐ¸":5603,"ĠÑģÐ´ÐµÐ»Ð°ÑĤÑĮ":5604,"Ð½Ð°ÑĤ":5605,"ĠÐºÐ¾ÑĢÐ¾Ð»ÑĮ":5606,"Ġ1934":5607,"ĠÑįÑĤÐ½":5608,"Ð°Ð»ÑĮÐ±Ð¾Ð¼":5609,"ÐºÐ¾Ð½ÑģÑĤÑĢÑĥÐº":5610,"ĠÑģÐ¾Ð²ÐµÑĤÑģÐºÐ¸Ñħ":5611,"ĠÐ¼Ð¸ÑĦ":5612,"ĠÐ´Ð¾ÑģÑĤÐ°Ð²":5613,"ÑĤÐµÑĢÑĢÐ¸ÑĤÐ¾ÑĢÐ¸":5614,"ĠÐ¸Ð·Ð²ÐµÑģÑĤÐ½ÑĭÑħ":5615,"ĠÐ¼Ð°Ð»Ð¾":5616,"ĠÑĤÐµÐ¿ÐµÑĢÑĮ":5617,"ĠÐ²Ð¿Ð»Ð¾ÑĤÑĮ":5618,"Ġ1933":5619,"Ð°ÑĤÐµÐ»ÑĮÐ½Ð¾Ð¹":5620,"ĠÐ³Ð²Ð°ÑĢÐ´Ð¸Ð¸":5621,"ÐµÑĢÐ¾ÑģÑģ":5622,"ĠÐ³Ð»Ð°Ð²Ð½Ð¾Ð¹":5623,"Ġ1971":5624,"ĠÐ½Ð°Ð·Ð°Ð´":5625,"ÑĨÐµÐ½ÑĤÑĢ":5626,"Ð±Ð°Ð»":5627,"Ð¸ÑĢÐ¾Ð²Ð°Ð½Ð½Ð¾Ð¹":5628,"Ð°Ð½Ð¾Ð²Ð°":5629,"one":5630,"ĠÑİÑĢÐ¸Ð´":5631,"ĠÐ²Ð·Ð°Ð¸Ð¼Ð¾Ð´ÐµÐ¹ÑģÑĤÐ²":5632,"ÐµÐ½Ð¾Ð¼":5633,"for":5634,"Ġ1969":5635,"ĠÐ¿ÑĢÐµÑģÑģ":5636,"ĠÐ´ÑĢÑĥÐ·":5637,"ĠÑģÐ¼ÐµÑĪ":5638,"ĠÑģÑĥÐ»":5639,"ĠÑģÐµÐ³Ð¾Ð´Ð½Ñı":5640,"ix":5641,"39":5642,"ĠÐ·Ð°Ð¿ÑĢÐµÑī":5643,"ĠÐ·Ð°Ð±Ð¾Ð»ÐµÐ²":5644,"Ð¾Ð½Ñģ":5645,"ĠÐ±Ð¾ÑĢÑĤ":5646,"Ġal":5647,"ĠÑģÑĤÑĢÐ°ÑĤÐµÐ³":5648,"ĠÐ¿Ð¾Ð´Ð´ÐµÑĢÐ¶ÐºÑĥ":5649,"ĠÐ±ÑĭÐ²ÑĪÐµÐ³Ð¾":5650,"Ð¿ÑıÑĤ":5651,"ĠÐ²Ð½ÑĥÑĤÑĢÐ¸":5652,"ĠÐ³Ð¾":5653,"ĠÐ²ÐµÑĢÐ½ÑĥÑĤÑĮ":5654,"ĠÐ±ÑĢÑİ":5655,"ÑĥÐ¿ÑĢÐ°Ð²":5656,"Ð´ÐµÐ»ÑĮ":5657,"ĠÐ±ÑĥÑħ":5658,"ÑĩÐµÐ»Ð¾Ð²":5659,"Ġ1931":5660,"Ð½Ð¸ÑĨÐµÐ¹":5661,"ĠÑĤÐ¾Ð½Ð½":5662,"ÐºÐ¾Ð²ÑģÐºÐ¸Ð¹":5663,"Ð±ÑĢÐ°":5664,"Ð¸Ð½ÑģÑĤÐ²Ð¾":5665,"ft":5666,"ĠÐ¸Ð½Ð¾ÑģÑĤÑĢÐ°Ð½Ð½ÑĭÑħ":5667,"ĠÑĥÑĩÐ¸Ð»ÑģÑı":5668,"ĠÑįÐ¹":5669,"2008":5670,"ÑĨÐµÑĢ":5671,"Ð½Ð¾Ð·":5672,"ĠÐ¸Ð·Ð´Ð°Ð½Ð¸Ñı":5673,"Ð¸Ð¼Ð¸ÑĢÐ°":5674,"ĠÐ¿Ð¾ÑģÑĤÑĢÐ¾Ð¹":5675,"Ð¸Ð±Ð¾Ð»ÑĮÑĪ":5676,"ÑĥÑİÑīÐµÐ¹":5677,"ĠÑģÐµÐ¼ÑĮÑı":5678,"Ð¾ÑĦÐ¸ÑĨÐ¸":5679,"ĠÑģÐ¾ÐºÑĢÐ°Ñī":5680,"ĠÐ²ÑĢÐ°":5681,"ĠÐ¼ÐµÐ·":5682,"ĠÑĤÐµÐ¾":5683,"ĠÑģÐ°Ðº":5684,"ĠÐ±ÐµÑģ":5685,"Ð½Ð¾ÑģÑĤÑıÑħ":5686,"ĠÐ·Ð°ÑģÐ»ÑĥÐ¶":5687,"Ð¸ÑģÑĤÐ¾ÑĢ":5688,"Ð¸ÑĩÐµÑģÐºÐ¾Ð¼Ñĥ":5689,"ĠÐ¸ÑģÐ¿Ð°Ð½":5690,"ĠÐ´ÑĢÑĥÐ¶":5691,"ĠÐºÐ¾Ð½ÑĨÐµÐ¿":5692,"Ð°ÑĤÐµÐ»ÑĮÐ½ÑĭÑħ":5693,"ĠÐ¾Ð¿ÑĤ":5694,"ĠÑģÐ²Ð¾ÐµÐ¼Ñĥ":5695,"ĠÐ¿Ð¾Ð»ÑĥÑĩÐ¸ÑĤÑĮ":5696,"ĠÐ¿Ð¾Ñį":5697,"ik":5698,"ĠÐ·Ð°Ð½Ð¸Ð¼Ð°ÐµÑĤ":5699,"ĠÐ´Ð¸Ð²Ð¸Ð·Ð¸Ð¾Ð½":5700,"ĠÐ¼Ð¸Ð»Ð»Ð¸Ð¾Ð½Ð¾Ð²":5701,"ĠÐ¾ÐºÐ°Ð·Ð°Ð»ÑģÑı":5702,"Ġ1949":5703,"ÑĳÐ»ÑĤ":5704,"ĠÑĢÐ°ÑģÐ¿Ð¾ÑĢ":5705,"Ð°Ð²ÑĪÐµÐ³Ð¾":5706,"Ð¸ÑĦÐ¸ÐºÐ°ÑĨÐ¸Ð¸":5707,"ĠÐ¾ÑĤÐ´ÐµÐ»Ð°":5708,"Ð»Ð°Ñħ":5709,"ÐºÐ½":5710,"ÑģÑĤÑĢÐµÐ»":5711,"ĠÑĥÑħÐ¾Ð´":5712,"ĠÑĢÐµÐ°Ð»Ð¸Ð·":5713,"ĠÐ¿ÑĢÐµÐ´ÑģÐµÐ´Ð°ÑĤÐµÐ»ÐµÐ¼":5714,"ĠÐºÐ°Ð·Ð°ÑħÑģÑĤ":5715,"ĠÐºÐ¸ÑĢÐ¾Ð²":5716,"ĠÑĩÐµÐ»Ð¾Ð²ÐµÑĩÐµÑģÐº":5717,"ĠÑĪÐµÑģÑĤÑĮ":5718,"ĠÐ¼ÑĥÐ½Ð¸ÑĨÐ¸Ð¿Ð°Ð»ÑĮÐ½Ð¾Ðµ":5719,"ĠÐ¿ÑĢÐ¾ÑĪÑĳÐ»":5720,"Ð´Ñı":5721,"Ð¸ÑĤÐµÐ»ÑĮÐ½Ð¾ÑģÑĤÐ¸":5722,"ĠÐ½ÐµÐ³":5723,"ĠÑıÑĢÐ¾ÑģÐ»Ð°Ð²":5724,"44":5725,"ÐµÑģÐ¾":5726,"ĠÐ¿ÑĢÐ¾Ð²ÐµÐ´ÐµÐ½Ð¸Ñı":5727,"ĠÐ²ÐµÑĢÑģÐ¸Ñı":5728,"ĠÑĥÐ¿Ð¾Ð¼Ð¸Ð½Ð°ÐµÑĤÑģÑı":5729,"ĠÐ¾ÑĨÐµÐ½Ð¸":5730,"ĠÐ»Ð°Ð±Ð¾ÑĢÐ°ÑĤÐ¾ÑĢ":5731,"ĠÐ¸ÑģÑģÐ»ÐµÐ´Ð¾Ð²":5732,"ĠÐ°ÑģÐ¿":5733,"ĠÐ¿Ð°ÑĢÐ¸Ð¶Ðµ":5734,"ĠÑģÐ¾Ð»Ð½":5735,"ĠÐ·Ð°Ð½Ð¸Ð¼Ð°Ð»":5736,"Ġ1928":5737,"ĠÑįÐºÑģÐ¿Ð»ÑĥÐ°ÑĤÐ°":5738,"ĠÐ½Ð°Ð·Ð²Ð°Ð½":5739,"Ð¸Ð²ÑĪÐ¸Ñħ":5740,"ĠÐ¶ÐµÑģÑĤ":5741,"ĠÐ²Ð´Ð¾Ð»ÑĮ":5742,"ĠÐ¿ÐµÑĢÐµÐ³Ð¾Ð²":5743,"ÐºÐ¾ÑĤ":5744,"55":5745,"ĠÐ¿Ð¾ÑıÐ²Ð¸Ð»Ð°ÑģÑĮ":5746,"Ð¿Ð¾ÑħÐ¾ÑĢÐ¾Ð½ÐµÐ½":5747,"ĠÐ¿ÑĢÐ¸ÑĪÐ»Ð¾ÑģÑĮ":5748,"ĠÐºÑĢÐµÐ¼":5749,"ĠÐ¿Ð¾ÑģÑĤÑĢÐ¾ÐµÐ½":5750,"ĠÐ½Ð°ÑĢÐ¾Ð´Ð°":5751,"ĠÐ´ÐµÐ¿ÑĥÑĤÐ°ÑĤÐ¾Ð²":5752,"ĠÑģÐµÐ´":5753,"ĠÑģÐµÐ»ÑĮÑģÐºÐ¸Ð¹":5754,"ÑĦÐµ":5755,"Ð¾ÑĤÐº":5756,"ĠÐºÐ¸Ðµ":5757,"ĠÐ´ÑĢÑĥÐ³Ð°":5758,"ÐµÐ½ÑĤÐµ":5759,"Ð¿Ð¾ÑįÑĤÐ¾Ð¼Ñĥ":5760,"Ð¼ÐµÐ»ÑĮ":5761,"ĠÐ¸Ð½Ð¸ÑĨÐ¸Ð°ÑĤÐ¸Ð²":5762,"Ð¾ÐºÐ¸":5763,"Ð¼Ð½Ð¾Ð³Ð¸Ðµ":5764,"ĠÐ³Ð¾ÑģÐ¿Ð¾Ð´":5765,"te":5766,"ĠÐ¿ÑĢÐµÐºÑĢÐ°Ñī":5767,"ĠÑĢÐ°Ð±Ð¾ÑĩÐ¸Ñħ":5768,"ĠÑģÑĤÐ°":5769,"ĠÐ¿Ð¾ÑıÐ²Ð»Ñı":5770,"ĠÑģÐ°Ñħ":5771,"ĠÐ¶ÐµÐ½Ð¸":5772,"ÑĳÐº":5773,"Ð¸ÑĤÐµÐ»ÑĮÐ½Ð°Ñı":5774,"ĠÐ²Ð¾Ð·Ð²ÐµÐ´":5775,"ÑĪÑĤÐ°Ð±":5776,"ĠÐ´Ð¸ÑģÑĤÐ°Ð½":5777,"ĠÐ¼ÐµÑģÑĤÐ½Ð¾ÑģÑĤÐ¸":5778,"ĠÐ²Ð¸Ð·Ð°Ð½ÑĤ":5779,"Ð¾Ð»Ñı":5780,"ĠÐ¼Ñį":5781,"ĠÑĦÐ¾Ð½Ð´":5782,"ĠÑģÐ¾ÑĦ":5783,"ÑıÑģÐ½Ñı":5784,"ĠÐ²Ð¾ÐµÐ½Ð½ÑĭÐ¹":5785,"ĠÑģÐ´ÐµÐ»Ð°Ð»":5786,"ĠÐ¿ÑĢÐ¸Ð±Ð»Ð¸Ð·":5787,"ÐºÐ¾Ð¼Ð¿":5788,"ĠÐ´Ð²Ð°Ð¶Ð´Ñĭ":5789,"ĠÑĤÐµÐ»ÐµÐ²":5790,"ĠÑĥÐºÑĢÐµÐ¿":5791,"Ð±ÐµÐ·":5792,"ĠÐ¿Ð¾ÑıÐ²Ð¸Ð»ÑģÑı":5793,"ÐµÑĢÐ°Ð¼":5794,"ĠÐ²ÐµÑģÑĤ":5795,"ĠÑģÐ¾Ð·Ð²":5796,"ĠÐ¿ÑĥÑĤÐµÑĪÐµÑģÑĤÐ²":5797,"ÑĨÐµÐ»":5798,"Ð¸ÑĢÑĥÑİÑī":5799,"ĠÐ¿ÑĢÐ¸ÑģÐ²Ð¾ÐµÐ½Ð¾":5800,"ĠÑģÑĬÑĳÐ¼":5801,"ĠÐ°Ð¼ÐµÑĢÐ¸ÐºÐ¸":5802,"ÑıÐ»Ð¸ÑģÑĮ":5803,"ĠÐ±Ð¾Ñİ":5804,"ÑħÐ¾":5805,"Ð¸Ð»Ð»Ð¸":5806,"Ð¿ÑĢÐ¾ÐµÐºÑĤ":5807,"ĠÑģÐ»Ð°Ð²Ñĭ":5808,"Ð±Ð¾Ð»ÐµÐµ":5809,"Ð´ÐµÑĢÐµÐ²":5810,"ĠÐ´Ð¾Ð¼Ð°ÑĪÐ½Ð¸Ñħ":5811,"ĠÐ²ÑĭÑħÐ¾Ð´Ð°":5812,"ĠÐ´Ð¸Ð°Ð»":5813,"ĠÐ·ÑĥÐ±":5814,"ĠÐ·Ð°Ð¿Ð°Ð´Ðµ":5815,"ĠÐ¾ÐºÑĤÑıÐ±ÑĢÑĮ":5816,"ĠÐ¼ÑĥÐ½Ð¸ÑĨÐ¸Ð¿Ð°Ð»Ð¸ÑĤÐµÑĤ":5817,"ĠÐ½Ð¾Ð²Ð¾Ðµ":5818,"ĠÐ³Ð°Ð»Ð°ÐºÑĤ":5819,"ĠÐ²Ð·Ð³Ð»Ñı":5820,"Ġ1932":5821,"ĠÐ´Ð¸ÑĢÐµÐºÑĤÐ¾ÑĢ":5822,"ĠÐ»Ð¸Ð³Ðµ":5823,"ĠÐ¿Ð°Ð²Ð»Ð¾Ð²":5824,"Ġ1927":5825,"ĠÐ¸Ð·Ð¾Ð±":5826,"ĠÑģÑĤÐ¸Ð»Ðµ":5827,"ĠÐ½Ð°ÑħÐ¾Ð´Ð¸Ð»Ð¸ÑģÑĮ":5828,"Ð¸Ð½ÑģÐºÐ¾Ðµ":5829,"ĠÐ¿Ð¾ÑĢÐ¾Ð´":5830,"ĠÑĢÐµÐ¼Ð¾Ð½":5831,"ĠÑįÐ»ÑĮ":5832,"ĠÐ¾Ð±ÑīÐµÑģÑĤÐ²Ð¾":5833,"ĠÑĨÐ¸ÑĦ":5834,"ĠÐ²Ð¾Ð¹Ð½Ñĥ":5835,"ĠÑģÑĤÐ¸Ð»":5836,"ĠÐ´Ñİ":5837,"ĠÐ¸ÐºÐ¾Ð½":5838,"ĠÐ¸Ð¼ÐµÐ»Ð°":5839,"Ð°Ð»Ð¸Ñı":5840,"ÑĢÐµÐ¶":5841,"ĠÐ»ÑĳÑĤ":5842,"ÑģÐµÐ»ÑĮ":5843,"ĠÐºÐ¾Ð²":5844,"ĠÐ¸Ð½Ð¶ÐµÐ½ÐµÑĢ":5845,"ĠÐ±Ð»Ð°":5846,"ĠÐ¼ÐµÑģÑĤÐ½ÑĭÑħ":5847,"Ð¸ÑĩÐ½ÑĭÐ¹":5848,"ĠÐ²ÑĭÑģÑĪÐµÐ¹":5849,"ĠÑģÐ»ÐµÐ´ÑĥÑİÑīÐµÐ¼":5850,"ĠÐ¼ÐµÑĤÐ°Ð»":5851,"Ð»ÐµÑĤÐ¾Ð¼":5852,"ĠÑģÐ²ÐµÑĢÑħ":5853,"sp":5854,"ĠÐ¿ÑĢÐ°Ð²Ð¾ÑģÐ»Ð°Ð²Ð½Ð¾Ð¹":5855,"ĠÑĦÐ¸Ð½Ð»ÑıÐ½Ð´":5856,"ĠÐ´Ð¸Ðº":5857,"ĠÑĥÑĩÐ°ÑģÑĤÐ½Ð¸ÐºÐ¾Ð²":5858,"ĠÐ´Ñĥ":5859,"Ð°ÑİÑīÐµÐ³Ð¾":5860,"Ð½Ð¸Ð·":5861,"ÑįÑģ":5862,"Ð´Ð»Ð¸Ð½Ð°":5863,"Ġxvi":5864,"Ð¿ÑĢÐ¾Ð¼":5865,"ĠÑĦÐ»Ð°Ð³":5866,"ĠÐ½ÐµÐ¼Ñĥ":5867,"Ð¿Ð¾Ð·Ð´Ð½ÐµÐµ":5868,"ĠÐ¼ÐµÐ¶Ð´ÑĥÐ½Ð°ÑĢÐ¾Ð´Ð½ÑĭÑħ":5869,"ĠÐºÐ¾Ð½ÑĨÑĥ":5870,"ÐµÑĤÐ¾Ð²":5871,"ĠÐ¿Ð¾Ð´Ð²Ð¾Ð´":5872,"ĠÑĦÑĢÐ¸Ð´":5873,"ou":5874,"ĠÐ·ÐµÐ»Ñĳ":5875,"ĠÐ¼ÑĥÑģÑĥÐ»ÑĮÐ¼Ð°Ð½":5876,"Ð¾Ð³ÑĢÐ°Ð¼":5877,"Ð¾Ð·Ñĭ":5878,"ice":5879,"ĠÐ½Ð¸ÐºÐ¾Ð»Ð°Ñı":5880,"ĠÐ²ÑĭÑģÐºÐ°Ð·":5881,"ĠÐ¼Ð¾ÑģÐºÐ²Ñĥ":5882,"ĠÑħÑĥ":5883,"ĠÐ¿ÑĢÐ°Ð²Ð¸Ð»":5884,"ĠÑģÑĭÐ½Ð¾Ð²":5885,"ĠÑĢÐµÐ±ÑĳÐ½":5886,"ĠÐ¿ÑĢÐµÑģÐ»ÐµÐ´":5887,"ĠÐ²ÐºÐ»Ð°Ð´":5888,"Ð²Ð°Ñĩ":5889,"ĠÐºÐ°Ð¶Ð´Ð¾Ð¹":5890,"ob":5891,"Ð½Ð¸ÐµÐ¼":5892,"Ð¼Ð¾Ð´":5893,"ĠÑĢÐµÐ´Ð°ÐºÑĨÐ¸Ð¸":5894,"Ð·Ð¸":5895,"ĠÐ¿Ð¸ÑĢ":5896,"ĠÐ½Ð¾Ð¼Ð¸Ð½":5897,"ĠÐ²Ð¾Ð·Ð³Ð»Ð°Ð²Ð¸Ð»":5898,"Ð°Ð»Ð¸Ð·Ð°":5899,"ĠÑĥÑģÑĤÑĢÐ¾":5900,"ĠÐ½Ð¾Ð²ÑĥÑİ":5901,"ĠÐ¿Ð¾ÑĩÑĳÑĤ":5902,"Ð²Ð°Ð¹":5903,"ĠÐ¿ÑĢÐµÐ´ÑģÑĤÐ°Ð²Ð¸ÑĤÐµÐ»ÑĮ":5904,"Ð¸Ð»Ð¾Ð²":5905,"ĠÑĢÐ°ÑģÐ¿Ð¾Ð»Ð¾Ð¶ÐµÐ½Ð¾":5906,"ÐµÐµÑģÑı":5907,"ĠÐ¼Ð»ÑĢÐ´":5908,"ĠÐ½ÐµÐ¿Ð¾ÑģÑĢÐµÐ´ÑģÑĤÐ²ÐµÐ½Ð½Ð¾":5909,"ĠÐ¿Ð¾Ð´Ð¿Ð¸ÑģÐ°Ð»":5910,"ĠÐ³ÑĢÑĥÐ¿Ð¿Ð¾Ð¹":5911,"ĠÐ¿Ð°Ð¼ÑıÑĤÐ¸":5912,"ĠÐ²Ð¾ÑĪÑĳÐ»":5913,"Ð»Ð»ÐµÐ»ÑĮ":5914,"Ġ1914":5915,"ĠÐ·ÐµÐ¼Ð»Ðµ":5916,"Ð¸ÑĤÐµÐ»ÑĮÐ½Ð¾ÑģÑĤÑĮ":5917,"Ð¿ÐµÑĢÐ²Ð°Ñı":5918,"ĠÐ´Ð¾Ð±ÑĢÐ¾Ð²Ð¾Ð»ÑĮ":5919,"ĠÑĦÐ¸Ð³ÑĥÑĢ":5920,"ĠÐ¾ÑĢÐ¸":5921,"Ġ1953":5922,"ĠÐ¸ÑĤÐ¾Ð³Ð°Ð¼":5923,"ĠÐ¼ÑĥÑħ":5924,"ĠÐ³ÑĢÐ°Ð½Ð¸ÑĨ":5925,"ĠÐºÐ»Ð¸Ð½":5926,"ĠÑģÐ¾Ð·Ð´Ð°Ð½Ð¸Ðµ":5927,"ĠÐ¿ÑĢÐ¾Ð»":5928,"ĠÑĢÑĥÑĩ":5929,"ĠÐ¼ÑĥÐ¶ÑĩÐ¸Ð½Ñĭ":5930,"ÑĨÐ¸Ð¾Ð½Ð½ÑĭÐ¹":5931,"ĠÐ¾ÐºÐ¾Ð½ÑĩÐ°Ð½Ð¸Ð¸":5932,"Ð¸Ð²Ð°ÑİÑĤÑģÑı":5933,"ÑĭÐ²Ð°ÑİÑĤÑģÑı":5934,"ĠÑģÑĢÐµÐ´Ð½ÐµÐ¼":5935,"ĠÑĥÑĢÐ¾Ð²ÐµÐ½ÑĮ":5936,"ĠÑİÐ³Ð¾ÑģÐ»Ð°Ð²":5937,"ĠÑĦÐ¾ÑĢÑĤ":5938,"ĠÐºÐ¾Ð»ÑħÐ¾Ð·":5939,"Ð¸Ð°":5940,"Ġ1925":5941,"ĠÑģÑĥÐ´ÑĮ":5942,"Ð»Ð¾ÑĢ":5943,"ÑĬÑĳÐ¼":5944,"ĠÐ²ÑĭÑģÑĤÑĥÐ¿Ð¸Ð»":5945,"ĠÑĤÐµÑĢÑĢÐ¸ÑĤÐ¾ÑĢÐ¸Ñİ":5946,"ĠÐ²Ð»Ð°Ð´ÐµÐ»ÑĮ":5947,"ĠÐµÑģÑĤÐµÑģÑĤÐ²ÐµÐ½":5948,"ĠÐ²ÐµÐ½Ð³":5949,"ĠÐ´ÐµÐ»Ð°":5950,"Ð°ÑīÐ¸Ñħ":5951,"ĠÑĢÐµÑģÑĥÑĢ":5952,"ĠÐ²ÑģÐ»ÐµÐ´":5953,"ĠÑĪÐ²Ðµ":5954,"ĠÐºÐ°Ð±":5955,"Ð°ÑĢÐº":5956,"Ð¶Ñĥ":5957,"ĠÑģÐ¾ÑģÑĤÐ¾ÑıÑī":5958,"ĠÐ¿ÑĢÐ¾Ð¸Ð·Ð²ÐµÐ´ÐµÐ½Ð¸Ð¹":5959,"ĠÐ¸Ð·Ð¼ÐµÑĢ":5960,"Ġre":5961,"ÑĢÐ°Ð½ÐµÐµ":5962,"ell":5963,"ĠÑģÑĤÐµÐ¿ÐµÐ½ÑĮ":5964,"ĠÐ±Ð°ÑĢÐ°":5965,"Ð¸ÑĢÐ¾Ð²Ð°Ð½Ð½ÑĭÐ¹":5966,"ĠÑĥÑĩÐ°ÑģÑĤÐ¸Ñı":5967,"ĠÐ½ÐµÐ²Ð¾Ð·":5968,"ĠÐ°ÑĢÐ³ÐµÐ½ÑĤ":5969,"ÑĪÐµÐ²":5970,"ĠÐ½Ð°ÑĩÐ°Ð»Ð¾Ð¼":5971,"ĠÐ½Ð¾Ð²Ð¾Ñģ":5972,"ÐºÐ°Ð¶Ð´":5973,"ast":5974,"ĠÑģÑĩÑĳÑĤÐ¾Ð¼":5975,"ĠÐ¼ÐµÐ»ÑĮ":5976,"ĠÐºÐ¾ÑĢÐ°Ð±Ð»ÐµÐ¹":5977,"ĠÑĢÐµÐ¼":5978,"ĠÐ¾Ð»ÑĮ":5979,"ÐµÐ»Ðµ":5980,"ĠÐ½Ð°Ð¿Ð¾Ð»":5981,"Ð¸ÑĢÐ¾Ð²Ð°Ð½Ð½ÑĭÐµ":5982,"ĠÐ¿ÑĢÐ¾Ð±Ð»ÐµÐ¼Ñĭ":5983,"ĠÑĢÐ°Ð·Ð±":5984,"ĠÐ½Ð°ÑĢÐ¾Ð´Ð¾Ð²":5985,"ÐµÐ»Ñİ":5986,"ĠÐ±Ð¸ÑĢ":5987,"ĠÐ²ÑĭÐ¿ÑĥÑīÐµÐ½":5988,"ĠÐºÐ¾Ð¼Ð¿ÑĮÑİÑĤÐµÑĢ":5989,"ĠÑģÐ¾ÑģÑĤÐ¾ÑıÐ½Ð¸Ð¸":5990,"62":5991,"Ð¿Ð¾ÐºÑĢÐ¾Ð²":5992,"ĠÑħÑĥÐ´Ð¾Ð¶Ð½Ð¸Ðº":5993,"Ð¾Ð¹ÑĤÐ¸":5994,"ÑĢÐ¸ÑģÐ°":5995,"ĠÑģÐ¿ÑĥÑĤ":5996,"ĠÑĤÐµÐ°ÑĤÑĢ":5997,"ĠÐ¿ÑĢÐ¸Ð²Ð»ÐµÐº":5998,"ÐµÐºÑģÑĥ":5999,"Ð¼Ð¾ÑģÐº":6000,"ĠÐ¾ÑĤÐ±":6001,"Ð°Ð´Ð¸":6002,"68":6003,"ĠÐ²ÑĭÑĤ":6004,"ĠÑĤÑĳÐ¼":6005,"ĠÐ¾ÑĤÐºÑĢÑĭÐ²":6006,"ĠÐ¿ÑĢÑıÐ¼Ð¾":6007,"Ð¿ÑĥÑģÐº":6008,"ĠÐ¼Ð¸Ð½Ð¸ÑģÑĤÑĢÐ°":6009,"ct":6010,"ĠÐ¿ÐµÑĢÐµÐ±":6011,"ĠÐ±Ð°Ð»ÑĤ":6012,"ÑĤÐµÑħÐ½":6013,"Ð¸Ð¹ÑģÐºÐ¸Ð¼":6014,"Ð½ÐµÐ½Ð¸Ñı":6015,"ĠÐ±ÐµÑģÑģ":6016,"ĠÐ²ÐµÑĢÑĪ":6017,"ĠÑģÐ¾Ð±ÑĭÑĤÐ¸Ð¹":6018,"Ð¾Ð¹ÑĩÐ¸Ð²":6019,"ĠÐ¿Ð¾ÑģÐ»":6020,"Â»\".":6021,"ĠÐ½Ð°ÑĩÐ¸Ð½Ð°ÐµÑĤ":6022,"ĠÐ¿ÑĢÐ¸ÑĩÑĳÐ¼":6023,"Ð¿ÑĢÐµÐ·Ð¸Ð´":6024,"ĠÑĥÐºÑĢÐ°ÑĪ":6025,"Ð±Ð»Ð¸Ð·":6026,"ĠÑģÑĤÐ°ÑĤÐ¸ÑģÑĤ":6027,"ĠÐ±Ð¾ÑĢÑĮÐ±Ðµ":6028,"ĠÐ±Ð¾Ð»ÑĮÑĪÐ¸Ð¼":6029,"ĠÑĤÐ¾Ð¶Ðµ":6030,"ĠÐ¼Ð°ÑĢÑĪÑĢÑĥ":6031,"Ġ1955":6032,"ĠÐ¿Ñĥ":6033,"Ð¾Ð´Ñĥ":6034,"ĠÑĩÑĢÐµÐ·":6035,"ĠÑģÐ»Ð¾Ð²Ð¾":6036,"ĠÐ½Ð°ÑĩÐ¸Ð½Ð°ÐµÑĤÑģÑı":6037,"ĠÑģÐ¾Ð·Ð´Ð°Ð½Ð¸Ð¸":6038,"ĠÐºÐ¾Ð½ÑĤÐ°Ðº":6039,"ĠÑģÐºÐ»Ð¾Ð½":6040,"ĠÐ¼Ð°Ð³Ð¸ÑģÑĤ":6041,"ĠÑĥÑģÐ¿ÐµÑĪÐ½Ð¾":6042,"ĠÐ°Ð²ÑĤÐ¾Ð±ÑĥÑģ":6043,"ÐºÑĥÑİ":6044,"ĠÐ³Ð¾Ð»ÑĥÐ±":6045,"ĠÐ¾ÑĤÐ½Ð¾ÑģÑıÑĤÑģÑı":6046,"Ð½Ðº":6047,"ĠÐ¾ÐºÑĢÐµÑģÑĤ":6048,"ÑĳÑĤÑĢ":6049,"ĠÐ°Ð³ÐµÐ½ÑĤ":6050,"ĠÑĤÐµÐ°ÑĤÑĢÐµ":6051,"ÑģÐ¾Ð²ÐµÑĤ":6052,"ĠÐ¿ÑĢÐ°Ð²Ð¾Ð¼":6053,"ĠÐ²ÑģÑĤÑĢÐµÑĩÐ°ÐµÑĤÑģÑı":6054,"Ð¸ÑĢÐ¾Ð²Ð°Ð»ÑģÑı":6055,"ĠÑģÑĤÐ¾Ð»Ðº":6056,"ĠÑĢÐ°Ð·Ð½Ð¾Ð¾Ð±ÑĢÐ°Ð·":6057,"ĠÑĩÑĥÐ´":6058,"ian":6059,"ĠÐ½Ð°ÑĢÐ¾Ð´Ð½Ð¾Ð³Ð¾":6060,"ĠÐ¼ÐµÐ½Ñı":6061,"ĠÑĩÐµÑĪ":6062,"Ġ44":6063,"ĠÐ²ÑĭÑģÐ¾ÑĤÐµ":6064,"ĠÐ¿ÐµÑĤÑĢÐ°":6065,"ÑĩÑĳÑĢ":6066,"ĠÑħÐ¾ÑĢÐ²Ð°ÑĤ":6067,"Ð°Ð¼Ð¿":6068,"ĠÐ¿ÑĢÐµÐ¶":6069,"ĠÐ¿ÑĢÐµÐ´ÑģÑĤÐ°Ð²Ð»ÐµÐ½":6070,"ÑĳÐ½Ð½ÑĭÐ¼Ð¸":6071,"ĠÐ¾ÑĢÑĥÐ¶Ð¸Ñı":6072,"ĠÐ¸ÑģÑĩÐµÐ·":6073,"ĠÐ·Ð°Ð»Ð¾Ð¶":6074,"ĠÑĢÐ¾Ð¶Ð´":6075,"ĠÐ´Ð¾Ð¼Ð¾Ð²":6076,"ĠÐ¾ÑĤÐ´ÐµÐ»ÐµÐ½Ð¸Ðµ":6077,"ĠÐ´Ð°Ð½Ð½ÑĭÐµ":6078,"ĠÐ¾ÑģÐ½Ð¾Ð²Ð°Ð½Ð¸Ð¸":6079,"Ð°ÑĤÐ¾ÑĢÐ¾Ð²":6080,"Ð»Ð¸ÑĨ":6081,"ĠÑĢÐ¸Ñĩ":6082,"ĠÐºÐ¾Ð»Ð»ÐµÐ´":6083,"ok":6084,"ĠÐ¼Ð°Ñħ":6085,"ÑĭÐ¶":6086,"Ð¸ÑĩÐ½ÑĭÑħ":6087,"ĠÑģÑĥÐ´ÐµÐ±":6088,"ĠÐ²ÑĭÐ½ÑĥÐ¶Ð´ÐµÐ½":6089,"54":6090,"ĠÑĢÐ°Ð±Ð¾ÑĤÐ°Ð»Ð¸":6091,"ĠÐ¼Ð¾ÑĤÐ¸Ð²":6092,"ÑģÐ¼ÐµÐ½":6093,"Ð·Ð°Ñģ":6094,"ĠÐºÐ°Ð¶Ð´Ð¾Ð³Ð¾":6095,"ÐµÑĢÐµÐ¼Ð¾Ð½":6096,"ÑĥÑģÐ»Ð¾Ð²":6097,"Ð¾Ñİ":6098,"Ð¿Ð¾Ð»ÑĥÑĩ":6099,"ĠÐ¼Ð°Ð´":6100,"ĠÐ»Ð°ÑĤÐ²":6101,"ĠÐ¸Ð·ÑĢÐ°Ð¸Ð»ÑĮ":6102,"74":6103,"ĠÐ¾ÑģÑĤÑĢÐ¾Ð²Ð¾Ð²":6104,"ĠÑģÐµÑĢÐ²":6105,"ĠÑħÐ°":6106,"ĠÑĢÐº":6107,"Ð½Ð°Ð³":6108,"ĠÐ½ÐµÐ¾Ð±ÑħÐ¾Ð´Ð¸Ð¼Ð¾":6109,"Ð¸ÑĩÐ½ÑĭÐµ":6110,"Ð¸ÑĤÐµ":6111,"ĠÑİÐ³Ñĥ":6112,"Ð°Ð½Ð½Ð¾Ð³Ð¾":6113,"ÑĩÐµ":6114,"ÑģÐ¾Ð»ÑİÑĤ":6115,"Ġ=":6116,"ĠÐ¿Ð¾ÑģÑĤÐµÐ¿ÐµÐ½Ð½Ð¾":6117,"ĠÐ¿ÑĥÐ»ÐµÐ¼":6118,"ÑģÑĤÐ²Ð¾ÑĢ":6119,"Ð³ÑĢÑĥÐ¿Ð¿Ð°":6120,"so":6121,"ÑıÑĤÐ¾":6122,"ĠÐ±ÑĢÐ°ÑĤÐ°":6123,"ĠÐºÐ°Ð¿Ð¸ÑĤÐ°Ð½":6124,"ĠÐ¾ÑģÐ½Ð¾Ð²Ð°Ð½Ð¸Ñı":6125,"ĠÐ°ÑįÑĢÐ¾Ð¿Ð¾ÑĢÑĤ":6126,"ĠÐ¸Ð½Ð´Ð¸Ð²":6127,"ĠÑģÑĤÐ°Ð´Ð¸Ð¾Ð½":6128,"ĠÑĢÐ°ÑģÑģÑĤÐ¾ÑıÐ½Ð¸Ð¸":6129,"Ð¾Ð³Ð¾ÑĢ":6130,"ĠÑįÐºÐ¾Ð½Ð¾Ð¼Ð¸ÐºÐ¸":6131,"ĠÐµÐ¿Ð°ÑĢÑħÐ¸Ð¸":6132,"ĠÐºÐ°Ð²Ð°Ð»ÐµÑĢ":6133,"ÑĢÐ°Ð¼Ð¸":6134,"ĠÑģÐ¾Ð±Ð¾ÑĢÐ°":6135,"Ð¿Ð°Ð´Ð°ÐµÑĤ":6136,"Ġ48":6137,"ÑįÑĦÑĦ":6138,"ĠÐºÐ¾Ð¼Ð¼ÐµÑĢÑĩÐµÑģÐº":6139,"ÑħÐ°Ð½":6140,"ĠÐ´Ð¾ÑĢÐ¾Ð³Ð°":6141,"ĠÑĢÐ°Ð¹Ð¾Ð½Ð¾Ð²":6142,"ĠÐ¿Ð¾ÑĢÑıÐ´ÐºÐ°":6143,"Ġ33":6144,"ĠÑģÐ¾Ð²ÑĢÐµÐ¼ÐµÐ½Ð½Ð¾Ð³Ð¾":6145,"ĠÑĥÐ¶":6146,"ĠÐºÐ½Ð¸Ð³Ñĥ":6147,"ĠÐ°ÑģÑĤÑĢÐ¾Ð½Ð¾Ð¼":6148,"ĠÐ´Ð¶Ð¾ÑĢÐ´Ð¶":6149,"ĠÐ½Ð°ÑĩÐ°Ð»ÑĮÐ½Ð¸Ðº":6150,"ÑĩÐ°":6151,"ĠÐ³Ð¸ÑĤ":6152,"ÑģÑĤÐµÑĢ":6153,"ÐµÑĢÐµÐ¹":6154,"ĠÑĢÐ°ÑĥÐ½":6155,"ÑıÑīÐ¸Ð¹":6156,"ÑĢÐµÑĤÐ°":6157,"ÑĮÐ¼Ð¸":6158,"ĠÑĤÐµÐ»ÐµÐºÐ°Ð½":6159,"ĠÐ¾Ð±Ð¾Ð·Ð½Ð°ÑĩÐµÐ½Ð¸Ñı":6160,"ÑĪÐµÑģÑĤÐ²":6161,"ĠÐ²ÑģÐµÐ¼Ð¸ÑĢ":6162,"ive":6163,"Ð²ÐµÑģÑĤÐ¸":6164,"Ð¾ÑģÑĤÐ°Ð½":6165,"ĠÑĦÐ°Ð±ÑĢ":6166,"ĠÐ·Ð°Ð¼ÐµÑģÑĤÐ¸ÑĤÐµÐ»ÑĮ":6167,"ÐµÐ½Ð½Ð¾ÑģÑĤÑĮ":6168,"ĠÑģÐ´":6169,"ĠÐ°ÑĤÐ¾Ð¼":6170,"ÑĳÑĢÐ¾Ð²":6171,"ÐµÐ½ÑĨÐµÐ²":6172,"ĠÑĢÐ¾Ð³":6173,"ĠÑģÐ¾Ð±Ð¾ÑĢ":6174,"Ð±Ð°ÑĤ":6175,"ĠÐ²ÑĭÑģÑĤÑĥÐ¿Ð»ÐµÐ½Ð¸Ñı":6176,"Ð½Ð¸Ð¼Ð¸":6177,"ÐµÑĢÐ°Ð½":6178,"ĠÐ³Ð°Ð¼":6179,"ĠÐ¿ÑĢÐµÐ´ÑĥÑģ":6180,"ĠÑĦÑĢÐ°Ð½ÑĨÑĥÐ·ÑģÐºÐ¸Ð¹":6181,"ĠÑĩÐµÐ¼Ð¿Ð¸Ð¾Ð½Ð¾Ð¼":6182,"Ġ64":6183,"ĠÐ¿ÑĢÐ°":6184,"ÑĤÐ°Ð²":6185,"ĠÑģÐºÐ°Ð·Ð°Ð»":6186,"ĠÐ¿ÑĢÐ¸Ð½ÑıÐ»Ð¸":6187,"ÑĤÐ¸ÑĦ":6188,"ÑĤÐ²":6189,"ĠÐ¶Ð¸ÑĤÐµÐ»Ð¸":6190,"ĠÑģÐµÑĢÐ¶":6191,"ĠÑıÐ´":6192,"ĠÐ»ÐµÑĤÐ¾Ð¼":6193,"ĠÐ¾Ð±ÑĬÐµÐºÑĤÐ¾Ð²":6194,"ĠÑģÑħÐ¾Ð´":6195,"ÐµÐ»ÑĮÐ´":6196,"ĠÐ»Ð¾Ð½Ð´Ð¾Ð½":6197,"ĠÑģÐ½Ð°ÑĢÑı":6198,"ĠÐ²Ð·ÑĢÐ¾Ñģ":6199,"ĠÐ¼Ð¾ÑĤ":6200,"ĠÑĥÑģÑĤÐ°Ð½Ð°Ð²Ð»Ð¸Ð²":6201,"ĠÐ¿ÑĢÐµÐ´Ð¿ÑĢÐ¸Ð½Ð¸Ð¼":6202,"Ð±Ð»Ð°Ð³Ð¾Ð´Ð°ÑĢÑı":6203,"ĠÐºÐ½Ð¸Ð³Ð°":6204,"Ð¿ÐµÑĢÐ²Ð¾Ð½Ð°ÑĩÐ°Ð»ÑĮÐ½Ð¾":6205,"ĠÐ»Ð¾Ðº":6206,"ĠÑĢÐ¾Ð¶Ð´ÐµÐ½Ð¸Ñı":6207,"ĠÑģÐ¾Ð·Ð´Ð°Ð½Ð°":6208,"ĠÐ¼ÐµÐ¶Ð´ÑĥÐ½Ð°ÑĢÐ¾Ð´Ð½Ð¾Ð¹":6209,"ĠÐ½ÐµÐ¼ÐµÑĨÐºÐ¸Ð¹":6210,"ĠÐ±ÐµÐ¹":6211,"ĠÐ²ÑĭÐ´":6212,"ĠÐ´Ð¸Ð°Ð¼ÐµÑĤ":6213,"ĠÐ¿ÑĤÐ¸ÑĨ":6214,"ĠÐ»Ð¸ÑĨÐ°":6215,"ÑĤÑĢÐ¸":6216,"ĠÐ·Ð²Ð°Ð½Ð¸Ñı":6217,"ĠÑģÐ¾Ð´ÐµÑĢÐ¶Ð¸ÑĤ":6218,"ĠÐºÑĢÐ°ÑģÐ½Ð¾Ð³Ð¾":6219,"ĠÐ¿ÑģÐº":6220,"Ð¾ÐºÐ¾Ð¹":6221,"ĠÐ´Ð·":6222,"ÑĪÐ¸ÑģÑĮ":6223,"ĠÐ¾ÑĦÐ¾ÑĢÐ¼":6224,"ĠÐºÐ°Ð²ÐºÐ°Ð·":6225,"Ð°ÑĤÐµÐ»ÑıÐ¼Ð¸":6226,"ĠÑĥÑĩÐ°ÑģÑĤÐ¾Ðº":6227,"ÑĥÑĩÐ°ÑģÑĤÐ²":6228,"Ð¼Ð¸ÑĢ":6229,"ÑĢÑĥÐ±":6230,"72":6231,"Ð´Ð°ÑĢ":6232,"Ġ1952":6233,"Ð²Ð»Ð°Ð´":6234,"ĠÑģÐ»Ð°Ð±":6235,"ĠÐ½Ð°Ð»Ð¾Ð³":6236,"ĠÐ¼Ð¾Ð½Ð°ÑģÑĤÑĭÑĢÑĮ":6237,"ÑĢÐµÐ¿Ð»":6238,"ĠÐ»Ð¸Ð½ÐµÐ¹":6239,"ĠÐ½Ð¾Ð²ÑĭÐ¼":6240,"Ġ75":6241,"Ð°Ð´ÑĨÐ°ÑĤ":6242,"ĠÐ´ÑĢÑĥÐ³Ð¾Ð¼":6243,"Ð¾ÑĩÐ½Ð¾Ð¼":6244,"ĠÐ¿ÑĢÐ¸ÑĳÐ¼":6245,"ĠÐºÐ²Ð°Ð»Ð¸ÑĦ":6246,"Ð°ÐºÐ¾Ð¼":6247,"Ð»Ð¸Ñģ":6248,"ĠÐ²Ð¾ÑģÐº":6249,"Ġne":6250,"ĠÐ¾Ð·Ð½Ð°ÑĩÐ°ÐµÑĤ":6251,"ĠÐ¾ÑĤÑĢÐ¸ÑĨ":6252,"ĠÐ³Ð»Ð°Ð²Ð½ÑĭÑħ":6253,"ĠÐ½Ð¾ÑĩÑĮ":6254,"ĠÐ¼Ð¾Ð¼ÐµÐ½ÑĤÐ°":6255,"ĠÐ·Ð°ÐºÐ¾Ð½Ð¾Ð¼":6256,"ÑĥÐ»Ð°":6257,"Ð°ÑĤÐ¾Ð»":6258,"ĠÐ¿ÐµÑĢÐµÐ²Ð¾Ð·":6259,"ĠÐ¿ÐµÑģÐ½Ñİ":6260,"Ð¶Ð°Ð½":6261,"ĠÑģÑĤÑĢÐµÐ»ÐºÐ¾Ð²Ð¾Ð¹":6262,"ĠÑģÑİÐ¶ÐµÑĤ":6263,"ĠÑĤÐµÑħÐ½Ð¸ÐºÐ¸":6264,"ĠÑģÐ¾Ð²ÑĢÐµÐ¼ÐµÐ½Ð½ÑĭÑħ":6265,"ÑıÑīÐ¸Ñħ":6266,"ĠÐ·Ð²ÑĥÑĩ":6267,"ÑĳÐ²Ð°":6268,"Ð¸Ð²Ð°Ñı":6269,"ĠÐ¸Ð³ÑĢÑĥ":6270,"ĠÑĤÑĢÐµÑĤÐ¸Ð¹":6271,"ĠÐ²Ð°ÑĢÑĪÐ°Ð²":6272,"Ġ1915":6273,"ĠÐ±ÑĭÐ²ÑĪÐ¸Ð¹":6274,"ĠÑĤÐ²Ð¾ÑĢÑĩÐµÑģÐº":6275,"ĠÑĦÑĥÑĤÐ±Ð¾Ð»Ñĥ":6276,"ĠÑĤÑĢÐ°Ð¼":6277,"ÑĩÑĤÐ¾":6278,"ĠÐ¼ÐµÐ½ÑĮÑĪÐµ":6279,"ĠÐ±ÐµÐ»Ð¾ÑĢÑĥÑģÑģÐ¸Ð¸":6280,"ĠÑĢÐµÐºÐ¾Ð¼":6281,"ĠÐ²Ð½ÑĥÑĤÑĢÐµÐ½Ð½Ð¸Ñħ":6282,"Ġrec":6283,"ĠÐ´Ð¾ÑĢÐ¾Ð³Ðµ":6284,"ĠÐ²Ð¸Ð´Ñĭ":6285,"ĠÑħÐ°ÑĢÐ°ÐºÑĤÐµÑĢÐ¸ÑģÑĤ":6286,"ĠÐ·Ð°ÑģÐµÐ´":6287,"Ð°ÑĤÐ¾ÑĢÐ¸Ð¸":6288,"ÑģÐ¿Ð¾ÑĢÑĤÐ°":6289,"ÑĩÐµÑĢ":6290,"ÑĪÐµÐ¼Ñĥ":6291,"ÑģÑĤÐ°Ð½Ð¾Ð²":6292,"Ð·ÐµÐ»":6293,"ĠÐ¼ÑĥÑĢ":6294,"ĠÑĦÐ°ÐºÑĤÐ¸ÑĩÐµÑģÐºÐ¸":6295,"ĠÐ½Ð°ÑħÐ¾Ð´Ð¸Ð»Ð°ÑģÑĮ":6296,"ĠÐ¿ÑĥÐ½ÐºÑĤÐ°":6297,"Â»;":6298,"ĠÑĤÐµÐ¼Ð¿ÐµÑĢÐ°ÑĤÑĥÑĢÐ°":6299,"ĠÐ½ÐµÐ±Ð¾Ð»ÑĮÑĪÐ¾Ð¹":6300,"Ð¾ÑĤÐ¸Ð¿":6301,"ĠÑĦÐµÐ¾Ð´":6302,"Ð¸Ð½Ð°ÑĨÐ¸Ð¸":6303,"ma":6304,"ĠÐ³Ð¾ÑĢÑĭ":6305,"ĠÐ¿Ð¾Ð»ÑĥÐ¾ÑģÑĤÑĢÐ¾Ð²":6306,"ÑĭÐ²Ð°Ð»Ð¾ÑģÑĮ":6307,"ĠÐ¼ÐµÑģÑıÑĨÐ°":6308,"ĠÐºÐ°Ð½Ð°Ð´":6309,"67":6310,"ĠÑģÐ¿ÐµÐºÑĤÐ°Ðº":6311,"ĠÑģÑģÑĭ":6312,"Ð·Ð½Ð°ÑĩÐµÐ½Ð¸Ñı":6313,"ÑģÐ¾Ð±":6314,"ĠÐ²ÑĭÐ´Ð°ÑİÑī":6315,"ĠÐ¿ÑĢÐµÐ´Ð»Ð¾Ð¶Ð¸Ð»":6316,"ĠÐ¿Ð¾ÑĩÑĤÐ¾Ð²":6317,"ang":6318,"ĠÐ¿ÑĢÐµÐ´Ð¿ÑĢÐ¸ÑıÑĤÐ¸Ñı":6319,"Ð´ÐµÐ¹ÑģÑĤÐ²":6320,"ĠÐ³ÑĢÐ°ÑĦÐ°":6321,"ĠÐ½Ð¸ÑĩÐµÐ³Ð¾":6322,"88":6323,"ÑĥÑĢÐ¾Ð²":6324,"Ð¸ÑĩÐ½Ð¾Ð¹":6325,"ĠÑģÐ²Ð¾Ð±Ð¾Ð´Ñĭ":6326,"ĠÐ¾Ð¿ÑĥÐ±Ð»Ð¸ÐºÐ¾Ð²Ð°Ð½":6327,"ÑĭÐ²Ð°":6328,"ĠÐ´ÐµÐ»Ðµ":6329,"ĠÑģÐ¾Ð·Ð´Ð°Ð»":6330,"ĠÐ²ÑģÐµÑĢÐ¾ÑģÑģ":6331,"ÑįÐ´":6332,"ĠÐ¿ÑĢÐ¸Ð²ÐµÐ»Ð¾":6333,"ĠÑįÑĦÑĦÐµÐºÑĤ":6334,"ĠÐ²ÑĢÐµÐ¼ÐµÐ½Ð°":6335,"Ġar":6336,"ĠÐ¿Ð¾ÑĢÑĤÑĥÐ³Ð°Ð»Ð¸Ð¸":6337,"ÑĦÐ¸":6338,"ÐµÐ¼Ð°":6339,"ĠÐ½Ð°ÐºÐ°Ð·":6340,"ÑĢÑĥÐ½":6341,"ĠÑĢÐµÐ¹ÑĤÐ¸Ð½Ð³":6342,"Ð¾ÑģÑĤÐ¾Ñı":6343,"ĠÐ¿Ð°Ð¼ÑıÑĤÐ½Ð¸Ðº":6344,"ĠÐ¸Ð±":6345,"ĠÐ¼Ð°ÑĢÐ¸Ñı":6346,"ĠÐ²Ð°ÑĪ":6347,"ÑĤÑĢÐ°":6348,"Ð¾ÐºÐ¾Ð²":6349,"ĠÑģÐ°Ð¼ÑĭÐ¹":6350,"ĠÐ°Ð²ÑģÑĤÑĢÐ°Ð»Ð¸Ð¸":6351,"ĠÐ¿ÐµÑĢÐµÐ¸Ð¼ÐµÐ½Ð¾Ð²Ð°Ð½":6352,"de":6353,"Ð¿Ð¾Ð±ÐµÐ´":6354,"ĠÐ¿ÑĢÐ¾ÑģÐ¿":6355,"ĠÐ¿ÐµÑĢÐµÐ²":6356,"ÑģÐµÑĢÐ²":6357,"ĠÑĤÑĢÑĥÐ±":6358,"ĠÑĤÐ°ÐºÐ¾Ð³Ð¾":6359,"Ð¾ÑĤÐ¾Ñĩ":6360,"ĠÐ¿Ð¾Ð»Ð¸ÑĤÐ¸ÐºÐ¸":6361,"ĠÑĩÐ»ÐµÐ½Ñĭ":6362,"ĠÐ°ÑĢÐµÐ½Ð´":6363,"ĠÑĪÐ¾ÑģÑģ":6364,"ĠÐ¸ÐµÑĢ":6365,"ĠÐ¾ÑĤÐ´ÐµÐ»ÑĮÐ½ÑĭÑħ":6366,"ĠÑĢÑĥÐ´":6367,"ĠÑįÐ¿Ð¸Ð·Ð¾Ð´":6368,"ĠÐ»ÐµÐ¹ÑĤÐµÐ½Ð°Ð½ÑĤ":6369,"ĠÐ±ÑĢÐ¾Ñģ":6370,"ĠÐ¸Ð·Ð±Ð¸ÑĢÐ°ÑĤ":6371,"ĠÑĨÐµÐ¿":6372,"ĠÐ°Ð¼ÐµÑĢÐ¸ÐºÐ°Ð½ÑģÐºÐ¾Ð¹":6373,"Ð½Ð¸ÑĨÐµ":6374,"ĠÐ¼Ð¾Ð·":6375,"ĠÑģÐ²Ð¸Ð´ÐµÑĤÐµÐ»ÑĮÑģÑĤÐ²":6376,"ĠÐ¿Ð¾ÑģÑĢÐµÐ´":6377,"ĠÐ´Ð¶ÐµÐ¹Ð¼":6378,"ÑįÐºÐ¾Ð½Ð¾Ð¼":6379,"ĠÑģÐ¾ÑģÑĤÐ¾ÑıÐ»":6380,"ĠÐºÑĥÐ´Ð°":6381,"ĠÐ¸ÑģÐ¿Ð¾Ð»ÑĮÐ·Ð¾Ð²Ð°Ð½Ð¸Ðµ":6382,"ÑĮÐµÑĢÐ°":6383,"Ð¾Ð»Ñİ":6384,"Ð½ÐµÑģÑĤ":6385,"ĠÑĢÐ°ÑģÑħÐ¾Ð´":6386,"ĠÐ¿ÑĢÐ¸Ð³Ð¾Ð²Ð¾ÑĢ":6387,"Ð¸ÑĢÑĥÑİÑĤ":6388,"ÑĢÑıÐ·":6389,"Ð¾Ð²Ð°Ð»Ð¸ÑģÑĮ":6390,"ĠÐ¸Ð³ÑĢÐ°ÑĤÑĮ":6391,"ĠÐ¿Ð¾ÑģÐ°Ð´":6392,"ÐºÐ¾Ð²ÑĭÑħ":6393,"Ð¿ÑĢÐ¸Ð½Ð¸Ð¼":6394,"ÑıÐµÐ¼":6395,"ÑĢÐ¾ÑĢ":6396,"ĠÐ¿ÑĢÐ¸Ð²ÐµÐ´":6397,"Ð½ÐµÐ³":6398,"ĠÑįÐ¼Ð¸Ð³":6399,"ĠÑĦÐ¸Ð»Ð¾ÑģÐ¾ÑĦÐ¸Ð¸":6400,"ĠÐ²Ð¾Ð´Ð¾":6401,"ĠÐ½ÐµÐ¾Ð´Ð½Ð¾ÐºÑĢÐ°ÑĤÐ½Ð¾":6402,"ÐºÑĥÐ»ÑĮÑĤ":6403,"Ð½ÐµÐ²ÐµÐº":6404,"ĠÑĦÐ»Ð¾ÑĢ":6405,"ÑĭÐºÐ°":6406,"ĠÑģÐºÐ¾ÑĢÐ¾ÑģÑĤÑĮ":6407,"ĠÑģÐ¾Ð²ÐµÑĢÑĪÐ¸Ð»":6408,"ĠÐ¿Ð¾Ð¿Ð°Ð»":6409,"Ð¾Ð±Ð½Ð¾Ð²":6410,"ĠÐ¿ÑĢÐ¾Ð²Ð¾Ð·Ð³":6411,"ÑģÐºÐµÑĤ":6412,"ĠÑĤÐ°ÑĢ":6413,"ight":6414,"ĠÑģÐ»ÑĥÑĩÐ°ÑıÑħ":6415,"ĠÐ¼Ð¾Ð»Ð´Ð°Ð²":6416,"ĠÐ²ÑħÐ¾Ð´Ð¸Ð»Ð°":6417,"ĠÑģÐ¸Ñħ":6418,"ÑģÐ¾Ð²ÑĢÐµÐ¼":6419,"ĠÐ¿ÐµÑĢÐµÐµÑħÐ°Ð»":6420,"ĠÑĦÑĢ":6421,"Ð»ÐµÐ½Ð½ÑĭÐ¹":6422,"ĠÐ¼Ð³":6423,"ĠÐ¿Ð¾Ð²ÑĢÐµÐ¶Ð´":6424,"ĠÐ¿ÑĢÐ¾ÑħÐ¾Ð´Ð¸Ð»":6425,"Ð²Ð¸ÑĤ":6426,"ÑģÑĤÐ²Ð¸Ñı":6427,"Ġ1951":6428,"Ð¿ÑĢÐµÐ¼":6429,"Ð¾ÑıÐ·Ñĭ":6430,"ĠÐ²Ð¾Ð¹Ð½Ð°":6431,"Ð·Ñı":6432,"ĠÐ½Ð°Ð¸Ð¼ÐµÐ½":6433,"ĠÑįÐºÑģÐ¿ÐµÑĢÐ¸Ð¼ÐµÐ½ÑĤ":6434,"Ð±ÐµÑĢÑĤ":6435,"Ð°Ð»ÐµÐºÑģÐ°Ð½Ð´":6436,"ĠÐ¿ÑĢÐµÐ·Ð¸Ð´ÐµÐ½ÑĤÐ¾Ð¼":6437,"Â»:":6438,"Ð»Ð¸ÑĪÐºÐ¾Ð¼":6439,"ĠÐ¸Ð·Ð¼ÐµÐ½Ð¸":6440,"ĠÐ·Ð°Ð²Ð¾Ð´Ðµ":6441,"ĠÐºÐ¾Ð½Ðº":6442,"Ð¾ÑģÐ½Ð¾Ð²Ð°Ð½":6443,"ĠÑģÐ»Ð¸ÑĪÐºÐ¾Ð¼":6444,"ĠÐ³Ð°Ð±":6445,"ĠÑĪÐºÐ¾Ð»ÑĮ":6446,"ĠÐ¿Ð¾ÐºÐ¸Ð½ÑĥÐ»":6447,"ÑħÐ¸Ð¼":6448,"ĠÐ¿ÑĢÐµÐ²ÑĭÑĪ":6449,"ĠÐ²Ð¾Ð·Ð´ÐµÐ¹ÑģÑĤÐ²":6450,"Ð¿ÑĢÐµÐ´ÑģÑĤÐ°Ð²":6451,"ĠÐ½Ð¸ÐºÐ¾Ð»Ð°ÐµÐ²":6452,"Ð¾ÑĤÐµÑĨ":6453,"ÐµÑīÐµÐ½Ð¸Ñı":6454,"ĠÐ¾Ð±ÑĢÐ°Ð±Ð¾ÑĤ":6455,"ÑģÐ¾Ð½Ð°":6456,"Ð¾Ð»Ð³Ð¾":6457,"ĠÐ´ÐµÑıÑĤ":6458,"ĠÐ¿ÑĮÐµÑģ":6459,"Ð¾ÑĢÐ´Ð¸Ð½":6460,"Ð°Ð»ÐµÐ¹":6461,"69":6462,"ver":6463,"Ð»ÑĭÑħ":6464,"ĠÐ´ÐµÑģ":6465,"ĠÐ¸Ð¼ÐµÑĤÑĮ":6466,"ĠÐ³Ð¾ÑĢÐ¾Ð´Ð°Ñħ":6467,"ĠÐ½Ð°Ð¹ÑĤÐ¸":6468,"ĠÑĤÑĢÐ°ÐºÑĤ":6469,"ĠÐ¿ÑĢÐ¸Ð½Ð°Ð´Ð»ÐµÐ¶Ð¸ÑĤ":6470,"Ð½Ð¾Ð¼Ð¾ÑĢ":6471,"ĠÐ¼Ð°ÑĪÐ¸Ð½Ñĭ":6472,"Ġ1905":6473,"ĠÐ¿Ð¾ÑĢÑĤÑĢÐµÑĤ":6474,"ĪĴ":6475,"ĠÐ±Ð¾Ð»ÑĮÑĪÐ¸Ðµ":6476,"Ġ%).":6477,"ĠÐ¼Ð°ÑĤÐµÑĢ":6478,"ĠÐ°ÑĢÐµÑģÑĤÐ¾Ð²Ð°Ð½":6479,"ĠÑĩÑĥÐ²ÑģÑĤÐ²":6480,"Ð¸ÑĩÐ¸":6481,"ĠÐ¿Ð¾Ð»ÑĮÐ·Ñĥ":6482,"ĠÐ¶Ð¸Ð´":6483,"Ð²Ð¸Ð´Ð°":6484,"ĠÑģÐ°ÑĢ":6485,"ĠÑĢÐµÐ¶Ð¸ÑģÑģÑĳÑĢÐ°":6486,"Ð°Ð½ÑĤÑĭ":6487,"ĠÐ¼ÐµÑģÑĤÐ½Ð¾Ð³Ð¾":6488,"ÐºÐ¾Ñģ":6489,"ĠÐºÐ¾Ð·":6490,"ĠÑģÑĢÐ°Ð²Ð½ÐµÐ½Ð¸Ñİ":6491,"ĠÐ°Ð²ÑĤÐ¾Ð¼Ð¾Ð±Ð¸Ð»":6492,"ĠÐ¼ÐµÑĢÐ¾Ð¿ÑĢÐ¸ÑıÑĤ":6493,"ĠÑģÐ¾ÑĩÐµÑĤ":6494,"ĠÐ¿Ð¾ÐºÑĢÑĭÑĤ":6495,"Ð°Ð¹ÑĤ":6496,"Ð»Ð¸Ð½Ñĭ":6497,"ĠÐ½ÐµÐ½":6498,"ĠÐ¼ÐµÑģÑĤÐ°Ñħ":6499,"ĠÐ¿Ð¾ÑħÐ¾Ð¶":6500,"Ð½Ð°ÑĩÐ¸Ð½":6501,"ĠÐ¸Ð½Ð´Ð¸Ð¸":6502,"77":6503,"ĠÐ¾ÑģÑĤÐ°ÑĤ":6504,"ĠÐ±Ð°ÑĤÐ°":6505,"Ð¿Ð°Ð¼":6506,"ÑĨÐ¸Ð¾Ð½Ð½ÑĭÐµ":6507,"ĠÑĥÐ´Ð°":6508,"ĠÑģÐ¿ÐµÑĨÐ¸Ð°Ð»Ð¸Ð·":6509,"ck":6510,"Ð¿ÑĥÑĤ":6511,"ĠÐ°Ð½Ð´ÑĢÐµÐ¹":6512,"ĠÐ³ÐµÐ¾Ð³ÑĢÐ°ÑĦ":6513,"Ð¾ÑĩÐ½Ð°Ñı":6514,"ĠÐ¾ÑĢÐ³Ð°Ð½Ð¸Ð·Ð°ÑĨÐ¸Ð¹":6515,"ĠÐºÐ¾Ð½Ð³ÑĢÐµÑģÑģ":6516,"Ð²Ð°Ð½":6517,"ĠÑĥÐ¿Ð¾Ð¼":6518,"ĠÐ°ÑĥÐ´":6519,"Ð½ÑĳÐ¼":6520,"Ð¾ÑıÐ·ÑĭÑĩ":6521,"ÐµÑĤÑĢÐ¾Ð²":6522,"Ġ55":6523,"Ð¿Ð¾Ð»ÐºÐ¾Ð²":6524,"ĠÑģÑĤÑĥÐ´Ð¸Ð¸":6525,"ĠÑģÑĩÐµÑĤ":6526,"ĠÐ½Ð¾ÑģÐ¸ÑĤÐµÐ»Ð¸":6527,"ĠÑģÐºÐ»Ð°Ð´":6528,"Ð¾Ð±ÑĢ":6529,"Ð¾Ð±Ð¸Ð»":6530,"ĠÑĨÐµÑĢÐµÐ¼Ð¾Ð½":6531,"ĠÑģÐ²ÑıÐ·Ð°Ð½Ð¾":6532,"ĠÐ·Ð¾Ð»Ð¾ÑĤÐ¾Ð¹":6533,"ĠÐ·Ð°Ð´ÐµÑĢÐ¶":6534,"Ð¸Ð·Ð¸Ð¾Ð½":6535,"Ð½ÐµÐ·":6536,"\"Â».":6537,"ĠÐ¾ÑĢÐ¸Ð³Ð¸Ð½Ð°Ð»ÑĮÐ½Ð¾Ð¹":6538,"Ð¿ÑĢÐ¾Ð¸Ð·Ð²Ð¾Ð´":6539,"ĠÐ²Ð¾ÑĪÐ»Ð°":6540,"ĠÐ¼Ð°ÑĢÐ¸Ð¸":6541,"ĠÐ¾ÑĢÐ³Ð°Ð½Ð¸Ð·Ð¾Ð²Ð°Ð½":6542,"ĠÑĦÐ¸Ð»ÑĮÐ¼Ð¾Ð²":6543,"Ð¾ÑĢÐ°Ð¼Ð¸":6544,"Ð»Ð¾Ð²Ð°":6545,"ĠÐ´Ð¸ÑĢÐµÐºÑĤÐ¾ÑĢÐ¾Ð¼":6546,"ÑĦÑĤ":6547,"Ð¸ÑĢÐ¾Ð²Ð°Ð½Ð¸Ð¸":6548,"ĠÑģÐºÐ¾Ð½ÑĩÐ°Ð»ÑģÑı":6549,"ĠÑĢÐµÐ¶Ð¸Ð¼":6550,"ĠÑĢÐ°ÑģÐ¿Ð¾ÑĢÑıÐ¶":6551,"ĠÐ·Ð°Ð½ÑıÐ»Ð°":6552,"ĠÐ´Ð°Ð½Ð½ÑĭÐ¹":6553,"Ð»Ð¸ÑĢ":6554,"ĠÐ½Ð°Ð¿ÑĢÑıÐ¶":6555,"Ð½Ð°Ð±Ð¶":6556,"ĠÐ¿Ð¾ÑĩÐ¸ÑĤ":6557,"ÑĭÐ²Ð°Ð»ÑģÑı":6558,"ÑĥÐ¼Ð±":6559,"66":6560,"Ð½Ð°Ð½Ð¸Ñı":6561,"ĠÐ¾ÑĤÐ¿ÑĢÐ°Ð²Ð¸Ð»ÑģÑı":6562,"ÐµÑĢÐ¸Ð¹":6563,"ĠÑģÐºÐ°":6564,"Ġhe":6565,"Ġ49":6566,"ÐºÑĢÐµÑģÑĤ":6567,"ÑģÐµÐ¹":6568,"ĠÐ¿ÑĭÑĤÐ°":6569,"ĠÐºÐ¾Ð¼Ð°Ð½Ð´Ð¸ÑĢÐ¾Ð¼":6570,"ÑĤÐµÐ·":6571,"Ð¸Ð¼ÐµÐ½Ð½Ð¾":6572,"ĠÐ¿Ð¾Ð»ÑĥÑĩÐµÐ½Ð¸Ñı":6573,"Ð¼ÐµÑĢÑĤ":6574,"ĠÐ°Ð´Ð¼Ð¸Ð½Ð¸ÑģÑĤÑĢÐ°ÑĨÐ¸Ð¸":6575,"ĠÐ±Ð¾Ð»ÑĮÑĪÐµÐ¹":6576,"ĠÐ¿ÑĢÐ¸Ð²Ð¾Ð´Ð¸ÑĤ":6577,"Ð½Ð¾Ð²ÐµÐ½Ð¸Ñı":6578,"ĠÐ±Ð¸ÑĤÐ²Ðµ":6579,"Ð¾Ð´Ð½Ð°":6580,"ĠÐ¾ÑĤÐ²ÐµÑĩ":6581,"\"Â»":6582,"ĠÑĦÑĢÐ¾Ð½ÑĤÐµ":6583,"ĠÐ¾ÑĤÐ²ÐµÑĤÑģÑĤÐ²ÐµÐ½":6584,")Â«":6585,"ÑĮÐµÑĤ":6586,"Ð²Ð¾ÑģÑĤÐ¾ÐºÑĥ":6587,"Ð¸Ð·Ð²ÐµÑģÑĤÐ½ÑĭÐµ":6588,"ĠÐ¾Ð±ÑĥÑĩÐµÐ½Ð¸Ñı":6589,"ĠÐ¼Ð°ÑĤÑĩÐ°Ñħ":6590,"79":6591,"ĠÐ¿Ð¾Ð»Ð¸ÑĤÐ¸ÑĩÐµÑģÐºÐ¾Ð¹":6592,"ĠÑĢÑĥÐºÐ¸":6593,"ÑģÐµÐº":6594,"ĠÑģÐ¾Ð±ÑĭÑĤÐ¸Ñı":6595,"ĠÐ¿ÐµÑĤÐµÑĢÐ±ÑĥÑĢÐ³":6596,"Ð¿Ð°Ð´Ð°ÑİÑī":6597,"sh":6598,"ĠÐ±Ð¾Ð³Ð¾ÑģÐ»Ð¾Ð²":6599,"Ð°Ð³Ð°":6600,"Ð¸Ð·Ð´":6601,"ĠÐ±ÑĢÐ¸Ð³Ð°Ð´":6602,"ĠÑģÐ¾Ð¿ÑĢÐ¾Ð²Ð¾Ð¶Ð´":6603,"Ġ1000":6604,"ÑĪÐµÐ´":6605,"Ð°ÑĤÐµÐ»ÑĮÐ½ÑĭÐ¹":6606,"ÐµÐ½ÑĨÐ¸Ð¸":6607,"Ð°ÑİÑīÐ¸Ð¼":6608,"Ġvi":6609,"ĠÐºÐ°Ð»Ð¸ÑĦÐ¾ÑĢ":6610,"ĠÐ¸Ð½ÑĤÐµÑĢÐ²ÑĮÑİ":6611,"Ð°ÑĤÐµÐ»ÑĮÐ½Ð¾Ð³Ð¾":6612,"Ð¾ÑģÑĤÐµÐ¹":6613,"Ð³Ð¸Ð½":6614,"Ð½ÑĮÑİ":6615,"ÐµÐ½Ð¾Ð²":6616,"Ð³Ð°Ð·":6617,"ĠÐºÐµÐ¼":6618,"ÑıÐ½ÑĥÑĤ":6619,"Ð³Ð°Ð»":6620,"ĠÐ¼Ð¾Ð³Ð¸Ð»":6621,"ĠÐ¿ÑĢÐ¾ÑĨÐµÑģÑģÐµ":6622,"ĠÑħÐ¾Ð»Ð¾Ð´":6623,"ĠÑģÐ²ÑıÐ·ÑĮ":6624,"ÑĩÑĤ":6625,"ĠÑĥÐ·Ð±ÐµÐº":6626,"ĠÑģÐµÑĢÐµÐ´":6627,"ĠÐ¿Ð¾Ð»ÑĮÑĪÐ¸":6628,"ĠÐºÐ¾Ð¼Ð¼ÑĥÐ½Ð¸ÑģÑĤ":6629,"Ð°Ð½ÑĩÐ¸Ð²":6630,"Ð¾Ð±Ð°":6631,"ĠÑĩÐµÑĩ":6632,"ĠÐ»Ð¸Ð¿":6633,"ĠÐ±Ð¾Ð»ÑĮÑĪÐ¸Ñħ":6634,"Ð¾Ð±ÑīÐµ":6635,"ĠÐ¼ÑĥÐ½Ð¸ÑĨÐ¸Ð¿Ð°Ð»Ð¸ÑĤÐµÑĤÐ°":6636,"Ð»Ð¾Ð³":6637,"ĠÑĩÐ°ÑīÐµ":6638,"Ð¸Ð¼Ð¾Ð¹":6639,"ĠÑģÐ¾ÑģÑĤÐ°Ð²Ð¸Ð»":6640,"ĠÑĢÑĥÑģÑģÐºÐ¾Ð¼":6641,"ĠÐ²ÑĭÑģÐ¾ÐºÐ¾Ð¹":6642,"ĠÑĦÑĳÐ´Ð¾ÑĢÐ¾Ð²":6643,"ĠÐ²Ð¸Ð´ÐµÐ¾":6644,"ĠÐ¾ÑģÑĤÐ°Ð»ÑģÑı":6645,"Ð½Ð°Ð´ÑĨÐ°ÑĤ":6646,"ÑĢÑıÐ´Ñĥ":6647,"ĠÐ¿ÑĢÐ¸ÑģÑĤÑĥÐ¿":6648,"Ð¾Ð²Ðµ":6649,"ÑĨÐ¸ÑıÐ¼Ð¸":6650,"ÑģÑıÑĤ":6651,"Ġam":6652,"ĠÑģÑĤÑĢÐµÐ»ÑĮ":6653,"ĠÐºÐ°Ð»Ð¸Ð½":6654,"Ð±Ð¾Ð»ÑĮÑĪÐ¸Ð½ÑģÑĤÐ²Ð¾":6655,"ĠÐºÐ°Ð¹":6656,"ÑĨÐºÐ¾Ð¹":6657,"Ð¸ÑĤÐµÐ»ÑĮÑģÑĤÐ²Ð¾":6658,"ĠÐ½Ð°ÑĩÐ°Ð»ÑĮÐ½Ð¸ÐºÐ¾Ð¼":6659,"ĠÐ¿ÑĢÐµÐ´Ð¿Ð¾Ñĩ":6660,"Ġle":6661,"Ð½ÐµÐ´":6662,"ĠÐ¾ÑĤÑĢÑıÐ´Ð°":6663,"ĠÐ¸ÑģÑĤÐ¾ÑĢÐ¸Ñı":6664,"Ð¾ÑħÐ¾Ð´":6665,"ÑĢÐµÐ»Ð¸":6666,"ĠÑıÑģ":6667,"Ð´Ð¸Ð½Ð°Ð¼Ð¾":6668,"ĠÐ¸Ð½Ð´Ð¸Ð²Ð¸Ð´Ñĥ":6669,"Ð°Ð½ÑĤÐ¾Ð²":6670,"ÐµÐ³Ð°":6671,"ĠÑĤÑĢÐµÑħ":6672,"ĠÑģÑĤÐ°Ð±":6673,"Ð°ÑĢÐµÐ²":6674,"Ġrecord":6675,"Ġus":6676,"ÑĥÐ¼Ðµ":6677,"Ð°ÑĢÐ¸Ð¹":6678,"ĠÐ°ÐºÑĥ":6679,"ĠÑĢÐ¾Ð¼Ð°Ð½Ð°":6680,"ĠÐ¿Ð¾ÑģÑĤÑĢÐ¾ÐµÐ½Ð°":6681,"ĠÐ¿Ð°ÑģÑģÐ°Ð¶Ð¸ÑĢ":6682,"ĠÐºÐ°Ð½Ð´Ð¸Ð´Ð°ÑĤ":6683,"ĠÐ·Ð²ÐµÐ·Ð´Ñĭ":6684,"ÐµÐ·Ð¶":6685,"ĠÐ¿ÐµÑĢÐµÐ´Ð°ÑĩÐ¸":6686,"ĠÐ½Ð°ÑĩÐ¸Ð½Ð°Ñı":6687,"Ð·ÐµÐ¼Ð¿":6688,"Ð³ÑĢÐ°Ð½":6689,"ĠÑħÐ°ÑĢÐ°ÐºÑĤÐµÑĢÐ¸Ð·":6690,"ĠÐºÐ¿ÑģÑģ":6691,"ĠÑĢÐ¾ÑģÑģÐ¸Ð¹ÑģÐºÐ¾Ð³Ð¾":6692,"ĠÐ±ÑĥÐ»":6693,"Ð·Ð°Ð¿Ð°Ð´Ñĥ":6694,"71":6695,"ĠÑĤÐ¾Ð¿Ð»Ð¸Ð²":6696,"ĠÑħÑĢÐ¾Ð½":6697,"ĠÐ¸Ð¼ÐµÑİÑī":6698,"ĠÐºÐ¾Ð½ÑĤÐ¸Ð½":6699,"ĠÐ·Ð°ÑģÐ»":6700,"ĠÐ±Ð»Ð¸Ð¶Ð°Ð¹":6701,"ĠÑĩÐ¸ÑģÐ»":6702,"ÑĢÐµÐ³Ð¸ÑģÑĤÑĢ":6703,"ĠÐ´Ð¾Ð³Ð¾Ð²":6704,"ÑħÐ¸":6705,"ĠÑĩÐ¸Ð½Ð¾Ð²":6706,"ĠÑĤÑĢÐ°Ð´Ð¸ÑĨÐ¸Ð¸":6707,"Ð¸Ð²ÑĪÐµÐ³Ð¾":6708,"ĠÐ¿Ð¾ÑģÐ»ÐµÐ´Ð½ÐµÐ³Ð¾":6709,"ĠÐ³ÑĥÑģ":6710,"ĠÐ¾ÑĤÑģÑĤÐ°Ð²ÐºÑĥ":6711,"ĠÑĢÐµÐ¶Ð¸ÑģÑģÑĳÑĢ":6712,"Ð·Ñĥ":6713,"ĠÐ²Ð¸Ð»":6714,"ĠÐ¿ÑĢÐ¾Ð·Ð²":6715,"ĠÐ²Ð¾ÑģÑģÑĤÐ°Ð½Ð¸Ñı":6716,"ĠÑģÐ¾ÑģÑĤÐ°Ð²Ð¸Ð»Ð°":6717,"ĠÐ¾ÑĢÐ³Ð°Ð½Ð¾Ð²":6718,"Ð°Ð²ÑĪÐ¸ÑħÑģÑı":6719,"ĠÑģÐ»Ð°Ð²ÑıÐ½":6720,"ÑĭÑĪÐµ":6721,"ĠÐ³Ð°ÑģÑĤ":6722,"Ð¾ÑģÐ²":6723,"ÐµÐ½Ð¸ÑĢÐ¾Ð²":6724,"ĠÐ¼Ð°ÑĤÐµÑĢÐ¸Ð°Ð»":6725,"sc":6726,"ĠÐ¿ÑĢÐµÐ²ÑĢÐ°Ñī":6727,"ĠÑģÐ¾Ð»Ð½ÐµÑĩ":6728,"ĠÐ¿ÑĢÐµÑģÑĤÐ¾Ð»":6729,"Ð¼Ð¸ÑĢÑĥ":6730,"01":6731,"42":6732,"ĠÐ¸ÑģÐºÐ»ÑİÑĩÐµÐ½Ð¸ÐµÐ¼":6733,"ĠÑģÐ¾Ð»ÑĮ":6734,"ĠÐ¿ÐµÑĢÐµÐ¿ÑĢÐ°Ð²":6735,"ĠÐ´Ð¸Ð¿Ð»Ð¾Ð¼Ð°ÑĤ":6736,"ĠÑĢÐ¾Ð²":6737,"Ð¸Ð·Ð¾Ð²Ð°Ð½":6738,"ĠÑģÑĤÑĥÐ´Ð¸Ð¹":6739,"ÑģÐ¾ÑİÐ·":6740,"ĠÑĢÐ¾ÑģÑģÐ¸Ð¹ÑģÐºÐ¸Ñħ":6741,"ĠÐ¿Ð¾Ð»ÑĳÑĤ":6742,"ĠÐ¿Ð¾Ð´Ð³Ð¾ÑĤÐ¾Ð²ÐºÐ¸":6743,"ÑģÐµÐ²ÐµÑĢ":6744,"ÑĢÐ¸Ð¼":6745,"ĠÐ³ÐµÑĤ":6746,"ĠÐ±ÑĥÐ´ÑĥÑĩÐ¸":6747,"ĠÐ¿ÑĢÐ¸Ð±Ð»Ð¸Ð·Ð¸ÑĤÐµÐ»ÑĮÐ½Ð¾":6748,"ĠÐºÐ½ÑıÐ·ÑĮ":6749,"ĠÑģÐ¸Ð»Ð°Ð¼Ð¸":6750,"Ð³Ð¾Ð½":6751,"56":6752,"Ġ400":6753,"ÑĪÐ»Ð¾":6754,"ĠÑĢÐ¾Ð´ÑģÑĤÐ²ÐµÐ½":6755,"ĠÑģÐµÐ¼Ð¸Ð½":6756,"ĠÐ»Ð¾Ð½Ð´Ð¾Ð½Ðµ":6757,"ĠÑģÐ¾Ð·Ð²ÐµÐ·Ð´":6758,"ĠÐ´Ð¸Ð°Ð»ÐµÐºÑĤ":6759,"86":6760,"ĠÐ¿ÑĢÐ¸Ð¾Ð±ÑĢÐµÑĤ":6761,"ÐµÐ½Ð¸Ð»":6762,"ÐºÐ°Ñģ":6763,"Ð²ÑĭÑĩÐ°Ð¹":6764,"ĠÑĥÐ´ÐµÑĢÐ¶":6765,"ĠÑħÑĥÐ´Ð¾Ð¶Ð½Ð¸ÐºÐ°":6766,"ĠÑĥÐ³Ð¾Ð»Ð¾Ð²":6767,"ÐµÑĦÐ°":6768,"ĠÑıÐºÐ¾Ð²":6769,"ĠÐ»ÐµÐ³ÐºÐ¾":6770,"ĠÐ¿ÑĢÐ¾Ð²ÐµÑĢ":6771,"ĠÐ¿Ð»Ð¾Ð´":6772,"ĠÑĦÐ¸Ð»Ð¸Ð¿Ð¿":6773,"ĠÑģÑĢÐµÐ´Ð½ÐµÐ²ÐµÐº":6774,"ĠÐºÐ¾ÑĢÐ°Ð±Ð»ÑĮ":6775,"our":6776,"ĠÐ¾ÑĤÑĤ":6777,"ĠÑįÐ»ÐµÐ¼ÐµÐ½ÑĤÐ¾Ð²":6778,"ĠÑģÐµÑĢÐ¸Ð¹":6779,"ĠÐ¾ÑħÐ¾ÑĤ":6780,"ĠÐ¿ÑĢÐµÐ¼Ð¸Ñİ":6781,"ĠÐ¾ÑĦÐ¸ÑĨÐµÑĢÐ¾Ð²":6782,"Ġun":6783,"Ð»Ð¸Ð½Ð³":6784,"ÐµÐ½Ð´Ð°":6785,"ĠÑĪÐµÑģÑĤÐ¸":6786,"ĠÐ±Ð°Ñģ":6787,"ĠÐ½ÐµÑĦÑĤ":6788,"Ð¾Ð±Ð»Ð°":6789,"ĠÐ²ÐµÐºÐ¾Ð²":6790,"Ð¸Ð½ÐºÐ¸":6791,"ĠÑıÐ´ÐµÑĢ":6792,"ĠÐ´Ð¸ÑĢÐµÐºÑĤÐ¾ÑĢÐ°":6793,"100":6794,"ÑıÐ½Ð°":6795,"Ð°ÑĢÑģÐºÐ¾Ð³Ð¾":6796,"ÑĮÑĪÐµ":6797,"ss":6798,"ÑģÐ¾Ð²ÐµÑĢÑĪ":6799,"com":6800,"Ð½ÐµÑģÐº":6801,"Ð¸Ð³Ð°":6802,"ĠÑģÑĤÑĢÐµÐ»ÐºÐ¾Ð²Ð¾Ð³Ð¾":6803,"ĠÑĢÐµÐºÐ¾ÑĢÐ´":6804,"Ð¸Ð²ÑĪÐ¸ÑħÑģÑı":6805,"Ð°Ð»ÑĮÐ½Ð¾ÑģÑĤÑĮ":6806,"ĠÐ´Ð²Ð¾Ð¹":6807,"ÐµÐ»ÐµÐ¼":6808,"ĠÑĨÐ°ÑĢÑı":6809,"ĠÑĨÐµÐ½ÑĤÑĢÐ°Ð»ÑĮÐ½Ð¾Ð³Ð¾":6810,"Ð¾Ð¶Ð¸Ð´":6811,"ĠÑģÐ¾Ð±ÑĢÐ°Ð½Ð¸Ñı":6812,"ĠÑĩÐ°ÑģÑĤÐ¸ÑĩÐ½Ð¾":6813,"ĠÐ¾ÑĩÐºÐ¾Ð²":6814,"ÑĤÑĢÐ°Ð½":6815,"Ð°Ð»ÑĮÐ½Ð¾Ð¼Ñĥ":6816,"Ð¿ÐµÑĢÐ²ÑĭÐ¼":6817,"Ð»ÐµÐ½Ð´":6818,"ĠÑĢÐµÐ³Ð¸Ð¾Ð½Ð°":6819,"ĠÐ½Ð°ÑģÑĤÑĥÐ¿Ð»ÐµÐ½Ð¸Ðµ":6820,"Ġ120":6821,"ĠÑĦÐµÑģÑĤÐ¸Ð²":6822,"Ð°Ð²ÑĢ":6823,"ÐµÐ²ÑĢÐ¾Ð¿":6824,"ĠÐ¿ÑĢÐ¾ÑĦÐµÑģÑģÐ¾ÑĢÐ°":6825,"Ð½Ð°ÑĢÐ¾Ð´":6826,"ĠÐ¶ÐµÐ½Ð¸Ð»ÑģÑı":6827,"ĠÐ¿Ð°ÑĢÑĤÐ½":6828,"ĠÑģÐ¾ÑĢ":6829,"Ð½Ð¾ÑĢ":6830,"ĠÐºÐ°ÑģÑĤ":6831,"ĠÐ´Ð¾Ð¼Ð¸Ð½":6832,"ens":6833,"Ð´Ð¾Ð»":6834,"ĠÑģÐµÐ¹ÑĩÐ°Ñģ":6835,"ĠÑģÑĤÐ°ÑĢÑĪÐµ":6836,"ĠÐ±Ð¾Ð¼Ð±Ð°ÑĢÐ´Ð¸ÑĢÐ¾Ð²":6837,"ÐµÐ½ÑģÑĤÐ²":6838,"Ġ1912":6839,"ĠÐ°Ð½ÑĤÐ¾Ð½":6840,"ĠÑĥÐ½Ð¸Ðº":6841,"ĠÐ°Ð½Ð°Ð»Ð¸Ð·":6842,"ĠÑįÐºÑĢÐ°Ð½":6843,"ĠÐ¿ÑĢÐ¾ÑĪÐ»Ð¸":6844,"ÑĢÐ°Ð¶ÐµÑģÐº":6845,"ĠÐ¿ÑĢÐ¾Ñħ":6846,"ĠÐ°Ð»ÐµÐºÑģÐµÐ¹":6847,"ÑıÐ»ÑģÑı":6848,"ĠÐ¿ÑĢÐ¸Ð»Ð¾Ð¶":6849,"Ð²Ð¾Ðº":6850,"47":6851,"Ð¾ÑģÐ¿Ð¾ÑģÐ¾Ð±":6852,"ĠÐ·Ð°Ð¼ÐµÑĩ":6853,"ĠÐ¿ÐµÑĢÑģÐ¾Ð½":6854,"Ð¿Ð°Ð½":6855,"ĠÐ»Ð¾Ñģ":6856,"ĠÑģÐ¾Ð·Ð´Ð°ÑĤÑĮ":6857,"ĠÐ±Ð¸Ð·Ð½ÐµÑģ":6858,"Ð¸ÑīÐ°":6859,"ĠÐ²Ð¾Ð¾ÑĢÑĥÐ¶ÑĳÐ½Ð½ÑĭÑħ":6860,"Ġ$":6861,"Ð¼Ð¾Ð¼":6862,"ĠÐ³ÐµÑĢÐ±":6863,"ĠÐ²ÐµÐ´Ð¾Ð¼":6864,"Ð»Ð¾Ð¹":6865,"ÐµÐ²ÑĭÐ¼":6866,"ĠÐ´ÑĢÐ°":6867,"ĠÐ¸Ð³ÑĢÐ¾ÐºÐ¾Ð²":6868,"ĠÐºÐ°Ð»ÑĮ":6869,"ĠÐ»Ð¾ÑĪ":6870,"ĠÑĦÐ°ÑĢ":6871,"ÑĥÐºÐ°Ð·Ð¾Ð¼":6872,"ĠÐ¾ÑĤÐ¼ÐµÐ½":6873,"Ð½ÐµÐ¹ÑĪÐ¸Ñħ":6874,"ĠÐ¾ÑĤÐºÐ°Ð·Ð°Ð»ÑģÑı":6875,"ÑĢÐ¸ÑħÐ°":6876,"63":6877,"Ð¿Ð»Ð°Ð½":6878,"ĠÐ°ÑĤÐ¼Ð¾Ñģ":6879,"ĠÑĪÐ°ÑħÐ¼Ð°ÑĤ":6880,"ĠÐ²ÑģÑĤÑĢÐµÑĩÐ°ÑİÑĤÑģÑı":6881,"ĠÐºÐ°Ð·Ð°ÑħÑģÑĤÐ°Ð½Ð°":6882,"Ð±Ð¾Ð³":6883,"ĠÐ°ÑįÑĢÐ¾Ð´":6884,"Ð½Ð¾ÑģÑĤÑıÐ¼Ð¸":6885,"ĠÐ½Ð°ÑĨÐ¸Ð¾Ð½Ð°Ð»ÑĮÐ½ÑĭÐ¹":6886,"ÐµÐ½ÑĩÐµÑģÐº":6887,"Ð¸Ð²ÑĪÐ¸Ðµ":6888,"ĠÑĢÐ¾Ð´Ð¸Ð»Ð°ÑģÑĮ":6889,"ĠÑģÐ²ÑĭÑĪÐµ":6890,"Ð»Ð°Ð½ÑĤ":6891,"ÑĩÐ¸ÑģÐ»ÐµÐ½Ð½ÑĭÑħ":6892,"Ð¸Ð½ÑĤÐµÑĢÐµ":6893,"Ġpro":6894,"ÑĤÐ¸ÐµÐ¼":6895,"ĠÐ²Ð¾ÑģÑĤÐ¾Ðº":6896,"Ð¿ÐµÑĤÐµÑĢÐ±ÑĥÑĢÐ³Ðµ":6897,"49":6898,"Ð°Ð²ÐºÐ°Ð·":6899,"ĠÐºÐ¸Ð»Ð¾Ð¼ÐµÑĤÑĢÐ¾Ð²":6900,"Ð¸ÑģÑĤÐ°Ð½Ð°":6901,"Ð²Ð¾ÑģÑĤÐ¾ÐºÐµ":6902,"ÑĢÐµÑģÐ¿":6903,"Ð¿ÑĢÐµÑģÑģ":6904,"ĠÐ°Ð¿Ð¾ÑģÑĤ":6905,"Ð°Ð½Ð³ÐµÐ»ÑĮ":6906,"ĠÐ¿Ð¾ÑĤÐµÐ½ÑĨÐ¸":6907,"ÐºÐ¾Ð²Ð¾Ð¹":6908,"Ð¾ÑĩÐºÐ°":6909,"ĠÐ¿Ð¾Ð»Ð°Ð³":6910,"ĠÐºÑĢÐµÐ¿Ð¾ÑģÑĤÐ¸":6911,"ĠÐ²Ð»":6912,"ĠÐ¾Ð±Ð¾":6913,"ĠÐ±Ð°ÑĤÐ°Ð»ÑĮÐ¾Ð½Ð°":6914,"Ð°Ð²ÑĪÐ¸Ð¹ÑģÑı":6915,"ĠÑĥÑģÑĤÐ°Ð½Ð¾Ð²Ð»ÐµÐ½Ñĭ":6916,"ĠÐ¿Ð¾Ð»ÑĥÑĩÐ°ÐµÑĤ":6917,"ÑıÑı":6918,"ĠÐ³Ð°Ð·ÐµÑĤ":6919,"ĠÑĥÐ³ÑĢÐ¾Ð·":6920,"Ð¼ÐµÐ»":6921,"ĠÑįÐ¿Ð¾ÑħÐ¸":6922,"ĠÐ¸Ð²Ð°Ð½Ð°":6923,"ĠÑĦÐ¸Ð½Ð°Ð»Ðµ":6924,"ĠÑĢÐ¸ÑģÑĥÐ½":6925,"ĠÐ·Ð°Ð¼ÐµÑģÑĤÐ¸ÑĤÐµÐ»ÐµÐ¼":6926,"ĠÐ²ÐµÑĢÐ¾ÑıÑĤÐ½Ð¾":6927,"ĠÐ±ÑĥÑĤ":6928,"ÐµÑĢÐ°Ð¿":6929,"ĠÐ½ÐµÐ¼ÐµÑĨÐºÐ¸Ñħ":6930,"ĠÐ²Ð»Ð°Ð´Ð¸Ð¼Ð¸ÑĢÐ°":6931,"ĠÐºÐ¾Ð¼Ð°Ð½Ð´Ð¾Ð²Ð°Ð»":6932,"Ð¾ÑģÐ½Ð¾Ð²Ð½ÑĭÐµ":6933,"ĠÐºÐ°ÑĢÑĮÐµÑĢÑĭ":6934,"ĠÐ¼ÑĥÐ»ÑĮÑĤ":6935,"ĠÐ¾Ð»Ð¸Ð¼Ð¿Ð¸":6936,"ĠÐ²ÑĤÐ¾ÑĢÐ¾Ðµ":6937,"ĠÐ±ÑĥÐºÐ²":6938,"ĠÐ¿ÑģÐµÐ²":6939,"ĠÐ¼Ð°ÑĤÐµÑĢÐ¸Ð°Ð»Ð¾Ð²":6940,"ÑĤÑĥÑĢ":6941,"ĠÐ¿ÑĢÐ¾Ð´Ð¾Ð»Ð¶Ð°Ð»":6942,"ĠÑīÐ¸ÑĤ":6943,"ĠÐ¸Ð½ÑĤÐµÑĢÐ½ÐµÑĤ":6944,"ĠÐ¾Ð±ÐµÑģÐ¿ÐµÑĩÐµÐ½Ð¸Ñı":6945,"ĠÐ¿Ð¸ÑĪÐµÑĤ":6946,"ĠÐ²Ð¸ÑĢ":6947,"Ð¾Ð»Ð¾Ð³Ð¸ÑĩÐµÑģÐºÐ¾Ð³Ð¾":6948,"ĠÑĢÐµÐ·ÑĥÐ»ÑĮÑĤÐ°ÑĤÑĭ":6949,"ÐµÑĨÐºÐ¸Ð¹":6950,"ĠÐ¿ÑĢÐ¾ÑģÑĮ":6951,"43":6952,"ĠÐ¿Ð°Ð»ÑĮ":6953,"Ð»ÑıÑİÑĤ":6954,"ĠÑĦÑĢÐ°Ð½ÑĨÑĥÐ·ÑģÐºÐ¾Ð¹":6955,"ĠÐ»Ð¾ÑĢ":6956,"ry":6957,"ĠÑĢÐµÐºÑĥ":6958,"ĠÑĢÐµÐ»Ð¸Ð³":6959,"ru":6960,"Ð¾Ð½ÐµÑĩ":6961,"Ð¸ÑĤÐµÐ»ÑıÐ¼":6962,"ĠÑģÐ°Ð¼Ð¾Ð»ÑĳÑĤÐ¾Ð²":6963,"Ð¾Ð»Ð¾Ð³Ð¸ÑĩÐµÑģÐºÐ¾Ð¹":6964,"ĠÐ¿ÑĢÐµÐ´ÑģÑĤÐ°Ð²Ð»ÑıÑİÑĤ":6965,"ĠÑħÑĥÐ´Ð¾Ð¶Ð½Ð¸ÐºÐ¾Ð²":6966,"73":6967,"ĠÐ°ÑĢÑħÐ¸Ð²":6968,"ĠÑĤÐºÐ°Ð½":6969,"ĠÑģÐ²ÑıÐ·Ð°Ð½":6970,"ĠÐ´Ð°Ð»ÐµÐµ":6971,"ĠÑįÐºÐ·ÐµÐ¼Ð¿":6972,"ĠÑģÑĤÐ¾Ð»ÐµÑĤ":6973,"ĠÐ¿Ð¾ÑıÐ²Ð»ÑıÐµÑĤÑģÑı":6974,"05":6975,"ĠÐºÐ¾Ð¼ÐµÐ´":6976,"ĠÑĢÐµÑģÐ¿ÑĥÐ±Ð»Ð¸ÐºÐ°Ð½":6977,"Ð¸ÑĢÐ¾Ð²Ð°Ð½Ð½Ð¾Ð³Ð¾":6978,"Ð²ÑĭÑģÑĤÑĥÐ¿":6979,"ÐµÐ»Ð»Ð¸":6980,"ĠÐ±Ð¾Ð½":6981,"ĠÐ¶ÐµÐ½Ð°":6982,"Ð¸Ð²ÑĪÐ¸Ð¹ÑģÑı":6983,"ĠÐ·ÐµÐ¼Ð»Ñİ":6984,"41":6985,"ÑĥÐ±ÐµÐ¶":6986,"ĠÑĥÑĤÐ²ÐµÑĢÐ¶":6987,"ĠÐ¾Ð±ÑĬÑıÐ²Ð¸Ð»":6988,"Ð²Ð·":6989,"ĠÐ¿Ð¾ÑģÐ»ÐµÐ´Ð½Ð¸Ñħ":6990,"ĠÐ³Ð¾ÑģÑĥÐ´Ð°ÑĢÑģÑĤÐ²ÐµÐ½Ð½ÑĭÑħ":6991,"Ð¶ÐµÐ¼":6992,"ÑĦÐ¾ÑĢÐ´":6993,"89":6994,"Ð¿Ð¸":6995,"ĠÐ°Ð»ÑĮÑĤ":6996,"ÐºÑĢÑĭ":6997,"ĠÐºÐ²Ð°Ð´":6998,"ĠÑĢÐµÑĩÐ¸":6999,"ĠÑĦÐ°ÐºÑĥÐ»ÑĮÑĤÐµÑĤÐ°":7000,"ÑĭÐ²Ð°Ð»Ð°":7001,"ĠÐ¼Ð°Ð³Ð½Ð¸ÑĤ":7002,"Ð¾Ð²ÑĭÐ¼Ð¸":7003,"ĠÐ¿ÑĢÐ¸ÑħÐ¾Ð´Ð¸ÑĤÑģÑı":7004,"ĠÐ¾ÑĤÐ½Ð¾ÑĪÐµÐ½Ð¸Ð¹":7005,"ĠÐ·Ð²ÐµÐ·Ð´Ð°":7006,"ĠÑģÑĤÐµÐº":7007,"ĠÐ´Ð¸Ð°Ð³":7008,"ĠÑĢÑĥÐ±ÐµÐ¶":7009,"ĠÐ¾ÑģÐ½Ð°":7010,"ĠÐµÐ²ÑĢÐµÐµÐ²":7011,"ĠÐ¿ÑĢÐ¾ÑĨ":7012,"ÑĩÐµÐ»Ð¾Ð²ÐµÐº":7013,"eg":7014,"ĠÐ²Ð¾Ð·Ð¾Ð±Ð½Ð¾Ð²":7015,"ĠÑģÐ¸Ð½Ð³Ð»":7016,"ĠÐ¿ÑĢÐ¸ÑĩÐ¸Ð½":7017,"ÐµÑĢÐ°Ñħ":7018,"ÑģÑĤÐ°Ð»":7019,"ÑĩÐµÐ¼Ð¿Ð¸Ð¾Ð½Ð°ÑĤ":7020,"ÐºÐ¾ÑģÑĤÐ¸":7021,"ÑĢÐ°ÑĨÐ¸Ñı":7022,"ÐµÑĢÑģÐ¾Ð½":7023,"Ð¾ÑĦÑĦ":7024,"ĠÑĢÑĥÐºÐ¾Ð²Ð¾Ð´ÑģÑĤÐ²Ð¾":7025,"ĠÐ½Ð¾Ð²Ð¾Ð¼":7026,"ĠÐ¾Ð¿ÐµÑĢ":7027,"ÐµÑħÐ°Ð»":7028,"Ð·Ð°ÑīÐ¸ÑĤ":7029,"Ð»ÐµÑģ":7030,"ĠÐ¿Ð¾Ð´Ð½Ñı":7031,"ĠÐºÐ¾Ð»Ð»ÐµÐ³":7032,"ĠÐºÐ°ÐºÐ¾Ð¹":7033,"Ð»Ð°Ð¼Ð¸":7034,"ĠÑĦÐ¾ÑĢÐ¼Ð°":7035,"ĠÐ¿ÑĢÐµÐ´Ð¿ÑĢÐ¸ÑıÑĤÐ¸Ð¹":7036,"ĠÐ²ÑħÐ¾Ð´Ð¸Ð»Ð¸":7037,"Ð³ÑĢÐ°ÑĦ":7038,"ĠÐ±Ð¾Ðµ":7039,"Ð°ÑĳÑĤÑģÑı":7040,"ĠÑĢÐµÐ³Ð¸ÑģÑĤ":7041,"Ð°Ð²Ð°":7042,"ĠÐ°Ð±ÑģÐ¾Ð»ÑİÑĤ":7043,"ĠÐºÐ¾Ð½ÑĨÐµÐ½ÑĤ":7044,"ĠÑĢÐµÐºÐ¾Ð½ÑģÑĤÑĢÑĥÐº":7045,"ĠÑĢÐ°Ð·Ð³ÑĢÐ¾Ð¼":7046,"Ð°Ð½ÑĤÐ¾Ð¼":7047,"ĠÐ¾ÑģÐ½Ð¾Ð²Ð½ÑĭÐµ":7048,"ĠÐ³Ð¾ÑĤ":7049,"Ð½Ð¾Ð²Ð¾Ð³Ð¾":7050,"ĠÐ²ÑĭÑħÐ¾Ð´Ð¸ÑĤ":7051,"Ġsh":7052,"ĠÐ¿Ð¾Ð»ÑĮÐ·Ð¾Ð²":7053,"ÑģÐ²ÑıÑĤ":7054,"Ð¼Ð¸ÑĢÐ°Ð»":7055,"ÑıÑīÐ¸Ðµ":7056,"ĠÐ¿Ð¾Ð»ÑĥÑĦÐ¸Ð½":7057,"ĠÑĤÐ¾Ð»ÑģÑĤ":7058,"ĠÐ¿Ð°Ð¼ÑıÑĤÑĮ":7059,"ĠÑįÑĤÐ°Ð¿":7060,"ĠÐ·Ð°Ñģ":7061,"ĠÐ¸ÑģÐ¿Ð¾Ð»ÑĮÐ·ÑĥÑİÑĤ":7062,"ĠÑģÐºÑĥÐ»ÑĮÐ¿ÑĤ":7063,"ĠÑģÐµÑĢÐµÐ´Ð¸Ð½Ñĭ":7064,"ĠÐ±Ñĥ":7065,"ĠÑĤÑĢÐ°ÑģÑģ":7066,"Ġ1913":7067,"ĠÐ¼Ð¸Ð½Ð¸ÑģÑĤÑĢÐ¾Ð²":7068,"99":7069,"ÑģÐ¿Ð¸ÑģÐ¾Ðº":7070,"ÑĭÐ²Ð°Ð»Ð¸ÑģÑĮ":7071,"ĠÐ´Ð¾ÐºÑĤÐ¾ÑĢÐ°":7072,"ĠÐ»Ð¸ÑĩÐ½Ð¾":7073,"ĠÑĦÐ¾ÑĤÐ¾Ð³ÑĢÐ°ÑĦ":7074,"ĠÐ²Ð¾ÑĢÐ¾Ð½ÐµÐ¶":7075,"ĠÐ²Ð²Ñģ":7076,"ĠÐ¾Ð±Ð½Ð¾Ð²":7077,"Ð°ÑĤÐµÐ»ÑĮÐ½ÑĭÐµ":7078,"ĠÐ¿ÑĢÐ¸Ð·Ð½Ð°Ðº":7079,"ĠÐºÐ°ÑĢÐ»Ð°":7080,"ÑĢÑİ":7081,"ĠÐºÑĢÐµÐ¹Ñģ":7082,"Ð°Ð½Ð¸ÑıÑħ":7083,"ĠÑĥÐºÑĢÐ°Ð¸Ð½Ðµ":7084,"ÑģÐ²Ð¾":7085,"Ð¿ÑĢÐ¾ÑĦ":7086,"ĠÑģÐµÐ²ÐµÑĢÑĥ":7087,"ĠÐ¸Ð·Ð´ÐµÐ»":7088,"Ð°Ð²ÑĪÐ¸ÐµÑģÑı":7089,"Ð½Ð¸ÑĨÑĥ":7090,"ĠÐµÐ´Ð¸Ð½ÑģÑĤÐ²ÐµÐ½Ð½ÑĭÐ¹":7091,"ĠÐ´ÐµÑĢ":7092,"ĠÐ¼Ð¸ÑħÐ°Ð¸Ð»Ð°":7093,"ĠÐ¾ÑģÐ¼Ð°Ð½":7094,"ĠÐ°Ð½ÑĤÐ¸":7095,"Ġte":7096,"ĠÐ¾ÐºÐ¾Ð½ÑĩÐ°ÑĤÐµÐ»ÑĮÐ½Ð¾":7097,"ĠÐ½Ð°Ð·Ð²Ð°Ð»":7098,"Ð¸ÑĤÐµÐ»ÑĮÐ½ÑĥÑİ":7099,"Ð¶ÐµÐ²":7100,"ĠÐ·Ð°ÐºÑĢÑĭ":7101,"ĠÐ¿Ð¾ÑĢÐ°Ð¶ÐµÐ½Ð¸Ðµ":7102,"Ġ&":7103,"Ġth":7104,"ĠÐ±ÑİÑĢÐ¾":7105,"Ð¾Ð»Ð¸":7106,"ĠÐ½Ð°ÑĩÐ¸Ð½Ð°":7107,"ÐºÐ¾Ð½ÐµÑĨ":7108,"Ð¸ÑĢÑĥÐµÐ¼":7109,"ĠÑģÐ¾ÑģÑĢÐµÐ´":7110,"61":7111,"ĠÑĤÑĢÐµÑĤÑĮÐµÐ³Ð¾":7112,"ĠÐ²Ð¾Ð²":7113,"ÑİÐ´Ð°":7114,"ĠÐ°Ð¼ÐµÑĢÐ¸ÐºÐµ":7115,"ĠÑĥÐ´Ð°Ñĩ":7116,"Ð¾ÑĩÐµÑĤ":7117,"ĠÐ²Ð°ÑģÐ¸Ð»Ð¸Ð¹":7118,"ĠÐ¾Ð±Ð°":7119,"Ð°Ð·Ð°":7120,"ĠÑĪÐ°Ð³":7121,"Ð»ÐµÐ½Ð½Ð¾Ð¹":7122,"ĠÐ°Ð²ÑĤÐ¾ÑĢÐ°":7123,"ÑĳÐ½Ð½Ð¾Ð¼":7124,"ĠÐ½ÐµÐ¼Ð½Ð¾Ð³Ð¾":7125,"ĠÐ¿Ð¾Ð»Ð½Ð¾Ð¼Ð¾Ñĩ":7126,"ÐºÐ°Ð´":7127,"ĠÐ²ÐµÐ½Ðµ":7128,"ĠÐ´Ð¸Ð½Ð°ÑģÑĤÐ¸Ð¸":7129,"ĠÐ°ÑĢÐ¸ÑģÑĤ":7130,"ĠÐ°ÑĢÑĤÐ¸ÑģÑĤ":7131,"ĠÑĢÐ°Ð·Ð²Ð¸Ð²":7132,"ĠÐ·Ð°ÑĢÐµÐ³Ð¸ÑģÑĤÑĢ":7133,"Ġ1916":7134,"ĠÐ¸Ð·Ð´Ð°Ð½Ð¸Ðµ":7135,"09":7136,"ĠÐ´Ð¾Ð±ÑĭÑĩ":7137,"ĠÐ¾Ð¿Ð¿Ð¾Ð·":7138,"ĠÐºÐ°Ð±Ð¸Ð½":7139,"sk":7140,"ĠÐ·Ð°Ð²Ð¸Ñģ":7141,"ĠÑįÐºÑģÐ¿ÐµÑĢÑĤ":7142,"ĠÐ¿ÐµÑĢÐµÑĥÐ»":7143,"ĠÐ¾Ð´Ð½":7144,"ĠÐ³Ð¾Ð»Ð»Ð°Ð½Ð´":7145,"Ð¿ÑĢÐ¾ÑĤÐ¸Ð²":7146,"Ð»ÐµÑĤÐ²Ð¾ÑĢ":7147,"ĠÐºÐ¾ÑĪ":7148,"ĠÐ³Ð¾ÑĢÐ¾Ð´Ð¾Ð¼":7149,"Ð½Ð¾ÑģÐ»ÑĥÐ¶":7150,"Ð»ÐµÐ½Ð½Ð¾":7151,"ĠÐ¸ÑģÐºÐ»ÑİÑĩÐ¸ÑĤÐµÐ»ÑĮÐ½Ð¾":7152,"ĠÐ¾Ð³Ð¾Ð½ÑĮ":7153,"ĠÑĢÐ°Ð·Ð½ÑĭÐµ":7154,"ĠÑıÐ·ÑĭÐºÐ°Ñħ":7155,"ĠÐ·Ð°ÐºÑĢÐµÐ¿":7156,"ÑĩÐ¶":7157,"ĠÐ´Ð¸ÑĢ":7158,"ĠÐ²Ð¾ÑģÐµÐ¼":7159,"ÐºÐ»Ð°ÑģÑģ":7160,"ĠÐºÐ°ÑģÑģ":7161,"Ġ1910":7162,"Ð¾Ð²Ð»ÐµÑĤÐ²Ð¾ÑĢ":7163,"ĠÐ¾Ð±Ð»":7164,"ĠÐºÑĢÐ°Ð¹Ð½Ðµ":7165,"ĠÑģÑĭÐ½Ð¾Ð¼":7166,"ĠÐ³Ð¾ÑģÐ¿Ð¸ÑĤ":7167,"ĠÐ°ÑĢÐ¼Ð¸ÐµÐ¹":7168,"ĠÑĢÐ°Ð±Ð¾ÑĤÐ°Ð»Ð°":7169,"ĠÑįÐ½ÐµÑĢÐ³Ð¸Ð¸":7170,"Ð´ÐµÑĢÐµÐ²Ð½Ñı":7171,"Ð°Ð½Ñĥ":7172,"ĠÑĢÐ¾ÑĤ":7173,"ĠÐ¼Ð°ÑĢÐ¾Ðº":7174,"Ð»Ð¾Ð´":7175,"ĠÑĤÐµÐ¾ÑĢÐµÑĤ":7176,"ĠÐºÐ»ÑĥÐ±Ðµ":7177,"ĠÑįÐ²Ð°ÐºÑĥ":7178,"ĠÐºÐ¾Ð¼Ð¿Ð»ÐµÐºÑģÐ°":7179,"58":7180,"ĠÐ²Ð²Ð¾Ð´":7181,"ĠÑįÐ»ÐµÐ¼ÐµÐ½ÑĤÑĭ":7182,"ÑģÑĤÐ¾ÑıÑĤÐµÐ»ÑĮ":7183,"ĠÐ²ÑĢÐ°Ð¶ÐµÑģÐº":7184,"ÑĳÐ¼Ð°":7185,"ÑģÑĭÐ½":7186,"Ð¸Ð¼ÑĭÑħ":7187,"ÐµÑĢÐ°ÑĨÐ¸Ñı":7188,"ĠÐºÐ»Ð¸Ð¼":7189,"Ð°Ð²ÑĤ":7190,"Ð¾ÑĢÑĥ":7191,"Ð¿Ð¾ÑģÐºÐ¾Ð»ÑĮÐºÑĥ":7192,"Ġrecords":7193,"ĠÑħÐ²Ð¾ÑģÑĤ":7194,"Ð¸ÑĨÐºÐ¸Ð¹":7195,"ĠÐ¿Ð¾ÐºÑĥÐ¿":7196,"ĠÐ´Ð°Ð½Ð½Ð¾Ð¹":7197,"ĠÑģÐ¾ÑģÑĤÐ°Ð²Ð»ÑıÑİÑĤ":7198,"ĠÐ¿ÑĢÐ¾ÑĤÐµÐºÐ°ÐµÑĤ":7199,"ĠÑģÑĥÑīÐµÑģÑĤÐ²Ð¾Ð²Ð°Ð½Ð¸Ñı":7200,"ĠÐ»Ð¸Ð½Ð¸Ñı":7201,"ĠÐºÑĢÑĥÐ¿Ð½ÑĭÐµ":7202,"ĠÑĤÐµÑģÑĤ":7203,"ĠÐ¾Ð±ÑĬÑıÑģÐ½":7204,"ĠÐ¿ÑĢÐ¸Ð¿Ð¸Ñģ":7205,"Ð»ÑıÐµÐ¼":7206,"ĠÐ²ÑģÐµÐ¼Ñĥ":7207,"ĠÐ°Ð»ÐµÐºÑģÐµ":7208,"ĠÐ¿Ð¾Ð»Ð¾Ð²Ð¸Ð½Ñĭ":7209,"ÑĢÐ°ÑĪ":7210,"Ð¾ÑģÐ¸ÑĦ":7211,"08":7212,"ĠÐ¾ÑĤÐ·":7213,"Ð·Ð°Ð¿Ð°Ð´Ðµ":7214,"ĠÑĢÐ¾Ð±ÐµÑĢÑĤ":7215,"ĠÑįÐºÑģÐ¿ÐµÐ´Ð¸ÑĨÐ¸Ð¸":7216,"ĠÑĩÑĢÐµÐ·Ð²ÑĭÑĩÐ°Ð¹":7217,"Ġbe":7218,"Ð°ÑĤÑĥÑĥ":7219,"ĠÑģÐ¾Ð·Ð²ÐµÐ·Ð´Ð¸Ð¸":7220,"ĠÐºÐ¾Ð°ÑĤÑĥÑĥ":7221,"ĠÑĤÑĢÐ¾Ð¿":7222,"ĠÐºÑĢÐ¸Ð·":7223,"ÑįÑĤÐ°Ð¶":7224,"ĠÐºÑĢÑĥÐ¿Ð½ÐµÐ¹ÑĪÐ¸Ñħ":7225,"ĠÐ´Ð¶Ðµ":7226,"ica":7227,"Ð¸Ð½ÐºÐ°":7228,"ÑĥÐ»Ñĥ":7229,"Ð¾Ð±ÑĬ":7230,"ĠÐ¾ÑģÐ²Ð¾Ð±Ð¾Ð´":7231,"ĠÐ¿Ð¾Ð·Ð½Ð°ÐºÐ¾Ð¼":7232,"Ð¾ÑĩÑĮ":7233,"ĠÐ¿ÑĢÐµÐ²ÑĢÐ°ÑĤ":7234,"ĠÐ±ÑĢÐ¸ÑĤÐ°Ð½ÑģÐºÐ¾Ð¹":7235,"ĠÐµÐ¶ÐµÐ³Ð¾Ð´Ð½Ð¾":7236,"Ð°ÑĤÐ¸":7237,"ĠÐ±Ð°ÑģÐºÐµÑĤ":7238,"ĠÐ¾ÑģÐ½Ð¾Ð²Ð½ÑĭÐ¼":7239,"ĠÐ»ÑĥÑĩÑĪÐ¸Ð¼":7240,"ĠÑĨÐ·":7241,"ĠÐ°Ð½Ð³Ð»Ð¸Ð¹ÑģÐºÐ¸Ð¹":7242,"ĠÐ¿ÑĢÐµÐ´ÑģÑĤÐ°Ð²Ð»ÐµÐ½Ñĭ":7243,"ĠÑĤÑĢÐ°Ð½ÑģÐ¿Ð¾ÑĢÑĤÐ°":7244,"ĠÐ¿Ð¸ÑģÑĮÐ¼ÐµÐ½":7245,"ĠÐ±ÑĥÐ¼Ð°":7246,"ĠÐ´Ð¾Ð»Ð¶Ð½Ð¾":7247,"ĠÐ²ÑĥÐ»":7248,"ĠÐ²Ð¸Ð»ÑĮÐ³ÐµÐ»ÑĮ":7249,"ĠÐ¸ÑģÐ»Ð°Ð¼":7250,"ĠÐ´Ð¼Ð¸ÑĤÑĢÐ¸Ð¹":7251,"ĠÐ¾ÑģÑĤÐ°Ð»ÑĮÐ½ÑĭÐµ":7252,"Ð¿ÐµÑĢÐ²Ð¾Ðµ":7253,"ĠÐ¾Ð·ÐµÑĢÐ¾":7254,"ĠÐ¿ÑĢÐ¾Ð¸Ð·Ð²ÐµÐ´ÑĳÐ½":7255,"ĠÐ±ÑİÐ´Ð¶":7256,"ĠÐ¾ÑĢÑĥÐ´Ð¸Ð¹":7257,"ÑĩÐ¸ÐºÐ¸":7258,"Ð°ÑĢÑĥÑģ":7259,"Ð²Ð´":7260,"ĠÑģÑĤÑĥÐ¿":7261,"ĠÐ³Ð¾ÑģÑĥÐ´Ð°ÑĢÑģÑĤÐ²Ð¾":7262,"ĠÑĢÐµÑĦÐ¾ÑĢÐ¼Ñĭ":7263,"ĠÐ°ÑģÑģÐ¾ÑĨÐ¸Ð°ÑĨÐ¸Ð¸":7264,"ĠÐºÐ¾Ð½ÐºÑĢÐµÑĤ":7265,"ĠÑĤÐµÑģ":7266,"ĠÐ¿ÑĢÐµÐ²Ð¾Ñģ":7267,"ĠÐ¿ÑĢÐ¸Ð·ÑĳÑĢ":7268,"Ð¸ÑĩÐ½ÐµÐ²":7269,"ĠÑĤÑĢÐµÐ±Ð¾Ð²Ð°Ð½Ð¸Ñı":7270,"Ð¾Ð»Ð¾Ð³Ð¸ÑĩÐµÑģÐºÐ¸Ðµ":7271,"man":7272,"ĠÐ´ÐµÐ½ÑĮÐ³Ð¸":7273,"Ð³ÑĢÐ°Ð´":7274,"ĠÐ¶ÐµÐ½Ñĭ":7275,"ĠÑĥÐ¸Ð»ÑĮÑıÐ¼":7276,"ĠÑģÐ¼ÑĭÑģ":7277,"ĠÐ±Ð¾Ð»ÐµÐ·Ð½Ð¸":7278,"ĠÐ°ÑĢÑħÐ¸ÑĤÐµÐºÑĤÑĥÑĢ":7279,"Ð±Ð¾Ð½":7280,"ĠÐºÐ¾Ð¼Ð¿Ð¾Ð·Ð¸ÑĨÐ¸Ð¸":7281,"ĠÑģÐºÐ¾ÑĢÐ¾ÑģÑĤÐ¸":7282,"ÑįÐ¿":7283,"ort":7284,"ĠÐ²Ð¾ÑģÐ¿Ð¾Ð¼Ð¸Ð½":7285,"Ġ;":7286,"ĠÑĥÐ²Ð¾Ð»":7287,"46":7288,"ĠÐ±Ð¾Ð»ÑĮÑĪÐµÐ²":7289,"ĠÑĢÐ°ÑģÑģÑĩÐ¸ÑĤ":7290,"ĠÐ¾ÑģÐ½Ð¾Ð²Ð°Ð½Ð°":7291,"ÑħÐ°Ð¹":7292,"ĠÐ°Ð´Ð¼Ð¸Ð½Ð¸ÑģÑĤÑĢÐ°ÑĤÐ¸Ð²Ð½Ð¾Ð¼Ñĥ":7293,"ÑĥÑĢÐµÐ°ÑĤ":7294,"ĠÑĤÐ¾ÑĢÐ¶":7295,"ĠÐ¿Ð°Ð²ÐµÐ»":7296,"ĠÑģÑĤÐ¾Ð¸ÑĤ":7297,"ĠÐ¿ÑĢÐ¸ÑĢÐ¾Ð´Ñĭ":7298,"ĠÐ¿Ð¾Ð»Ð¾ÑĤ":7299,"ĠÐ·Ð¾Ð½Ðµ":7300,"ĠÑģÐ¾ÑģÑĤÐ¾ÑıÐ½Ð¸Ðµ":7301,"ĠÐ»Ð¾Ð¶":7302,"ĠÐ½Ð°Ð¹Ð´":7303,"Ð¸Ð¼Ð¸ÑģÑı":7304,"Ð¾Ð¾Ð±ÑĢÐ°Ð·":7305,"Ð¾Ð±Ð¸Ð»ÑĮ":7306,"ĠÑĥÐ´Ð¾ÑģÑĤÐ¾ÐµÐ½":7307,"Ð´Ð°ÑĳÑĤ":7308,"ĠÑģÐ¾ÑģÑĤÐ¾ÑıÐ»Ð¾ÑģÑĮ":7309,"ĠÐ¿Ð¾ÑģÑĳÐ»ÐºÐµ":7310,"Ð³Ð¾ÑģÑĥÐ´Ð°ÑĢ":7311,"Ð¾ÑģÐ¾Ð¼":7312,"Ð½Ð¾Ñĩ":7313,"ĠÐ¾Ð±ÑĬÐµÐ´Ð¸Ð½ÐµÐ½Ð¸Ñı":7314,"Ð¸ÑĢÑĭ":7315,"ĠÑģÐ¿Ð¾ÑĢÑĤÑģÐ¼ÐµÐ½":7316,"Ð¾ÑģÐµ":7317,"ĠÐ²ÑĢÐµÐ¼ÑĳÐ½":7318,"yst":7319,"ÑĩÑĤÐ¾Ð±Ñĭ":7320,"ĠÑĥÐºÐ°Ð·Ð¾Ð¼":7321,"ĠÐ¼Ð½Ð¾Ð³Ð¾ÑĩÐ¸ÑģÐ»ÐµÐ½Ð½ÑĭÐµ":7322,"ĠÐºÐ¾Ð»Ð¸ÑĩÐµÑģÑĤÐ²Ð°":7323,"ĠÐ´Ð½Ð¸":7324,"ÑħÐ¾Ð»":7325,"ÑģÑĤÐ²ÐµÐ½Ð½Ð¾Ðµ":7326,"ĠÑĤÐµÐ»ÐµÑģ":7327,"ĠÐ°ÑĢÑħÐ¸ÑĤÐµÐºÑĤÑĥÑĢÑĭ":7328,"ĠÐ³Ð¸ÑĤÐ°ÑĢ":7329,"ĠÐ°ÑģÑģÑĢ":7330,"ĠÐºÐ¸ÑĪ":7331,"ĠÑĥÐ²ÐµÑĢ":7332,"ĠÑģÐ¾Ð²ÐµÑĢÑĪÐµÐ½Ð½Ð¾":7333,"ĠÐºÐ°Ð¼Ð¿Ð°Ð½Ð¸Ð¸":7334,"ÑĥÑĩÐ°ÑģÑĤÐ²Ð¾Ð²Ð°Ð»":7335,"ĠÐ¿Ð°ÑĢÐ°Ð»Ð»ÐµÐ»ÑĮ":7336,"ĠÐ½Ð¾Ð¼ÐµÑĢ":7337,"ĠÑĪÐ²ÐµÑĨÐ¸Ð¸":7338,"ĠÐ³ÐµÐ½ÐµÑĢÐ°Ð»ÑĮÐ½Ð¾Ð³Ð¾":7339,"ĠÑĢÑĥÐºÐ¾Ð¿":7340,"ĠÐ²ÑĭÑģÑĤÑĥÐ¿Ð°ÐµÑĤ":7341,"ĠÑĢÐµÑĪÐµÐ½Ð¸ÐµÐ¼":7342,"ĠÐ¿ÑĥÐ½ÐºÑĤÑĭ":7343,"ĠÑģÐ¾ÑģÑĤÐ°Ð²Ð»ÑıÐ»Ð¸":7344,"ĠÑĪÐ¾ÑģÑģÐµ":7345,"ĠÐ²ÑĤÐ¾ÑĢÑĭÐ¼":7346,"ĠÐ¿ÑĢÐ¾Ð´Ð¾Ð»Ð¶Ð¸Ð»":7347,"ĠÐ¿Ð¾Ð»Ð¸ÑĤÐ¸ÑĩÐµÑģÐºÐ¸Ñħ":7348,"ĠÐ·Ð°Ð½Ð¸Ð¼Ð°ÑĤÑĮÑģÑı":7349,"Ð¸ÑģÑĤÐ¾ÑĢÐ¸Ñı":7350,"ĠÐ½Ð°Ðº":7351,"Ð¿Ð°ÑĢÑĤ":7352,"ĠÐ°Ð²Ð¸Ð°ÑĨÐ¸Ð¸":7353,"ĠÐ²ÑģÐ»ÐµÐ´ÑģÑĤÐ²Ð¸Ðµ":7354,"Ð°Ð½ÑĤÐ°ÑģÑĤ":7355,"Ð²ÐºÐ»ÑİÑĩ":7356,"ĠÐ¸ÑģÑĤÐ¾ÑĢÐ¸ÑĩÐµÑģÐºÐ¸Ñħ":7357,"ĠÐ¼Ð¸ÑĢÑĥ":7358,"ĠÐºÐ¾Ð¼Ð¿Ð¾Ð½":7359,"ĠÐ²Ð»Ð°Ð´ÐµÐ»":7360,"03":7361,"ĠÐ²Ð¾Ð¾Ð±ÑīÐµ":7362,"ĠÑĥÑħ":7363,"Ð¿ÑĢÐ¾Ñĩ":7364,"Ð°Ð½Ð½":7365,"ĠÐ´ÐµÐ¹ÑģÑĤÐ²Ð¸Ðµ":7366,"ĠÐ¶ÐµÑĢÑĤÐ²":7367,"ĠÐ³Ð»Ð°Ð²Ñĭ":7368,"52":7369,"Ð»ÑıÑİÑĤÑģÑı":7370,"ĠÐ¾ÑģÐ¾Ð±ÐµÐ½Ð½Ð¾ÑģÑĤÐ¸":7371,"ĠÐ´ÐµÐ²ÑıÑĤ":7372,"ĠÐ½ÐµÐ°ÐºÑĤÐ¸Ð²Ð½ÑĭÐ¼Ð¸":7373,"ĠÐ·Ð°Ð¿ÑĢÐµÑĤ":7374,"ĠÐ°Ð²ÑĤÐ¾Ð´":7375,"Ġbo":7376,"))":7377,"ĠÐ¾ÑĤÑĢÐ°Ñģ":7378,"ĠÐ¿Ð¾ÑĤÐµÑĢÐ¸":7379,"Ð³Ð¾Ð¼":7380,"ĠÐ³ÑĢÐµÐ±":7381,"Ð¾Ð¿ÑĢÐµÐ´ÐµÐ»":7382,"ĠÐ²Ð¾ÐµÐ½Ð½ÑĥÑİ":7383,"ĠÐ¿ÐµÑĢÐµÑĩÐ¸ÑģÐ»ÐµÐ½Ð½ÑĭÑħ":7384,"Ð´ÐµÐ¼Ð¾ÐºÑĢÐ°ÑĤ":7385,"ĠÑĦÐµÑģÑĤÐ¸Ð²Ð°Ð»":7386,"ĠÑģÐµÐ²ÐµÑĢÐ½Ð¾Ð³Ð¾":7387,"Ð¿Ð°Ð»":7388,"Ð°ÐºÐ¾Ð½":7389,"ĠÐ°ÐºÐ°Ð´ÐµÐ¼Ð¸Ñİ":7390,"ĠÐ¸Ð¼ÑĥÑīÐµÑģÑĤÐ²":7391,"ĠÐ¼Ð¾Ð´ÐµÑĢÐ½":7392,"ĠÑģÑĥÐ¿ÐµÑĢ":7393,"ĠÐ²ÑĭÑĩÐ¸Ñģ":7394,"ÑĥÑģÐ¿":7395,"ĠÐ»ÑİÐ±Ð¾Ð¹":7396,"ĠÑģÐºÐ°Ð½Ð´":7397,"ep":7398,"ĠÐ¼Ð¾ÑĢÑģÐºÐ¾Ð¹":7399,"ĠÑģÐºÐ¾":7400,"ÑĢÐ°ÑĤÑĮÑģÑı":7401,"ĠÐ´ÐµÑģÑıÑĤÐ¸Ð»ÐµÑĤ":7402,"ĠÐ´Ð¾Ñģ":7403,"Ð°ÑĢÐ¸Ñı":7404,"ÑģÐ¸ÑģÑĤÐµÐ¼":7405,"Ð¶Ð¸Ð»":7406,"ĠÑĥÐºÑĢÐ°Ð¸Ð½ÑģÐºÐ¾Ð¹":7407,"ĠÐºÑĥÐ±Ð¾Ðº":7408,"ĠÐºÐ°ÑĢÑĤÐ¸Ð½Ñĭ":7409,"ĠÐ¿Ð°ÑģÑĤ":7410,"ĠÐ¼ÐµÑģÑĤÐ¾ÑĢ":7411,"ĠÑĤÐµÐ»Ð¾":7412,"ĠÐ°Ð¼ÐµÑĢÐ¸ÐºÐ°Ð½ÑģÐºÐ¾Ð³Ð¾":7413,"Ð¸ÑģÐ¿Ð¾Ð»ÑĮÐ·":7414,"ĠÐ½ÑĭÐ½ÐµÑĪ":7415,"ĠÐ½Ð¸ÐºÐ¾Ð»Ð°ÐµÐ²Ð¸Ñĩ":7416,"82":7417,"Ð¿ÑĢÐ¾Ð¿":7418,"ÐºÐ¾Ð³":7419,"ĠÑįÑĤÐ°Ð¿Ðµ":7420,"ack":7421,"ĠÑģÐ¿ÐµÑĨ":7422,"ĠÐ²Ð¾ÑģÐºÑĢÐµÑģ":7423,"ĠÐºÐ°ÑĤÐ°Ð»Ð¾Ð³Ð°":7424,"co":7425,"ĠÐ²ÐµÐ½Ð³ÐµÑĢ":7426,"ÐµÑģÐ¾ÑİÐ·":7427,"ĠÑıÐ¹":7428,"ĠÐ³Ð²":7429,"ĠÐ¼Ð¸Ð³":7430,"ĠÐ¿ÐµÐ½":7431,"ĠÑģÐ¾Ð¶":7432,"ÐºÑĥÐ±":7433,"Ð¿ÑĢÐ¾ÑĤ":7434,"ÐºÑĥÐ´Ð°":7435,"ĠÑİÐ½Ð¾ÑĪ":7436,"ĠÐ¾ÑģÐ½Ð°Ñī":7437,"ĠÐ²ÑģÐµÐ»":7438,"Ð¼ÐµÐ¶Ð´Ñĥ":7439,"ĠÑħÑĢÐµÐ±":7440,"ĠÑģÑĥÑĢ":7441,"ĠÐ»Ð¸ÑĤÐµÑĢÐ°ÑĤÑĥÑĢÐµ":7442,"2010":7443,"Ð¾ÑĨ":7444,"ĠÐ±Ð°Ð½Ðº":7445,"ĠÐ³Ð»Ð°Ñģ":7446,"ÑĥÑģÐ¾Ð²":7447,"ÑĥÑĩÐ°ÑģÑĤÐ½Ð¸Ðº":7448,"ĠÐ²Ð¾Ð¿ÑĢÐ¾ÑģÐ°Ð¼":7449,"ĠÐµÐ²ÑĢÐ¾Ð¿ÐµÐ¹ÑģÐºÐ¸Ñħ":7450,"ĠÑĦÑĢÐ°Ð½ÑĨÑĥÐ·ÑģÐºÐ¾Ð³Ð¾":7451,"ĠÑģÐµÑĢÐ¸Ð°Ð»Ð°":7452,"Ð°Ð²ÑĪÐµÐ¹":7453,"ĠÑģÑĤÐ°ÑĤÑĮÐ¸":7454,"ĠÑģÐ¾ÑģÑĢÐµÐ´Ð¾ÑĤÐ¾Ñĩ":7455,"ĠÐ½ÑĥÐ¶Ð½Ð¾":7456,"ĠÐ·Ð°ÑĢÑı":7457,"Ġtr":7458,"ĠÑģÐ¸Ð³Ð½":7459,"ĠÐ°ÐºÑĤÑĢÐ¸ÑģÐ°":7460,"ĠÐ¸Ð³ÑĢÐ¾ÐºÐ°":7461,"ĠÑĨÐµÐ»Ð¸":7462,"ĠÐºÐ¾Ðº":7463,"ĠÐ¼ÐµÐ·Ð¾ÑĢÐµ":7464,"ĠÐ±Ð°Ð½Ð´":7465,"ĠÐºÐ°ÑĢÑĤÐµ":7466,"Ð°Ð²ÑĪÐ°Ñı":7467,"ĠÐ²ÐµÑĢÑħÐ½ÐµÐ¹":7468,"ĠÐºÐ°Ð½Ð°Ð»":7469,"ĠÑģÑĨÐµÐ½Ðµ":7470,"Ð¾Ð´Ð¾Ð»":7471,"ÑģÐ°Ð¼Ð±":7472,"07":7473,"Ð¸ÑĤÐµÐ»ÑĮÐ½Ð¾Ð¼":7474,"Ð°ÑİÑīÐµÐµ":7475,"ĠÑģÐ¾ÑģÑĤÐ°Ð²Ð»ÑıÐ»":7476,"ĠÑĥÑģÐ»Ð¾Ð²Ð¸Ñı":7477,"Ð´Ð°ÑİÑĤÑģÑı":7478,"ĠÐ¶ÑĥÑĢÐ½Ð°Ð»Ðµ":7479,"ÐµÐ»ÑĮÐ½ÑĭÑħ":7480,"ĠÐ¿ÑĢÐ¾ÐµÐºÑĤÑĥ":7481,"ĠÐ¿ÑĢÐµÐ´ÐµÐ»Ð°Ñħ":7482,"ÐºÐµÑĢ":7483,"ÑĪÐ°Ñħ":7484,"ĠÐ°Ð»ÐµÐºÑģÐ°Ð½Ð´ÑĢÐ¾Ð²Ð¸Ñĩ":7485,"ĠÑģÐ°Ð¿":7486,"ĠÐ²ÑĭÑĪÐ»Ð¸":7487,"ĠÐ±Ð°Ð³":7488,"ĠÐ¼Ð¾Ð½Ð°ÑĢÑħ":7489,"ĠÐ³Ð¾Ð»Ð¾ÑģÐ¾Ð²":7490,"ĠÐ²Ð·ÑıÐ»":7491,"ĠÐ²Ð¾Ð·Ð´ÑĥÑħÐ°":7492,"Ð¸Ð²Ð°Ð½Ð¸Ðµ":7493,"ĠÑĦÐ¸Ð½Ð°Ð½Ñģ":7494,"ĠÐ¿ÑĢÐ¸Ð·Ð²Ð°Ð½":7495,"Ġ59":7496,"ĠÐºÐ¸ÑĤÐ°Ñı":7497,"ĠÐ·Ð°ÑĢÑĥÐ±ÐµÐ¶":7498,"ĠÐ¿ÑĳÑĤÑĢ":7499,"ĠÑĢÐ°ÑģÑģÐ»ÐµÐ´":7500,"ĠÐºÐ¾Ð½ÑĦÐµÑĢÐµÐ½ÑĨÐ¸Ð¸":7501,"ĠÐ¾ÑģÐ¾Ð±ÐµÐ½":7502,"Ð°Ð»ÑĮÐ´":7503,"ĠÐ¿Ð°ÑĢÐºÐ°":7504,"ĠÐ¿ÑĥÐ±Ð»Ð¸Ñĩ":7505,"ĠÐ¸Ð¼ÐµÑİÑĤÑģÑı":7506,"ĠÐ´ÐµÑĤÐ¸":7507,"ĠÐ³ÑĢÐµÑĨÐ¸Ð¸":7508,"ĠÐºÐ°Ð·Ð°Ñĩ":7509,"ĠÑģÐ°ÑĤ":7510,"ĠÐ³Ð¾ÑĢÐ¸Ð·":7511,"ĠÑħÐ°Ð¹":7512,"ĠÐ²ÑĭÑĢÐ¾Ñģ":7513,"ÑıÐ½Ðµ":7514,"ĠÑĨÐ¸ÑĤ":7515,"ĠÑĢÑĥÑģÑģÐºÐ¸Ðµ":7516,"ÐºÐ°ÑĢÑĤ":7517,"ĠÑĤÐµÐ½Ð½":7518,"ÑĤÐ¾Ð»ÑĮÐºÐ¾":7519,"ĠÐ¸Ð»Ð»Ñİ":7520,"ĠÐ¿ÑĢÐ¸Ð½ÑıÑĤÑĮ":7521,"ĠÐ¸ÑģÐ¿Ð¾Ð»ÑĮÐ·ÑĥÐµÐ¼":7522,"04":7523,"ĠÐ¼Ð°ÑĢÐ¸":7524,"ĠÑĢÑıÐ·":7525,"Ð»ÑıÑİÑī":7526,"ĠÐ¿ÑĢÐ¸Ð±ÑĭÐ»":7527,"Ġat":7528,"ĠÐ´Ð¸ÑģÑģÐµÑĢÑĤÐ°ÑĨÐ¸Ñİ":7529,"Ġmc":7530,"ÐµÐ²ÑĢÐ¾Ð¿ÐµÐ¹":7531,"ĠÐ»ÐµÐ³ÐµÐ½Ð´":7532,"ĠÐ°Ð²ÑĤÐ¾ÑĢÐ¾Ð¼":7533,"ĠÑĢÐ°Ð¹Ð¾Ð½Ð°Ñħ":7534,"ĠÐ¿Ð¾Ð´Ð´ÐµÑĢÐ¶ÐºÐµ":7535,"ĠÐºÐ¾Ð¼Ð°Ð½Ð´Ð¾Ð¹":7536,"ĠÑģÑĤÑĢÐ¾Ð¹":7537,"Ð½ÐµÑĢÐ°":7538,"Ð¿Ð¾Ð´Ð¾Ð±":7539,"ĠÐ´ÐµÐ»Ð°ÐµÑĤ":7540,"ĠÐ½Ð°Ð±Ð»Ñİ":7541,"ĠÑĤÐµÑħÐ½Ð¾Ð»Ð¾Ð³Ð¸Ð¸":7542,"ĠÑģÑĤÐµÑĦ":7543,"ĠÐ¸Ð³Ð¾ÑĢ":7544,"Ð³Ð¸Ð´":7545,"ĠÐ·Ð¾":7546,"ĠÐ·Ð°Ð»Ð¸Ð²":7547,"ĠÐµÐ´Ð¸Ð½ÑģÑĤÐ²ÐµÐ½Ð½ÑĭÐ¼":7548,"Ð¾Ð»Ð¾Ð³Ð¸ÑĩÐµÑģÐºÐ¸Ð¹":7549,"Ð¸ÑģÑĤÑģÐºÐ¾Ð¹":7550,"ĠÐ¾Ð±ÑĬÑıÑģÐ½Ñı":7551,"ĠÐ¿ÑĢÐ¸ÑĩÐ¸Ð½Ð°Ð¼":7552,"Ð¸Ð½Ð¾Ð³Ð´Ð°":7553,"ĠÐ»Ð¸Ð¼":7554,"ĠÐ´Ð¶Ð¾Ð½Ð°":7555,"ĠÑģÑĩÐ¸ÑĤÐ°ÐµÑĤ":7556,"02":7557,"ĠÑģÐ¾Ð¿ÐµÑĢ":7558,"Ð»ÐµÐ¿":7559,"ĠÑģÐ¸":7560,"ĠÐ¾Ð¿ÐµÑĢÐ°ÑĤÐ¸Ð²":7561,"ĠÐ´Ð°Ð½Ð½Ð¾Ð³Ð¾":7562,"ĠÑģÐ²ÐµÑĤÐ°":7563,"ĠÑĢÐ°Ð¹Ð¾Ð½Ð½Ð¾Ð³Ð¾":7564,"ĠÐ´Ð¸Ð½Ð°Ð¼":7565,"ĠÑĪÐµÑĢ":7566,"59":7567,"Ð¾Ð»ÑĮÑĦ":7568,"Ð²ÑĤÐ¾ÑĢÐ¾Ð¹":7569,"ĠÐ±Ð»Ð°Ð³Ð¾":7570,"Ð´Ð¸Ðº":7571,"Ð¾Ð»ÑĳÑĤ":7572,"ĠÐ¼Ð½Ðµ":7573,"ĠÑĤÑĢÐµÐ½ÐµÑĢÐ¾Ð¼":7574,"ĠÑģÑĥÐ´Ð¾Ð²":7575,"ĠÐ½Ð°Ð·Ð½Ð°ÑĩÐµÐ½Ð¸Ñı":7576,"Ġ1900":7577,"ĠÑĤÑĭÑģÑıÑĩÐ¸":7578,"ĠÐºÐ¸ÑĤÐ°":7579,"ĠÑģÐµÑĤÑĮ":7580,"ĠÑĤÑĢÐµÐ½Ð¸ÑĢÐ¾Ð²":7581,"Ġ42":7582,"ÑĭÑģÐ»":7583,"ĠÐ¶ÑĳÐ»ÑĤ":7584,"ĠÑĢÐ°Ð½ÑĮÑĪÐµ":7585,"ĠÑĤÐµÑĢÑĢÐ¾ÑĢ":7586,":\"":7587,"ĠÐ²Ð¾Ð·ÑĢ":7588,"ĠÐ½ÐµÐ¼ÐµÑĨÐºÐ¾Ð¹":7589,"ĠÑĦÐ¾Ð½Ð´Ð°":7590,"ies":7591,"ĠÐ¸Ð´ÐµÐ¸":7592,"ÑĢÐ°Ð¹Ð¾Ð½":7593,"ĠÐ¿Ð¸Ðº":7594,"ĠÑĢÐ¾ÑģÑģÐ¸Ð¹ÑģÐºÐ°Ñı":7595,"ÐµÐ½Ñĥ":7596,"Ð¸Ð¼Ð¸ÑĢÐ¾Ð²":7597,"ĠÐºÐ°Ð½Ð°Ð»Ð°":7598,"Ð¾Ð¿ÑĢÐ¾":7599,"ĠÐ·Ð´Ð°Ð½Ð¸Ð¸":7600,"ĠÐ·Ð°Ð²Ð¾ÐµÐ²Ð°Ð»":7601,"ĠÐºÐ¾Ð¼Ð±Ð¸Ð½":7602,"ĠÐ¼ÐµÐ¶Ð´ÑĥÐ½Ð°ÑĢÐ¾Ð´Ð½ÑĭÐ¹":7603,"ĠÐ²ÐµÑģÑĤÐ¸":7604,"Ð¾Ð¼Ð°ÑĤ":7605,"ĠÐºÐ¸Ð½Ð¾ÑĦ":7606,"Ð³ÑĥÐ±":7607,"ĠÐ¿ÑĢÐ¾Ð´ÑİÑģ":7608,"ĠÐ±Ð¾ÐµÐ²Ð¾Ð¹":7609,"ĠÐ¾Ð±ÑıÐ·Ð°Ð½Ð½Ð¾ÑģÑĤÐ¸":7610,"Ð´Ð²Ð¸Ð³":7611,"ĠÐ»ÐµÐ½Ð¸Ð½Ð³":7612,"ĠÑģÐµ":7613,"ĠÐ²ÑĭÑĪÐµÐ´":7614,"ĠÐ¼Ð¸":7615,"Ð¸ÑĩÐ½Ð¾Ð³Ð¾":7616,"ĠÐ¿ÑĢÐ¾Ð½Ð¸Ðº":7617,"ÑĢÑıÐ½":7618,"ĠÐ²Ð°ÑģÐ¸Ð»ÑĮÐµÐ²Ð¸Ñĩ":7619,"ÑģÐ¾Ð·Ð´":7620,"ĠÐ¸Ð·Ð´Ð°Ð²":7621,"Ð¾Ð´Ð½Ð¾Ð²ÑĢÐµÐ¼ÐµÐ½Ð½Ð¾":7622,"ĠÐºÐ°ÑĢÐ´Ð¸Ð½":7623,"Ð¸Ð·Ð±":7624,"ĠÑģÑĤÐ¸ÑħÐ¾ÑĤÐ²Ð¾ÑĢ":7625,"ĠÐ¸ÑĢÐ»Ð°Ð½Ð´":7626,"ĠÐ´ÐµÐ´":7627,"ĠÐ¿ÐµÑĢÐµÐ¼ÐµÐ½":7628,"ĠÑĪÐ¾ÑĤÐ»Ð°Ð½Ð´":7629,"ĠÐ·Ð½Ð°":7630,"ĠÐ¸Ð¼ÐµÐ²":7631,"ĠÐºÐ»Ð°Ð²":7632,"ĠÐ²Ð¾Ð·Ð³Ð»Ð°Ð²Ð»ÑıÐ»":7633,"ÑĥÐ¸":7634,"ĠÐ¸ÑĢÐ°Ð½":7635,"ĠÑģÐµÑĢÐ¶Ð°Ð½ÑĤ":7636,"Ġ1906":7637,"ĠÐ¿Ð°ÑĢÑĤÐ¸Ð·Ð°Ð½":7638,"ĠÐ·Ð¾Ð½Ñĭ":7639,"ĠÑģÐ°ÑĢÐ°ÑĤ":7640,"Ð¸Ð»Ð»Ð°":7641,"Ð½Ð¾Ð²Ð¸Ñĩ":7642,"ĠÐ¾ÑĤÐ»Ð¸ÑĩÐ°ÐµÑĤÑģÑı":7643,"ÑģÑĢÐµÐ´Ð½Ð¸Ð¹":7644,"Ð¾Ð²ÑģÐºÐ°Ñı":7645,"ĠÐºÐ¾ÑĤÐ¾ÑĢÑĭÐ¼Ð¸":7646,"ĠÑĤÐµÐ»ÐµÐ²Ð¸Ð·Ð¸Ð¾Ð½":7647,"ĠÐ½Ð°ÑĢÑıÐ´Ñĥ":7648,"ĠÐµÐºÐ°ÑĤÐµÑĢÐ¸Ð½":7649,"ĠÐ½ÐµÐ¿ÑĢÐµ":7650,"ĠÐ¾Ð±ÑĥÑĩÐµÐ½Ð¸Ðµ":7651,"ĠÐ¾ÑģÐ²Ð¾Ð±Ð¾Ð¶Ð´ÐµÐ½Ð¸Ñı":7652,"ĠÐ¿Ð¾ÑħÐ¾ÑĢÐ¾Ð½ÐµÐ½":7653,"Ð°Ð»Ð¸ÑĤ":7654,"Ð¸ÑĢÐ¾Ð²Ð°Ð»Ð¸ÑģÑĮ":7655,"Ð¸ÑĤÐ¾ÑĢ":7656,"ĠÐ¿Ð¾Ð¼ÐµÑģÑĤ":7657,"ĠÑĦÐ¸Ð½Ð»ÑıÐ½Ð´Ð¸Ð¸":7658,"ÑĢÐµÑģÐ¿Ð¾Ð½Ð´":7659,"ĠÐºÐ°ÑĢÐ°":7660,"ÐµÑĢÐ½Ð°ÑĤÐ¸Ð²":7661,"51":7662,"we":7663,"ĠÐ½Ð°ÑĢÐ¾Ð´Ð½Ð¾Ð¹":7664,"ĠÐ¿Ð¾Ð»Ð¸ÑĨÐ¸Ð¸":7665,"ĠÐ¿Ð¾Ð»Ð¾Ð¶ÐµÐ½Ð¸Ñı":7666,"ĠÐ¸Ð·Ð¾Ð±ÑĢÐµÑĤ":7667,"ÐºÐ°Ð·Ð°":7668,"Ð²ÐµÐ»Ð¸Ðº":7669,"Ð¿Ð¾ÐºÑĢÐ¾Ð²Ð¸ÑĤÐµÐ»ÐµÐ¼":7670,"ĠÑĦÐ°Ñģ":7671,"ĠÑĢÐµÑģÐ¿ÑĥÐ±Ð»Ð¸ÐºÐµ":7672,"ĠÐ¼ÑĥÐ·ÐµÐµ":7673,"ĠÐ´ÑĥÐ¼Ñĭ":7674,"ĠÑģÐ°Ð¼Ð¾Ð»ÑĳÑĤÐ°":7675,"ĠÑģÐ²Ð¾Ð´":7676,"ĠÐ±ÐµÑĢÐµÐ³Ð¾Ð²":7677,"ĠÐºÐ°Ð½ÑĤÐ¾Ð½Ð°":7678,"ĠÐ»Ð°Ð´":7679,"ĠÐ·Ð²ÑĥÐº":7680,"ĠÐºÐ¸Ð»Ð¾Ð¼ÐµÑĤÑĢÐ°Ñħ":7681,"ĠÐ¼Ð¸ÐºÑĢÐ¾ÑĢÐµÐ³Ð¸Ð¾Ð½":7682,"ĠÐ·Ð°ÐºÐ°Ð½ÑĩÐ¸Ð²":7683,"ÐºÐ¾ÑģÑĤÑĮ":7684,"ÑģÑĤÐ²Ð°Ñħ":7685,"ĠÐ»ÐµÑģÐ°":7686,"ĠÐ¸ÑĢÐºÑĥÑĤ":7687,"ĠÐ¿ÐµÑĢÑģÐ¾Ð½Ð°Ð¶ÐµÐ¹":7688,"ĠÐ¼ÐµÐ·Ð¾ÑĢÐµÐ³Ð¸Ð¾Ð½Ð°":7689,"ĠÐ¾ÑĤÐ´ÑĭÑħ":7690,"ÐºÐ»Ð¸Ð¼Ð°ÑĤ":7691,"ĠÐ¿ÑĢÐµÐ´Ð²Ð°ÑĢ":7692,"ĠÐ²Ð¾Ð·Ð²ÑĭÑĪ":7693,"ĠÐ°ÐºÑĤÐ¸Ð²Ð½Ð¾ÑģÑĤÐ¸":7694,"ld":7695,"ÑĥÑİÑģÑı":7696,"Ġ43":7697,"ÑĤÐµÐ¿":7698,"ĠÐ¸Ð³ÑĢÐ¾ÐºÐ¾Ð¼":7699,"ĠÐ²Ð¾ÑĢÐ¾ÑĤÐ°":7700,"ĠÐ¾ÑģÐ½Ð¾Ð²Ð°Ð»":7701,"ÐµÐ´Ð»Ð¸Ð²":7702,"ĠÑİÑĢÐ¸Ð¹":7703,"ĠÐ±ÑĢÐ°ÑĤÑĮ":7704,"ĠÐ¸Ð´ÐµÐ½ÑĤ":7705,"Ġ1907":7706,"ĠÐ¼ÑĥÐ·ÑĭÐºÑĥ":7707,"ÑħÐ¾ÑĢ":7708,"Ð¾Ð¾":7709,"ĠÐ´Ð»Ð¸Ð½Ð°":7710,"ĠÐ¾Ð±Ð¼ÐµÐ½":7711,"ĠÐ¼Ð¾Ð½Ð°Ñħ":7712,"ÑįÐ½ÐµÑĢÐ³":7713,"Ð¿Ð°Ð¼ÑıÑĤ":7714,"ĠÐ²Ð¾Ð·ÑĢÐ°ÑģÑĤÐ°":7715,"ÑĤÐ¾Ðµ":7716,"ĠÑįÐ´Ñĥ":7717,"ĠÑĤÐ²ÐµÑĢ":7718,"ĠÐ³Ð¾ÑĢÑĮ":7719,"ĠÐºÑĢÐ¾Ð²Ð¸":7720,"ĠÑħÐ¸ÑĤ":7721,"ĠÐ·Ð°ÐºÐ¾Ð½Ð°":7722,"ĠÑģÐ°Ð±":7723,"ĠÑĩÐµÑħÐ¾ÑģÐ»Ð¾Ð²":7724,"ĠÐ³Ð»ÑĥÐ±Ð¾Ðº":7725,"ÐºÑĢÐ°ÑĤ":7726,"ĠÑĢÐ¾ÑģÑģÐ¸Ñİ":7727,"ĠÐ³ÑĢÐ°Ð½Ð¸ÑĨÐµ":7728,"Ð¼Ð°Ð´":7729,"Ð¸ÑģÐµ":7730,"ĠÐ¿Ð¾ÑĢÐ°Ð¶ÐµÐ½Ð¸Ñı":7731,"ĠÐ¿ÑĢÐ°Ð²Ð»ÐµÐ½Ð¸Ðµ":7732,"84":7733,"ĠÐ²Ð¾ÑģÑĤÐ¾ÐºÑĥ":7734,"ĠÐ¿Ð¾ÐµÐ´Ð¸Ð½":7735,"Ð°Ð»Ð¸Ð·Ð¼Ð°":7736,"ÑģÑĥÐ¶Ð´":7737,"ĠÐ¸Ð¼Ð¸":7738,"ly":7739,"53":7740,"ÑĩÐµÑģÑĤ":7741,"ĠÐ¾ÑģÑĥÑīÐµÑģÑĤÐ²Ð»ÑıÐµÑĤÑģÑı":7742,"Ð¼Ð¸ÑĢÐ°":7743,"ÐµÑĨÐºÐ¾Ð¹":7744,"ĠÑģÐ»ÐµÐ´ÑĥÑİÑīÐ¸Ð¼":7745,"ÑĤÐ°ÑĨÐ¸Ð¸":7746,"ĠÐ¿ÐµÑĢÐ²Ð¾Ð½Ð°ÑĩÐ°Ð»ÑĮÐ½Ð¾":7747,"ĠÐ¿ÑĢÐ¸Ð³Ð¾ÑĢÐ¾Ð´":7748,"ĠÑįÐºÐ·ÐµÐ¼Ð¿Ð»Ñı":7749,"Ð°ÑĤÐµÐ»ÑĮÑģÑĤÐ²Ð°":7750,"ÐºÐµÐ¹":7751,"ÐµÐ²Ð¾Ð³Ð¾":7752,"ÑģÐ¿ÐµÐºÑĤÐ¸Ð²":7753,"06":7754,"Ð¿ÐµÐ»":7755,"ĠÑĤÑĢÑĥÐ¿":7756,"ĠÐ¾Ð±ÑģÑĤÐ¾ÑıÑĤÐµÐ»ÑĮ":7757,"Ð°Ð»ÐµÐºÐ¾":7758,"ĠÐ¼ÑıÐ³":7759,"ĠÐ½Ð°ÑĥÑĩÐ½Ð¾Ð¹":7760,"ĠÐ¿Ð¾Ð±ÐµÑĢÐµÐ¶ÑĮÐµ":7761,"ĠÑĢÐµÐ¿":7762,"ĠÐ´ÐµÐ»ÑĮ":7763,"ĠÐºÐ°Ð·Ð°ÑħÑģÑĤÐ°Ð½":7764,"ĠÐ´Ð¸ÑĦ":7765,"Ð¸ÑģÑģÐ»ÐµÐ´Ð¾Ð²Ð°ÑĤÐµÐ»ÑĮ":7766,"ĠÐ²Ð¾ÑģÑĤÐ¾ÐºÐ°":7767,"ĠÐ¼Ð°ÑģÑģÐ¸Ð²":7768,"Ð±Ð°Ð¹":7769,"Ð¸ÑĨÐºÐ¾Ð³Ð¾":7770,"Ð²Ð¾ÑģÑĤÐ¾ÑĩÐ½Ð¾Ð¹":7771,"ĠÐ°Ñģ":7772,"Ð¾Ð±ÑĭÑĩÐ½Ð¾":7773,"Ð´ÐµÐ²":7774,"Ð¿Ð¸Ð¾Ð½Ð°":7775,"ĠÑĢÐµÐ´ÐºÐ¾":7776,"ĠÐ¿Ð¾Ð¼Ð¸Ð¼Ð¾":7777,"Â»\",":7778,"ÑĥÑĩÐµÐ½Ð¸":7779,"ĠÑĥÑģÐ°Ð´ÑĮ":7780,"ĠÐ¸Ð½ÑĤÐµÐ³":7781,"ÑīÐ¸ÐºÐ°":7782,"ĠÐ²Ð¾ÐµÐ½Ð½ÑĭÐµ":7783,"ĠÑĥÑĩÐ¸Ð»Ð¸ÑīÐ°":7784,"ĠÐ¾ÑĢÐ¸ÐµÐ½ÑĤ":7785,"Ð±ÐµÑģ":7786,"Ð°ÑģÑĤÑĢÐ¾ÑĦ":7787,"Ð°ÐµÐ¼ÑĭÐµ":7788,"ĠÐ·Ð°ÑħÐ²Ð°Ñĩ":7789,"ĠÐ²ÑĢÐ°Ñī":7790,"ĠÐ¾ÐºÐ°Ð·Ð°Ð»Ð¸ÑģÑĮ":7791,"ĠÐ±Ð°ÑģÑģÐµÐ¹Ð½Ð°":7792,"ĠÐ¿ÑĢÐ¾Ð´Ð°Ð²":7793,"ĠÐ±Ð°ÑĤÐ°ÑĢÐµ":7794,"ĠÑģÐ¼Ð¾ÑĤ":7795,"ĠÐ²Ð¾ÑĢÐ¾ÑĤ":7796,"ÑģÐ¾ÑģÑĤÐ°Ð²Ð½Ð°Ñı":7797,"ĠÐ¼ÐµÑģÑıÑĨ":7798,"ĠÐ±Ð¾ÑĤÐ°Ð½":7799,"ĠÑĥÑĩÐ°ÑģÑĤÐ¸ÐµÐ¼":7800,"ĠÑģÑĤÑĢÑĥÐºÑĤÑĥÑĢ":7801,"ĠÐ³ÑĢÐ¾Ð¼":7802,"ĠÐ¾ÑĨÐµÐ½Ð¸Ð²":7803,"ÑĢÐ¸ÐµÐ²":7804,"ĠÑģÐºÐ¾ÑĤ":7805,"ĠÑģÐµÐ¼Ð¸":7806,"ĠÐ¿ÐµÑĢÐµÐ½ÐµÑģ":7807,"ÑĭÐ¿":7808,"Ð°Ð½Ð´Ð¶ÐµÐ»":7809,"ĠÐ¾ÑĤÑģÑĥÑĤÑģÑĤÐ²Ð¸Ðµ":7810,"ĠÑģÑĥÑīÐµÑģÑĤÐ²Ð¾Ð²Ð°Ð½Ð¸Ðµ":7811,"Ġ1904":7812,"Ð±Ð°ÑģÑģ":7813,"ÐµÐ²ÑĭÐµ":7814,"ÑĳÐ½Ð½ÑĥÑİ":7815,"ĠÐ¸Ð³ÑĢÐ°ÐµÑĤ":7816,"ĠÐ²ÑģÐµÑģÐ¾ÑİÐ·":7817,"âĦĸ":7818,"ÑĢÑĥÐµÑĤ":7819,"ace":7820,"Ð·Ð°Ð»":7821,"ĠÐ³ÑĢÐ°Ð´":7822,"ĠÐ¼ÐµÐ´Ð²ÐµÐ´":7823,"Ð°Ð½Ð³ÐµÐ»":7824,"ĠÐ¿Ð¾Ð»Ð°":7825,"ĠÐ½Ð°Ð²":7826,"ĠÐ¾ÑģÐ½Ð¾Ð²Ñĥ":7827,"ĠÐ°Ð½Ð°ÑĤÐ¾Ð»":7828,"ĠÐ¿ÑĢÐ¾ÑĤÐ¸Ð²Ð¾ÑĢÐµ":7829,"ĠÑĥÑģÐ¿ÐµÑħÐ°":7830,"ÐµÐ½Ð¾Ñģ":7831,"ĠÑģÐµÑĢÐ¸Ñı":7832,"87":7833,"Ġ1908":7834,"ĠÐ¾ÑĢÑĥÐ´Ð¸Ñı":7835,"57":7836,"ĠÐ¼Ð¸ÑħÐ°Ð¹Ð»Ð¾Ð²Ð¸Ñĩ":7837,"ĠÐ³ÑĢÐ¾Ð·":7838,"ĠÐ¿ÑĢÐ¸ÑĪÑĳÐ»":7839,"ĠÐ´Ð¸ÑģÑĨÐ¸Ð¿":7840,"ĠÐ´Ð°Ð³":7841,"ĠÐ½ÐµÐ¼ÐµÑĨÐºÐ¾Ð³Ð¾":7842,"ĠÐ¼Ð¾Ð»ÐµÐº":7843,"ĠÐ¿ÑĢÐ¸Ð¼ÐµÐ½ÐµÐ½Ð¸Ñı":7844,"ĠÐ±Ð°ÑĤÐ°Ð»ÑĮÐ¾Ð½":7845,"ĠÐ¸Ð·Ð²ÐµÑģÑĤÐ½Ñĭ":7846,"ĠÐ½ÐµÐ·Ð°Ð²Ð¸ÑģÐ¸Ð¼Ð¾ÑģÑĤÐ¸":7847,"83":7848,"ÑģÑĤÐ²ÐµÐ½Ð½Ð°Ñı":7849,"Ġco":7850,"Ġmar":7851,"ĠÐºÑĥÐ±ÐºÐµ":7852,"ÑģÑĩÐ¸ÑĤ":7853,"ĠÐ¾ÑģÑĥÐ¶Ð´":7854,"ĠÐ¼Ð¾Ð³Ð»Ð°":7855,"ĠÐ¼Ð¾Ð»Ð¾Ð´ÑĭÑħ":7856,"ĠÐ¿ÑĢÐ¾ÑĪÐ»Ð°":7857,"Ġcon":7858,"ĠÑĢÑĥÐºÐ¾Ð²Ð¾Ð´Ð¸Ð»":7859,"ĠÐ¿ÑĢÐ¾ÑĨÐµÑģÑģÐ°":7860,"ĠÐ¶ÐµÐ»ÐµÐ·Ð½Ð¾Ð´Ð¾ÑĢÐ¾Ð¶Ð½Ð¾Ð¹":7861,"ĠÐ¿Ð¾Ð¿Ð°Ð´":7862,"ĠÐ¿Ð¾Ð·Ð²Ð¾Ð»Ð¸Ð»Ð¾":7863,"Ð±ÑĭÐ»Ð¸":7864,"ĠÑģÑĤÐ°ÑĢÐ°":7865,"ĠÐ¶Ð¸Ð²Ð¾Ð¿Ð¸ÑģÐ¸":7866,"Ġ1911":7867,"ĠÐ±Ð¾Ñģ":7868,"ÑĥÐ½Ð´Ð°Ð¼":7869,"ÑĩÐ¸ÐºÐ¾Ð¼":7870,"ĠÐ¼Ð°ÐºÐµÐ´":7871,"ÑħÑĥ":7872,"Ð»Ð°Ð¼ÐµÐ½ÑĤÐ°":7873,"Ð´Ð²Ð¸Ð¶":7874,"ĠÐ¶ÐµÐ½Ð°ÑĤ":7875,"ÑĢÐ°ÑģÑģ":7876,"ĠÑģÑĤÐ°ÑĤÐµÐ¹":7877,"Ð´Ð°Ð»ÑĮ":7878,"ÑĥÑĪÐºÐ°":7879,"ĠÐ¾ÑħÐ²Ð°ÑĤ":7880,"ĠÑģÐ¿Ð¸ÑģÐºÐµ":7881,"ĠÐ¿ÑĢÐ¾ÑĤÐ¸Ð²Ð¾Ð¿Ð¾Ð»Ð¾Ð¶":7882,"ĠÐ¿ÑĢÐ¾Ð¿Ð°Ð³":7883,"ĠÐ¿Ð¾Ð´Ð´ÐµÑĢÐ¶ÐºÐ¸":7884,"ĠÐºÐ¾Ð½ÐµÑĨ":7885,"ĠÐ¼Ð¾ÑģÐºÐ¾Ð²ÑģÐºÐ¸Ð¹":7886,"ĠÐ²ÑĭÑĢÐ°Ð·":7887,"ĠÐ´Ð¾Ð¶Ð´":7888,"ĠÐ´Ð¾Ð²":7889,"ity":7890,"ÑĮÐµÑĤÐ½Ð°Ð¼":7891,"ĠÑģÑĤÑĥÐ´ÐµÐ½ÑĤÐ¾Ð²":7892,"ĠÐºÐ²Ð°Ð´ÑĢÐ°ÑĤ":7893,"ĠÐºÑĢÑĭÐ»ÑĮ":7894,"ĠÐ¿Ð°ÑĢÐ°Ð¼ÐµÑĤ":7895,"ĠÐ¿ÐµÑĢÐµÐº":7896,"ĠÐ¿ÑĢÐ¾Ð³ÑĢÐ°Ð¼Ð¼Ðµ":7897,"ĠÑįÐ»ÐµÐ¼ÐµÐ½ÑĤ":7898,"ĠÐ±Ð¸Ð±Ð»Ð¸Ð¾ÑĤÐµÐºÐ°":7899,"Ð»ÑĭÐµ":7900,"ÑĤÑĮÑģÑı":7901,"lo":7902,"Ð°Ð½Ð½ÑĭÐ¼":7903,"ĠÐºÐ»ÑĥÐ±Ð¾Ð¼":7904,"Ð¸Ð»Ð¸Ð½Ð´":7905,"ĠÐ»Ð¾Ð²":7906,"ĠÐ±ÐµÐ»Ð°ÑĢÑĥÑģ":7907,"ĠÐ½Ð°ÑĢÐ¾Ð´Ð½ÑĭÑħ":7908,"ĠÐºÐ¾ÑĢÐ¾Ð½":7909,"ĠÐ²Ð¿ÐµÑĩÐ°ÑĤ":7910,"ĠÐºÐ¾Ð¼Ð°Ð½Ð´Ð¾Ð²Ð°Ð½Ð¸Ðµ":7911,"ĠÐºÐ»Ð°ÑģÑģÐ¾Ð²":7912,"iz":7913,"ĠÑĢÐµÐ»ÑĮ":7914,"Ġpr":7915,"ĠÐºÑĥÑĢÑģÑĭ":7916,"ĠÐ¼Ð°ÑĢÐºÐ¸":7917,"ĠÑģÑĩÐ¸ÑĤÐ°Ð»":7918,"ĠÐ¿Ð°ÑĨÐ¸":7919,"ĠÐ¼ÐµÐ¼Ð¾ÑĢÐ¸":7920,"ĠÑĥÑĢÐ°Ð²Ð½":7921,"ĠÐ¸Ð·Ð²ÐµÑģÑĤÐ½Ð°":7922,"ÃĹ":7923,"ĠÐ¼Ð°Ð¼":7924,"ĠÐ¿Ð¾ÑģÐ»ÐµÐ´Ð½ÐµÐ¹":7925,"ĠÐ½ÐµÐ»":7926,"ĠÐ¾ÑĢÑĥÐ¶Ð¸Ðµ":7927,"ÑĭÑģÐº":7928,"ĠÐ°Ð½ÑģÐ°Ð¼Ð±":7929,"Ð¸ÑĢÐ¾Ð²Ð°Ð»Ð°ÑģÑĮ":7930,"Ð¿ÑĢÐ¸Ñĩ":7931,"ĠÐ³Ð¸Ð³":7932,"ĠÐ¾Ð°Ð¾":7933,"ĠÐ½Ð¾Ð¼ÐµÑĢÐ¾Ð¼":7934,"ĠÑĢÐ°Ð·ÑĢÐ°Ð±Ð¾ÑĤÐºÐ¸":7935,"Ð»Ð¾Ðº":7936,"ĠÑģÑĢÐµÐ´Ð½ÐµÐ³Ð¾":7937,"ÑĢÐµÐºÐ°":7938,"ĠÐ½ÐµÐ¾Ð±ÑħÐ¾Ð´Ð¸Ð¼Ð¾ÑģÑĤÐ¸":7939,"ĠÑģÑĩÐ¸ÑĤÐ°ÑİÑĤ":7940,"ĠÑģÑĨ":7941,"ÐµÐ½ÑģÐºÐ¾Ð¼":7942,"ĠÐ¾Ð±ÑĪÐ¸ÑĢ":7943,"Ð°Ð²ÑĪÐ¸Ð¼":7944,"ĠÐ¾Ð¶Ð¸Ð´":7945,"ĠÐ¿ÑĢÐ¾Ð´ÑĥÐºÑĨÐ¸Ð¸":7946,"ĠÐ½ÐµÐ»ÑĮ":7947,"ĠÑĪÑĥÐ¼":7948,"ĠÐ¶ÐµÐ½Ð¾Ð¹":7949,"ĠÐ²ÑĤÐ¾ÑĢÐ°Ñı":7950,"ÑĩÐ¸ÑģÐ»ÐµÐ½Ð½Ð¾ÑģÑĤÑĮ":7951,"ĠÐ³Ð°Ð»ÐµÑĢÐµ":7952,"ĠÐ¸Ð´ÑĳÑĤ":7953,"ÑĤÑĢÐµÑĤ":7954,"Ð¾ÑħÐ¾Ð·ÑıÐ¹":7955,"ĠÑĤÐµÑĢÐ¼":7956,"ĠÐºÐ¾Ð½ÑģÑĤÐ¸ÑĤÑĥÑĨÐ¸Ð¸":7957,"ÑĦÐ¸Ð¼":7958,"ĠÑģÐ¾Ð½":7959,"ĠÐ¿Ð¾Ð¿ÑĭÑĤÐºÐ¸":7960,"ĠÐ¿Ð¾Ð´ÑĢÐ¾Ð±":7961,"ĠÐ±ÑĥÐ´Ð´":7962,"ĠÐ´Ð°ÑĳÑĤ":7963,"ĠÐ¸ÑģÑĤÐ¾ÑĩÐ½Ð¸ÐºÐ¾Ð²":7964,"ĠÐ¿ÑĢÐµÐ²Ð¾ÑģÑħÐ¾Ð´":7965,"Ð½Ð¾Ð²ÑĭÐ¹":7966,"ĠÐ¸Ð·Ð²ÐµÑģÑĤÐ½Ð¾Ð³Ð¾":7967,"ĠÐ»Ð¾Ð¿":7968,"ÐµÐ´Ð¶":7969,"ĠÐ²Ð¾ÐµÐ²Ð¾Ð´":7970,"Ð¿ÐµÑģÐ½Ñı":7971,"ĠÐ¿Ð¸ÑģÐ°ÑĤÐµÐ»ÐµÐ¹":7972,"ĠÐºÐ¾Ð¼Ð¿Ð°Ð½Ð¸Ð¹":7973,"Ð°ÑİÑīÐ¸ÑħÑģÑı":7974,"ĠÐ³ÐµÑĢÐ±Ð°":7975,"Ð¾ÑĢÑıÐ´":7976,"ĠÐ³ÑĢÐ°Ð²":7977,"ĠÑģÐ»ÑĥÑĪ":7978,"ĠÑĢÐ°Ð¹Ð¾Ð½Ñĭ":7979,"ĠÐµÐ²ÑĢÐ¾":7980,"ĠÐ²Ð¾Ð»Ð¾ÑģÑĤÑĮ":7981,"ĠÐ¿ÑĢÐ¸Ð½Ð¸Ð¼Ð°ÐµÑĤ":7982,"ĠÐ¾ÑĦÐ¸ÑĨÐµÑĢ":7983,"Ð¸ÑĢÐ¾Ð²Ð°Ð»Ð¾ÑģÑĮ":7984,"ĠÐ¿ÑĢÐµÐ¿Ð¾Ð´Ð°Ð²Ð°Ð»":7985,"ĠÐ¿Ð¾Ð´ÑĤÐ²ÐµÑĢÐ¶Ð´":7986,"ĠÐ¾ÑĤÑĩ":7987,"ÑģÑĥÑīÐµÑģÑĤÐ²ÑĥÐµÑĤ":7988,"ÑįÐºÑģÐ¿":7989,"Ð°Ð½Ð³Ð»":7990,"ÑĢÐ°ÑģÐ¿Ð¾Ð»Ð¾Ð¶ÐµÐ½Ð°":7991,"ĠÐ²Ð»Ð¸ÑıÐ½Ð¸ÐµÐ¼":7992,"Ð°ÑĨÐ¸Ñİ":7993,"Ð´Ð¾Ñħ":7994,"ĠÐ»ÐµÐ²Ð¾Ð¼":7995,"ĠÑĢÐ°ÑģÑģÑĤÑĢÐµ":7996,"ĠÐ¿Ð¾ÑģÐ»ÑĥÐ¶":7997,"ÐµÐ½ÑģÐ¸Ð²":7998,"ÐµÑĨÐºÐ¾Ð³Ð¾":7999,"ĠÐ¸ÑģÐ¿Ð¾Ð»ÑĮÐ·Ð¾Ð²Ð°Ð»Ð¸ÑģÑĮ":8000,"ÐºÑĢÑĥÐ¿":8001,"ĠÑģÑĤÐ¸Ð²":8002,"ĠÐ½ÐµÐ¿Ð¾Ð´":8003,"Ð¾Ð»Ðµ":8004,"ĠÑħÐ°Ð»":8005,"ĠÑħÐ¾ÑĤÐµÐ»":8006,"ĠÑĤÐ°ÐºÐ¾Ðµ":8007,"ĠÑĢÐµÐ·ÐºÐ¾":8008,"ÑĨÐ·":8009,"ĠÐ²ÐµÑĢÐ½ÑĥÑĤÑĮÑģÑı":8010,"ĠÐ¿Ð¾Ð´ÑĢÑıÐ´":8011,"ock":8012,"ĠÑģÐ¿ÐµÑĨÐ¸Ð°Ð»ÑĮÐ½Ð¾":8013,"ĠÐ±Ð¾Ð»ÑĮÑĪÐ¸Ð½ÑģÑĤÐ²Ð°":8014,"ĠÐ¿Ð¾Ð»ÑĥÑĩÐ¸Ð²":8015,"ĠÐ¸Ð·Ð²ÐµÑģÑĤÐ½ÑĭÐµ":8016,"Ð°Ð½Ð´Ð¸Ð¸":8017,"ĠâĪĴ":8018,"ĠÐ´Ð²Ð¾ÑĢÐµÑĨ":8019,"ĠÑģÐ¾ÑĢÐµÐ²Ð½Ð¾Ð²Ð°Ð½Ð¸ÑıÑħ":8020,"Ð¾Ð»Ð¾Ð¼":8021,"2000":8022,"ĠÐ²ÑģÐµÐ¼Ð¸":8023,"ĠÐ²ÐºÐ¿":8024,"ĠÑĤÑĢÐ°Ð³":8025,"ĠÐ¾Ð¿ÑĥÐ±Ð»Ð¸ÐºÐ¾Ð²Ð°Ð»":8026,"Ð²ÐµÑĢÑģ":8027,"Ð¾Ð²Ð¸ÑĩÐ°":8028,"ĠÐ·Ð´Ð°Ð½Ð¸Ð¹":8029,"81":8030,"ĠÐºÐ¾Ð¼Ð°Ð½Ð´Ð¾Ð²Ð°Ð½Ð¸Ñı":8031,"ÑĥÐ½ÑĮ":8032,"Ð¿ÑĢÐ¸Ðº":8033,"ĠÐ´Ð¶ÐµÐ¹":8034,"ĠÐ¿Ð¾ÑħÐ¾ÑĢÐ¾Ð½":8035,"ĠÐ¿ÑĢÐ¾Ð³ÑĢÐ°Ð¼Ð¼Ð°":8036,"ĠÑģÑĤÐ²":8037,"Ð°ÐºÐ¾Ð²Ð°":8038,"ĠÐµÐ³Ð¸Ð¿ÐµÑĤ":8039,"ĠÐ·Ð°Ð¿Ð°Ð´Ñĥ":8040,"Ð¸Ð½Ð°Ð¼Ð¸":8041,"ĠÐ¼Ð¸Ð½Ð¸ÑģÑĤÑĢ":8042,"95":8043,"ĠÐ¸ÑģÑģÐ»ÐµÐ´Ð¾Ð²Ð°ÑĤÐµÐ»ÑĮ":8044,"ÑĤÐ¾ÑĢÐµ":8045,"Ð»ÑıÐ»Ð¸":8046,"Ð¸Ð²ÑĪÐ¸ÐµÑģÑı":8047,"ĠÐ¾ÑģÑĤÐ°Ð²Ð°Ð»ÑģÑı":8048,"ÑģÑĤÐ²Ð°Ð¼Ð¸":8049,"ĠÑģÐ±Ð¾ÑĢÐ½Ð°Ñı":8050,"ĠÐ¸Ð·Ð²ÐµÑģÑĤÐ½Ð¾ÑģÑĤÑĮ":8051,"ĠÐ¾Ð´ÐµÑģÑģ":8052,"ĠÐ½Ð°ÑĩÐ°Ð»Ð¸ÑģÑĮ":8053,"ĠÐ¾ÑĢÐ´ÐµÐ½Ð°Ð¼Ð¸":8054,"ÑĢÐµÑģÑģÐ¸Ð²":8055,"Ð±ÑĭÐ»Ð¾":8056,"ĠÐ¾Ð±ÑģÑĥÐ¶Ð´":8057,"ĠÐ³Ð°Ð·Ð°":8058,"ĠÐ¿ÑĢÐ¸Ð²Ð»ÐµÑĩ":8059,"pr":8060,"âĢĵ":8061,"ĠÐ¿ÑĢÐ¸ÑĩÐ¸Ð½Ð¾Ð¹":8062,"ĠÐ¿ÑĢÐ¸ÐµÑħ":8063,"ĠÐ´ÐµÐ»ÐµÐ³":8064,"ĠÐ°Ð²ÑĤÐ¾Ð´Ð¾ÑĢÐ¾Ð³":8065,"Ð°Ð½Ð¸ÑıÐ¼":8066,"ĠÐ¿Ð¾ÐºÐ»Ð¾Ð½":8067,"ĠÐ³Ð°ÑĢÐ½Ð¸Ð·":8068,"az":8069,"ĠÐ½Ð°ÑĩÐ°Ð»Ñĥ":8070,"ĠÑģÐµÐºÑĢÐµÑĤÐ°ÑĢÑĮ":8071,"ĠÑĥÑī":8072,"ĠÐ¿Ð¸ÑģÐ°ÑĤÐµÐ»Ñı":8073,"ĠÐ³Ð²Ð°ÑĢÐ´ÐµÐ¹ÑģÐºÐ¾Ð¹":8074,"Ð¾Ð»ÑĮÑģÐºÐ¸Ð¹":8075,"ĠÐ·Ð°Ð¿ÑĥÑģÐº":8076,"ĠÐ¸ÑģÐ¿Ð¾Ð»ÑĮÐ·Ð¾Ð²Ð°Ð½Ð¸ÐµÐ¼":8077,"Ð¸ÑĢÐ¾Ð²Ð°Ð½Ð½Ð°Ñı":8078,"Ð¸Ð½ÐµÐ¹":8079,"ĠÐ°Ð½Ð°":8080,"1945":8081,"ÑģÐºÑĥ":8082,"ĠÐ¶Ð°Ð»":8083,"int":8084,"ĠÐºÐ¾Ð½ÑģÑĤÑĢÑĥÐºÑĨÐ¸Ð¸":8085,"Ð½Ð°ÑĩÐ¸Ð½Ð°Ñı":8086,"ÑĪÑĥ":8087,"Ð¾Ð´Ð½Ð¸Ð¼":8088,"ĠÐ³Ð¾ÑģÑĥÐ´Ð°ÑĢÑģÑĤÐ²ÐµÐ½Ð½Ð¾Ð¼":8089,"ÐµÐ½Ð³":8090,"ĠÐ¿ÑĢÐ¸ÑĩÐ¸Ð½Ðµ":8091,"ĠÐ´Ð¸ÑĢÐ¸Ð¶":8092,"ĠÐ¾ÐºÐ°Ð·Ð°Ð»Ð°ÑģÑĮ":8093,"ÑģÐ°Ð»":8094,"ĠÑĦÐ°Ð½":8095,"ÑĥÐ¼ÐµÐ½ÑĤ":8096,"ĠÑĦÐ¾ÑĢÐ¼Ð¸ÑĢÐ¾Ð²Ð°Ð½Ð¸Ñı":8097,"ĠÐ½Ð°Ð¸Ð±Ð¾Ð»ÑĮÑĪ":8098,"ĠÐ¿Ð¾Ð´Ð°ÑĢ":8099,"ÑģÑĤÐ²ÐµÐ½Ð½ÑĭÐ¼":8100,"ĠÐ¾ÑģÑĤÐ°ÑĳÑĤÑģÑı":8101,"ĠÐ³ÐµÑĢÑĨÐ¾Ð³Ð°":8102,"ĠÐ´ÑĢÑĥÐ³Ð¾Ð³Ð¾":8103,"ĠÐºÑĢÐ¸Ð²":8104,"ĠÐ¿Ð¾Ð²ÐµÐ´":8105,"Ð±ÑĭÐ»Ð°":8106,"ĠÑĤÐµÑħÐ½Ð¸Ðº":8107,"Ð°Ñį":8108,"ĠÐºÐ½Ð¸Ð¶":8109,"ÑĥÑĩÐ¸Ð»ÑģÑı":8110,"ÐµÑģÐ»Ð°Ð²":8111,"ĠÑĤÑıÐ¶ÐµÐ»":8112,"ĠÐºÐ¾Ð¼Ð½":8113,"ĠÑģÐµÐ²ÐµÑĢÐ½ÑĭÐ¹":8114,"ĠÑģÐ°Ð¹ÑĤÐµ":8115,"Ð±Ð»Ð¸Ð·Ð¸":8116,"2006":8117,"ĠÐ¿Ð¾ÑĢÑıÐ´ÐºÐµ":8118,"ĠÐµÑīÐµ":8119,"ho":8120,"Ð¾Ð³ÑĢÐ°ÑĦÐ¸Ñı":8121,"ĠÐ¿Ð¾Ð»Ð¸ÑĨÐµÐ¹":8122,"ĠÐ²ÑĭÐ¿ÑĥÑģÐºÐ°":8123,"ĠÐ±Ð¾Ð³Ð°":8124,"Ð¾Ð½Ð¾":8125,"ĠÐ»Ð¸ÑĨÐµÐ½Ð·":8126,"ÑĤÐ°ÑĢ":8127,"ĠÑĦÑĢÐ°Ð½Ðº":8128,"ĠÐµÐ¿Ð¸ÑģÐºÐ¾Ð¿Ð°":8129,"ĠÐ°Ð²ÑģÑĤÑĢÐ¸Ð¸":8130,"ÑģÐºÐ¾Ð½ÑĩÐ°Ð»ÑģÑı":8131,"ĠÐ³Ð¸Ð¿Ð¾ÑĤ":8132,"ÑĢÐµÐµ":8133,"Ð°ÑģÐ¾Ð²":8134,"ĠÑĦÑĢÐ°Ðº":8135,"ĠÑģÐ¸Ð½ÑĤÐµÐ·":8136,"ĠÑģÑĤÐ¾Ð»Ð¸ÑĨÑĭ":8137,"ide":8138,"ĠÐºÑĥÑģÑĤ":8139,"ĠÐ²Ð·Ð²Ð¾Ð´":8140,"ÑģÑĤÑĢÐ°Ð½":8141,"Ð¸Ð²ÑĪÐµÐ¹":8142,"ĠÐ¿Ð¾Ð³ÑĢÐ°Ð½Ð¸Ñĩ":8143,"ĠÑĤÑĢÐµÑĤÑĮÐµÐ¹":8144,"ĠÐ±ÐµÑĢÐ½":8145,"ÑĢÐ¸ÑĦ":8146,"ĠÐ´ÐµÐ¿ÑĥÑĤÐ°ÑĤ":8147,"ĠÐºÐ»Ð°":8148,"ĠÐ¿Ð¾Ð³Ð¸Ð±Ð»Ð¸":8149,"ĠÐ²Ð¾Ð»Ð¾Ñģ":8150,"ĠÑıÐ·ÑĭÐºÐ¸":8151,"ĠÐ¾ÑĤÐ½Ð¾ÑĪÐµÐ½Ð¸Ñİ":8152,"ĠÐ½Ð¸Ð¶Ð½ÐµÐ¹":8153,"ĠÐµÐ´Ð¸Ð½Ð¸ÑĨ":8154,"Ġmus":8155,"Ð¸ÑģÐ¿Ð¾Ð»":8156,"ĠÐ¾Ð±ÑĢÐ°ÑĤÐ½Ð¾":8157,"Ð½Ð°Ð³ÑĢÐ°Ð¶Ð´":8158,"ue":8159,"Ð¼ÐµÐ½Ð°":8160,"ĠÐ¿ÐµÑĢÐ²Ð¾Ð½Ð°Ñĩ":8161,"ĠÐ¸Ð·Ð¾Ð±ÑĢÐ°Ð¶ÐµÐ½Ð¸Ñı":8162,"ĠÐ³Ð¾Ð¼ÐµÐ»ÑĮ":8163,"ĠÑģÑĤÐ¾Ð»ÑĮ":8164,"ĠÑģÐ»ÐµÐ´ÑĥÑİÑīÐ¸Ñħ":8165,"Ð¿Ð¾ÑģÐ»ÐµÐ´Ð½Ð¸Ð¹":8166,"ĠÐ¼Ð¾Ð½Ð³Ð¾Ð»":8167,"ĠÐºÐ¸ÑĢÐ¿":8168,"ÑĢÐ°Ð±Ð°ÑĤÑĭÐ²":8169,"ĠÐ¸Ð·Ð½Ð°ÑĩÐ°Ð»ÑĮÐ½Ð¾":8170,"ĠÐ¾Ð¾Ð½":8171,"\";":8172,"ĠÐ¿ÑĢÐµÑĤ":8173,"ĠÐ¸ÑģÐ¿Ð¾Ð»ÑĮÐ·ÑĥÐµÑĤ":8174,"ĠÐ¼Ð°ÑĢÑĪÑĢÑĥÑĤ":8175,"ÑģÑĥÐ»":8176,"Ġ47":8177,"ĠÑįÑģÑĤÐ¾Ð½":8178,"ĠÐ±Ð¾Ð³Ð¾ÑĢÐ¾Ð´":8179,"ÑģÑĤÐ¾Ð½":8180,"ĠÑģÑĥÐ±ÑĬ":8181,"ĠÐ½Ð°Ð¼ÐµÑĢ":8182,"ĠÐ¿Ð¾ÑģÑĤÑĢÐ°Ð´":8183,"ĠÐ°ÑĢÐ¼ÐµÐ½Ð¸Ð¸":8184,"ĠÐ½Ð°Ð´ÐµÐ»":8185,"ĠÐµÐ»Ð¸Ð·":8186,"Ð±Ñİ":8187,"ĠÑĢÐ°ÑģÑĤÐ²Ð¾ÑĢ":8188,"ĠÐ¿ÐµÑĢÐ¼":8189,"Ð³Ð»Ð°Ð²Ð½ÑĭÐ¹":8190,"ĠÑĩÐ¸ÑģÐ»ÐµÐ½Ð½Ð¾ÑģÑĤÐ¸":8191,"ĠÐ²Ð»Ð°Ð´Ð¸Ð¼Ð¸ÑĢÐ¾Ð²":8192,"ĠÐ·Ð°Ð´Ð°ÑĩÐ¸":8193,"ĠÐ¼Ð¾Ð½ÑĤ":8194,"Ð°Ð»ÑĮÑĤ":8195,"Ð°ÐµÐ¼ÑĭÐ¹":8196,"ÐµÑħÐ°Ð½":8197,"ĠÑįÐºÑģÑĤ":8198,"ĠÐ¸Ð½Ð´ÐµÐ¹":8199,"ÑģÐµÐ·":8200,"Ð´Ð¸Ð½Ð°Ð¼Ð¸ÐºÐ°":8201,"ĠÐ¿ÑĢÐµÐ±ÑĭÐ²":8202,"ĠÐ¾ÑĤÐºÑĢÑĭÑĤÐ°":8203,"ĠÐ¿Ð¾Ð´Ð½Ð¸Ð¼":8204,"ĠÑģÐ±Ð¾ÑĢÐ½Ð¸Ðº":8205,"ows":8206,"ÑģÐµÐ³":8207,"ĠÑģÐ¾ÑģÑĤÐ¾ÑıÐ½Ð¸Ñı":8208,"Ġ1909":8209,"ire":8210,"Ð»ÑıÑĨÐ¸Ð¸":8211,"ĠÑģÐµÐ²ÐµÑĢÐ°":8212,"ĠÐ¿Ð¾Ð²Ð¾Ð´Ñĥ":8213,"ĠÐºÐ¾ÑĢÐ¾Ð»ÑĳÐ¼":8214,"Ð¸Ð·Ð¼Ð¾Ð¼":8215,"ĠÐºÐµÑĢ":8216,"ĠÑĥÐ´ÐµÐ»":8217,"ĠÐ½ÐµÐ¾Ð¶Ð¸Ð´":8218,"ÑĢÑıÑģ":8219,"ĠÑĤÑĥÑĢÐ°":8220,"ĠÐ¸Ð½Ð²ÐµÑģÑĤ":8221,"ĠÑģÐ¸ÑĤÑĥÐ°ÑĨÐ¸Ð¸":8222,"Ð¿Ð¾Ð»Ð½Ðµ":8223,"Ð°Ñİ":8224,"Ð°Ð½Ð½Ð¾Ðµ":8225,"Ð¸ÑĢÑĥÑĢÐ³":8226,"ĠÑĢÑĥÐºÐ¾Ð²Ð¾Ð´Ð¸ÑĤÐµÐ»ÑĮ":8227,"ĠÐ¾ÑģÑĤÐ°Ð²Ð¸Ð»":8228,"ĠÐ²Ð¾Ð¿ÑĢÐ¾ÑģÑĭ":8229,"ĠÐ¿Ð¸ÑģÑĮÐ¼Ð¾":8230,"Ġxiv":8231,"ĠÐºÐ°ÑĦÐµÐ´ÑĢÑĭ":8232,"ÐµÐºÑĤÐ¾ÑĢ":8233,"ĠÐ±ÐµÑĢÐµÐ³Ð°":8234,"ĠÑģÑĤÐ°ÑĤÑĮÐµ":8235,"ĠÐ²ÑĭÑıÐ²":8236,"ĠÐ²ÑĭÐ»ÐµÑĤ":8237,"ĠÑĥÐ´Ð¾Ð²Ð»ÐµÑĤÐ²Ð¾ÑĢ":8238,"ĠÐ²ÑĭÑģÐ¾ÐºÐ¾Ð³Ð¾":8239,"ÑĨÐ¸ÐºÐ»Ð¾Ð¿":8240,"Ð°ÐºÐ¸Ð¸":8241,"ĠÑĤÐ°ÐºÑĤ":8242,"ĠÐ´ÐµÐ½ÐµÐ¶":8243,"ĠÐ¿Ð¾Ð±ÐµÑĢÐµÐ¶ÑĮÑı":8244,"Ð¸ÑĩÐ½ÑĭÐ¼":8245,"ĠÐ²Ð¾Ð·Ð»Ðµ":8246,"ĠÑĤÑĢÐµÐ¼Ñı":8247,"ĠÐ²Ð¾Ð´Ñĥ":8248,"ĠÑĤÐµÐº":8249,"ĠÑĥÐºÑĢÐ°Ð¸Ð½ÑģÐºÐ¾Ð³Ð¾":8250,"ĠÐ¿Ð¾ÑĢÑĤÑĥÐ³Ð°Ð»ÑĮ":8251,"ÑĥÑģÐ°Ð»":8252,"ĠÑĤÑĢÐ¸Ð±":8253,"Ð½Ð¸ÐºÐ¾Ð²Ð°":8254,"Ð»ÐµÑĤÐ½Ð¸Ð¹":8255,"ĠÑĢÐ¾Ð¼Ð°Ð½Ð¾Ð²":8256,"ĠÐ½Ð°ÑģÑĤÑĢÐ¾":8257,"ĠÐ±ÑĢÐ¸Ð³Ð°Ð´Ð°":8258,"ĠÐ½ÐµÐ¿":8259,"ĠÑĤÐ¾ÑĢÐ³Ð¾Ð²Ð»Ð¸":8260,"ĠÐ³Ð»Ð°Ð²Ð°":8261,"Ġ1897":8262,"ĠÐ±Ð¾Ð»ÑĮÑĪÐ¸Ð½ÑģÑĤÐ²Ðµ":8263,"ĠÑģÑĥÑĪ":8264,"ĠÐ´ÐµÐ¹ÑģÑĤÐ²ÑĥÐµÑĤ":8265,"ĠÑĩÐ°Ð¹":8266,"Ð°Ð»Ñı":8267,"ĠÐ¾ÑĤÐºÑĢÑĭÑĤÐ¸Ñı":8268,"ĠÐ¼Ð¾ÑĤÐ¾ÑĢ":8269,"ĠÑĤÐµÑĢÑĢÐ¸ÑĤÐ¾ÑĢÐ¸":8270,"Ð»Ð°Ð·Ð°":8271,"Ð½Ð¾Ð²Ð¸Ð´":8272,"ĠÐºÑĢÐµÐ´":8273,"ĠÑĤÐ¸Ð±":8274,"ĠÑįÐ½ÐµÑĢÐ³ÐµÑĤ":8275,"Ð¾ÑĤÐ²ÐµÑĤ":8276,"ĠÐºÐ¾Ð¾ÑĢÐ´Ð¸Ð½":8277,"ĠÐ±Ð¸ÑĤÐ²Ñĭ":8278,"ĠÑħÐ¾ÐºÐºÐµ":8279,"ĠÐ¸Ð¾ÑģÐ¸ÑĦ":8280,"ĠÑĦÐ¸Ð½Ð°Ð»":8281,"ĠÑģÐ¾Ð´ÐµÑĢÐ¶Ð°Ñī":8282,"ÑħÐ°ÑĢ":8283,"ĠÑĥÑģÑĤÐ¾Ð¹ÑĩÐ¸Ð²":8284,"ÑĢÐµÐºÑĤ":8285,"Ð»ÑĳÐ½":8286,"ĠÐ¾ÑĤÐºÑĥÐ´Ð°":8287,"Ð²Ð¾ÑģÑĤÐ¾Ðº":8288,"ĠÑģÑħÐµÐ¼":8289,"ÑģÐ¿ÐµÑĨÐ¸":8290,"ong":8291,"ĠÑĢÐ°ÑģÐ¿ÑĢÐ¾ÑģÑĤÑĢÐ°Ð½ÐµÐ½Ð¸Ðµ":8292,"ÐºÐ¸Ð½Ð¾":8293,"ĠÑĥÑģÑĤÐ°Ð²":8294,"ĠÐ²ÑĭÑģÐ¾ÐºÐ¾":8295,"Ð»Ð°Ð³Ð°":8296,"ĠÑģÐµÐ¼Ñĳ":8297,"ĠÑģÐ»Ð¾Ð¶Ð½Ð¾ÑģÑĤÐ¸":8298,"ÑģÑĤÐ°Ð½ÑĨÐ¸Ñı":8299,"Ð¿ÑĢÐµÐ´Ð¿Ð¾Ð»":8300,"Ġvii":8301,"ĠÐ¾ÑĤÐ´ÐµÐ»ÑĮÐ½ÑĭÐµ":8302,"ÑĤÐ¾Ð½Ð°":8303,"ĠÑģÐ°Ð¼Ð°":8304,"ĠÐ½Ð¾Ð²Ð¾ÑģÐ¸Ð±Ð¸ÑĢ":8305,"ĠÐ¿ÑĥÐ»ÐµÐ¼ÑĳÑĤ":8306,"ĠÑģÑĤÐµÐ½Ñĭ":8307,"ĠÑĢÑıÐ´Ðµ":8308,"ĠÐ¿ÑĥÐ±Ð»Ð¸ÐºÐ°":8309,"Ð¸ÑģÑĤÐ°Ð¼Ð¸":8310,"ÑĥÑīÐ¸Ð¹":8311,"ĠÐ²ÑĭÑģÐ¾ÑĤÐ¾Ð¹":8312,"ĠÐºÐ¾Ð½ÐºÑĥÑĢÑģÐ°":8313,"ĠÐ¿Ð¾Ð»ÐµÐ·":8314,"ĠÐ°Ð²ÑĤÐ¾ÑĢÐ¾Ð²":8315,"ĠÐ´Ð¾ÑģÑĤÐ¸Ð¶ÐµÐ½Ð¸Ñı":8316,"ĠÐ½Ð°Ð±Ð¾ÑĢ":8317,"ĠÑģÑĥÐ¼ÐµÐ»":8318,"ĠÑĢÐ°Ð·Ð´":8319,"ĠÐ¾Ð´Ð½Ð¾Ð¼Ñĥ":8320,"ĠÑĥÑģÐ»ÑĥÐ³":8321,"ĠÐºÐ¸Ð½ÐµÐ¼Ð°ÑĤ":8322,"Ġ56":8323,"ĠÐ²Ð¾Ð´Ðµ":8324,"ĠÑĤÑĥÑĤ":8325,"ĠÑĢÐ¸ÑģÐº":8326,"ĠÐ±Ð¸Ð±":8327,"ĠÐ¿ÑĢÐ¾ÑħÐ¾Ð´ÑıÑĤ":8328,"Ġso":8329,"ÑıÑĤÐ°":8330,"ÑĭÑĢ":8331,"ĠÑĩÐµÐ»Ð¾Ð²ÐµÐºÐ¾Ð¼":8332,"ĠÑĦÐ¸Ð½Ð°Ð»Ð°":8333,"Ð¸Ð½ÑģÐºÐ¸Ðµ":8334,"ÐºÐ°Ð»ÑĮ":8335,"Ð±ÑĢÑĮ":8336,"ĠÐ¿ÑĢÐ°Ð²Ð¸Ð»ÑĮ":8337,"ĠÐ½ÐµÐ¹ÑĤ":8338,"Ð½ÐµÐ½Ð¸Ðµ":8339,"ĠÐ¸Ð·ÑĢÐ°Ð¸Ð»Ñı":8340,"ĠÑģÑĥÑīÐµÑģÑĤÐ²ÑĥÑİÑĤ":8341,"ĠÐ·Ð°Ð¼Ð¾Ðº":8342,"Ð¼Ð¾ÑģÐºÐ²Ð°":8343,"Ġ250":8344,"Ġan":8345,"Ð¾Ð±ÑīÐ°Ñı":8346,"ĠÑĥÑģÑĤÑĢÐ¾Ð¹ÑģÑĤÐ²Ð°":8347,"Ð¾ÑĩÐµÐº":8348,"ĠÐ´Ð²Ð¾ÑĢÐ°":8349,"ĠÑģÐ»ÑĥÑĩÐ°ÐµÐ²":8350,"ĠÐ¿ÐµÐ»":8351,"Ð°Ð´ÑĨÐ°ÑĤÑĮ":8352,"ĠÑģÐ¾Ð¾Ð±ÑīÐµÐ½Ð¸Ñı":8353,"ĠÐ¿ÑĢÐ¾Ð¼ÐµÐ¶":8354,"les":8355,"ĠÐºÑĥÐº":8356,"Ð¿Ð¾ÐºÐ°Ð·":8357,"are":8358,"Ġxii":8359,"ĠÐ¸Ð·Ð²":8360,"Ð´ÐµÐ±":8361,"Ġop":8362,"Ð·ÐµÐ»Ñĳ":8363,"ĠÐ¸Ð·Ð»ÑĥÑĩ":8364,"Ð¸ÑĤÐ¼":8365,"ber":8366,"ĠÐºÐ¾Ð¼Ð¼ÐµÐ½ÑĤ":8367,"ÑĢÐ°Ð´Ð¸":8368,"ÐºÐ»ÑĥÐ±":8369,"Ð°Ð¿Ð°Ð·":8370,"ĠÐ»ÑĥÑĩÑĪÐµ":8371,"ĠÑĤÑĥÑĢÑĨÐ¸Ð¸":8372,"ĠÐ¸ÑģÑĤÐ¾ÑĢÐ¸Ðº":8373,"ĠÐ²Ð°Ð»ÐµÐ½ÑĤ":8374,"Ð°Ð²ÑĪÐ¸ÑģÑĮ":8375,"ĠÑģÑĤÐ°ÑĤÑĥÑģÐ¾Ð¼":8376,"Ð¿Ð°ÑĢÐ°ÑĤÐ°":8377,"ĠÑĥÑĩÑĢÐµÐ´":8378,"Ð¼ÑįÑĢ":8379,"Ð»ÑıÑħ":8380,"Ð¸ÑĦÐ¸ÑĨ":8381,"ĠÐ²ÐµÑĢÑĤÐ¸Ðº":8382,"ĠÐ¿ÑģÐºÐ¾Ð²ÑģÐºÐ¾Ð¹":8383,"ÑĢÑĥÐ³Ð¾Ðµ":8384,"ĠÐ°ÑĢÐ¼ÐµÐ¹":8385,"ĠÐºÐ¾Ð¼Ð¿Ð¾Ð·Ð¸ÑĤÐ¾ÑĢ":8386,"ĠÑģÐ²Ð¾ÐµÐ¼":8387,"ĠÐ»Ð°Ð½Ð´":8388,"ĠÑĤÐµÐ½Ð½Ð¸Ñģ":8389,"ĠÑĦÑĥÐ½Ð´Ð°Ð¼":8390,"Ġair":8391,"ĠÑĥÑĩÐ°ÑģÑĤÐ²Ð¾Ð²Ð°Ð»Ð¸":8392,"ĠÐ»ÑİÐ±Ð²Ð¸":8393,"ĠÐ±ÐµÑģÐº":8394,"ĠÑģÑĢÐµÐ´Ð½ÑıÑı":8395,"ĠÐ·Ð°Ð½ÑıÐ²":8396,"Ð¼Ð°Ð³":8397,"ÑĨÐµÐ½ÑĤÑĢÐ°Ð»ÑĮ":8398,"ÑĢÐ¾Ð¶":8399,"Ð¸ÑĢÐ¾Ð¼":8400,"ĠÑģÐ°Ð½ÑĤ":8401,"ĠÑĤÑĢÐµÐ½ÐµÑĢÐ°":8402,"ĠÐ¼Ð»Ð°Ð´ÑĪÐ¸Ð¹":8403,"ÑĢÐ°Ð·Ð´Ð¾":8404,"ĠÐ¿ÑĭÑĤÐ°ÐµÑĤÑģÑı":8405,"Ð±Ð¾Ð»ÑĮÑĪÐ°Ñı":8406,"Ð»Ð¾Ð³Ð¾":8407,"ÑĥÐ½Ð³":8408,"ĠÐ»Ð¾Ð¼":8409,"Ġ600":8410,"ĠÐ°ÐºÑĤÐ¸Ð²Ð½ÑĭÑħ":8411,"ĠÐ¿Ð¾Ð±ÐµÐ´Ð¸Ð»":8412,"ĠÑģÑĥÑīÐµÑģÑĤÐ²ÐµÐ½":8413,"ĠÑģÑĤÑĢÐ°Ñħ":8414,"ĠÐ¸Ð·Ð²ÐµÑģÑĤÐ½ÑĭÐ¼":8415,"ĠÑģÑĭÐ½Ð¾Ð²ÐµÐ¹":8416,"ĠÐ´Ð¾ÑĢÐ¾Ð¶":8417,"2007":8418,"ĠÐ´Ð¸ÑģÑĤÐ°Ð½ÑĨÐ¸Ð¸":8419,"ĠÐ±ÐµÑĤ":8420,"ÑĢÐ¾Ð¿Ð¾Ð»Ð¸ÑĤ":8421,"ĠÐ¾ÑĤÑħÐ¾Ð´":8422,"ĠÐ½Ð°Ð»Ð¸ÑĩÐ¸Ðµ":8423,"Ð°Ð½ÑģÐºÐ°Ñı":8424,"ĠÐ¿ÑĢÐµÐ¾Ð´Ð¾Ð»":8425,"ĠÑħÐ¾Ð·Ñı":8426,"ĠÐ½Ð°ÑĨÐ¸Ð¾Ð½Ð°Ð»ÑĮÐ½ÑĭÑħ":8427,"ĠÐ¿ÐµÑĢÑģÐ¿ÐµÐºÑĤÐ¸Ð²":8428,"Ð³ÐµÑĢÐ±":8429,"Ð¸Ð¼Ð¾Ð¼":8430,"ĠÑĢÐºÐºÐ°":8431,"ÑİÑĪ":8432,"ĠÐ½Ð°ÑĨ":8433,"Ġex":8434,"ĠÐ¿ÑĢÐ¾Ð¿Ð°Ð³Ð°Ð½Ð´":8435,"ĠÐ¾Ð±ÑīÐµ":8436,"Ġinter":8437,"Ð°ÑĢÐ°ÐºÑĤÐµÑĢ":8438,"ĠÐºÐ¾ÑĢÐ¼":8439,"Ġ46":8440,"ĠÐ½Ð°ÐºÐ¾Ð½ÐµÑĨ":8441,"ĠÐ¾ÑĤÐ´Ð°Ð»":8442,"ĠÐ¼Ð¾ÑģÑĤÐ°":8443,"Ð¸Ð½Ñı":8444,"ĠÐ´ÐµÐ»Ð°Ð¼":8445,"Ð½ÑĥÐ»Ð°ÑģÑĮ":8446,"ĠÐºÐ°ÑĢÑĮÐµÑĢÐµ":8447,"ÑĨÐ¸ÐºÐ»Ð¾Ð¿ÐµÐ´":8448,"ĠÐ²Ð¾ÑģÐµÐ¼ÑĮ":8449,"ĠÐ¾Ð±Ð¾Ð¸Ñħ":8450,"ĠÐ¸Ð·Ð±ÐµÐ¶":8451,"ĠÐºÐ°ÑĩÐµÑģÑĤÐ²Ð°":8452,"ĠÎ":8453,"ĠÑģÐµÐºÑĥÐ½Ð´":8454,"ĠÐ¸ÑĢÐ»Ð°Ð½Ð´Ð¸Ð¸":8455,"ĠÐ½Ð°Ð¿Ð°Ð´Ð°ÑİÑī":8456,"ĠÑģÐ°Ð¼Ð¸":8457,"ÑħÐ¾Ð·Ð°":8458,"Ð¿ÑĥÑģÑĤ":8459,"ÐºÐ¸ÑĤ":8460,"ĠÑĤÑİÑĢ":8461,"ĠÐ°Ð´Ð°":8462,"Ð¸ÑĤÐ¸Ð²":8463,"ĠÐ¾ÑģÐº":8464,"ĠÐ²ÑĳÐ»":8465,"Ð¾Ð³Ð°":8466,"ÐµÐ·Ð¸Ñı":8467,"ĠÑģÐ¾ÑĢÐµÐ²Ð½Ð¾Ð²Ð°Ð½":8468,"ĠÐ±ÐµÐ·ÑĢÐ°Ð±Ð¾ÑĤ":8469,"ĠÐ²Ð¾ÑĤ":8470,"Ð¸ÑĢÐ¾Ð²ÐºÐ°":8471,"ĠÐ¿Ð¾Ð´Ð·ÐµÐ¼":8472,"ÑĩÐ°ÑģÑĤÑĮ":8473,"ĠÐ´Ð¾Ð³Ð¾Ð²Ð¾ÑĢÐ°":8474,"ĠÐ¾ÑĤÐ·ÑĭÐ²":8475,"ĠÐ·Ð¾Ð½":8476,"Ġma":8477,"ĠÐ¿ÑĢÐ¾ÑħÐ¾Ð´Ð¸Ð»Ð¸":8478,"ĠÐ½Ð¾ÑĢÐ²ÐµÐ³":8479,"ĠÐºÑĢÐ°ÑģÐ½ÑĥÑİ":8480,"Ġ1890":8481,"ĠÐ²ÑĮÐµÑĤÐ½Ð°Ð¼":8482,"ÑģÐµÐ¹ÑĩÐ°Ñģ":8483,"ĠÐµÐ»Ð¸Ð·Ð°Ð²":8484,"bc":8485,"Ð¸ÑĢÐ°Ð½":8486,"ĠÐ¿ÑĢÐ¸Ð±Ð»Ð¸Ð¶":8487,"ĠÐ¿ÑĢÐµÐºÑĢÐ°Ñģ":8488,"ĠÑģÐ¼Ð¾Ð³Ð»Ð¸":8489,"ĠÐ¿Ð¾Ð´Ð¾Ð·":8490,"ĠÐ¿Ð¾Ð¶Ð°ÑĢ":8491,"ĠÐ³ÐµÐ¹":8492,"ĠÐ¾Ð±ÑīÐ¸Ð½Ñĥ":8493,"ĠÐ¿ÐµÐ½ÑģÐ¸Ð¾Ð½":8494,"Ð¾ÑĤÐ¾":8495,"ÑİÑīÐ¸Ð¼":8496,"2012":8497,"ÑĢÐµÐ²Ð¾Ð»Ñİ":8498,"Ð°Ð·Ñĭ":8499,"ĠÐ½Ð°Ð´Ð¿Ð¸ÑģÑĮ":8500,"Ð°ÑĤÐ¾ÑĢÑĭ":8501,"ĠÑĢÐ¸Ð¼ÑģÐºÐ¾Ð¹":8502,"ĠÑĤÐµÐ¾ÑĢ":8503,"ĠÑĤÐ°Ð±Ð»Ð¸":8504,"Ð²Ð¸Ðº":8505,"ĠÐ¿ÐµÐ¹":8506,"ÐµÐ²Ð°Ñı":8507,"Ð¾ÑĢÐ°ÑĩÐ¸Ð²":8508,"ĠÐ¶ÑĳÑģÑĤ":8509,"Ð¾Ð²Ð°Ð»Ð°ÑģÑĮ":8510,"ĠÑĢÐ°ÑĥÐ½Ð´Ðµ":8511,"xv":8512,"ÐµÐ´ÑĢ":8513,"ĠÐ¾Ð±ÐµÑī":8514,"ĠÑĢÐµÐ·Ð¸Ð´":8515,"ĠÐ¿ÑĢÐµÐ´ÑģÑĤÐ°Ð²Ð»ÐµÐ½Ð°":8516,"ĠÐ°ÑĢÑĤÐ¸Ð»Ð»ÐµÑĢÐ¸Ð¸":8517,"Ġgam":8518,"ĠÐ·Ð°Ð²Ð¸ÑģÐ¸ÑĤ":8519,"Ð¾ÐºÐ¾Ð¼Ð¾ÑĤÐ¸Ð²":8520,"ĠÐºÑĢÐ°ÑģÐ½Ð¾ÑıÑĢ":8521,"ĠÑģÑĢÐµÐ´Ñĭ":8522,"Ð¸Ð½ÑĤÐµÑĢÐµÑģ":8523,"ĠÐ¼ÑİÐ½":8524,"Ð¾ÐºÐ¾Ð»ÑĮ":8525,"ĠÑģÐ¿ÑĢ":8526,"ÑĩÐµÐ¹":8527,"ĠÐ´ÐµÐ»ÐµÐ½Ð¸Ñİ":8528,"ĠÐ²ÑĭÐ´ÐµÑĢÐ¶":8529,"ĠÐ¿Ð¾Ð»ÑĮÑģÐºÐ¾Ð³Ð¾":8530,"ĠÑģÑĤÐ°ÑĢÑĪÐµÐ³Ð¾":8531,"ĠÐµÐ´Ð¸Ð½Ð¸ÑĨÐ°":8532,"ÑĢÐ°ÑģÐ¿Ð¾Ð»Ð¾Ð¶ÐµÐ½":8533,"ĠÐ°ÑĤÐ°ÐºÐ¸":8534,"ÑĥÑĪÐºÐ¸":8535,"ĠÐ¿ÑĢÐ¾ÑĦÐµÑģÑģÐ¾ÑĢÐ¾Ð¼":8536,"Ð°Ð´Ð°ÐµÑĤ":8537,"Ð¼ÐµÐ»ÑĮÐ½Ð¸ÑĨ":8538,"ork":8539,"ĠÐ¿ÑĢÐ¾Ð²Ð¸Ð½ÑĨÐ¸Ñİ":8540,"ĠÑĥÑģÑĤÐ°Ð½Ð¾Ð²ÐºÐ¸":8541,"ĠÐ±Ð°Ñħ":8542,"ĠÑģÑĦÐµÑĢÐµ":8543,"ÑĪÐµÑĢ":8544,"ĠÐ¼ÑĥÐ½Ð¸ÑĨÐ¸Ð¿Ð°Ð»ÑĮÐ½ÑĭÑħ":8545,"ĠÑĢÐ¸Ð¼Ðµ":8546,"ĠÐ¿Ð¾Ð´Ð²":8547,"ĠÐ¿ÑĢÐµÐµÐ¼":8548,"ĠÐ²ÐµÑīÐµÑģÑĤÐ²":8549,"ĠÑĨÐ¸ÑĦÑĢÐ¾Ð²":8550,"ÑĦÐµÐºÑĤ":8551,"ÑĥÑīÐµÐ½":8552,"ĠÐ¿ÐµÑĢÐµÑģÐµÑĩ":8553,"Ð¾ÑĤÐ»Ð¸Ñĩ":8554,"ĠÐ¾ÑĢÐ±Ð¸ÑĤ":8555,"ĠÐ²ÑģÐ¿Ð¾Ð¼":8556,"ĠÑĢÐ¾ÑĤÑĭ":8557,"ĠÐ½ÑĢÐ°Ð²":8558,"Ð°Ð½Ð½Ð°":8559,"ĠÐ¾ÐºÑģ":8560,"ĠÐ¿ÑĢÐµÐ´ÑģÑĤÐ°Ð²Ð»ÐµÐ½Ð¸Ñı":8561,"Ð¾Ð³ÐµÐ½":8562,"Ð¿ÑĢÐµÐ·Ð¸Ð´ÐµÐ½ÑĤ":8563,"Ð°ÑĢÑĤÐµ":8564,"ĠÐ¾Ð±ÑĬÐµÐºÑĤÐ°":8565,"ug":8566,"ĠÐºÑĢÐµÐ¿Ð¾ÑģÑĤÑĮ":8567,"ĠÐ·Ð´ÑĢÐ°Ð²":8568,"ĠÐ¿ÑĢÐ¾Ð³ÑĢÐ°Ð¼Ð¼Ñĥ":8569,"ĠÐ°Ð»ÑĮÑĤÐµÑĢÐ½Ð°ÑĤÐ¸Ð²":8570,"ĠÐ¿ÑĢÐ¸Ð½ÑıÐ»Ð°":8571,"ĠÐ·Ð°Ð¿Ð¸ÑģÑĮ":8572,"ÑĤÐ¸Ð½":8573,"Ð°ÑĤÐµÐ»ÑĮÐ½ÑĭÐ¼":8574,"Ð¸Ð·Ñĥ":8575,"ĠÐºÐ¾ÑĢÐ¾Ð»ÐµÐ²ÑģÑĤÐ²Ð°":8576,"Ġpla":8577,"ĠÑģÐ¾ÑĨÐ¸Ð°Ð»ÑĮÐ½Ð¾Ð¹":8578,"ĠÐ¿Ð»ÐµÐ¹":8579,"Ġwind":8580,"Ð°ÑĢÑĳÐ¼":8581,"ĠÐ¸Ð½Ð¸ÑĨÐ¸Ð°ÑĤÐ¸Ð²Ðµ":8582,"ĠÐ°Ð¼ÐµÑĢÐ¸ÐºÐ°Ð½ÑģÐºÐ¸Ñħ":8583,"ĠÐºÑĢÐ¸":8584,"Ð°ÑĨ":8585,"ÑīÐµ":8586,"Ð¸Ð½ÑģÑĤ":8587,"ĠÑĥÐ´Ð¾Ð±":8588,"ĠÐ²ÐºÐ»ÑİÑĩÑĳÐ½":8589,"ĠÐ´ÐµÑģÑıÑĤÐ¸":8590,"ĠÑģÑģÑĭÐ»":8591,"ÐºÐ²Ð´":8592,"ĠÐ»Ð¸ÐºÐ²Ð¸Ð´":8593,"ĠÑĥÑģÐºÐ¾ÑĢ":8594,"ĠÐ¿ÑĢÐ¾ÐµÐºÑĤÐ¾Ð²":8595,"ĠÐ»Ð°Ð³ÐµÑĢ":8596,"ĠÐ¿Ð¾ÐºÐ¸Ð½Ñĥ":8597,"ĠÐ¿ÑĢÐµÐ´Ð»Ð¾Ð¶ÐµÐ½Ð¸Ðµ":8598,"ĠÐ°Ð²ÑĤÐ¾Ð¼Ð¾Ð±Ð¸Ð»ÐµÐ¹":8599,"ĠÐ½ÐµÑģÑĤ":8600,"ĠÐ·Ð°ÑīÐ¸ÑĤÐ¸Ð»":8601,"ÐºÐ¾Ð²ÑĭÐµ":8602,"ÑĩÐ¸ÐºÐ°Ð¼Ð¸":8603,"ĠÐ¿Ð¾Ð»ÐºÐ¾Ð²Ð½Ð¸Ðº":8604,"ĠÐ¿ÑĢÐµÐ¸Ð¼ÑĥÑīÐµÑģÑĤÐ²":8605,"ĠÐ°ÑĤÐ»Ð°Ð½ÑĤ":8606,"ĠÐ¾ÑĢÐ»Ð¾Ð²":8607,"ĠÑģÐºÐ¾Ð¿":8608,"ĠÐ´Ð¾ÑģÑĤÐ¾":8609,"her":8610,"ĠÑĨÐµÐ½ÑĤÑĢÐ°Ð»ÑĮÐ½ÑĭÐ¹":8611,"ÑĢÐ°Ð½Ð¾":8612,"ÐµÐ²ÑģÐºÐ¾Ð¹":8613,"ĠÑģÐ½Ð°Ð±Ð¶":8614,"ÑħÐ²Ð°ÑĤ":8615,"ĠÑĤÐ°ÐºÐ¸Ð¼Ð¸":8616,"ĠÐ±Ð°Ð½ÐºÐ°":8617,"ĠÐ¿Ð°ÑĢÐ¸Ð¶Ð°":8618,"ĠÐ¿ÑĢÐ¾ÑģÐ¿ÐµÐºÑĤ":8619,"ĠÑģÐ¶":8620,"Ð¾Ð½Ð³":8621,"ĠÐ½Ð°ÑĩÐ°Ð»ÑģÑı":8622,"Ġ52":8623,"ÐµÐ¹Ð½Ð°":8624,"Ð¾ÑĩÐ½Ð¾Ðµ":8625,"ĠÐ»ÐµÑĤÐ½Ð¸Ñħ":8626,"ĠÐºÐ¸":8627,"ĠÐ±ÑĢÐ°ÐºÐ°":8628,"ĠÐ¸Ð½ÑĤÐµÐ½ÑģÐ¸Ð²":8629,"ĠÐºÐ¾ÑĢÐ°Ð±Ð»Ð¸":8630,"Ð¸ÑĩÐµÑģÑĤÐ²Ð¾":8631,"ĠÐºÐ¾Ð»ÑĥÐ¼Ð±":8632,"ĠÐ²ÑĭÑģÑĪÐµÐ³Ð¾":8633,"ĠÐ³Ð¸Ð»ÑĮ":8634,"Ð¸ÑĢÐ¾Ð²Ð°ÑĤÑĮÑģÑı":8635,"ond":8636,"ĠÑģÑĩÐ¸ÑĤÐ°ÑĤÑĮ":8637,"ĠÑĢÐ°ÑģÐ¿Ð¾Ð»Ð¾Ð¶ÐµÐ½Ð½ÑĭÐ¹":8638,"ĠÐ¼Ð¾ÑģÐºÐ¾Ð²ÑģÐºÐ¾Ð¼":8639,"Ġ41":8640,"ĠÐ¿Ð»ÐµÐ¼ÑıÐ½":8641,"ĠÐ¾Ð±Ð»Ð°Ð´Ð°ÐµÑĤ":8642,"ment":8643,"Ð¸ÑģÐ¾Ð²":8644,"ĠÐ¿Ð¾Ð´ÑĤÐ²ÐµÑĢÐ´":8645,"ĠÐ¾Ð´Ðµ":8646,"Ð¸Ð»Ð¸Ñİ":8647,"ĠÐ½ÐµÑĢÐ²":8648,"ĠÐºÐ¾Ð»ÐµÐ±":8649,"Ð°Ð²Ð°Ð»":8650,"ĠÑģÐ¼Ð¸":8651,"ÑıÐ½Ð¾Ð²":8652,"orld":8653,"Ġxiii":8654,"ex":8655,"ĠÐ¿Ð°ÑĢÐ»Ð°Ð¼ÐµÐ½ÑĤÐ°":8656,"2009":8657,"ĠÑģÐºÐ¾ÑĢÐµÐµ":8658,"ĠÑĤÐ²ÑĳÑĢ":8659,"ĠÑĦÑĢÐ°Ð³":8660,"Ð»Ð¸Ð·Ð°":8661,"ĠÐ½ÐµÐ´ÐµÐ»Ð¸":8662,"Ð°ÐµÐ¼Ð¾Ð¹":8663,"ĠÐ¿Ð°ÑĢÑĭ":8664,"ĠÐ¾ÑĩÐµÐ²Ð¸Ð´":8665,"ÑĢÐµÑħ":8666,"Ð¾ÑĢÐ¾ÑĤ":8667,"ĠÐ¿Ð°ÑĢÑĤÐ¸Ñİ":8668,"96":8669,"ĠÑģÑĥÑīÐµÑģÑĤÐ²ÐµÐ½Ð½Ð¾":8670,"ĠÐ²ÑĭÐ³Ð»Ñı":8671,"Ð»ÐµÐ²Ð¾":8672,"ĠÐ¿Ð¸Ð»Ð¾ÑĤ":8673,"ĠÐ¿Ð¾Ð¹":8674,"ĠÑİÐ¶Ð½Ð¾Ð³Ð¾":8675,"ĠÐºÐ¸ÐµÐ²Ðµ":8676,"ĠÑĨÐ¸ÑĢ":8677,"ĠÑģÐ¿ÐµÑĨÐ¸ÑĦ":8678,"ÑĢÑĥÐµÑĤÑģÑı":8679,"ĠÐ½ÐµÐ´ÐµÐ»Ñİ":8680,"ĠÐ³Ð°Ð·ÐµÑĤÐµ":8681,"ĠÐ´Ð²Ð¾ÑĢÑĨÐ°":8682,"ĠÑĢÑĥÑģÑģÐºÐ¾":8683,".).":8684,"ĠÐºÑĢÐ¸ÑģÑĤÐ°Ð»":8685,"ÑĥÑĤÐ¾Ñĩ":8686,"ĠÐ³ÑĢÑĥÐ·Ð¸Ð¸":8687,"ÑģÐ±":8688,"Ð¾Ð»Ðº":8689,"ĠÐ°ÐºÑĤÑĢÐ¸Ñģ":8690,"idae":8691,"ĠÑĥÐºÑĢÐµÐ¿Ð»":8692,"ĠÐºÐ¾Ð½ÑĤÐ¸Ð½ÐµÐ½ÑĤ":8693,"ĠÑĤÐµÐ»ÐµÑģÐµÑĢÐ¸":8694,"ĠÑħÐ°Ð¼":8695,"ĠÐ±ÐµÐ»Ð¾Ð³Ð¾":8696,"98":8697,"Ð¾Ð²Ð°Ð½Ð½ÑĭÑħ":8698,"ĠÐ³ÐµÑĢÐ¾ÐµÐ²":8699,"ĠÐ½Ð°Ð¿Ð¾Ð»Ðµ":8700,"Ð¾ÑħÑĢÐ°Ð½Ð¸Ð»Ð¸Ñī":8701,"ĠÐ¿Ð»Ð°Ð½ÐµÑĤ":8702,"ĠÐ¼Ð¾Ð½ÐµÑĤ":8703,"ĠÐ¼Ð½ÐµÐ½Ð¸Ðµ":8704,"ĠÐ½ÐµÐ´Ð°Ð»ÐµÐºÐ¾":8705,"ĠÐºÑĢÑĭÐ¼Ð°":8706,"ĠÐ³Ð°Ð»Ð°ÐºÑĤÐ¸ÐºÐ°":8707,"Ð¾Ð·Ð½":8708,"Ð¾Ð»ÑĮÑģÐºÐ¾Ð³Ð¾":8709,"ĠÐ°ÑĦÐ³Ð°Ð½":8710,"Ð°Ð½Ð½Ð¾":8711,"ĠÐ³ÑĥÐ¼Ð°Ð½":8712,"ĠÐ·Ð¾Ð»":8713,"ÑģÑĤÑĢÐµÑĩ":8714,"ĠÐ¾ÑģÑĤÐ°Ð»ÑĮÐ½ÑĭÑħ":8715,"ĠÑĢÐ°Ð·Ð²Ð¸ÑĤÐ¸Ñİ":8716,"Ð¸Ð²ÑĪÐ°Ñı":8717,"ĠÐºÐ°Ð¿Ð¸ÑĤÐ°Ð½Ð°":8718,"ĠÐ¼Ð°Ð·":8719,"ĠÑģÐ¾Ð±ÑĢÐ°Ð½Ð¸Ðµ":8720,"ĠÐ¿ÐµÑĪ":8721,"ĠÐ²Ð¿Ð¾Ð»Ð½Ðµ":8722,"ĠÐ¸Ð·ÑĥÑĩÐµÐ½Ð¸Ñı":8723,"ÑĢÑĥÐºÐ¾Ð²Ð¾Ð´":8724,"ĠÐ¾ÑĨÐµÐ½ÐºÐ¸":8725,"ĠÐ½ÐµÐ´ÐµÐ»ÑĮ":8726,"ĠÐ´Ð²Ð¾ÑĢÐµ":8727,"ÑĥÐ±Ð¸Ð¹":8728,"ĠÐ½Ð°ÑģÐµÐºÐ¾Ð¼":8729,"Ð¼Ð¾Ð»Ð¾Ð´":8730,"ĠÐ»ÐµÐ±":8731,"ĠÑĨÐµÐ»ÑıÑħ":8732,"ÑİÐº":8733,"ĠÑģÐ»ÑĥÐ¶Ð±Ðµ":8734,"ĠÑĦÐ¾ÑĢÑģ":8735,"ĠÑģÑĤÑĢÑĥÐºÑĤÑĥÑĢÑĭ":8736,"ĠÐ¿Ð»Ð°ÑĨ":8737,"ĠÑĥÑĩÐ¸ÑĤ":8738,"ĠÐ¿ÑĢÐµÐ´Ð¿ÑĢÐ¸ÑıÑĤÐ¸Ðµ":8739,"ÑģÐ¿Ð¾ÑģÐ¾Ð±":8740,"ĠÑĥÐ±ÐµÐ´":8741,"ĠÑĢÐµÐ¼Ð¾Ð½ÑĤ":8742,"Ð¸Ð·ÐµÐ¼":8743,"ĠÐºÐ°ÑĤÐµÐ³Ð¾ÑĢ":8744,"ÑıÑīÐµÐ¹":8745,"ĠÑģÐ¿ÐµÑĨÐ¸Ð°Ð»Ð¸ÑģÑĤÐ¾Ð²":8746,"Ð¾Ð·Ð°Ð²":8747,"ure":8748,"ĠÐ¿ÐµÑĢÑģÐ¾Ð½Ð°Ð¶":8749,"Ð¿ÑĢÐ¾ÑĦÐµÑģÑģ":8750,"ÑħÑĢÐ¾Ð½":8751,"ĠÐ½Ð°Ð·ÑĭÐ²Ð°Ð»Ð¸":8752,"Ð¿ÑĢÐ¸ÑıÑĤ":8753,"ÑģÐºÐ¾Ð¿":8754,"Ð°Ð²ÑĤÐ¾Ð¼":8755,"ĠÑģÑĤÐ¸Ð»ÑĮ":8756,"ĠÐ°Ð½Ð³Ð»Ð¸Ð¹ÑģÐºÐ¾Ð³Ð¾":8757,"ĠÐ³Ð¾ÑĢÐ°Ð·Ð´Ð¾":8758,"ÑıÑīÐµÐ³Ð¾":8759,"ĠÑĦÐ°Ð¹":8760,"ĠÐ¿ÑĢÐ¸Ð½ÑĨÐµÑģÑģ":8761,"Ð´Ð°Ð»ÐµÐµ":8762,"ĠÐ¼ÐµÑĪ":8763,"ĠÐ¸Ð½ÑĦÐ¾ÑĢÐ¼Ð°ÑĨÐ¸Ñİ":8764,"ÑģÐ»Ð¾Ð²":8765,"Ð¸ÑģÐ¾Ð¼":8766,"ĠÐ²ÑĭÑģÐ¾ÑĤÐ°":8767,"ĠÑįÐ²Ð¾Ð»Ñİ":8768,"ĠÐ¾Ñī":8769,"ÑĨÐµÑĢÐºÐ¾Ð²":8770,"ĠÐºÐ¾Ð½ÑĨÐ¾Ð²":8771,"ĠÑģÐ¾Ð³Ð»Ð°ÑĪÐµÐ½Ð¸Ðµ":8772,"Ġsc":8773,"ĠÑģÐ¼ÐµÑĢÑĤÑĮ":8774,"ĠÑĤÑĢÑĥÐ´Ð¾ÑģÐ¿Ð¾ÑģÐ¾Ð±":8775,"ĠÐ±ÑĥÐ´ÑĥÑīÐµÐ³Ð¾":8776,"92":8777,"ÑĪÐ¸Ð½Ð°":8778,"ĠÐ²Ð¸":8779,"Ð°Ð½ÐºÐ°":8780,"ĠÐ¿Ð°Ñģ":8781,"ĠÐºÐ¾Ñĩ":8782,"ĠÑģÑĢÐµÐ´Ð½Ð¸Ð¹":8783,"ĠÑĢÐ°Ð±Ð¾ÑĤÐ¾Ð¹":8784,"ĠÐ¾ÑħÑĢÐ°Ð½Ñĭ":8785,"aw":8786,"ĠÑģÑĤÐ°Ð´Ð¸Ð¸":8787,"ÑīÐ¸ÐºÐ¸":8788,"ĠÐ»Ð°Ð¿":8789,"2005":8790,"ĠÑģÐ°ÑĢÐ°":8791,"ĠÑĢÐ¾Ð´Ð¾Ð²":8792,"ĠÑģÑĤÐ¸ÑħÐ¸":8793,"ĠÐ¿ÐµÐº":8794,"Ð¾Ð¿ÑĢÐ¾Ð²":8795,"ĠÐ¾ÑĤÐºÐ»Ð¾Ð½":8796,"ĠÐ¿ÑĭÑĤÐ°Ð»ÑģÑı":8797,"ĠÑĥÑĩÐµÐ½":8798,"ĠÐºÐ°Ð¼ÐµÑĢ":8799,"ĠÐ¸ÐµÑĢÑĥÑģÐ°Ð»":8800,"Ð¸ÑĤÐµÐ»ÑĮÐ½ÑĭÐ¼Ð¸":8801,"ÑĦÑĥÑĤ":8802,"Ð¾ÑĪÑĳÐ»":8803,"ĠÐ¿ÑĢÐ¾Ð²Ð¾Ð·Ð³Ð»Ð°ÑĪ":8804,"ÐµÐ»ÑĮÐ½ÑĭÐ¹":8805,"ĠÐ²ÑĭÐ²ÐµÐ´":8806,"ĠÐ¿ÐµÑĢÐµÐ¼ÐµÑī":8807,"ĠÐ¾Ð±ÑīÐµÑģÑĤÐ²ÐµÐ½Ð½Ð¾Ð³Ð¾":8808,"ĠÐ³Ð°Ð¹":8809,"ĠÐ³Ð¾Ð´Ð¾Ð¼":8810,"ĠÐ¸ÑģÐ¿ÑĢÐ°Ð²":8811,"ÑīÐ¸ÐºÐ¾Ð¼":8812,"Ð¼ÐµÐ½ÑĤÐ°":8813,"ĠÐ¼Ð°ÑĤÐµÑĢÐ¸Ð°Ð»Ñĭ":8814,"ĠÑģÑĳ":8815,"ÑīÐ¸Ð½Ð°":8816,"ĠÑģÐ»ÑĥÑħ":8817,"ĠÐ¾ÑģÑĤÐ°Ð½":8818,"ĠÐ½Ð°ÑģÐµÐ»ÑĳÐ½Ð½ÑĭÐ¹":8819,"ĠÐ°Ð·ÐµÑĢÐ±Ð°Ð¹Ð´Ð¶Ð°Ð½Ð°":8820,"ÑĥÑĢÐ¸":8821,"ĠÑħÐ°Ð±":8822,"ĠÐ²ÑĭÑģÐ°Ð´":8823,"ĠÐ¾ÑĤÐ½Ð¾ÑĪÐµÐ½Ð¸Ðµ":8824,"Ð¸Ð¹ÑģÐºÐ¾Ðµ":8825,"ĠÑģÑĤÑĢÐ¾Ð¸ÑĤÐµÐ»ÑĮÑģÑĤÐ²Ðµ":8826,"ĠÐµÑĢ":8827,"Ð¿ÑĢÐ¾Ð³ÑĢÐ°Ð¼":8828,"ĠÐ¼ÑĥÐ¶ÐµÑģÑĤÐ²Ð¾":8829,"Ð¹Ð¾ÑĢÐºÐµ":8830,"ĠÑĪÑĤÑĥÑĢÐ¼":8831,"ĠÐ¿ÑĢÐµÑĤÐµÐ½Ð´":8832,"ÑĢÐµÐ»Ð°":8833,"ÐµÑĢÐ°ÑĤÑĢ":8834,"2004":8835,"ĠÐºÐ°Ð¶Ð´Ð¾Ð¼":8836,"ĠÐ¿ÑģÐµÐ²Ð´Ð¾Ð½":8837,"ĠÐºÐ°Ð½Ð°Ð´Ñĭ":8838,"Ð²Ð°Ñģ":8839,"Ð¿ÑĢÐ¸Ð·":8840,"ĠÐ¶ÐµÐ½ÑīÐ¸Ð½Ð°":8841,"ĠÐ¿Ð¾ÑģÐ»ÐµÐ´Ð½ÐµÐµ":8842,"ĠÐ²ÐµÐ½Ð³ÑĢÐ¸Ð¸":8843,"son":8844,"ÑİÑīÐµÐ¹":8845,"ĠÑģÐ¾Ð»Ð½ÑĨÐ°":8846,"Ð¿Ð¾Ð³":8847,"ĠÑģÐ¸Ð¼ÑĦÐ¾Ð½":8848,"Ð¸Ð²Ð°Ð½":8849,"ÑİÑīÐµÐ³Ð¾":8850,"Ð¾Ð²ÑģÐºÐ¾Ð¼":8851,"ĠÐ½Ð°Ð½ÐµÑģ":8852,"ĠÐ¼Ð½Ð¾Ð³Ð¾ÑĩÐ¸ÑģÐ»ÐµÐ½Ð½ÑĭÑħ":8853,"ĠÐºÐ¸ÑĤÐ°Ðµ":8854,"ÑĢÐ°ÑĤÐ°":8855,"ĠÑģÐµÑĢÐ¸Ñİ":8856,"ÐºÐ²Ð°ÑĢÑĤ":8857,"ĠÐ°ÑĦÑĢÐ¸ÐºÐ¸":8858,"Ð¼Ð°ÑĤÑĮ":8859,"Ð¸Ð½ÑģÐºÐ¸Ð¼":8860,"ĠÑģÑĢÐ°Ð¶ÐµÐ½Ð¸Ð¸":8861,"ĠÐ²Ð»Ð°Ð´ÐµÐ½Ð¸Ñı":8862,"Ð²Ð°Ð´":8863,"ĠÐ²ÐµÐ»Ð¸ÐºÐ¸Ð¹":8864,"ĠÐ³Ð¸Ð±ÐµÐ»Ð¸":8865,"ĠÐ»ÑĥÐº":8866,"ĠÐ¿ÑĢÐ¸ÐµÐ·":8867,"ĠÐ¾Ð±ÑĥÑģÐ»Ð¾Ð²":8868,"ĠÐ¿Ð¾Ð·Ð¸ÑĨÐ¸Ñİ":8869,"ĠÐ¸Ð±Ð½":8870,"ÑĦÐ°Ð²":8871,"ĠÐ¾ÑģÐ²Ð¾":8872,"Ð»ÐµÐ¹ÑĤÐµÐ½Ð°Ð½ÑĤ":8873,"Ð°Ð»ÐµÐºÑģÐ°Ð½Ð´ÑĢ":8874,"ĠÑįÐ¿Ð¾ÑħÑĥ":8875,"Ð½ÑıÑĤ":8876,"ĠÑģÐ¸Ð±Ð¸ÑĢÐ¸":8877,"Ð°Ð½Ð´Ð¶ÐµÐ»ÐµÑģ":8878,"ĠÑıÐ·ÑĭÐºÐ¾Ð¼":8879,"ĠÑĥÑĢÐ¾Ð¶":8880,"ĠÑĦÐ¾Ð»ÑĮ":8881,"ÑİÑģÑĤ":8882,"ĠÑģÑĤÑĢÐ¾Ðº":8883,"Ð±ÐµÑĢÐ³Ð°":8884,"ĠÐ»ÑİÑĤ":8885,"Ð³Ð¾ÑĢÐ¾Ð´ÑģÐºÐ¾Ð¹":8886,"ĠÐºÐ¾Ð½ÐºÑĥÑĢÑģ":8887,"ÑĥÑĤÐ°":8888,"ĠÐºÑĢÐ¾Ð½":8889,"ĠÑģÐ¾Ð¾Ð±ÑīÐµÐ½Ð¸Ðµ":8890,"Ð¿ÐµÑĤÐµÑĢÐ±ÑĥÑĢÐ³Ð°":8891,"ĠÑģÐ½Ðµ":8892,"ĠÑĥÑĪÑĳÐ»":8893,"ÑĥÑīÐ¸Ñħ":8894,"ĠÑģÑĥÑīÐµÑģÑĤÐ²Ð¾Ð²Ð°Ð²ÑĪ":8895,"ÐµÐ·Ð°":8896,"ĠÐ±Ð»Ð°Ð³Ð¾ÑĤÐ²Ð¾ÑĢ":8897,"ĠÐ¿Ð»Ð°Ð½Ðµ":8898,"ĠÐ¼ÑĥÐ·ÑĭÐºÐ°Ð»ÑĮÐ½ÑĭÑħ":8899,"ÐµÐ¸":8900,"ÑģÐµÐ¼ÐµÐ¹":8901,"ĠÐ¿ÑĢÐ°Ð²Ð¸ÑĤÐµÐ»ÑĮÑģÑĤÐ²Ð¾Ð¼":8902,"ĠÑĥÑĩÑĳÐ½ÑĭÐ¹":8903,"ĠÐ¿ÑĢÐ¸Ð±Ð¾ÑĢ":8904,"ĠÑħÐ»ÐµÐ±":8905,"ÑĢÐ¸Ñĩ":8906,"ĠÐ¿ÐµÑĤÑĢÐ¾Ð³":8907,"ĠÐ³ÑĢÐ°Ð½Ð¸Ñĩ":8908,"ĠÑįÐ»ÐµÐºÑĤÑĢÐ¾":8909,"Ð²Ð¾Ð·Ð¼Ð¾Ð¶Ð½Ð¾":8910,"ĠÐ¿ÐµÑĢÐµÐ²ÐµÐ´ÑĳÐ½":8911,"ĠÐ¼ÐµÑĤÑĢÐ¾":8912,"ĠÐ±Ð¾Ð¸":8913,"ĠÐ¼Ð¾ÑĢÐ°":8914,"Ð¿ÐµÐ²":8915,"ĠÑĩÐ¸Ð½":8916,"ĠÐ³Ð¾ÑĢÐ°":8917,"ĠÑģÐ°Ð¼ÑĭÐµ":8918,"Ð³Ð´Ðµ":8919,"Ð´ÐµÐ¿":8920,"ĠÐ¾Ð±Ð»Ð°ÑģÑĤÐ½Ð¾Ð³Ð¾":8921,"ĠÑĪÑĤÐ°ÑĤÐµ":8922,"ĠÑĤÑĥÑĢÐµÑĨ":8923,"ium":8924,"ĠÐ±ÑĢÐ¾Ð´":8925,"ÑĤÐµÐ½Ð°Ð½ÑĤÐ°":8926,"ĠÑįÐºÐ·":8927,"Ð½Ð¾ÐºÐ¾Ð¼":8928,"ÐµÐ½ÑģÐºÐ°Ñı":8929,"ĠÐ¾Ð±ÑīÐµÐ¼":8930,"ĠÐ²ÑĭÑģÑĤÑĥÐ¿Ð°ÑĤÑĮ":8931,"ĠÐ´ÐµÐ¿Ð°ÑĢÑĤÐ°Ð¼ÐµÐ½ÑĤÐ°":8932,"Ð¸Ð²Ð¸Ð»":8933,"ĠÑģÐ¾Ð·Ð´Ð°Ð½Ñĭ":8934,"ĠÐ±Ð¸Ð±Ð»Ð¸Ð¾ÑĤÐµÐºÐ¸":8935,"ore":8936,"ĠÐ°Ð»Ð¸":8937,"ĠÐ³Ð¸Ð¼Ð½Ð°Ð·Ð¸Ð¸":8938,"ff":8939,"Ð°ÑĢÐ¾Ð¼":8940,"ĠÐ³Ð»Ð¾Ð±":8941,"Ð¾ÑģÐ¾Ð±ÐµÐ½Ð½Ð¾":8942,"ĠÐ³ÑĢÐ¸Ð±":8943,"Ð³ÑĥÐ±ÐµÑĢÐ½":8944,"Ð²ÑĪÐ¸Ð¹":8945,"ĠÑĢÐ°Ð²Ð½":8946,"ĠÐ´ÐµÑıÑĤÐµÐ»ÑĮÐ½Ð¾ÑģÑĤÑĮÑİ":8947,"ĠÑĢÑĥÐºÐ°Ñħ":8948,"ĠÑĤÐ¸Ð¿Ð¾Ð²":8949,"ÑĭÐ²Ð°Ð½Ð¸Ñı":8950,"ÑĢÐ¸Ð±":8951,"ĠÐ¿ÐµÑī":8952,"ĠÐ¼ÐµÑģÑĤÐ¾Ð¼":8953,"na":8954,"Ġit":8955,"ĠÑĢÐµÐºÐ¾Ð¼ÐµÐ½Ð´":8956,"ĠÑĤÐ²Ð¾ÑĢÑĩÐµÑģÑĤÐ²Ð°":8957,"ĠÐ²ÑĭÐ¹ÑĤÐ¸":8958,"ĠÑĥÑģÑĤÐ°Ð½Ð¾Ð²Ð»ÐµÐ½Ð°":8959,"ĠÐ»ÐµÑĩÐµÐ½Ð¸Ñı":8960,"ÑģÐ¸Ð»":8961,"ĠÑĤÐ°Ð²ÑĢ":8962,"ĠÐ¼ÑĥÑħÐ°Ð¼":8963,"Ð¸Ð½Ð³Ð²":8964,"ĠÐ¿Ð¾Ð´Ð´ÐµÑĢÐ¶Ð¸Ð²":8965,"ĠÑģÐ¾ÐµÐ´Ð¸Ð½ÐµÐ½Ð¸Ñı":8966,"Ġ'":8967,"ĠÑĦÐ¾ÑĢÐ¼Ð¸ÑĢÑĥ":8968,"ĠÐºÐ¾Ð½ÑĤÑĢÐ¾Ð»Ñı":8969,"ĠÑģÐ¾Ð±Ð¾ÑĢÐµ":8970,"ĠÐ¾ÑĤÐºÑĢÑĭÐ»":8971,"ĠÐ¿ÑĢÐµÐ´ÑĥÑģÐ¼Ð°ÑĤÑĢÐ¸Ð²":8972,"ĠÐ»Ð¾Ð±":8973,"ĠÑģÑĩÐ°ÑģÑĤ":8974,"ĠÐ±ÑĢÑıÐ½":8975,"ÑĥÑİÑīÐ°Ñı":8976,"ĠÑģÐ¾Ð¾ÑĤÐ²ÐµÑĤÑģÑĤÐ²ÑĥÐµÑĤ":8977,"ĠÐ²Ð±Ð»Ð¸Ð·Ð¸":8978,"ĠÐ²ÑĭÑģÐ¾ÑĤÑĭ":8979,"97":8980,"ĠÐ¼ÑıÑĤ":8981,"ĠÑĩÐµÑĢÐ²":8982,"ĠÑģÑĬÐµÐ·Ð´":8983,"ĠÐ¾ÑĤÐ¼ÐµÑĤÐ¸ÑĤÑĮ":8984,"ÐºÐ°Ð¶Ð´ÑĭÐ¹":8985,"ÑĮÑĳÐ²":8986,"Ð»Ð°Ñı":8987,"ĠÐºÐ¾Ð¼ÑģÐ¾Ð¼":8988,"ĠÑģÐ¾ÑĤÑĢÑĥÐ´Ð½Ð¸ÐºÐ¾Ð²":8989,"ĠÑĤÐµÐ¿Ð»Ð¾Ð²":8990,"ĠÐ¾ÐºÐ°Ð·ÑĭÐ²Ð°ÐµÑĤÑģÑı":8991,"Ð¼Ð°ÐºÑģÐ¸Ð¼":8992,"Ð¾ÑĩÐºÑĥ":8993,"ÑİÑīÐ°Ñı":8994,"ĠÐ½Ð°Ð¿Ð¾Ð¼Ð¸Ð½":8995,"ÑħÐ°Ð·":8996,"Ð°Ð½ÑģÐºÐ¾Ð¼":8997,"ĠÐ¿ÐµÑĤÑĢÐ¾Ð²Ð¸Ñĩ":8998,"Ġme":8999,"Ð¾Ð²Ð°Ð»Ð¾ÑģÑĮ":9000,"Ð¿ÑĢÐ¾ÑĩÐµÐ¼":9001,"ĠÐ²ÐµÑīÐµÑģÑĤÐ²Ð°":9002,"ĠÐ½ÐµÐ·Ð°Ð²Ð¸ÑģÐ¸Ð¼Ð¾ÑģÑĤÑĮ":9003,"ĠÐ¾Ð¿ÐµÑĢÐ°ÑĨÐ¸Ð¹":9004,"ĠÑħÐ¾Ð·ÑıÐ¹ÑģÑĤÐ²Ð¾":9005,"ĠÐ¿ÑĢÐ¸Ð·Ð½Ð°Ð½":9006,"2011":9007,"Ð¼ÑĥÐ¶":9008,"ÑĦÐµÐ¹":9009,"ĠÑĢÐµÐ³ÑĥÐ»ÑıÑĢÐ½Ð¾":9010,"ĠÑģÐ¿ÐµÑĨÐ¸Ð°Ð»ÑĮÐ½Ð¾ÑģÑĤÐ¸":9011,"ĠÐµÐºÐ°ÑĤÐµÑĢ":9012,"ĠÑĢÐ¾Ð¶":9013,"ĠÐ²Ð¼ÐµÑĪ":9014,"ĠÐ³Ð¾ÑĢÐ¸Ð·Ð¾Ð½ÑĤ":9015,"ĠÐ¸Ð·Ð±Ð¸ÑĢÐ°":9016,"ÑĪÐ½Ð¸Ð¹":9017,"ĠÐ½Ð°ÑĪÐµÐ¹":9018,"ĠÐ²ÑĭÐ¿Ð¾Ð»Ð½ÐµÐ½Ð¸Ðµ":9019,"ĠÐµÐ²ÑĢÐ¾Ð¿ÐµÐ¹ÑģÐºÐ¾Ð¹":9020,"Ð¸Ð¼ÑĭÐµ":9021,"ĠÐ¿Ð¾ÑģÑĤÑĢÐ¾Ð¹ÐºÐ¸":9022,"ĠÑĢÐµÐ°Ð»Ð¸Ð·Ð°ÑĨÐ¸Ð¸":9023,"ÑģÑģÐ°":9024,"Ð±Ð°ÑĪ":9025,"ĠÐ²ÑģÑĤÑĢÐµÑĩÐ¸":9026,"Ð°ÑĢÑģÐºÐ¸Ð¹":9027,"ĠÐ»ÑİÐ±Ð¾Ð²ÑĮ":9028,"ĠÑĦÐµÐ´ÐµÑĢÐ°Ð»ÑĮÐ½Ð¾Ð³Ð¾":9029,"ĠÐ¼Ð½Ð¾Ð³Ð¾Ð¼":9030,"ÑĢÐµÐ´ÐºÐ¾":9031,"ĠÑģÑĤÐ°ÑĢÐ¾Ð¼Ñĥ":9032,"Ð¸Ð·Ð½Ð°ÑĩÐ°Ð»ÑĮÐ½Ð¾":9033,"Ð°Ð¸":9034,"ÑıÐ»Ð°ÑģÑĮ":9035,"ÐºÐ¾Ð¼Ñĥ":9036,"ĠÐ»Ð°Ð¼":9037,"ĠÑĥÑĩÐ°ÑģÑĤÐ¸Ð¸":9038,"ĠÐ¼Ð°ÑģÑĪÑĤÐ°Ð±":9039,"ĠÐ¼Ð¸ÑĪ":9040,"ÑĨÐ¸Ð¾Ð½Ð½Ð°Ñı":9041,"ĠÑĥÐºÑĢÐ°Ð¸Ð½ÑģÐºÐ¸Ð¹":9042,"ĠÐ±Ð°Ð·Ñĭ":9043,"ĠÐ¿ÑĢÐ¾ÑıÐ²Ð»Ñı":9044,"ĠÐ³Ð¾Ð²":9045,"ĠÑĥÑĩÑĳÑĤ":9046,"ĠÐ²ÑĢÐµÐ´":9047,"ÑĮÐµÐ²Ð¸Ñĩ":9048,"ĠÑĪÐ°ÑĤ":9049,"ĠÑĦÑĢÐµÐ´":9050,"ĠÐ¿Ð¾Ð³ÑĢÐµÐ±":9051,"ĠÐ²Ð¾ÑģÑģÑĤÐ°Ð½Ð¸Ðµ":9052,"ÐµÐ½ÐµÐ¹":9053,"ĠÑģÐºÑĥÐ»ÑĮÐ¿":9054,"ÑĢÑıÐ´Ðµ":9055,"ĠÐ±ÑĢÐ°ÑĤÑĮÐµÐ²":9056,"ĠÐºÐµÐ¹":9057,"Ð³ÑĢÑĥÐ¿Ð¿Ñĭ":9058,"ĠÐ³ÐµÑĢÐ°":9059,"ĠÑĥÑĩÐ°ÑģÑĤÐºÐµ":9060,"ĠÐ½Ð°Ð¿ÑĢÐ°Ð²Ð»ÐµÐ½Ð¸Ðµ":9061,"ÑĥÑĢÐ¾Ð¹":9062,"ĠÐ·Ð°ÑĢÐ°Ð±Ð¾ÑĤ":9063,"ÑĳÐ½Ð½Ð¾ÑģÑĤÑĮ":9064,"Ð¸ÑĢÑĥÑİÑĤÑģÑı":9065,"Ð¸Ð½ÑĤÐµÑĢ":9066,"ĠÐ¶ÐµÑĢÑĤ":9067,"ĠÑģÐ¾Ð¾Ð±ÑīÐ¸Ð»":9068,"ational":9069,"ĠÐ½Ð°Ð¼ÐµÑģÑĤ":9070,"ĠÐ½ÐµÐ³Ð°ÑĤÐ¸Ð²":9071,"Ð»Ð¾Ð±":9072,"Ð»ÐµÐ¹Ð±":9073,"ĠÐ²Ð¾ÐµÐ½Ð½Ð¾ÑģÐ»ÑĥÐ¶":9074,"Ð´Ð·":9075,"ĠÐ²Ð¾ÑģÑģ":9076,"ĠÑģÐ¾Ð±ÑĢÐ°Ð»":9077,"ĠÐ·Ð°Ð½Ð¸Ð¼Ð°ÐµÑĤÑģÑı":9078,"ĠÐ²Ð¾Ð¹Ð½":9079,"ĠÑģÐ¾Ð´ÐµÐ¹ÑģÑĤÐ²":9080,"ect":9081,"ĠÑĪÐ²ÐµÐ¹ÑĨÐ°ÑĢÐ¸Ð¸":9082,"ĠÐ³Ð»Ð°Ð´":9083,"ĠÐ¼Ð°Ð½Ð´":9084,"Ġ51":9085,"ĠÑĢÐ°Ð²Ð½Ð¾":9086,"ĠÑĥÑģÐ»Ð¾Ð²Ð¸Ð¹":9087,"ĠÑģÐ¸Ð¼Ð²Ð¾Ð»Ð¸Ð·":9088,"ĠÐ½Ð°ÑģÑĤÐ¾Ð»ÑĮÐºÐ¾":9089,"ĠÐ²ÑĭÐ±Ð¾ÑĢÑĭ":9090,"Ġ53":9091,"ĠÑĩÐµÑĢÑĤÑĭ":9092,"sa":9093,"ĠÑĤÐ°ÑĪ":9094,"ĠÑģÐµÐ²Ð°ÑģÑĤ":9095,"ĠÐ³Ð°Ð½":9096,"ĠÐ¿ÑĢÐµÐ´Ð¾ÑĤ":9097,"ĠÐ¿Ð°Ð»ÐµÑģÑĤ":9098,"ĠÐ¿Ð¾Ð²ÑģÑĤÐ°Ð½":9099,"ĠÐ¿ÑĢÐ¸Ð³Ð»Ð°Ñģ":9100,"ÑģÐµÑĢÐ¸":9101,"ÑĨÐ°Ñħ":9102,"ĠÐ²ÑĭÐ¿ÑĥÑģÑĤÐ¸Ð»":9103,"ĠÑģÐ°Ð¼Ð¾ÑģÑĤÐ¾ÑıÑĤÐµÐ»ÑĮÐ½Ð¾":9104,"ÑģÐ¾ÑĤ":9105,"Ð¿ÐµÑĪ":9106,"ÑĢÑĭÐ²Ð°ÐµÑĤ":9107,"Ð°Ð½Ð¾Ð²Ð¾":9108,"ĠÑĢÑĥÑģÑģÐºÐ°Ñı":9109,"ĠÐ´Ð½ÐµÐ²":9110,"ĠÐ½ÐµÐ¿ÑĢÐ¸ÑıÑĤ":9111,"ĠÑģÑģ":9112,"ĠÐ¸ÑģÐ¿Ð¾Ð»ÑĮÐ·Ð¾Ð²Ð°Ð»ÑģÑı":9113,"ÑģÐ¾ÑĨÐ¸":9114,"Ð°ÑİÑīÐ¸ÐµÑģÑı":9115,"Ð¾Ð·ÐµÑĦ":9116,"Ġon":9117,"ate":9118,"ĠÐ¿Ð¾Ð»Ð¸ÑĤÐ¸ÑĩÐµÑģÐºÐ¸Ð¹":9119,"ĠÐ¸Ð·Ð¾Ð±ÑĢÐ°Ð¶ÐµÐ½Ð¸Ðµ":9120,"ĠÐºÑĢÐ¸ÑĤÐ¸ÐºÐ¾Ð²":9121,"ĠÑİÐ³Ð¾ÑģÐ»Ð°Ð²Ð¸Ð¸":9122,"Ð°ÑĪÐ¸ÑģÑĤ":9123,"ĠÐ¶Ð¸Ð»Ð¸":9124,"ĠÑģÐ°Ð¼Ð¾Ðµ":9125,"ĠÐ¿Ð¾Ð»Ð½Ð¾Ð¹":9126,"Ð¼Ð°Ð¹Ð¾ÑĢ":9127,"ĠÑĦÐ¸Ð»ÑĮÐ¼Ð°Ñħ":9128,"ĠÐ±Ð°ÑĪÐ½Ð¸":9129,"ĠÑĢÐµÑģÑĤÐ°Ð²":9130,"ĠÑĢÐ¾ÑģÑĤÐ°":9131,"ĠÑĢÐ°Ð´Ð¸Ðº":9132,"ĠÐ¿Ð¾Ð»ÑĥÐ·Ð°ÑīÐ¸ÑĤ":9133,"Ð¸Ð¼ÑģÑĤÐ²":9134,"ÐµÑĢÐ°Ð»":9135,"ĠÐ»ÑİÐ´ÑĮÐ¼Ð¸":9136,"ĠÑģÐ¾Ð±ÑģÑĤÐ²ÐµÐ½Ð½Ð¾Ð¹":9137,"ĠÐ±ÑĢÐ°ÑĤÐ¾Ð¼":9138,"ĠÐ´Ð¾Ð²ÐµÑĢ":9139,"Ð¾Ð¾ÑħÑĢÐ°Ð½":9140,"ĠÐºÑĥÐ»":9141,"Ð½Ð¾ÐºÐ¾Ð¼Ð°Ð½Ð´":9142,"Ð½Ð°ÑģÐ»ÐµÐ´":9143,"ĠÐ¾Ð±ÑĭÐ³":9144,"ĠÑĢÐµÐ¶Ð¸Ð¼Ð°":9145,"Ð½Ð¸ÑģÑĤ":9146,"Ġ1902":9147,"ĠÐ±ÑĢÐ°Ðº":9148,"ÑīÐ¸Ð½Ñĭ":9149,"ÑĪÐµÑģÑĤÐ²ÐµÐ½":9150,"ĠÐ±Ð°ÑĪÐºÐ¸ÑĢ":9151,"ĠÐ·ÑĢÐ¸ÑĤÐµÐ»ÐµÐ¹":9152,"Ġnew":9153,"ĠÐ¾Ð¿ÑĢÐ°Ð²":9154,"Â³":9155,"Ð½Ð¸Ð¶Ðµ":9156,"ĠÐ»Ð°ÑĢ":9157,"ĠÐºÐ°ÑĤÐ°ÑģÑĤÑĢÐ¾ÑĦ":9158,"ĠÐ½Ð°Ñħ":9159,"ĠÐ³Ð¾ÑĢÐ¾Ð´ÑģÐºÐ¸Ñħ":9160,"ĠÐ¿ÑĢÐ¾Ð¶Ð¸Ð²Ð°ÐµÑĤ":9161,"Ð¾ÑĢÐµÐ²":9162,"ĠÐ²Ð°ÑĤ":9163,"Ð°ÑİÑīÐ¸Ð¼Ð¸":9164,"ĠÐ¾Ð¿ÑĢÐµÐ´ÐµÐ»ÐµÐ½Ð¸Ñı":9165,"ĠÑĤÐµÐ¼Ð¿ÐµÑĢÐ°ÑĤÑĥÑĢÑĭ":9166,"ĠÐ»Ð¸ÐºÐ²Ð¸Ð´Ð°":9167,"ĠÐ¼Ð¸ÑģÑĤ":9168,"ĠÐ¾Ð±Ð¾ÑĢÑĥÐ´Ð¾Ð²Ð°Ð½Ð¸Ñı":9169,"ĠÐ½ÐµÐ¿ÑĢÐµÑĢÑĭÐ²":9170,"Ġpgc":9171,"ĠÐ¿Ð¾Ð´ÑĢÐ°Ð·Ð´ÐµÐ»ÐµÐ½Ð¸Ñı":9172,"ĠÐ¿ÑĢÐ¸Ð¼Ð¾ÑĢ":9173,"ĠÐ°ÑįÑĢÐ¾Ð´ÑĢÐ¾Ð¼":9174,"ĠÑĤÐ²":9175,"Ð¿ÑĢÐ¾Ð²Ð¾Ð´":9176,"Ð³Ð¸Ð·":9177,"ÑĳÑĢÑĭ":9178,"ĠÐ³Ð°Ð·ÐµÑĤÐ°":9179,"ĠÐ¿Ð¾ÑģÑĤÑĢÐ¾ÐµÐ½Ñĭ":9180,"ĠÐºÐ¼ÐµÑĤ":9181,"ĠÐ¶Ð°ÑĢ":9182,"ĠÐ´Ð¼Ð¸ÑĤÑĢÐ¸ÐµÐ²":9183,"ĠÐ¿ÐµÑĢÐµÐ³Ð¾Ð²Ð¾ÑĢÑĭ":9184,"Ġ1903":9185,"ĠÑģÐ²ÐµÑĢÐ´":9186,"ĠÐ²Ð°ÑĪÐ¸Ð½Ð³":9187,"ÑĩÐ¸Ð½Ð°":9188,"ĠÐµÐ¶":9189,"1944":9190,"ĠÐ´Ð¸Ð¼":9191,"ĠÐ±ÑĭÑģÑĤÑĢ":9192,"ÑĢÐ°ÑģÑģÑĤÐ¾Ñı":9193,"ĠÑģÐ¾Ð·ÑĭÐ²Ð°":9194,"ĠÐ¾ÑģÑĤÐ°Ð»Ð¸ÑģÑĮ":9195,"ĠÐ½Ð¾Ð¶":9196,"ĠÑĤÐµÐ¼Ñĥ":9197,"ĠÐ²Ð¾Ð·Ð²ÑĢÐ°ÑīÐµÐ½Ð¸Ñı":9198,"ĠÐ³Ð¾Ð´Ð°Ð¼":9199,"ĠÑģÐ²ÐµÐ´ÐµÐ½Ð¸ÑıÐ¼":9200,"ÑĨÐ¸Ð´":9201,"ĠÑģÐ¸ÑģÑĤÐµÐ¼Ð¾Ð¹":9202,"ĠÑĢÐµÑģÐ¿ÑĥÐ±Ð»Ð¸ÐºÐ°":9203,"ĠÑģÐ¾ÐºÑĢÐ°ÑĤ":9204,"ĠÐ³Ð¾Ð»Ð¾Ð²Ñĭ":9205,"Ð½Ð¾Ð²Ð°Ð½Ð¸Ðµ":9206,"Ð»ÑıÑĤ":9207,"ĠÑĪÐ¿":9208,"Ð½Ð´":9209,"ĠÐ´Ð²Ð¾Ðµ":9210,"ĠÐ¾Ð±ÑĢÐ°Ð·ÑĥÐµÑĤ":9211,"ĠÑįÐ½ÑĤ":9212,"ĠÐ¼ÑıÑģ":9213,"ĠÐ·Ð°Ð½ÑıÐ»Ð¸":9214,"Ð±Ð°Ñģ":9215,"Ð¾ÑģÐµÐ½ÑĮÑİ":9216,"ĠÐ¾Ð±ÑīÐµÑģÑĤÐ²ÐµÐ½Ð½ÑĭÑħ":9217,"ĠÐ½Ð¾ÑĢ":9218,"ult":9219,"ĠÐ¸Ð½ÑģÐ¿":9220,"ÑģÐµÐ½ÑĤ":9221,"ĠÑĢÐµÐ·ÑĥÐ»ÑĮÑĤÐ°ÑĤÐ¾Ð¼":9222,"ĠÑĥÑĩÐµÐ½Ð¸ÐºÐ¾Ð²":9223,"ĠÐ¿Ð°Ð¿Ð°":9224,"ĠÑĤÐ°Ð´Ð¶":9225,"ĠÑĪÐ°Ð½":9226,"ĠÐ°Ð±Ð´":9227,"ĠÐ²ÑĤÐ¾ÑĢÐ¶":9228,"ĠÐºÐ°Ð½Ð¾Ð½":9229,"ĠÑģÐ¾Ð´ÐµÑĢÐ¶Ð°Ð½Ð¸Ðµ":9230,"ĠÑĢÐ°ÑģÑģÐºÐ°Ð·ÑĭÐ²Ð°ÐµÑĤ":9231,"ĠÑįÑģÐºÐ°Ð´ÑĢ":9232,"ĠÐ¾ÐºÐ°Ð·Ð°Ð»Ð¾ÑģÑĮ":9233,"ĠÐ¿ÑĢÐ¸Ð¼ÐµÐ½ÐµÐ½Ð¸Ðµ":9234,"ÑĮÐ¼":9235,"ĠÑıÐ²Ð»ÑıÐ»Ð°ÑģÑĮ":9236,"ĠÑģÑĤÐ°Ð½Ð¸ÑģÐ»Ð°Ð²":9237,"ĠÐ¾Ð¿ÐµÑĢÑĭ":9238,"Ð¾ÑĤÐ½Ð¾Ñģ":9239,"ĠÑĩÑĥÑĤÑĮ":9240,"ĠÑħÐ¼ÐµÐ»ÑĮÐ½Ð¸ÑĨ":9241,"ĠÐ¼ÐµÑĤÐ¾Ð´Ñĭ":9242,"ĠÐ¿Ð¾Ð»Ð½Ð¾":9243,"ÑĥÑĦ":9244,"ĠÑĢÐ°ÑģÑĩÑĳÑĤ":9245,"ĠÐ¾ÑĤÐ¿ÑĢÐ°Ð²Ð»ÐµÐ½":9246,"ĠÐ»ÐµÐ½Ð¸Ð½Ð³ÑĢÐ°Ð´ÑģÐºÐ¾Ð¹":9247,"Ð½ÑģÐºÐ¸Ð¹":9248,"!Â»":9249,"ĠÐ¼ÐµÑģÑĤÐ½Ð¾Ð¼":9250,"ĠÑģÐ°Ð½Ð´":9251,"ĠÐ½ÐµÐ´Ð°Ð²":9252,"ĠÐ³Ð¾ÑģÑĤÐ¸Ð½":9253,"ÑĢÑĭÑĪ":9254,"ĠÐ²Ð¾Ð´Ð¾ÑħÑĢÐ°Ð½Ð¸Ð»Ð¸Ñī":9255,"icro":9256,"ĠÑĥÐ¾Ð»":9257,"ĠÐ¿Ð¾ÑįÑĤÐ°":9258,"ĠÑĤÐ°Ð³":9259,"ĠÐ¸Ð½Ð´ÑĥÑģÑĤ":9260,"ĠÐ¼Ð°ÑĤÐµÑĢÐ¸Ð°Ð»Ð°":9261,"Ð¾Ð´Ð°ÑĢ":9262,"Ð½Ð¾Ð²Ð°Ñı":9263,"ĠÐ¾ÑģÐ½Ð¾Ð²Ð½Ð¾Ð³Ð¾":9264,"ĠÐ²Ð¾Ð´Ð¾Ð¹":9265,"ĠÐ½Ð¸ÐºÐ°ÐºÐ¸Ñħ":9266,"ĠÐ¿Ð¾ÑģÑĤÑĥ":9267,"ĠÐ¼ÑĥÐ·ÑĭÐºÐ°Ð»ÑĮÐ½Ð¾Ð¹":9268,"Ð·Ð°Ð¿Ð°Ð´Ð½Ð¾Ð¹":9269,"ĠÑģÐµÐºÑģÑĥ":9270,"ĠÐ¿Ð°Ð²Ð»Ð°":9271,"ĠÐ½Ð¾Ð²Ð¾":9272,"ĠÐ°ÑĢÐµ":9273,"ÐµÐ²Ð¾Ð´":9274,"ÑĥÑĤÑģÑĤÐ²Ð¸Ð¸":9275,"ĠÐ¾Ð´ÐµÑģ":9276,"Ð´ÐµÐ±ÑİÑĤ":9277,"ĠÐ¼ÐµÐ´Ð°Ð»ÑĮÑİ":9278,"ĠÑģÑĤÑĢÐ¾Ð³":9279,"ĠÑĥÑģÐ¸Ð»Ð¸Ñı":9280,"ĠÐ¼Ð°Ð»Ð¾Ð¹":9281,"ĠÑģÐ²ÑıÑĤÑĭÑħ":9282,"ĠÑĢÐ°Ð·ÑĢÐ°Ð±Ð¾ÑĤÐºÐµ":9283,"ÑĤÑģ":9284,"ĠÑģÑĢÐµÐ´Ð¸Ð·ÐµÐ¼":9285,"ÑĦÐ¸Ð·":9286,"Ġwindows":9287,"ĠÑĤÐµÑħÐ½Ð¾Ð»Ð¾Ð³Ð¸Ð¹":9288,"ĠÐ·Ð°ÑģÐ»ÑĥÐ³Ð¸":9289,".Â»":9290,"Ð¿ÑĢÐµÐ´ÑģÐµÐ´":9291,"ĠÐ¾ÑĤÐ±Ð¾ÑĢ":9292,"ÑĮÑıÑħ":9293,"Ð²Ð¸Ð´Ñĥ":9294,"ĠÐ·Ð°Ð¿Ð°Ð´Ð½Ð¾Ð¼":9295,"ĠÐ±ÐµÑĢÐ»Ð¸Ð½Ðµ":9296,"ĠÐ±Ð¾ÐµÐ²ÑĭÐµ":9297,"ung":9298,"ĠÐ·Ð°Ð¿Ð¾Ð²ÐµÐ´":9299,"ĠÐ¼ÐµÑħÐ°Ð½Ð¸Ð·Ð¼":9300,"ÐºÐ¼ÐµÑĤ":9301,"ĠÐ´ÐµÐ½Ð¸":9302,"ĠÐ´Ð°Ð½Ð¸":9303,"ĠÑģÐ²ÑıÐ·Ð°Ð½Ñĭ":9304,"ĠÐ¿Ð¾ÑģÑĤÑĢÐ¾ÐµÐ½Ð¾":9305,"Ð¾ÑĢÐ°ÑĤÐ¸Ð²":9306,"ĠÑģÐ¾Ð²ÐµÑĤÐ¾Ð²":9307,"ÑĤÐ¾ÑĢÐ°Ð¼Ð¸":9308,"ĠÐ¸Ð¼ÐµÐ½Ð°":9309,"Ġap":9310,"ĠÑĢÑĥÐºÐ¾Ð²Ð¾Ð´Ð¸ÑĤÐµÐ»ÐµÐ¼":9311,"ĠÐ°Ð´Ð¼Ð¸Ð½Ð¸ÑģÑĤÑĢÐ°ÑĤÐ¸Ð²Ð½Ð¾Ð³Ð¾":9312,"ĠÐ¾ÑĤÐ¼ÐµÑĤÐ¸Ð»":9313,"ĠÑĪÐ»ÐµÐ¼":9314,"ĠÐ¿Ð¾ÑĢÑıÐ´Ð¾Ðº":9315,"ĠÐ¿ÑĢÐ¸Ð½ÐµÑģ":9316,"Ð¾Ð´Ð½Ð¾Ð¹":9317,"ÐµÐ»ÑĮÐ½Ð¾Ð¹":9318,"ĠÑĥÑĩÐ°ÑģÑĤÐ²Ð¾Ð²Ð°Ð»Ð°":9319,"Ð¾Ð±Ð»Ð°Ð´":9320,"Ð¸Ð²Ð°Ð»Ð¸ÑģÑĮ":9321,"ÑĦÐ»Ð°Ð³":9322,"ĠÐºÑĢÑĥÐ¿Ð½ÑĭÐ¹":9323,"ĠÐºÐ°Ð½ÑĨ":9324,"lin":9325,"ĠÑģÐ¿Ð¸ÑĢ":9326,"ĠÑİÐ¶Ð½ÐµÐµ":9327,"ĠÑĤÐ°Ð»Ð°Ð½ÑĤ":9328,"ÐºÐ¾Ð²Ð¸Ñĩ":9329,"ĠÑģÐ¾ÑģÑĤÐ°Ð²Ð½Ð¾Ð¹":9330,"ĠÐ¼ÐµÑģÑĤÐ½Ð¾Ð¹":9331,"ĠÐ°ÑĢÑħÐ°Ð½Ð³ÐµÐ»ÑĮ":9332,"Ð¼Ð°ÑĢÐº":9333,"ĠÐ´Ð¸Ð°Ð¿Ð°Ð·":9334,"ĠÐ¸Ð·Ð³Ð½":9335,"ÑĦÑĢÐµÐ´":9336,"Ġ1860":9337,"ĠÐ¿Ð¾ÐºÐ¾Ð»ÐµÐ½Ð¸Ñı":9338,"ĠÐ¼Ð¾ÑĢÑģÐºÐ¸Ñħ":9339,"ĠÐ¼ÐµÐ»Ð¾Ð´":9340,"ĠÑĢÐµÐµÑģÑĤ":9341,"ĠÐ·Ð°ÑģÑĤÑĢÐ¾Ð¹":9342,"ĠÐ¼ÐµÑģÑĤÐ½ÑĭÐµ":9343,"ĠÐ¸ÑģÐ¿Ð¾Ð»ÑĮÐ·Ð¾Ð²Ð°Ð»Ð¸":9344,"Ð¼Ð¾ÑģÐºÐ¾Ð²":9345,"ÑģÐµÐ·Ð¾Ð½":9346,"94":9347,"ĠÐ¾ÑĤÑĨÐ¾Ð¼":9348,"ĠÐ¾Ð±ÑĢÐ°Ð·ÑĨÐ¾Ð²":9349,"Ð¼Ð°ÑģÑĤ":9350,"Ð¾Ð²Ð°Ð½Ð½ÑĭÐ¹":9351,"Ġ\"\"":9352,"ĠÑĩÐµÐ¼Ð¿Ð¸Ð¾Ð½Ð¾Ð²":9353,"Ð¾ÑģÐ½Ð¾Ð²Ð½Ð¾Ð¹":9354,"ĠÐ´ÐµÐ½ÐµÐ³":9355,"ĠÐ½ÐºÐ²Ð´":9356,"Ð¸Ð´Ð½ÑĭÐµ":9357,"ĠÐ¿Ð¾ÐºÐ°Ð·Ð°Ð»":9358,"ĠÑĦÐ¾ÑĢÑĤÐµÐ¿":9359,"ĠÐ·ÐµÐ¼Ð»ÐµÐ´":9360,"ĠÐ½Ð°ÑģÐµÐ»ÑĳÐ½Ð½ÑĭÐµ":9361,"ĠÐ¿ÑĢÐµÑģÑĤÑĥÐ¿Ð»ÐµÐ½Ð¸Ñı":9362,"ĠÑģÐ¾ÑĨÐ¸Ð°Ð»Ð¸ÑģÑĤÐ¸ÑĩÐµÑģÐºÐ¾Ð³Ð¾":9363,"Ð¿ÑĢÐ¸Ð¿":9364,"Ð½ÑıÐ¼Ð¸":9365,"Ð¸Ð»ÑĮÑı":9366,"ÑĢÐ°ÑģÑģÑĤÐ¾ÑıÐ½Ð¸Ðµ":9367,"ĠÐ»ÐµÐ¿":9368,"\"\"":9369,"ĠÑĤÐµÐ½Ð´":9370,"ĠÑħÑĢÐ¾Ð¼":9371,"ĠÐ²ÑĭÐ±ÑĢÐ°Ð½":9372,"ÑĨÐ¸Ð½":9373,"Ð²Ð¾Ð½":9374,"ĠÐ¶Ð¸ÑĤÑĮ":9375,"Ð¾ÑĩÐ½ÑĭÐ¼":9376,"ĠÑĦÐ¸Ð½Ð¸ÑĪ":9377,"ĠÑĢÐ°ÑģÑĤÐµÐ½Ð¸Ñı":9378,"ĠÐ¿ÐµÑĢÐµÐ²Ð¾Ð´Ðµ":9379,"ĠÐ¿Ð¸ÑģÑĮÐ¼Ð°":9380,"ĠÐºÑĥÐ·Ð½Ðµ":9381,"ĠÐ½Ð°ÑģÐ»ÐµÐ´Ð¸Ñı":9382,"ĠÐ¿ÑĢÐ¾Ð²ÐµÑģÑĤÐ¸":9383,"Ġaw":9384,"ĠÐ¾ÑģÐµÐ½ÑĮÑİ":9385,"ich":9386,"ĠÑĩÐµÐ¼Ð¿Ð¸Ð¾Ð½Ð°":9387,"ĠÑĦÑĢÐ°Ð³Ð¼ÐµÐ½ÑĤ":9388,"ĠÐºÑį":9389,"ĠÐ¿ÑĢÐµÐ´ÐµÐ»Ð°Ð¼Ð¸":9390,"ĠÑĩÐµÑĢÐ½Ð¸Ð³":9391,"ĠÐ¼Ð¾Ð»Ð¾Ð´Ð¾Ð¹":9392,"ĠÐ³ÑĢÑĥÐ½":9393,"ĠÐ²ÑĭÐ¿ÑĥÑīÐµÐ½Ð°":9394,"ĠÐ»Ð¸Ð´ÐµÑĢ":9395,"ĠÐ¿Ð¾ÑģÐ¾Ð»ÑĮ":9396,"Ð´Ð°Ð¼":9397,"Ð¶ÑĥÑĢÐ½":9398,"ĠÑĪÐ°Ð¼":9399,"ĠÐ¼ÐµÑĤÑĢÐ°":9400,"ĠÐ²Ð»Ð¸ÑıÐ½Ð¸Ñı":9401,"ÑģÐ±Ð¾ÑĢ":9402,"ĠÐ´Ð¾ÑģÑĤÐ¸Ð³Ð°ÐµÑĤ":9403,"ĠÐ°Ð´ÑĢÐµÑģ":9404,"Ð¸Ð¼ÑĭÐ¹":9405,"Ġ58":9406,"ĠÐ´ÐµÐ¼Ð¾Ð½ÑģÑĤ":9407,"ĠÐ´Ð¸Ð²Ð¸Ð·Ð¸Ð¾Ð½Ð°":9408,"ms":9409,"Ð»ÑĥÑĪ":9410,"ĠÐ»ÐµÑģÑĤ":9411,"Ġ68":9412,"ÐµÐ»ÑĮÐ½Ð¾Ð³Ð¾":9413,"Ð°ÑĤÐµÐ»Ñİ":9414,"ĠÐ¿ÑĢÐ¾ÑĪÐ»Ð¾Ð¼":9415,"ĠÐºÑĢÑĭÐ¼ÑģÐºÐ¾Ð¹":9416,"ĠÐ¿ÐµÑĢÐµÐ½Ð¾Ñģ":9417,"Ð´Ð°Ñħ":9418,"ĠÐ¿ÑĢÐµÐ¿ÑıÑĤ":9419,"ĠÐ°Ð»Ð³Ð¾ÑĢ":9420,"ÑģÐµÐ³Ð¾Ð´Ð½Ñı":9421,"ĠÑĤÑĢÐ¾ÑĦ":9422,"ĠÐ°Ð½Ð½Ð°":9423,"ĠÑĢÐ°ÑģÑĦÐ¾ÑĢÐ¼":9424,"ĠÐ¸Ð¼Ð¿ÐµÑĢÐ°ÑĤÑĢ":9425,"ĠÐ¸Ð½ÑĤÐµÑĢÐµÑģÐ¾Ð²":9426,"Ð°Ð´Ñĥ":9427,"ĠÐ¸Ð½Ð³":9428,"Ð°ÐºÐ¾Ð¼Ð¿":9429,"ĠÐ½Ð¾ÑģÐ¸ÑĤ":9430,"ĠÑĥÑĩÐµÐ±Ð½ÑĭÑħ":9431,"ĠÐ¿ÑĢÐ¾Ð²Ð¾Ð´Ð¸Ð»Ð¸ÑģÑĮ":9432,"ĠÐºÐ¾ÑĢÐ¿Ð¾ÑĢÐ°":9433,"ĠÑĩÑĳÑĤ":9434,"Ð¸ÑģÐ¸":9435,"ĠÐ¾ÑģÐ²ÐµÑī":9436,"Ð»ÑĳÑĤ":9437,"ÑĩÐµÐ²":9438,"ĠÑĢÑĥÑģÐ¸":9439,"ĠÑģÐ¾ÐµÐ´Ð¸Ð½ÐµÐ½Ð¸Ðµ":9440,"ĠÐ²Ð¾Ð»Ð¾Ð³":9441,"ĠÐ·Ð°Ð¹":9442,"ĠÐ¼Ð°Ð²":9443,"ĠÑģÑĤÑĢÐ¾Ñı":9444,"ĠÑĩÐµÑĤÐ²ÐµÑĢÑĤÑĮ":9445,"ĠÐºÐ°Ð¼ÐµÐ½":9446,"ĠÑģÐ²ÑıÐ·Ð°Ð½Ð½ÑĭÑħ":9447,"Ð½Ð¾Ð²Ð¾Ð´":9448,"ĠÐ°Ð½Ð³Ð»Ð¸Ñĩ":9449,"Ġ57":9450,"Ð°ÑĢÑĤÐ°":9451,"ĠÑĦÐ°Ð½ÑĤÐ°ÑģÑĤ":9452,"ĠÑĤÐ¸ÑĢÐ°Ð¶":9453,"ĠÑĥÐ²Ð°Ð¶":9454,"ÐµÐ´Ð°":9455,"ĠÐ¿Ð¾Ð¿ÑĥÐ»Ñı":9456,"ĠÐ¿ÑĢÐ¾Ð´Ð¾Ð»Ð¶Ð°ÐµÑĤ":9457,"ĠÐ¿Ð¾Ð¿ÑĥÐ»ÑıÑĢÐ½Ð¾ÑģÑĤÑĮ":9458,"ĠÐ´ÑĢÐµÐ²Ð½ÐµÐ¹":9459,"ĠÐ½Ñĥ":9460,"ÑĢÐ²":9461,"ĠÑģÐ¾Ð²ÑĢÐµÐ¼ÐµÐ½":9462,"ĠÐºÐ¾ÑģÑĤÑİ":9463,"ÐºÐ¾ÑģÑĤ":9464,"ĠÐ¼Ð³Ñĥ":9465,"ys":9466,"ĠÐ³ÑĥÐ±ÐµÑĢÐ½Ð°ÑĤÐ¾ÑĢÐ°":9467,"ĠÐ°ÑĦÑĢÐ¸ÐºÐ°Ð½":9468,"ĠÐ¿Ð¸":9469,"ÑĢÐµÐ·ÑĥÐ»ÑĮÑĤ":9470,"ĠÐ¿Ð»Ð¾ÑīÐ°Ð´ÑĮÑİ":9471,"Ð°Ð½Ð¾Ð²Ð¸Ñĩ":9472,"Ð¿Ð¸ÑĤÐ°Ð½":9473,"ĠÑĤÐ°Ð½Ðº":9474,"ĠÑģÐ¾ÑģÑĤÐ°Ð²Ð¸Ð»Ð¸":9475,"Ð²ÐµÑģÐ½Ð¾Ð¹":9476,"ĠÐ·Ð°ÑģÐ»ÑĥÐ¶ÐµÐ½Ð½ÑĭÐ¹":9477,"Ġ54":9478,"93":9479,"ÐµÐ»Ð»Ð°":9480,"Ð¶ÐµÐ½Ð°":9481,"Ð¾Ð´Ð¾Ð¼":9482,"ĠÑĥÑĩÑĳÐ½ÑĭÑħ":9483,"old":9484,"Ð¸Ð·Ð¼ÐµÐ½":9485,"Ð»Ð°Ð´Ðµ":9486,"ĠÐ¾Ð³Ð½ÑĳÐ¼":9487,"ĠÐ¸Ð¼Ð¿ÐµÑĢÐ¸Ñı":9488,"ÑĦÐ¸ÐºÑģ":9489,"ĠÐ¿ÐµÑĩÐ°ÑĤÐ¸":9490,"ÑĢÐµÑĤÑĮ":9491,"ĠÑĥÐ±Ð¸Ð¹ÑģÑĤÐ²Ð°":9492,"ll":9493,"ĠÑİÐ¶Ð½Ð¾Ð¼":9494,"Ð¾Ð¿Ð°":9495,"ish":9496,"ÑĤÐµÐº":9497,"Ð¼Ñı":9498,"Ð¾Ð´ÐµÑĢÐ¶":9499,"Ġ%),":9500,"ĠÐ¿ÑĥÑĤÐµÐ¹":9501,"ÑĩÐµÐ½":9502,"ĠÐ·Ð°ÐºÐ»ÑİÑĩÐµÐ½Ð¸Ñı":9503,"ÐµÐ³Ð¾Ð²":9504,"ĠÐ²ÑĭÐ¸Ð³ÑĢÐ°Ð»Ð°":9505,"ĠÑĤÐµÐ»ÐµÑĦÐ¾Ð½":9506,"ĠÑĢÑĥÐºÐ¾Ð²Ð¾Ð´ÑģÑĤÐ²Ð°":9507,"ĠÐ¿ÑĢÐ¾Ð²Ð¾Ð´Ð¸ÑĤÑģÑı":9508,"ĠÐ´Ð¾ÑĩÐµÑĢ":9509,"Ð½ÐµÑģÐºÐ¾Ð»ÑĮÐºÐ¾":9510,"Ð½Ð¸Ð»":9511,"ĠÑĢÐ°Ð·Ð»Ð¸ÑĩÐ½ÑĭÐ¼Ð¸":9512,"ÐºÐ»Ð¸":9513,"ĠÐ¾Ð±ÑĬÑıÐ²Ð»ÐµÐ½Ð¾":9514,"ĠÐ½Ð¸Ð³":9515,"ĠÐ¿ÑĢÐ¸ÑģÐ¾ÐµÐ´Ð¸Ð½Ð¸Ð»ÑģÑı":9516,"ĠÐ²Ð¾ÐµÐ½Ð½ÑĭÐ¼":9517,"ĠÐ¿Ð¾ÑıÑģ":9518,"ĠÑĢÐ°Ð½Ð½Ð¸Ñħ":9519,"ÑĢÐ°ÑĢ":9520,"ĠÑģÐµÑģÑĤÑĢÐ°":9521,"ĠÐ°ÑĪ":9522,"Ð¸ÐºÐ°Ð¼":9523,"Ġviii":9524,"Ġ800":9525,"ĠÑĤÐµÐ¼Ð°ÑĤ":9526,"ĠÑģÑĤÐ°ÑĢÑĪÐ¸Ð¼":9527,"ĠÐ²ÐµÐ´ÑĳÑĤ":9528,"ĠÑĢÐµÐ´Ð°ÐºÑĤÐ¾ÑĢ":9529,"ĠÐ¿ÑĢÐ¸ÐºÐ°Ð·Ð°Ð»":9530,"ĠÑĨÐ¸ÐºÐ»":9531,"Ð°ÑĤÐµÐ»ÑĮÑģÑĤÐ²Ð¾":9532,"ĠÑģÐ¾Ð·Ð½":9533,"Ð±ÑĥÐ´ÑĥÑĩÐ¸":9534,"ĠÐ¾Ð±ÑĢÐ°Ð·Ð¾Ð²Ð°ÑĤÐµÐ»ÑĮ":9535,"ĠÑģÐ¾Ð·Ð´Ð°Ð½Ð¸Ñİ":9536,"Ð¾ÑĩÐ½ÑĥÑİ":9537,"ĠÑĢÐ°Ð·Ð²Ð¸ÑĤÐ¸Ð¸":9538,"ĠÐ½ÐµÐ»ÑĮÐ·Ñı":9539,"ux":9540,"Ð¼ÑĥÑĤ":9541,"ĠÑĢÐ°Ð²ÐµÐ½":9542,"ĠÐ´Ð²Ð¸Ð³Ð°ÑĤÐµÐ»Ñı":9543,"ĠÐ¸Ð¾Ð°Ð½Ð½Ð°":9544,"ĠÐ´Ð°Ð³ÐµÑģÑĤ":9545,"ĠÐ¾Ð±ÑīÐ¸Ð¼":9546,"ĠÐ½Ð°ÑħÐ¾Ð´Ð¸Ð»Ð¾ÑģÑĮ":9547,"ĠÐ³Ð»Ð°Ð²Ð½Ð¾ÐºÐ¾Ð¼Ð°Ð½Ð´":9548,"ĠÐ³ÑĢÐ°Ð½Ð¸ÑĨÑĥ":9549,"ĠÐ·Ð°Ð²ÐµÑĢÑĪÐµÐ½Ð¸Ñı":9550,"ĠÐ»Ð¾ÑĤ":9551,"ĠÑģÐ¾ÑģÑĤÐ¾ÑıÑĤ":9552,"Ð°ÑİÑīÑĥÑİ":9553,"ĠÑĨÐµÐ»ÐµÐ¹":9554,"ĠÐ²Ð¾ÑģÑĮÐ¼":9555,"ĠÑĥÑģÑĤÑĢÐ°":9556,"ĠÑĢÐ¾Ð·ÑĭÐ³":9557,"ĠÐ¿Ð¾ÐµÐ·Ð´Ð°":9558,"ĠÐ³Ð²Ð°ÑĢÐ´ÐµÐ¹ÑģÐºÐ¾Ð³Ð¾":9559,"ĠÐºÐ¸Ð½ÐµÐ¼Ð°ÑĤÐ¾Ð³ÑĢÐ°ÑĦ":9560,"ĠÐ¿Ð¾Ð´Ð¿Ð¾Ð»ÐºÐ¾Ð²":9561,"Ð»ÑĭÐ¹":9562,"ÐºÑĢÐµÑģÑĤÑĮÑıÐ½":9563,"ĠÑĦÐ¾Ð½Ðµ":9564,"ÑģÐ¿ÑĥÑģÑĤÑı":9565,"ĠÐ¸Ð·Ð¼ÐµÐ½ÐµÐ½Ð¸Ð¹":9566,"2013":9567,"ĠÐ²Ð¸ÑĪ":9568,"ĠÐ²ÑĭÑıÑģÐ½":9569,"enter":9570,"ĠÐ¿ÑĢÐ¾ÑıÐ²Ð»ÐµÐ½Ð½ÑĭÐµ":9571,"ĠÑĪÐµÐ²":9572,"ĠÑĦÑĢÐ°Ð½ÑĨÐ¸Ñı":9573,"ĠÐ½ÐµÑĢÐµÐ´ÐºÐ¾":9574,"ÑģÐ¼Ð¸Ð½":9575,"ĠÐ²Ð¾Ð·Ð²ÑĢÐ°ÑīÐ°ÐµÑĤÑģÑı":9576,"ĠÑĤÐµÑĤ":9577,"ĠÐ²ÑĭÐ¿ÑĥÑģÑĤÐ¸Ð»Ð°":9578,"ĠÐ¼ÑİÐ½Ñħ":9579,"ĠÐ¶Ñİ":9580,"ĠÑįÐºÐ¸Ð¿Ð°Ð¶Ð°":9581,"ĠÑĥÑĩÐ°ÑģÑĤÐ½Ð¸ÐºÐ¸":9582,"ÑĪÑĤÐ°ÑĤ":9583,"ĠÑĢÐ°Ð±Ð¾ÑĤÐ°ÑİÑĤ":9584,"formula":9585,"ĠÑĢÐ°ÑģÑģÐ¼Ð¾ÑĤÑĢ":9586,"ĠÐ´ÐµÑģÑıÑĤÑĮ":9587,"Ð°ÑĢÐºÑĤ":9588,"ĠÐ°Ð´Ð¼Ð¸Ð½Ð¸ÑģÑĤÑĢÐ°ÑĤÐ¸Ð²Ð½ÑĭÐ¹":9589,"Ð±ÑĢÐ°ÑĤ":9590,"ĠÐ±Ð¾Ð¼":9591,"ĠÑĤÑĥÐ»":9592,"ĠÐ¾ÑģÐ¾Ð±Ð¾":9593,"Ð±Ð¾Ð²":9594,"ĠÑģÐµÐ²ÐµÑĢÐ½Ð¾Ð¼":9595,"ĠÑĤÐ²ÑĳÑĢÐ´":9596,"Ð»ÑıÑı":9597,"Ð²Ð¾Ð·Ð´":9598,"ĠÐºÐ¾ÑĢÐ¾Ð±":9599,"ĠÐ½Ð°Ð·Ð²Ð°Ð½Ð°":9600,"ĠÐ½ÐµÐ·Ð½Ð°Ñĩ":9601,"ÑĢÐ°Ð½Ð¾Ð²":9602,"ĠÐ¼ÑĥÐ¶Ð°":9603,"Ð±ÐµÑĤ":9604,"ĠÐ¿Ð°Ð¼ÑıÑĤÐ½Ð¸ÐºÐ°":9605,"ĠÐ¿Ð°ÑģÑģÐ°Ð¶Ð¸ÑĢÐ¾Ð²":9606,"ĠÐ±ÐµÑģÐ¿Ð»Ð°ÑĤ":9607,"ĠÑģÐ¼ÑĭÑģÐ»Ðµ":9608,"Ð»ÐµÐ½Ð½Ð¾Ð³Ð¾":9609,"ĠÐ²Ð¾Ð»Ð¾ÑģÑĤ":9610,"ÐµÐ½Ð±ÑĥÑĢÐ³":9611,"ĠÐ²ÑģÐ¿Ð¾Ð¼Ð¸Ð½":9612,"ĠÐ²Ð½ÑĥÑĤÑĢÐµÐ½Ð½ÐµÐ¹":9613,"ĠÑģÐ°Ð¼Ð¾ÑĥÐ¿ÑĢÐ°Ð²":9614,"iss":9615,"ĠÐ»Ð°ÑĤÐ²Ð¸Ð¸":9616,"ĠÐ¿Ð¾ÑģÐ²ÑıÑĤ":9617,"ĠÐ²ÐµÐ´ÑĥÑīÐ¸Ñħ":9618,"ĠÐ¾Ð±ÑīÐµÑģÑĤÐ²ÐµÐ½Ð½Ð¾Ð¹":9619,"ĠÐ²ÐºÐ»ÑİÑĩÐµÐ½Ñĭ":9620,"Ð¸ÑĢÐ¾Ð²Ð°Ð½Ð¸Ñİ":9621,"ĠÐ´Ð¾ÐºÐ»Ð°Ð´":9622,"ĠÐºÐ¸Ð¿":9623,"Ġ1880":9624,"Ð°Ð»Ð°Ñħ":9625,"ĠÐ±Ð¾ÐºÑģ":9626,"ĠÐ¸ÑģÑĤÐ¾ÑĩÐ½Ð¸ÐºÐ°Ñħ":9627,"ĠÑĥÑģÑģÑĢ":9628,"ĠÐµÐ²Ð³ÐµÐ½Ð¸Ð¹":9629,"ĠÑĢÐ¸ÑĩÐ°ÑĢÐ´":9630,"ĠÑĤÐµÑĩÐµÐ½Ð¸Ñİ":9631,"ĠÐ½ÐµÐ²Ð¾Ð·Ð¼Ð¾Ð¶Ð½Ð¾":9632,"Ð¿ÑĢÐµÐ¶":9633,"me":9634,"Ð½Ð¸ÐºÐ¾Ð»":9635,"ĠÐ±Ð¾ÑĢÑĮÐ±Ñĥ":9636,"ÑįÑĦÑĦÐ¸ÑĨÐ¸":9637,"ĠÐ¾Ð±Ð»Ð°ÑģÑĤÐµÐ¹":9638,"Ġad":9639,"ĠÑĪÐ¸ÑĢÐ¸Ð½Ð¾Ð¹":9640,"ĠÐ´Ð¾Ð¼Ð¾Ð¹":9641,"ĠÐ³ÑĥÐ±ÐµÑĢÐ½Ð¸Ñı":9642,"ĠÑıÐ²Ð»ÑıÑİÑī":9643,"ran":9644,"Ð°ÑĤÐµÐ»ÑĮÐ½Ð¾Ðµ":9645,"ĠÐ¿Ð°ÑĢÐ¾Ð²":9646,"ĠÐ±ÑĢÐ°Ð¹":9647,"ĠÐ¿ÑĢÐ¸Ð¼ÐµÐ½ÑıÐµÑĤÑģÑı":9648,"ĠÐ¼ÑĭÑģ":9649,"ĠÑĦÐ°Ð¼Ð¸Ð»Ð¸Ð¸":9650,"ĠÐ¿ÐµÑĢÐµÐµÑħÐ°Ð»Ð°":9651,"ÑĦÐ»":9652,"Ð°Ð²Ð¸":9653,"Ð¿Ð¸Ð½":9654,"ĠÑĨÐµÑħ":9655,"ĠÑģÑĤÐ°Ð±Ð¸Ð»ÑĮ":9656,"ĠÑģÐ¾ÑĢÐµÐ²Ð½Ð¾Ð²Ð°Ð½Ð¸Ð¹":9657,"per":9658,"Ð»ÑİÐ·":9659,"ĠÐ´Ð¾Ð¿ÑĥÑģÐº":9660,"ier":9661,"ÑĥÐ»ÑĮÑĦ":9662,"ĠÐ¸ÑģÑĤÐ¸Ð½":9663,"ĠÑģÑĢÐµÐ´Ðµ":9664,"ĠÐ±ÑĭÐ²ÑĪÐµÐ¹":9665,"ick":9666,"ĠÐ¸ÑģÐ¿Ð¾Ð»Ð½ÑıÐµÑĤ":9667,"ĠÑģÐ¾Ð´ÐµÑĢÐ¶Ð°ÑĤ":9668,"ÑįÐ½Ð´":9669,"ĠÑĦÑĢÐ¾Ð½ÑĤÐ°Ñħ":9670,"ÑĮÐµÐ¼":9671,"ĠÑĢÐµÑĩÑĮ":9672,"ĠÐºÑĢÐ°ÑģÐ½Ð¾Ð´":9673,"ĠÑĤÐ¾ÑĩÐ½Ð¾":9674,"ÐºÐ¾Ð²Ð¾Ð³Ð¾":9675,"ĠÐ¿ÑĢÐ¸ÑĤÐ¾Ðº":9676,"Ð´Ð¾Ð±":9677,"Ð¾ÑĢÐ¾Ð´Ð°":9678,"Ð¾Ð¶Ð´ÐµÐ½Ð¸Ð¸":9679,"Ð¾Ð´Ð½Ð¾":9680,"Ð¾Ð¼Ð°":9681,"ĠÐ²ÐµÐ±":9682,"ĠÐ²Ð²ÐµÑĢÑħ":9683,"Ð¾Ð³Ð¸":9684,"ĠÐ²Ð¾Ð¾ÑĢÑĥÐ¶ÐµÐ½Ð¸Ðµ":9685,"Ð°Ð»ÑĤ":9686,"ĠÐ²Ð¸Ñģ":9687,"ĠÐ°Ð¼ÐµÑĢÐ¸ÐºÐ°Ð½ÑģÐºÐ°Ñı":9688,"ĠÑģÑĤÑĢÐ°Ð½Ñĥ":9689,"Ð±Ð°Ñħ":9690,"ĠÑĥÐ²Ð¾Ð»ÐµÐ½":9691,"ĠÐ²Ð¿Ð°Ð´":9692,"ĠÐ²ÑĭÑĢÐ°Ñī":9693,"ĠÐ¾Ð¿Ð¸ÑģÐ°Ð½Ð¸Ðµ":9694,"2003":9695,"ĠÐ¿ÑĢÐ¾ÑģÑĤÑĢÐ°Ð½ÑģÑĤÐ²Ð°":9696,"Ġen":9697,"ĠÑĤÑĥÐ´Ð°":9698,"ĠÐ´ÐµÐ¹ÑģÑĤÐ²Ð¸ÑĤÐµÐ»ÑĮÐ½Ð¾":9699,"ĠÐ¾ÑģÐ°Ð´ÐºÐ¾Ð²":9700,"ĠÐ²ÑĢÐ°ÑĤ":9701,"ĠÑĩÐ°ÑģÐ°":9702,"Ð¾ÑĤÐ½Ð¾ÑĪ":9703,"ĠÐ¼ÑıÑĤÐµÐ¶":9704,"ĠÐ¾ÑĤÐºÑĢÑĭÑĤÐ¾":9705,"ĠÐ¾ÐºÐµÐ°Ð½Ð°":9706,"Ð°ÑĢÑģÐºÐ¾Ð¹":9707,"ĠÐ¼Ð¾Ð½Ð°ÑģÑĤÑĭÑĢÐµ":9708,"ĠÐ²ÑĭÐºÑĥÐ¿":9709,"ĠÐ½ÐµÐ±Ð¾Ð»ÑĮÑĪÐ¸Ñħ":9710,"ÐµÐ´Ð½ÐµÐ²":9711,"ĠÑĥÑĤÐ²ÐµÑĢÐ¶Ð´ÑĳÐ½":9712,"ÑħÐ»":9713,"ĠÐ³Ð¾ÑĢÐ¾Ð´Ñĥ":9714,"ĠÐ¼Ð°ÑģÑģÑĭ":9715,"ĠÑĢÐµÐ¿ÑĢÐµÑģÑģ":9716,"ĠÐ½Ð°ÑģÑĩÐ¸ÑĤÑĭÐ²Ð°Ð»Ð¾ÑģÑĮ":9717,"ÑĢÐ°Ð·ÑĥÐ¼":9718,"ÑħÑĥÐ´Ð¾Ð¶":9719,"ĠÐ¶Ð¸Ð²ÑĳÑĤ":9720,"ĠÑģÐ¾ÑĨÐ¸Ð°Ð»ÑĮÐ½ÑĭÑħ":9721,"ĠÐ´Ð¾ÐºÑĥÐ¼ÐµÐ½ÑĤÐ¾Ð²":9722,"ĠÐ¼ÐµÑĤÑĢÐ¾Ð¿Ð¾Ð»Ð¸ÑĤ":9723,"ĠÐ·Ð½Ð°Ð¼ÐµÐ½Ð¸":9724,"ĠÐ¾Ð±ÐµÑģÐ¿ÐµÑĩÐ¸Ð²":9725,"ĠÐ·Ð°ÐºÐ¾Ð½ÑĩÐ¸Ð»":9726,"ÑģÐ°Ð¹":9727,"ĠĠ":9728,"ĠÑĢÐµÑĪÐ¸Ð»Ð¸":9729,"ĠÐ¾Ð¿ÑĢÐµÐ´ÐµÐ»ÑıÐµÑĤÑģÑı":9730,"ĠÑģÐµÑĢÐµÐ±":9731,"ĠÑĥÑĩÐ°ÑģÑĤÐºÐ°":9732,"ĠÐ½ÐµÐ¼ÑĨÐµÐ²":9733,"ĠÐ¾ÑĤÐ»Ð¾Ð¶":9734,"ĠÐ²ÑĢÐµÐ¼ÐµÐ½":9735,"Ð·Ð°ÑģÐ»ÑĥÐ¶":9736,"ÑįÐ½ÑĮ":9737,"ÐµÐ½ÑģÐ°":9738,"ĠÐ½Ð¾ÑĢÐ²ÐµÐ¶":9739,"ĠÑĤÐ¸ÑĤÑĥ":9740,"91":9741,"ĠÐ´Ð°ÑĤÑĮ":9742,"ĠÐ±ÐµÐ»ÑĮÐ³Ð¸Ð¸":9743,"ĠÐ¿Ð°Ð»Ðµ":9744,"ÐµÐ»ÐµÑĤ":9745,"ÑĥÐ·Ñĭ":9746,"ĠÐ½ÐµÐ¼ÐµÐ´":9747,"Ð³Ð»Ð¾Ð¼":9748,"ĠÐ»Ð¸Ð½Ð¸Ñİ":9749,"ĠÐ°Ð½Ð³Ð»Ð¸Ð¹ÑģÐºÐ¾Ð¼":9750,"ĠÐ°Ð»ÑĦÐ°Ð²":9751,"ĠÐ²Ð¾ÑģÑĤÐ¾ÑĩÐ½Ð¾":9752,"ĠÐ½Ð°ÑģÐµÐ»ÐµÐ½Ð¸ÐµÐ¼":9753,"ĠÐ¿ÐµÑĢÐµÑĪÐ»Ð°":9754,"ĠÐ¿ÐµÑĢÑģÐ¸Ð´":9755,"Ð¸ÑĢÐ¾":9756,"ÑĤÑĢÑĥÐ´":9757,"Ð¾Ð¶Ð°Ð½":9758,"Ð´Ð°ÑĳÑĤÑģÑı":9759,"Ð´Ð¾Ð¿":9760,"ĠÐºÐ¾Ð±":9761,"ĠÐ´Ð»Ð¸Ð½Ñĭ":9762,"ĠÐ½Ð°Ð³ÑĢÐ°Ð´Ñĭ":9763,"2002":9764,"ost":9765,"ĠÑģÐ»Ð°":9766,"ĠÐ¿Ð¾Ð²ÐµÑģÑĤÐ²":9767,"Ð¾ÑĤÐºÑĢÑĭÑĤ":9768,"Ð¸Ð²ÑĪÐµÐ¹ÑģÑı":9769,"ĠÐ³ÐµÐ½ÑĢÐ¸Ñħ":9770,"ĠÐ²ÑĢÐµÐ¼ÐµÐ½Ð½Ð¾":9771,"Ð¼Ð°ÑĢÑĪ":9772,"Ġcomp":9773,"ĠÑģÐ²ÑıÐ·Ð°Ð½Ð°":9774,"Ð·Ð¾ÑĢ":9775,"ĠÐ¾ÑĢÐ°Ð½":9776,"ĠÑģÑĤÑĥÐ´ÐµÐ½ÑĩÐµÑģÐº":9777,"ĠÑģÐºÐ¾ÑĢÐ¾ÑģÑĤ":9778,"ĠÐ¼ÐµÑħÐ°Ð½Ð¸Ð·":9779,"Ð´Ð°ÐµÐ¼":9780,"Ð±Ð»Ð¸Ð¶Ð°Ð¹":9781,"ÑĩÐµÑģÐºÐ¸Ð¹":9782,"ĠÐ³Ð¾Ð´Ð°Ð¼Ð¸":9783,"Ð¸Ð¼ÑĭÐ¼":9784,"ĠÐ´Ð°Ð½Ð½Ð¾Ð¼":9785,"ĠÐ´Ð»Ð¸Ð½Ñĥ":9786,"Ð³Ð¾Ð»Ð¾Ð²":9787,"ĠÐºÐ½ÑıÐ¶ÐµÑģÑĤÐ²Ð°":9788,"ÐºÐ¾Ð¼Ð¿Ð°Ð½Ð¸Ñı":9789,"ĠÐ´Ð¸ÑģÑĨÐ¸Ð¿Ð»Ð¸Ð½":9790,"ĠÑĦÐ°":9791,"ĠÐ¾Ð±ÑģÑĤÐ°Ð½Ð¾Ð²":9792,"ĠÐµÐ»ÑĮ":9793,"Ġ1901":9794,"Ġmcg":9795,"ĠÑĥÑĤÐ²ÐµÑĢÐ´":9796,"ĠÐ³Ð»Ð°Ð²Ð¾Ð¹":9797,"Ð¼ÑĥÑĢ":9798,"Ð¿Ð¾ÑģÑĳÐ»":9799,"ĠÑĤÑĢÐ¾Ð»":9800,"ÑĢÐµÐ³Ñĥ":9801,"Ð¾Ð½Ð°Ñħ":9802,"ÑıÐ½ÑĮ":9803,"ĠÑĥÑģÐ¿ÐµÑħÐ¾Ð¼":9804,"ĠÑĤÐ¾ÑĢÐ¼":9805,"ĠÐ»ÑĥÐ½":9806,"ÑĬÐµÐ·Ð´":9807,"ĠÐºÑĢÑĥÐ¶":9808,"Ð¾ÑĢÐ¾ÑģÑģ":9809,"Ð»Ð°Ðº":9810,"Ð¾Ð³Ð¾Ð½":9811,"ÐºÐ°Ð¹":9812,"ĠÑĤÑĢÐ¾Ð½":9813,"ĠÐ¿Ð»Ð°Ð½ÐµÑĤÑĭ":9814,"ĠÐ»Ð¸ÑĨÐ¾":9815,"ĠÑħÐ°ÑĢÐ°ÐºÑĤÐµÑĢÐ°":9816,"Ð²Ð½ÑĥÑĤ":9817,"ĠÐ»ÑİÐ´Ð¾Ð²":9818,"ĠÑģÐ¾ÑħÑĢÐ°Ð½Ð¸Ð»Ð¸ÑģÑĮ":9819,"ĠÐ±Ð»Ð¸Ð¶":9820,"ĠÐ»Ð¸ÑĩÐ½Ð¾ÑģÑĤÐ¸":9821,"ĠÐ±ÐµÐº":9822,"ĠÐ¿Ð°Ð¼ÑıÑĤÐ½Ð¸ÐºÐ¾Ð²":9823,"Ð¼Ð¸Ð»":9824,"ĠÐ¾ÑĢÐ³Ð°Ð½Ð¸Ð·Ð¾Ð²Ð°Ð»":9825,"ĠÐ´ÑĥÑħÐ¾Ð²Ð½Ð¾Ð¹":9826,"ĠÐ¿ÐµÑħÐ¾ÑĤÑĭ":9827,"ĠÐ¿ÑĢÐ¸Ð·Ð½Ð°":9828,"ĠÐ¿ÐµÑĢÐ²ÐµÐ½ÑģÑĤÐ²Ðµ":9829,"ĠÐ´Ð°Ð¼":9830,"ÑİÐ¹":9831,"ĠÐ³Ð¾Ð²Ð¾ÑĢÐ¸Ð»":9832,"ĠÑĪÐ¾ÑĤÐ»Ð°Ð½Ð´Ð¸Ð¸":9833,"Ð½ÑĥÐ²ÑĪÐ¸ÑģÑĮ":9834,"ĠÐºÐ°ÑĪ":9835,"ĠÑģÐ¿ÐµÑĨÐ¸Ð°Ð»ÑĮÐ½ÑĭÐ¹":9836,"ÐµÑĢÐ°ÑĤÐ¾ÑĢ":9837,"ĠÐ¿ÑĢÐ¾Ð¿Ð¾Ð²ÐµÐ´":9838,"ĠÐ¿ÑĢÐµÑģ":9839,"ĠÐºÐ¾Ð½ÑĦÐ»Ð¸ÐºÑĤ":9840,"ĠÑģÐµÑĢÐ³ÐµÑı":9841,"ĠÐ²Ð»Ð°ÑģÑĤÐµÐ¹":9842,"ĠÐ´ÑĢÐµÐ²Ð½Ð¸Ñħ":9843,"ĠÑħÐ¾Ð»Ð¼":9844,"ĠÑĤÐ¾Ð¿Ð¾Ð½Ð¸Ð¼":9845,"ĠÐ²Ð°Ð»ÑĮ":9846,"ĠÐºÐ»Ð¸Ð¼Ð°ÑĤ":9847,"ĠÐ¸Ð½ÑģÑĤÑĢÑĥÐº":9848,"Ð·Ð¾Ð»Ð¾ÑĤÐ°Ñı":9849,"ÑĤÐ¸Ñı":9850,"ĠÐ³Ð»Ð°Ð·Ð°":9851,"ĠÐ´ÐµÐ¿ÑĥÑĤÐ°ÑĤÐ¾Ð¼":9852,"Ã¡":9853,"Ð¸Ð²Ð°ÑĤÑĮÑģÑı":9854,"Ð°Ð±Ð¸Ð»":9855,"ÑıÐ¿Ð¾Ð½":9856,"ĠÐ¼Ð¸Ð½Ð¸":9857,"ÑħÐ°Ð¼":9858,"Ð¿Ð¾ÑģÑĤÐ°Ð½Ð¾Ð²":9859,"ĠÑĥÐ¿ÑĢÐ°Ð²Ð»ÐµÐ½Ð¸ÐµÐ¼":9860,"Ð±ÑĢÐ¾Ð½":9861,"ĠÐ¿Ð¾Ð±ÐµÐ´Ð¸ÑĤÐµÐ»ÑĮ":9862,"ĠÐ¿ÑĢÐ¸Ð½Ð¸Ð¼Ð°Ð»Ð¸":9863,"ĠÐ²Ð·ÑıÑĤÑĮ":9864,"ĠÐºÐ¾Ð½ÐºÑĥÑĢÑģÐµ":9865,"ÑĦÑĥ":9866,"ĠÑģÐ¾Ð²ÐµÑĤÑģÐºÐ°Ñı":9867,"ark":9868,"Ð¸Ð´Ð¶":9869,"ĠÐ¿Ð¾Ð½ÑıÑĤÐ¸Ðµ":9870,"Ð¿Ð¾Ñı":9871,"ÐµÑĢÑģÐºÐ¸Ð¹":9872,"ÐµÐ¼Ð¾Ð½":9873,"ÑĥÐ»Ð¸ÑĨÐ°":9874,"ĠÑĤÐµÑĢÑĢÐ¸ÑĤÐ¾ÑĢÐ¸Ð¹":9875,"ĠÐ±Ð°Ð²":9876,"ÑĥÑģÐ¾Ð¼":9877,"ĠÐºÐ¾ÑĢÐ¾Ð»ÐµÐ²ÑģÐºÐ¾Ð¹":9878,"Ð¸Ð¹ÑģÐºÑĥÑİ":9879,"ĠÑİÑģÑĤ":9880,"ĠÑħÐ¸ÑĢÑĥÑĢÐ³":9881,"ĠÑĢÐ°ÑģÐ¿Ð°Ð´Ð°":9882,"2001":9883,"Ð°ÑĢÑĥ":9884,"Ð¸Ð²ÑĪÐ¸Ð¼":9885,"Ð½Ð°ÑĤÑĮ":9886,"Ð°ÑĢÐ°Ð±":9887,"ĠÐ·Ð°ÑıÐ²Ð»Ñı":9888,"ĠÐ²Ð½ÐµÑĪÐ½ÐµÐ¹":9889,"ĠÑĤÐ¾Ð¼Ð°Ñģ":9890,"ÐµÑĤÐ¾Ð¼":9891,"ĠÐ¼Ð¾Ð»Ð¸ÑĤ":9892,"ĠÑıÐºÐ¾Ð±Ñĭ":9893,"ĠÐ²ÐµÑģÐ½Ð¾Ð¹":9894,"Ġcod":9895,"Ð¾Ð±Ð¾ÑĢÐ¾ÑĤ":9896,"ial":9897,"ĠÑģÐ¿Ð¾ÑģÐ¾Ð±Ð½Ð¾ÑģÑĤÐ¸":9898,"ĠÐ¿ÑĢÐ¾Ð¸ÑģÑħÐ¾Ð¶Ð´ÐµÐ½Ð¸Ðµ":9899,"ĠÐºÐ°Ð¶Ð´ÑĭÐµ":9900,"ĠÐ¿ÑĥÐ±Ð»Ð¸Ðº":9901,"ĠÑĢÐµÐ·ÑĥÐ»ÑĮÑĤÐ°ÑĤÐ¾Ð²":9902,"ĠÐ¼ÑĥÐ·ÑĭÐºÐ°":9903,"ĠÑĢÐµÑĪÐ°ÐµÑĤ":9904,"ĠÐ½ÐµÐºÐ¾ÑĤÐ¾ÑĢÑĭÐ¼":9905,"Ð¾ÑĩÐ°Ð¹":9906,"ĠÑģÐ¾Ð²ÑģÐµÐ¼":9907,"ĠÐ¿ÑĢÐµÐ¿Ð°ÑĢÐ°ÑĤ":9908,"Ð°ÑĤÐµÐ»ÑıÐ¼":9909,"ĠÐ³ÐµÐ½ÑĢÐ¸":9910,"ĠÐ³Ð¾ÑĢÐµ":9911,"ĠÐ¿Ð¾Ð¶Ð°Ð»":9912,"ĠÐ¼Ð¸Ð»Ð»Ð¸Ð¾Ð½Ð°":9913,"ĠÐ´Ð¾Ð»Ð³Ð¾Ðµ":9914,"ĠÑĥÑĩÐµÐ½Ð¸ÐºÐ°Ð¼Ð¸":9915,"Ġman":9916,"ĠÐ¾Ð±ÑĢÐ°Ð·Ð¾Ð²Ð°Ð½Ð¸Ð¹":9917,"Ġ1870":9918,"ĠÑĢÐ°Ð·Ð½Ð¾Ð²Ð¸Ð´":9919,"ĠÑħÑĢÐ°Ð¼Ðµ":9920,"ĠÐ±ÑĢÐ°Ð½":9921,"ĠÑİÐ½Ð¸":9922,"Ð°ÐµÐ¼Ð¾Ð³Ð¾":9923,"ĠÐ±ÑĢÐ°Ð·Ð¸Ð»ÑĮ":9924,"ĠÑĢÐ°Ð·Ð²ÐµÑĢ":9925,"ĠÐ½Ð°ÑģÐµÐ»ÑĳÐ½Ð½Ð¾Ð³Ð¾":9926,"ĠÐ¶ÐµÐ»ÐµÐ·Ð½Ð¾Ð´Ð¾ÑĢÐ¾Ð¶Ð½Ð°Ñı":9927,"ĠÐ²ÑģÐµÐ²":9928,"ĠÐ¿ÐµÑĢÐµÑĪÐ»Ð¸":9929,"ĠÐ°Ð½Ð°Ð»Ð¸Ð·Ð°":9930,"ĠÐ³Ð¾Ð²Ð¾ÑĢÑıÑĤ":9931,"ĠÐ¾Ð±ÑģÐµÑĢÐ²":9932,"ĠÑĦÐ¸ÑĢÐ¼Ñĭ":9933,"ĠÐ¾ÐºÑĢÐµÑģÑĤÐ½Ð¾ÑģÑĤÑıÑħ":9934,"Ð°Ð´Ð¾Ð»Ð³Ð¾":9935,"ĠÑĥÑĩÑĢÐµÐ¶Ð´ÐµÐ½Ð¸Ñı":9936,"ĠÐ·Ð´Ð¾ÑĢÐ¾Ð²ÑĮÑı":9937,"ÐµÑĢÐ¿":9938,"Ð»Ð°Ð´ÐµÐ»":9939,"ĠÑİÐ¶Ð½Ð¾":9940,"ĠÐ¿Ð»Ð¾ÑģÐº":9941,"ÐºÐ¾ÑĤÐ¾ÑĢ":9942,"ĠÑĢÐ¸Ð³":9943,"ĠÐ¿Ð¾ÑģÐ»ÐµÐ´ÑĥÑİÑīÐ¸Ðµ":9944,"ĠÐ¿Ð¾Ð»ÐºÐ¾Ð²Ð½Ð¸ÐºÐ°":9945,"Ð¿ÑĢÐ°Ð·Ð´":9946,"ĠÐ¿ÑĢÐ¾Ð·":9947,"ĠÑĤÑĢÐ°Ðº":9948,"ĠÐ¾Ð±ÐµÐ¸Ñħ":9949,"ĠÑĢÐµÐ±ÑĳÐ½ÐºÐ°":9950,"ĠÐ¾ÐºÐºÑĥÐ¿Ð°ÑĨÐ¸Ð¸":9951,"ĠÑģÐ¾ÑģÑĤÐ¾ÑıÐ»Ð°":9952,"ĠÐ½ÐµÑģÐºÐ¾Ð»ÑĮÐºÐ¸Ð¼Ð¸":9953,"ĠÐ³ÑĢÑĥÐ·Ð¾Ð²":9954,"Ð²ÐµÑĢÑģÑĤ":9955,"ĠÐ½Ð°Ð´Ð¾":9956,"ĠÑĦÐ¾ÑĤÐ¾":9957,"ĠÐ¼ÑĥÑĢÐ°Ð²":9958,"ĠÐ½Ð°ÑĪÐ¸Ñħ":9959,"ĠÐ¼Ð°ÑĢÐºÐ°":9960,"ath":9961,"ĠÐ¸Ð½ÑĦÐ¾ÑĢÐ¼Ð°ÑĨÐ¸Ñı":9962,"ĠÐ¸ÑģÐ¿Ð¾Ð»ÑĮÐ·Ð¾Ð²Ð°ÑĤÑĮÑģÑı":9963,"Ð²ÐµÑĩ":9964,"ĠÐ¿Ð¾Ð´Ð¿Ð¾Ð»ÑĮ":9965,"Ð¸ÑĨÐ¸ÐµÐ¹":9966,"ĠÐ»Ð¸Ð´ÐµÑĢÐ¾Ð²":9967,"ĠÑĦÑĢÐ¸Ð´ÑĢÐ¸Ñħ":9968,"ÑĢÐ°Ð·ÑĢÐ°Ð±Ð¾ÑĤ":9969,"ĠÐºÑĥÑĢÐ³Ð°Ð½":9970,"Ð¾ÑģÑĦ":9971,"Ġ110":9972,"ĠÐ¶Ð´":9973,"ĠÑģÐ²ÐµÑĢÐ´Ð»Ð¾Ð²":9974,"Ð¶Ð½ÑĭÑħ":9975,"Ð°ÑĢÐ½ÑĭÐ¹":9976,"br":9977,"ĠÑģÐ¾Ð¿ÑĢÐ¾ÑĤÐ¸Ð²Ð»ÐµÐ½Ð¸Ðµ":9978,"ĠÐ¾Ð±Ð¾Ð»":9979,"ĠÐ³Ð¸Ð¼Ð½Ð°Ð·":9980,"ÑģÐ¿Ð°ÑĢÑĤ":9981,"ĠÐºÑĢÐ°ÑģÐ½ÑĭÐ¹":9982,"Ð¾Ð½Ð¸Ñı":9983,"ÑĢÑıÐ´Ð¾Ð¼":9984,"ĠÑĢÐ°Ð·ÑĢÐ°Ð±Ð¾ÑĤÐ°Ð½":9985,"ĠÐ¼ÑĥÐ´":9986,"ÑĥÑĤÐ¾ÑĢ":9987,"ĠÑĦÐ¸Ð·Ð¸ÐºÐ¸":9988,"ĠÐ¿ÑĢÐµÐ´Ð¼":9989,"ĠÑĪÐµÐ»":9990,"ĠÑĩÐ°ÑģÑĤÐ½ÑĭÑħ":9991,"ĠÐ¾Ð±ÑīÐµÑģÑĤÐ²Ðµ":9992,"ina":9993,"ĠÐ½ÐµÑĦÑĤÐ¸":9994,"ĠÑĢÑĥÐºÐ¾Ð¿Ð¸Ñģ":9995,"ĠÑģÐ¾Ð·Ð´Ð°Ð½Ð¾":9996,"ĠÐ°Ð»ÑĮÐ±Ð¾Ð¼Ð¾Ð²":9997,"ĠÐ¿ÐµÑĢÑĥ":9998,"ÑĦÐ°Ðº":9999,"ĠÐºÐ¼ÐµÑĤÐ°":10000,"ĠÑĢÐµÐ²Ð¾Ð»ÑİÑĨÐ¸Ð¾Ð½":10001,"ĠÐ¿ÑĢÑıÐ¼Ð¾Ð¹":10002,"Ð±ÑĥÐ»":10003,"ĠÐ¿ÐµÑĢÐµÐ´Ð°Ð²":10004,"ÑĨÐµÐ½Ð·":10005,"ĠÐ¿ÑĢÐ°ÐºÑĤÐ¸ÐºÐµ":10006,"ĠÑįÑģÑĤÐ¾Ð½Ð¸Ð¸":10007,"ĠÐºÐ¾Ð½ÑģÐµÑĢÐ²Ð°ÑĤÐ¾ÑĢÐ¸Ð¸":10008,"ÑĢÐ¾ÑģÑģÐ¸Ñı":10009,"ĠÑıÐ¼":10010,"ĠÑģÐ¿ÑĥÑģÐº":10011,"ĠÐºÐ»ÑĥÐ±Ð¾Ð²":10012,"Ð²Ð°Ñı":10013,"ĠÐ½Ð°ÑģÑĤÑĥÐ¿Ð»ÐµÐ½Ð¸Ñı":10014,"ĠÐ·Ð°Ð¼ÐµÑģÑĤÐ¸ÑĤÐµÐ»Ñı":10015,"ÑİÑģÐµÑĢ":10016,"ĠÐ¼ÐµÑĢÑĭ":10017,"ÐµÐ·Ð¸Ð¸":10018,"ĠÐ±Ð°ÐºÑĥ":10019,"ĠÐ²ÑĤÐ¾ÑĢÑĥÑİ":10020,"ĠÑĥÐ¿ÑĢ":10021,"ĠÑįÐºÐ¾Ð½Ð¾Ð¼Ð¸ÑĩÐµÑģÐºÐ¸":10022,"ĠÐ¿ÑĢÐµÐ´ÑĥÐ¿":10023,"ÑĪÑĤÐ°Ð´":10024,"ĠÑģÐ¿ÑĢÐ°Ð²ÐµÐ´Ð»Ð¸Ð²":10025,"ĠÑĥÑįÐ»ÑĮ":10026,"ĠÑĥÐ±ÐµÐ¶Ð´":10027,"ĠÑģÑĤÑĢÐµ":10028,"ĠÐ½ÐµÐ¾Ð±ÑĭÑĩ":10029,"ĠÑĢÐ¾Ð´Ð¸Ð½Ñĥ":10030,"ĠÐ½Ð°Ñĥ":10031,"ĠÑģÑĤÐ¾Ð»Ð¸ÑĨÐµ":10032,"ĠÑģÐ¾ÑĨÐ¸Ð°Ð»ÑĮÐ½Ð¾":10033,"ĠÑĥÐºÐ°Ð·ÑĭÐ²Ð°ÐµÑĤ":10034,"ĠÐ²Ð´Ð¾Ñħ":10035,"ÑĥÐ½ÑĤÐ¾Ð²":10036,"ĠÐ¿Ð¾Ð¼Ð¾ÑīÐ½Ð¸ÐºÐ¾Ð¼":10037,"1990":10038,"ÐµÑĤÐ¸":10039,"ĠÑĩÐ¸ÑģÐ»Ð¸Ð»Ð¾ÑģÑĮ":10040,"ÐµÐ½ÑĨÐ¸Ñı":10041,"ĠÐ¼ÐµÑĤÐ°":10042,"Ð¾Ð·Ð¾Ð²":10043,"ÑıÐ»Ð¾":10044,"ĠÑĥÑĩÐ¸ÑĤÐµÐ»ÑĮ":10045,"Ġis":10046,"ĠÐ¸Ð·ÑĥÑĩÐ°Ð»":10047,"Ġusd":10048,"Ð¸ÑĤÐµÐ»Ñİ":10049,"âĢľ,":10050,"Ð¸ÑĢÑĥÑı":10051,"ĠÐ¿Ð¾Ð´Ð³Ð¾ÑĤÐ¾Ð²ÐºÐµ":10052,"ĠÑĢÐµÐ¹Ð½":10053,"ĠÐºÐ¸ÐµÐ²ÑģÐºÐ¾Ð³Ð¾":10054,"ĠÐ¼ÐµÐ¹":10055,"ĠÐ´ÐµÐ»Ñĥ":10056,"ĠÐ°Ð´Ð°Ð¼":10057,"ĠÐ¼Ð°ÑĤÑĩÐ¸":10058,"ĠÐ»ÑĥÑĩÑĪÐ¸Ð¹":10059,"Ð¾Ð½ÑģÐºÐ¸Ð¹":10060,"1991":10061,"ĠÐ¿Ð¾Ð»ÑĮÑĪÐµ":10062,"ÑģÐ²ÑıÑĤÐ¾Ð¹":10063,"ĠÐ¿Ð¾Ð»ÐºÑĥ":10064,"ĠÐ¿ÑĢÐ¸Ð²ÐµÐ»Ð¸":10065,"ĠÐ¾ÑģÐ²ÑıÑī":10066,"Ð°Ð²ÑĪÐµÐ¹ÑģÑı":10067,"ÑĤÐµÐ´":10068,"ĠÐ¾Ð±ÐµÐ·":10069,"Ð¾Ð¿Ð¸ÑģÑĮ":10070,"ĠÐ¿ÑĢÐ¾ÑĨÐµÑģÑģÐ¾Ð²":10071,"ĠÐ°ÐºÑĤÐ¸Ð²Ð½Ð¾Ðµ":10072,"ĠÑĢÐ°Ð´Ð¸Ð¾ÑģÑĤÐ°Ð½":10073,"ĠÐºÑĥÐ½":10074,"ĠÐ¼Ð¸Ð´":10075,"ĠÐ²ÑĭÑģÑĪÐ¸Ñħ":10076,"ĠÐ¿ÑĢÐ¾Ð¶Ð¸Ð²Ð°ÑİÑĤ":10077,"ĠÐ°ÑĢÑħÐ¸ÑĤÐµÐºÑĤÐ¾ÑĢ":10078,"ĠÑĩÐ°ÑĢÐ»ÑĮ":10079,"ÑģÑĥÐ¿":10080,"ĠÐ¿Ð¾ÑģÐ»ÐµÐ´Ð½Ð¸Ð¼":10081,"ĠÐ½Ð¸ÐºÑĤÐ¾":10082,".\"":10083,"ĠÑģÐ¾Ð¿ÑĢÐ¾ÑĤÐ¸Ð²Ð»ÐµÐ½Ð¸Ñı":10084,"ĠÐ¿ÐµÑĢÐµÑĢÑĭÐ²":10085,"ĠÑģÑĤÑĥÐ´ÐµÐ½ÑĤÐ°Ð¼Ð¸":10086,"ĠÑĤÐµÐ¾ÑĢÐ¸Ñı":10087,"ÑĩÐ°ÑģÑĤÑĥÑİ":10088,"Ð¿Ð¾ÑģÑĳÐ»Ð¾Ðº":10089,"ĠÐºÐ¾ÑĢÐµÐ¹":10090,"Ð¸ÑĢÐ¾Ð²Ð°Ð½Ð¸ÐµÐ¼":10091,"Ð¸Ð½Ð¾Ðº":10092,"ĠÑģÐ°Ð»ÑĮ":10093,"ĠÐºÐ¾Ð»Ð¾Ð½Ð¸Ð¸":10094,"ĠÑģÑĤÐ°ÑĢÐµÐ¹":10095,"ĠÑĤÑĥÐ½":10096,"ĠÑĢÐ¸":10097,"Ð¸ÑģÐºÐ¸":10098,"ĠÑįÐ½ÑĨÐ¸ÐºÐ»Ð¾Ð¿ÐµÐ´":10099,"ĠÐ¿ÑĢÐ¸Ð½Ð¸Ð¼Ð°ÑĤÑĮ":10100,"ĠÑĤÑı":10101,"ĠÑĤÑĳ":10102,"ĠÑĩÑĳÐ¼":10103,"ÑģÐ¾Ð²Ð¼ÐµÑģÑĤ":10104,"ĠÐ¸Ð´ÐµÐ¹":10105,"ĠÑģÐ²ÑıÐ·Ð°Ð½Ð½ÑĭÐµ":10106,"ĠÐ½Ð°ÑĥÑĩÐ½Ð¾Ð³Ð¾":10107,"ĠÐ½ÐµÐ±Ð¾Ð»ÑĮÑĪÐ¸Ðµ":10108,"ĠÐ¿ÑĢÐ¸ÐºÐ°Ð·Ñĥ":10109,"ĠÐ´ÐµÐ»Ð°ÑĤÑĮ":10110,"Ġix":10111,"ĠÐ¸ÑģÐ¿Ð¾Ð»ÑĮÐ·ÑĥÑı":10112,"ĠÐ¸Ð·Ð²ÐµÑģÑĤÐ½Ð¾Ð¹":10113,"ÐµÑĤÑĤ":10114,"ĠÐ¸Ð·Ð´Ð°Ð»":10115,")\"":10116,"ĠÑİÐ³Ð°":10117,"ĠÐºÐ°Ð´ÑĢÐ¾Ð²":10118,"ba":10119,"pe":10120,"ĠÐ¿Ð¾ÑıÐ²Ð»ÐµÐ½Ð¸Ñı":10121,"ÑĢÑĳÐ»":10122,"ĠÐ¿ÑĢÐµÐ´ÑĪÐµÑģÑĤÐ²ÐµÐ½":10123,"ps":10124,"ÑĳÑĢÑĤ":10125,"Ð¼Ð°ÑĢÑĤ":10126,"ĠÑĢÐ°Ð·Ð±Ð¸ÑĤ":10127,"ÐºÐ¾Ð²ÑģÐºÐ¾Ð¹":10128,"ĠÑĢÐµÐ¶Ð¸Ð¼Ðµ":10129,"ĠÑĤÐ¾ÑĢÐ¿ÐµÐ´":10130,"ĠÑĢÐµÑģÑĥÑĢÑģÐ¾Ð²":10131,"Ð½Ð°ÑĢÑı":10132,"ĠÐ·Ð°ÑģÐµÐ»":10133,"Ð´ÐµÐ½ÑĮ":10134,"Ð°Ð½Ð¸ÑıÐ¼Ð¸":10135,"ĠÐ±ÑĭÐ²ÑĪÐ¸Ñħ":10136,"ĠÐ±ÑĢÐ¸ÑĤÐ°Ð½ÑģÐºÐ¸Ð¹":10137,"Ð½Ð°Ð¼Ð¸":10138,"ĠÐ·ÐµÐ½Ð¸ÑĤ":10139,"ÑĢÐ°ÑģÑĤÑĢÑĥÐºÑĤ":10140,"ĠÐ¿ÑĢÐ¾Ð¶Ð¸Ð²Ð°Ð»Ð¸":10141,"ĠÐ·Ð°Ð¿Ð°Ð´Ð½Ð¾Ð³Ð¾":10142,"ĠÑĢÑĭÐ½ÐºÐµ":10143,"ÐºÐ¾Ð²ÑĭÐ¹":10144,"ĠÐ°Ð²ÑĤÐ¾Ð¼Ð¾Ð±Ð¸Ð»Ñı":10145,"ĠÑĦÑĥÐ½ÐºÑĨÐ¸Ð¹":10146,"ĠÐ¿Ð¾ÐºÐ¸Ð½ÑĥÑĤÑĮ":10147,"Ð¾Ð²Ð°Ð½Ð½ÑĭÐµ":10148,"Ð¾Ð»Ð¾Ð³Ð¸Ñİ":10149,"ĠÑģÐµÐ¼ÑĮÑİ":10150,"ĠÐºÐ¾Ð½ÑĦÐ»Ð¸ÐºÑĤÐ°":10151,"ĠÑĤÑĢÐµÐ±ÑĥÐµÑĤ":10152,"ĠÐ¾Ð»ÐµÐ³":10153,"ĠÐ³Ð°ÑģÑĤÑĢÐ¾Ð»":10154,"ĠÐ¾ÑģÑĤÐ°Ð»Ð¾ÑģÑĮ":10155,"ĠÐ¾Ð³Ð½Ñı":10156,"ĠÑĤÐ¾ÑĢÐ¶ÐµÑģÑĤÐ²ÐµÐ½":10157,"Ð²Ð¸Ñĩ":10158,"ĠÐ²ÑĢÐ°Ð³Ð°":10159,"ÐµÐ¼ÑģÑı":10160,"ĠÐºÐ°Ð½Ð´Ð¸Ð´Ð°ÑĤÐ°":10161,"ĠÑĨÐ°ÑĢÑĮ":10162,"land":10163,"ĠÐ¾Ð±Ð»Ð¾Ð¶":10164,"ÐµÐ²ÐºÐ°":10165,"ĠÐ¿ÑĢÐ°Ð²Ð¸Ð»Ð°":10166,"ĠÐ¿ÑĢÐ°Ð·Ð´Ð½":10167,"Ð¼Ð»Ð°Ð´":10168,"ÐµÐ»Ð»ÐµÐºÑĤ":10169,"2014":10170,"ĠÐ¸Ð½ÑĤÐµÐ»Ð»ÐµÐºÑĤ":10171,"Ð³Ð¾ÑĤ":10172,"ĠÑĤÐ°Ð½ÐºÐ°":10173,"Ð¸Ð²Ð°Ð»ÑģÑı":10174,"Ð¾Ð±Ð¾Ð´Ð°":10175,"ĠÐ°ÑĢÑħÐ¸ÑĤÐµÐºÑĤÐ¾ÑĢÐ°":10176,"Ġ1899":10177,"see":10178,"ĠÐ²Ð¾Ð·Ð²ÑĢÐ°ÑĤ":10179,"ĠÐ¸Ð´ÐµÑı":10180,"ĠÐ³Ð¾Ð»Ð¾Ð²Ñĥ":10181,"ĠÐ³ÐµÐ¾ÑĢÐ³Ð¸ÐµÐ²":10182,"board":10183,"ĠÐ´ÑįÐ²Ð¸Ð´":10184,"ĠÐºÑĢÐ°ÑģÐ¸Ð²":10185,"ĠÐ·Ð°ÑħÐ¾ÑĢÐ¾Ð½":10186,"ĠÑĢÐµÐ´Ð°ÐºÑĤÐ¾ÑĢÐ¾Ð¼":10187,"ÐµÐ¾":10188,"Ð¿ÑĢÐ¸Ð²":10189,"ĠÐ±ÐµÐ»ÑĭÐµ":10190,"ĠÐ¼ÐµÑĤÐ¾Ð´Ð¾Ð²":10191,"ĠÐ¾Ð¿ÑĤÐ¸Ð¼":10192,"ĠÐ¼Ð°ÑģÑĤÐµÑĢÐ°":10193,"ÐµÑĢÐ¸Ð½Ñĭ":10194,"ĠÐºÐ¾Ð»Ð¸ÑĩÐµÑģÑĤÐ²Ðµ":10195,"ĠÑĦÐµÑģÑĤÐ¸Ð²Ð°Ð»Ñı":10196,"ĠÐ¼Ð¾Ð³Ð»Ð¾":10197,"ĠÑĤÐ°ÑĢÐ°":10198,"ĠÐ¿ÑĢÐ¸Ð¼ÐµÑĢÑĥ":10199,"ĠÑĢÐµÑĪÐµÐ½Ð¾":10200,"Ð¿ÑĢÐ¾Ð´Ð¾Ð»Ð¶":10201,"ĠÐ¿ÑĢÐµÐ´ÑģÑĤÐ°Ð²Ð»ÑıÐ»":10202,"ĠÐ³ÐµÑĢÐ¼Ð°Ð½Ð¸Ñı":10203,"Ð¼ÐµÑī":10204,"ĠÐ²ÑıÐ·":10205,"Ð±ÐµÐ»ÑĮ":10206,"ĠÐ¿Ð¾Ð»Ð½ÑĭÐ¹":10207,"ĠÐ´Ð¾Ð»Ð³Ð¾":10208,"ĠÑĢÐ°ÑģÐ¿ÑĢÐ¾ÑģÑĤÑĢÐ°Ð½ÐµÐ½Ð¸Ñı":10209,"ĠÑĥÐ½Ð¸ÑĩÑĤÐ¾Ð¶Ð¸Ð»":10210,"ĠÐ²Ð½Ð¸Ð¼Ð°Ð½Ð¸Ñı":10211,"ĠÐ¿ÑĢÐ¾Ð´ÑĥÐºÑĤÐ¾Ð²":10212,"Ð°ÑĢÐ½ÑĭÑħ":10213,"ĠÑĩÐ¶":10214,"ĠÑĢÐµÐ¾ÑĢÐ³Ð°Ð½":10215,"Ð´ÐµÐ¿Ð°ÑĢÑĤÐ°Ð¼":10216,"ĠÐ¸Ð·Ð»Ð¾Ð¶":10217,"ĠÐ¿Ð¾ÑģÑĤÐ°Ð²Ð¸Ð»":10218,"Ð²ÑģÑĳ":10219,"Ġtim":10220,"ĠÐ²Ð¾Ð´Ð°":10221,"ĠÐ¾ÑģÑĤÑĢÐ¾Ð²Ð°Ñħ":10222,"ĠÑģÐ¾Ð¾ÑĤÐ½Ð¾ÑĪ":10223,"ĠÐºÐ»ÐµÑĤÐ¾Ðº":10224,"uc":10225,"ĠÐ²ÑĭÑģÐ¾ÑĤ":10226,"Ð»ÐµÐ½Ð½Ð°Ñı":10227,"Ġor":10228,"ÐµÑĢÑģÐºÐ¾Ð¹":10229,"ĠÐ¼ÐµÐ¶Ð´ÑĥÐ½Ð°ÑĢÐ¾Ð´Ð½Ð¾Ð¼":10230,"ĠÐ°ÐºÑĨÐ¸Ð¹":10231,"Ð»ÐµÑĢÐ¾Ð²":10232,"Ð¼Ð°Ð·":10233,"ĠÐ¿ÑĢÐ°Ð²Ð°Ñħ":10234,"Ġ1896":10235,"ĠÐ°Ð²Ð¸Ð°ÐºÐ¾Ð¼Ð¿":10236,"ĠÐ¼Ð¸Ð½Ð¸Ð¼ÑĥÐ¼":10237,"ĠÐ¿Ð¸ÑĤÐ°Ð½Ð¸Ñı":10238,"ĠÐ²Ð¾ÑģÑĮÐ¼Ð¸":10239,"ĠÑĢÐ°ÐºÐµÑĤÑĭ":10240,"ĠÑĤÐ°Ð´Ð¶Ð¸Ðº":10241,"Ð¾ÐºÑĥÐ¿":10242,"Ð¼Ð¸Ð½Ð¸ÑģÑĤÑĢ":10243,"ÑĩÐµÑĢÐº":10244,"Ð½Ð¾Ð²ÐµÐ½Ð¸Ðµ":10245,"Ġ63":10246,"ĠÐ°ÑĦÑĢÐ¸ÐºÐµ":10247,"ĠÑĢÑĥÐ¼ÑĭÐ½Ð¸Ð¸":10248,"ĠÑģÑĥÐ±ÑĢÐµÐ³Ð¸Ð¾Ð½":10249,"ĠÐ´ÐµÐ¿Ð°ÑĢÑĤÐ°Ð¼ÐµÐ½ÑĤ":10250,"ÑĢÐ°Ð»ÑģÑı":10251,"ĠÑĢÐµÐºÐ»Ð°Ð¼":10252,"ĠÑįÐºÐ¾Ð½Ð¾Ð¼Ð¸ÑĩÐµÑģÐºÐ¾Ð¹":10253,"ĠÐ¼Ð¾ÑīÐ½Ð¾ÑģÑĤÑĮÑİ":10254,"ÑĤÐ°ÑĤ":10255,"ĠÐ¿ÑģÐ¸ÑħÐ¸Ð°ÑĤ":10256,"ĠÐ¾ÑĤÑģÑĥÑĤÑģÑĤÐ²ÑĥÐµÑĤ":10257,"ĠÐ¿Ð¾ÑģÑĢÐµÐ´ÑģÑĤÐ²Ð¾Ð¼":10258,"Ð¸ÑĩÐ½Ð°Ñı":10259,"Ġworld":10260,"Ð¼ÑĥÐ·ÑĭÐº":10261,"ĠÐ¿ÑĢÐ¸ÐµÐ·Ð¶":10262,"ĠÐ¿Ð¾Ð´Ðº":10263,"ĠÐ¿ÑĢÐ¸Ð½Ð¾Ñģ":10264,"ĠÑģÐ¿Ð¾ÑĢ":10265,"ke":10266,"ĠÑĢÐ°Ð±Ð¾ÑĤÐ½Ð¸ÐºÐ¾Ð²":10267,"Ð¸Ð·Ð°ÑĨÐ¸Ñİ":10268,"Ġ1898":10269,"ĠÐ±ÑĢÐ¸ÑĤÐ°Ð½ÑģÐºÐ¾Ð³Ð¾":10270,"ĠÐ°Ð½Ð´ÑĢÐµÑı":10271,"ĠÐºÑĥÐ¼":10272,"ĠÐ¸ÑĤÐ°Ð»ÑĮÑıÐ½ÑģÐºÐ¸Ð¹":10273,"ĠÐ¶Ð¸ÑĤÐµÐ»Ñı":10274,"Ð´Ð¾ÐºÑĤÐ¾ÑĢ":10275,"Ġ1892":10276,"ĠÑĤÑĢÐµÑĤÑĮÐµ":10277,"ĠÐ·Ð°Ð»Ð¸Ð²Ð°":10278,"ÑģÐ»Ð°Ð²":10279,"ĠÐ¾ÑĤÐµÑĩÐµÑģÑĤÐ²ÐµÐ½":10280,"ĠÐ·Ð°ÑīÐ¸ÑĤÑĥ":10281,"Ð±ÐµÐ½":10282,"Ð¸Ð·Ð²ÐµÑģÑĤÐ½Ð¾":10283,"Ð°ÑģÑĤÑĮ":10284,"ĠÐ°Ð»ÐºÐ¾Ð³":10285,"ĠÐ´Ð°Ð»ÑĮÑĪÐµ":10286,"ÑĤÐµÑĢÑĢÐ¸ÑĤÐ¾ÑĢÐ¸Ñı":10287,"ĠÑĢÐ°Ð±Ð¾ÑĩÐµÐ³Ð¾":10288,"ĠÐ½Ð°ÑĩÐ°ÑĤÑĮ":10289,"Ġse":10290,"ĠÐ¿Ð¾Ð»ÑĥÑĩÐ¸Ð»Ð¾":10291,"ĠÐ°Ð´Ð²Ð¾Ðº":10292,"ĠÐ³ÐµÐ½ÐµÑĤ":10293,"ĠÐºÑĢÐµÐ¿Ð¾ÑģÑĤ":10294,"ĠÐ¿Ð¸ÑģÑĤ":10295,"ĠÑįÐºÐ·ÐµÐ¼Ð¿Ð»ÑıÑĢÐ¾Ð²":10296,"be":10297,"ÑģÐ¸Ð½Ð³":10298,"ÑıÑģÐ°":10299,"ĠÐ°Ð»ÑĤÐ°Ð¹":10300,"ĠÑĤÐµÐ»ÐµÐ²Ð¸Ð´ÐµÐ½Ð¸Ñı":10301,"ĠÐ³ÑĥÑĢ":10302,"ĠÑıÐ²Ð»ÑıÐ»Ð¸ÑģÑĮ":10303,"ĠÐ²Ð¸Ð´Ñĥ":10304,"ĠÑģÐµÐ»ÑĮÑģÐºÐ¸Ñħ":10305,"ron":10306,"ĠÑģÐ²ÐµÐ´":10307,"ÑĢÑĥÑģÑģÐºÐ¸Ð¹":10308,"Ð¾Ð½ÑģÐºÐ¾Ð³Ð¾":10309,"ĠÐ¿ÑĢÐ¾Ð²Ð¾Ð´Ð¸ÑĤ":10310,"ÑĢÐ¸ÐºÐ°":10311,"Ð²Ð°ÑĤÐ°":10312,"ĠÑģÐ»ÑĥÐ¶Ð¸ÑĤ":10313,"ĠÐ°ÑĢÑħÐ¸Ð¿":10314,"ĠÑģÐµÑĢÐ¸Ð°Ð»Ðµ":10315,"ÑıÑīÐ°Ñı":10316,"ĠÐ²ÐµÐºÐ°Ñħ":10317,"ĠÐµÐ¿Ð¸ÑģÐºÐ¾Ð¿Ð¾Ð¼":10318,"Ð¸Ð¼ÐµÐµÑĤ":10319,"ĠÐ²ÑĭÑģÐ¾ÐºÐ¸Ñħ":10320,"Ð¾Ð¾Ð±":10321,"ÑĦÑĢÐ°Ð½ÑĨÑĥÐ·":10322,"ĠÐ¶ÐµÑģÑĤÐ¾Ðº":10323,"ĠÐ¿Ð¾ÑģÐµÑĤÐ¸Ð»":10324,"Ð°Ð½ÑģÐºÐ¸Ñħ":10325,"ĠÐ¾ÑĤÐ²ÐµÑĢÐ³":10326,"ĠÑĨÐµÐ½ÑĤÑĢÐ¾Ð²":10327,"ĠÑĢÐ°Ð·ÑĢÐ°Ð±Ð°ÑĤ":10328,"ĠÐºÑĢÐ¸ÑĤÐ¸Ðº":10329,"Ð°Ð»Ð¸Ð·Ð¼":10330,"ĠÐ»ÐµÐºÐ°ÑĢ":10331,"Ð¼Ð¾Ð³":10332,"ĠÐ·Ð²ÑĥÐºÐ¾Ð²":10333,"Ð¸Ð»Ð»ÐµÑĢ":10334,"ĠÑģÐµÑģÑģ":10335,"ĠÐ½ÐµÐ¶":10336,"ĠÑĤÑĢÐ¾Ð¹":10337,"ĠÐ¿ÑĢÐ¾Ð¸Ð³ÑĢÐ°Ð»":10338,"ĠÐ·Ð´ÑĢÐ°Ð²Ð¾Ð¾ÑħÑĢÐ°Ð½":10339,"ÑģÐ²ÐµÑĤ":10340,"ĠÐ¿ÐµÑĢÐµÐ´Ð°Ð½":10341,"ĠÐ´Ð²ÐµÐ½":10342,"ĠÑĤÐµÐ»Ðµ":10343,"ĠÑĥÑĩÑĢÐµÐ¶Ð´ÐµÐ½Ð¸Ð¹":10344,"ĠÑĢÐ°Ð±Ð¾ÑĤÐ°Ñħ":10345,"ĠÐ²ÑģÐµÐ¾Ð±Ñī":10346,"ĠÐ´Ð¸Ð·Ð°Ð¹":10347,"ĠÐ²ÑģÐµÑĢÐ¾ÑģÑģÐ¸Ð¹ÑģÐºÐ¾Ð¹":10348,"ĠÐ·Ð²Ð°Ð½Ð¸Ð¸":10349,"ĠÑĦÑĥÐ½Ð´Ð°Ð¼ÐµÐ½ÑĤ":10350,"ÑĥÐ³Ð°":10351,"ĠÐºÑĥÐ»ÑĮÑĤÑĥÑĢÐµ":10352,"ĠÐ½ÐµÐ²Ð¾Ð·Ð¼Ð¾Ð¶":10353,"Ð¸Ð¹ÑģÐºÐ¾Ð¼Ñĥ":10354,"ĠÐ¿ÑĢÐ¾ÑĪÐµÐ´":10355,"ĠÐ°ÐºÐ²":10356,"ÑģÑĤÐ²Ð¸ÐµÐ¼":10357,"Ð¾Ð¼ÐµÑĤÑĢ":10358,"ĠÑĥÐ·Ð½Ð°":10359,"ĠÐ¿Ð°Ð»Ð°ÑĤÑĭ":10360,"ĠÑĩÐµÐ¼Ð¿Ð¸Ð¾Ð½Ð°ÑĤÐ¾Ð²":10361,"ÐµÐ½Ñĩ":10362,"ĠÐ¼ÐµÐ»ÐºÐ¸Ñħ":10363,"ove":10364,"ĠÑįÑģÐ¼Ð¸Ð½":10365,"ÑĮÐµÐ¹":10366,"Ð¾ÑģÑĤÑĭ":10367,"ĠÐ½Ð°Ð·Ð½Ð°ÑĩÐ¸Ð»":10368,"ÐµÑĢÐ½Ð°":10369,"Ð¶ÐµÐ»ÐµÐ·":10370,"ĠÐ´ÑĢÑĥÐ·ÐµÐ¹":10371,"ÐºÐ¾Ð±":10372,"ĠÑģÑĤÐ°ÑĢÐ¸Ð½":10373,"ÐµÑĢÐµÑĩ":10374,"ĠÑįÐ¼Ð¾":10375,"Ġgro":10376,"Ð²ÐµÐ´Ð¾Ð¼":10377,"ĠÑĨÐ¸Ð»Ð¸Ð½Ð´":10378,"Ð°Ð³Ñĥ":10379,"Ð¾Ð»ÑĮÑģÐºÐ¾Ð¹":10380,"ĠÐºÑĥÐ»ÑĮÑĤÑĥÑĢÐ°":10381,"ĠÐ¼Ð°ÑĢÑĤÐ¸Ð½":10382,"ĠÐ´Ð²Ð¸Ð³Ð°ÑĤÐµÐ»ÑĮ":10383,"1943":10384,"ĠÑģÐ¼ÐµÐ½Ð¸":10385,"ĠÐ¾Ð±ÑĬÐµÐºÑĤÑĭ":10386,"Ġbl":10387,"Ð¾ÑģÐ½Ð¾Ð²Ð½Ð°Ñı":10388,"ĠÑĨÐµÑĢÐµÐ¼Ð¾Ð½Ð¸Ð¸":10389,"ĠÑĢÐ¾Ð´Ð¸ÑĤÐµÐ»ÐµÐ¹":10390,"ĠÐ¿ÑĢÐ¾Ð´Ð²Ð¸Ð¶":10391,"ĠÐ´ÐµÑĢÐµÐ²Ð½Ñİ":10392,"ĠÐ¿Ð¾Ð»ÑĤÐ°Ð²":10393,"ĠÑĤÑıÐ¶ÐµÐ»Ð¾":10394,"ĠÑģÐ¼Ð¾Ð³Ð»Ð°":10395,"ĠÑģÑĤÐ¾Ðº":10396,"ĠÑħÑĮÑİ":10397,"ĠÐ¿Ð¾ÑģÐ»Ð°Ð½":10398,"Ð°Ð´ÑĨÐ°ÑĤÐ¸":10399,"ĠÑħÐ¾ÑĩÐµÑĤ":10400,"ĠÑĢÐµÐ»Ð¸Ð³Ð¸Ð¸":10401,"ĠÐ½ÐµÐ´Ð¾Ð²Ð¾Ð»ÑĮ":10402,"ĠÐ´ÐµÑĢÐ¶Ð°Ð²":10403,"ĠÐ¿ÑĢÐ¾ÑĦÐµÑģÑģÐ¸Ð¾Ð½Ð°Ð»ÑĮÐ½ÑĭÐ¹":10404,"ĠÐ¿ÑĢÐ¾ÑĩÐ¸Ñħ":10405,"ĠÑĢÐµÐ°ÐºÑĨÐ¸Ð¸":10406,"ĠÐ¿Ð¾Ð´Ð²Ð¸Ð¶":10407,"ĠÐ¾ÑģÐ»Ð°Ð±":10408,"ĠÐ¾ÑĢÐ³Ð°Ð½Ñĭ":10409,"ĠÐ¸Ð³Ð¾ÑĢÑĮ":10410,"Ð°Ð»ÑĮÐ½Ð¸Ðº":10411,"ÑĥÑİÑīÐµÐµ":10412,"ÑĨÐ¸Ð¾Ð½Ð½Ð¾":10413,"ĠÐ´ÐµÐ¹ÑģÑĤÐ²Ð¸ÑıÑħ":10414,"ĠÐ±ÑĢÐ°ÑĤÑĮÑı":10415,"Ð¿ÐµÑĢÐµÐ²":10416,"ÑĨÐ¾Ð²Ð°":10417,"ĠÐ¼ÐµÐ´Ð¸":10418,"Ð°ÑĢÐ½Ð¾Ð¹":10419,"ĠÐ¿Ð¾Ð»ÑıÑĢ":10420,"ĠÑģÑĤÑĥÐ´Ð¸Ð¹Ð½ÑĭÐ¹":10421,"ĠÑĤÐµÑĢÐ°Ð¿":10422,"ĠÐ·Ð°Ð¿Ð°Ð´Ð°":10423,"ĠÐºÐ°Ð½Ð°Ð»Ðµ":10424,"ĠÐ¸Ð¾Ð³":10425,"ĠÐ¿Ð¾ÑĤÐµÑĢÑıÐ»":10426,"Ð´Ð¸ÑĤ":10427,"Ð¾ÑģÑĤÑĢ":10428,"ĠÑĢÐ°Ð·ÑĢÑĭÐ²":10429,"ÑıÑīÐ¸ÑħÑģÑı":10430,"Ð¸Ð²ÑĪÐµÐ³Ð¾ÑģÑı":10431,"ĠÐ¼ÑĥÐ·ÑĭÐºÐ°Ð»ÑĮÐ½ÑĭÐ¹":10432,"Ð¼ÐµÐ¶Ð´ÑĥÐ½Ð°ÑĢÐ¾Ð´":10433,"Ð°ÑĢÐ½Ð¾Ð³Ð¾":10434,"Ð´Ð¶Ð¾Ð½":10435,"ĠÐºÐ»Ð°ÑģÑģÐ¸ÑĦÐ¸ÐºÐ°ÑĨÐ¸Ð¸":10436,"ĠÑįÑĤÐ°Ð¿Ð°":10437,"Ð²ÑĭÑģÐ¾ÑĤÐ°":10438,"ĠÐ¾ÑĤÐºÑĢÑĭÑĤÐ¸Ðµ":10439,"ĠÐ»Ð¸Ð½Ð³Ð²":10440,"ĠÂ«Â»":10441,"Ð½Ð°Ð´ÑĨÐ°ÑĤÑĮ":10442,"Ð½Ð°ÑĥÑĩ":10443,"ĠÑģÐ¿ÐµÑĨÐ¸Ð°Ð»ÑĮÐ½ÑĭÑħ":10444,"ĠÐ¿ÑĢÐ¸ÑħÐ¾Ð´Ð¸Ð»Ð¾ÑģÑĮ":10445,"ĠÐ¸Ð½ÑĦÑĢÐ°ÑģÑĤÑĢÑĥÐºÑĤ":10446,"ĠÐ½Ð°ÑĥÑĩÐ½ÑĭÐ¹":10447,"ĠÐ¿ÐµÑĢÐµÐ²Ð¾ÑĢ":10448,"ĠÐ¼Ð°ÑĪÐ¸Ð½Ð¾ÑģÑĤÑĢÐ¾":10449,"ĠÑģÑĨÐµÐ½Ñĭ":10450,"Ð²ÑĭÐ±Ð¾ÑĢ":10451,"ĠÐ²ÑĭÑģÑĤÑĥÐ¿Ð°Ð»Ð°":10452,"ÑĩÐ°ÑģÑĤÐ¾":10453,"ĠÑĢÐ¾":10454,"ĠÐ¾Ð±ÑĬÐµÐ´Ð¸Ð½ÐµÐ½Ð¸Ðµ":10455,"ĠÐ²Ð½ÐµÐ´ÑĢ":10456,"ĠÐ¾ÐºÑĤÑıÐ±ÑĢÑĮÑģÐºÐ¾Ð¹":10457,"ĠÐ·Ð°Ð¿Ð°Ð´Ð½Ð¾":10458,"ĠÐ±Ð¾ÐµÐ¿ÑĢÐ¸Ð¿":10459,"Ð¸Ð°Ð½Ð¾":10460,"ĠÐ¿Ð»Ð°ÑĤÑĦÐ¾ÑĢÐ¼Ñĭ":10461,"ÐµÑĢÐ°Ð»ÑĮÐ´":10462,"ĠÐ¾Ð±ÑīÐµÐµ":10463,"ĠÐºÐ°ÑĢÑĤÐ¸Ð½":10464,"ĠÐ°ÑģÑĤÐµÑĢÐ¾":10465,"Ġ2020":10466,"ĠÐºÐ¾Ð½ÐµÑĩÐ½Ð¾Ð¼":10467,"ĠÐ¿ÑĢÐ¾Ð²ÐµÐ»":10468,"ĠÐ¿ÐµÑĢÐµÑĢÐ°Ð±Ð¾ÑĤ":10469,"Ġgo":10470,"ĠÑĥÑģÑĤÑĮÑı":10471,"ĠÐ¸Ð½Ð´Ð¾Ð½":10472,"1998":10473,"ĠÐ·Ð¸Ð¼Ð¾Ð¹":10474,"ÑĥÑħÐ¾Ð²":10475,"ĠÐ¿ÑĢÐµÐ¿Ð¾Ð´Ð°Ð²Ð°ÑĤÐµÐ»ÑĮ":10476,"ĠÑģÑĤÐ¸Ð»Ñı":10477,"ÐµÐ¶Ð¸":10478,"Ð²Ð½Ðµ":10479,"Ð¸ÑĢÐ¾Ð²Ð°Ð½Ð½ÑĭÐ¼":10480,"ĠÑģÐ¾Ð±ÑģÑĤÐ²ÐµÐ½Ð½ÑĭÐµ":10481,"ĠÑĦÐ¸Ð»Ð¸Ð¿":10482,"ĠÑĦÑĢÑįÐ½":10483,"ĠÑħÐ²Ð°ÑĤ":10484,"ĠÐºÑĢÐµÑģÑĤÐ°":10485,"ÑĩÐµÑģÐºÐ¾Ð¹":10486,"ĠÑĥÑĩÐ°ÑģÑĤÐ²Ð¾Ð²Ð°ÑĤÑĮ":10487,"ÑģÑĥÐ¼":10488,"Ð°Ð²ÑĪÐµÐ³Ð¾ÑģÑı":10489,"ĠÐ°Ð´Ð¼Ð¸Ð½Ð¸ÑģÑĤÑĢÐ°ÑĤÐ¸Ð²Ð½ÑĭÐ¼":10490,"ĠÑįÐºÑģÐ¿Ð»ÑĥÐ°ÑĤÐ°ÑĨÐ¸Ð¸":10491,"ĠÑģÐ¸Ð»Ð¾Ð¹":10492,"Ġ1895":10493,"ÑĩÑĳÐ²":10494,"ĠÐ¼Ð¾Ð±Ð¸Ð»ÑĮ":10495,"Ð½Ð¾Ð²Ð¾":10496,"Ð±Ð¾Ð»ÑĮÑĪÐ¾Ð¹":10497,"ĠÑĦÑĥÑĤÐ±Ð¾Ð»ÑĮÐ½ÑĭÐ¹":10498,"ĠÐ»Ð¾":10499,"ĠÐ·Ð½Ð°ÑĩÐ¸ÑĤÐµÐ»ÑĮÐ½Ð¾Ð¹":10500,"Ð°Ð½ÑĤÐµ":10501,"ĠÐ°Ð´ÑĢÐµ":10502,"ÑĥÐ»Ð¸ÑĢÐ¾Ð²":10503,"Ð¸ÑģÑĭ":10504,"ĠÐ»Ð°Ð±Ð¾ÑĢÐ°ÑĤÐ¾ÑĢÐ¸Ð¸":10505,"Ð¾Ð»Ñĩ":10506,"Ð¿Ð»Ð°ÑĤ":10507,"ÑĤÐ¾Ð¿":10508,"ĠÑģÑĤÑĢÐ°Ð´":10509,"ĠÐ³ÑĢÑĥÐ´":10510,"ÐµÐ²Ð½Ð°":10511,"Ð¾ÑģÑĤÐ°Ð½Ð¾Ð²":10512,"Ð½ÑĥÐ»ÑģÑı":10513,"ĠÐ¿Ð¾Ð»ÑĳÑĤÐ°":10514,"ĠÐ±ÑĥÐ»ÑĮ":10515,"ĠÐ¸Ðº":10516,"ĠÐ¾ÑģÐ¾Ð±Ð¾Ð³Ð¾":10517,"Ġmusic":10518,"ĠÐ·Ð°Ð¸Ð¼ÑģÑĤÐ²":10519,"ĠÐ²Ð¸ÑĤÐµÐ±":10520,"ĠÑĢÐ°Ð·Ð½":10521,"ĠÐ¿Ð»Ð°Ð½Ð°":10522,"ĠÐºÑĥÑĤ":10523,"ĠÑĥÑģÑĤÐ°Ð½Ð¾Ð²Ð»ÐµÐ½Ð¾":10524,"Ð»ÑıÐ»Ð¸ÑģÑĮ":10525,"ĠÑģÐ»Ð¾":10526,"ĠÑĤÐ°Ð½ÑĨÐµÐ²":10527,"ĠÑĤÐµÑħÐ½Ð¸ÑĩÐµÑģÐºÐ¸Ñħ":10528,"gr":10529,"ÑģÐµÑĢÐµ":10530,"ĠÐ¿Ð¸Ð½":10531,"Ġqu":10532,"Ð»Ñĳ":10533,"ĠÑģÐ»Ð¸Ñı":10534,"ass":10535,"ĠÐ½Ð°Ð³ÑĢÑĥÐ·":10536,"ĠÑĢÐ°ÑģÑģÑĤÐ¾ÑıÐ½Ð¸Ðµ":10537,"Ð»Ð¸Ð¶Ðµ":10538,"ĠÐ¾Ð±ÑīÐ°Ñı":10539,"Ð·Ð°ÑģÐ»ÑĥÐ¶ÐµÐ½Ð½ÑĭÐ¹":10540,"Ð¼Ð°Ð½Ð¾Ð¼":10541,"ĠÐ³Ð¾ÑĢÑıÑĩ":10542,"ĠÐ¾Ð¿Ð¾ÑĢ":10543,"ĠÐ°Ð½Ð½Ñĭ":10544,"ĠÐ´Ð¾ÐºÑĥÐ¼ÐµÐ½ÑĤÑĭ":10545,"Ð°ÐºÐ°Ð´":10546,"ÑĥÐ½ÑĤ":10547,"ĠÐ¿Ð¾ÐºÑĢÑĭ":10548,"ĠÐ¿ÑĢÐ¸Ð·Ð½Ð°Ð²":10549,"ĠÐ¿ÑĢÐ¾ÑĨÐµÐ´":10550,"Ð¼Ð°ÑĤÐµÐ¼Ð°ÑĤ":10551,"ĠÐ¼Ð¾Ð·Ð³Ð°":10552,"Ġmicro":10553,"ÑģÑĢÐµÐ´Ð½ÑıÑı":10554,"ĠÑģÑĢÐµÐ´Ð½ÑİÑİ":10555,"ĠÑĥÐ´Ð¸Ð²":10556,"ĠÑĥÐºÑĢÐ°Ð¸Ð½Ð°":10557,"ĠÐ´Ð¶ÐµÐ¹Ð¼Ñģ":10558,"ĠÐ±Ð°ÑģÐºÐµÑĤÐ±Ð¾Ð»":10559,"ĠÐ´ÑĢÐµÐ²ÐµÑģ":10560,"ĠÐ¿ÑĢÐ¾Ð´Ð¾Ð²Ð¾Ð»ÑĮ":10561,"ĠÐ¿Ð¾ÑıÐ²Ð»ÑıÑİÑĤÑģÑı":10562,"ĠÐ½Ð°ÑħÐ¾Ð´Ð¸ÑĤ":10563,"ĠÑĪÐ°Ð¹":10564,"ĠÐ¿Ð¾Ð´ÑĢÐ¾ÑģÑĤ":10565,"ĠÑįÐºÑģÐº":10566,"ĠÐºÑģ":10567,"ĠÑģÑĭÐ³ÑĢÐ°Ð»Ð°":10568,"Ð´ÐµÐ¿Ð°ÑĢÑĤÐ°Ð¼ÐµÐ½ÑĤ":10569,"Ð¸Ð¼Ð¾Ð¼Ñĥ":10570,"ĠÑĢÐµÐ³ÑĥÐ»Ð¸":10571,"ĠÑįÐºÑģÐ¿Ð»ÑĥÐ°ÑĤÐ°ÑĨÐ¸Ñİ":10572,"ĠÐ½ÐµÐ·Ð°Ð²Ð¸ÑģÐ¸Ð¼Ð¾":10573,"ĠÐ½Ð°Ð¿ÑĢÐ¾ÑĤÐ¸Ð²":10574,"ĠÐ¿ÑĢÐ¾Ð²Ð¾Ð´ÑıÑĤÑģÑı":10575,"Ġ1889":10576,"ĠÑĥÐ¼ÐµÑĢÐ»Ð°":10577,"ĠÐ»ÐµÐ½Ð¸Ð½Ð³ÑĢÐ°Ð´ÑģÐºÐ¾Ð³Ð¾":10578,"Ã¤":10579,"Ð°Ð¿Ð¾Ð»":10580,"ĠÐ´Ð¾Ð¿ÑĥÑģÑĤ":10581,"ĠÐ½Ð¾Ð¼Ð¸Ð½Ð°ÑĨÐ¸Ð¸":10582,"ĠÐ¾Ð¿ÐµÑĢÐ°ÑĨÐ¸Ñı":10583,"ĠÑģÑĤÐ°Ð½Ð¾Ð²ÑıÑĤÑģÑı":10584,"Ð»Ð°ÑĢ":10585,"ĠÑĦÐ°Ð·":10586,"Ġaward":10587,"Ð¾Ð»ÑĮÐ´":10588,"ĠÐºÐ¾Ð¼Ð±":10589,"ĠÐ¾Ð±Ð¾ÑĢÐ¾Ð½Ñĥ":10590,"ĠÑĤÐµÐ±":10591,"ĠÐ½Ð°ÑĨÐ¸Ð¾Ð½Ð°Ð»ÑĮÐ½ÑĭÐ¼":10592,"ĠÐ½Ð°ÑĢÐ¾Ð´Ð½ÑĭÐ¹":10593,"ĠÐ¿ÑĢÐµÐ±ÑĭÐ²Ð°Ð½Ð¸Ñı":10594,"ĠÐ´ÐµÑĢÐµÐ²ÑĮÐµÐ²":10595,"ĠÑĪÐµÐ¹":10596,"ĠÑģÐ²Ð¾ÐµÐ¾Ð±ÑĢÐ°Ð·":10597,"ĠÐ²Ð°ÑģÐ¸Ð»Ð¸Ñı":10598,"ĠÑģÑĤÑĢÑĥÐºÑĤÑĥÑĢÐ°":10599,"ĠÑĢÐ¸Ð¼ÑģÐºÐ¸Ð¹":10600,"vd":10601,"Ð¸Ð¹ÑģÑı":10602,"ĠÐºÐ¸ÑģÐ»Ð¾ÑĤÑĭ":10603,"ĠÑĪÐ°":10604,"Ġ1885":10605,"ĠÐ¿ÑĢÐ¸Ð±ÑĭÐ»Ð¸":10606,"ĠÑįÐºÐ¸Ð¿Ð°Ð¶":10607,"Ġ700":10608,"ĠÐ½Ð¾Ð¼ÐµÑĢÐ°":10609,"ĠÐ°Ð´Ð¼Ð¸ÑĢÐ°Ð»":10610,"ĠÐºÑĥÑĢÑģÐ°":10611,"ĠÐ¿ÐµÑĢÐµÑħÐ¾Ð´Ð°":10612,"ĠÑĢÑĭÐ½ÐºÐ°":10613,"Ð¾ÐºÑĤ":10614,"ith":10615,"ĠÑĥÑģÑĤÑĢÐ°Ð½":10616,"ĠÐ°ÐºÑĤÐ¸Ð²Ð½ÑĭÐ¼Ð¸":10617,"Ġ1877":10618,"ĠÐ²Ð¾ÐºÐ·":10619,"Ð°Ð»ÑıÐ¼Ð¸":10620,"ĠÐ¾ÑĤÐ´ÑĭÑħÐ°":10621,"ÑĥÐ½Ðµ":10622,"illboard":10623,"ĠÐ½Ð°Ð²Ð¾Ð´":10624,"Ð°ÑģÑĤÐ¸":10625,"ĠÑģÐ¾Ð¿ÑĢÐ¾Ð²Ð¾Ð¶":10626,"ĠÐ³ÑĢÐ°Ð±":10627,"ÐµÐºÑģÐ°":10628,"ÑĤÐ°ÐºÐ¸Ðµ":10629,"Ġ1500":10630,"Ð»Ð¸Ð¿":10631,"ĠÑĤÑĢÐ¾Ð»Ð»ÐµÐ¹Ð±":10632,"Ð¸Ð¼Ð¾Ð³Ð¾":10633,"ĠÐ¾ÑĤÑĩÑĳÑĤ":10634,"ĠÐ¿ÐµÑĢÐµÐ´Ð°Ð»":10635,"ĠÑĦÐ¸Ð·Ð¸ÑĩÐµÑģÐºÐ¾Ð¹":10636,"Ð¾Ð»ÑĮÐ½ÑĭÑħ":10637,"ĠÐ¸ÑģÑĤÐ¾ÑĢÐ¸ÐºÐ¾":10638,"ĠÐ¿Ð¾Ð»ÑĮÑģÐºÐ¾Ð¹":10639,"ĠÐ²ÑĭÐ´Ð²Ð¸Ð½":10640,"ĠÑĤÐµÑĢÐµ":10641,"ĠÐ°Ð³Ð»Ð¾Ð¼":10642,"ĠÐ¿Ð¾Ð»Ð¸ÑĤÐ¸ÐºÑĥ":10643,"ĠÐ½Ð¾ÑĢÐ²ÐµÐ³Ð¸Ð¸":10644,"Ð·ÑĢ":10645,"ĠÐ¿Ð¾Ð·Ð½Ð°ÐºÐ¾Ð¼Ð¸Ð»ÑģÑı":10646,"ÑĤÐ¾ÑĤ":10647,"ĠÑĥÑģÑĤÑĢÐ¾Ð¹ÑģÑĤÐ²Ð¾":10648,"ĠÐ¾Ð±ÑīÐ¸Ð½":10649,"ĠÐ²Ð°Ðº":10650,"ĠÑĢÐ°Ð·Ð¼ÐµÑģÑĤ":10651,"ĠÐ±ÐµÐ»Ð°ÑĢÑĥÑģÑĮ":10652,"ĠÐ¸ÑģÐ¿Ð¾Ð»Ð½ÐµÐ½Ð¸Ñı":10653,"ĠÐ±Ð¾ÑĳÐ²":10654,"ÐºÑĢ":10655,"ĠÑģÐµÐ²ÐµÑĢÐ½Ð°Ñı":10656,"Ð½ÐµÑģÐ°":10657,"Ð³ÐµÑĢÐ¼Ð°Ð½":10658,"Ġ1812":10659,"ĠÐ½Ð°Ð¸Ð¼ÐµÐ½Ð¾Ð²Ð°Ð½Ð¸Ðµ":10660,"ĠÐºÐ¾Ð¼Ð¿Ð»ÐµÐºÑĤ":10661,"ÑĤÐ¸Ð¿":10662,"ĠÐ¿ÑĥÑģÐº":10663,"ĠÐ¾Ð´Ð¾Ð±ÑĢ":10664,"Ð¾ÑĤÑģ":10665,"ĠÑĢÑĥÑģÑģÐºÐ¸Ð¼":10666,"ĠÑĦÐ¸Ð·Ð¸ÐºÐ¾":10667,"ÑĦÑĢÐµÐ³":10668,"ĠÑĩÐ¸ÑģÐ»Ñĥ":10669,"ĠÐ²ÑĭÐ¿Ð¾Ð»Ð½ÐµÐ½Ð¸Ñı":10670,"ĠÐ¼Ð½Ð¾Ð¶ÐµÑģÑĤÐ²Ð°":10671,"ĠÐ°ÑĢÑħÐµÐ¾Ð»Ð¾Ð³":10672,"ĠÑĤÐµÐ»ÐµÐ³":10673,"ĠÐ°Ð²ÑĤÐ¾ÑĢÐ¸ÑĤÐµÑĤ":10674,"ĠÐ¾Ð±ÑīÐ¸Ð¹":10675,"ĠÐ²Ð¾ÐµÐ½Ð½Ð¾Ðµ":10676,"ĠÐ¼Ð¸Ð½ÑĥÑĤÐµ":10677,"ĠÐ³ÑĥÑģÑĤ":10678,"ĠÐ²Ð¾Ð»ÐµÐ¹":10679,"ÑĥÑīÐ¸Ðµ":10680,"ĠÐ¾Ð±Ð½Ð°ÑĢÑĥÐ¶ÐµÐ½Ñĭ":10681,"ĠÐºÑĢÑĥÑĤ":10682,"ĠÑĢÐµÐ³Ð¸Ð¾Ð½Ð¾Ð²":10683,"ĠÑģÑĤÐ°Ð´Ð¸Ð¾Ð½Ðµ":10684,"Ġ69":10685,"ĠÐ½Ð°ÑĩÐ¸Ð½Ð°ÑİÑĤ":10686,"ÑıÐ½Ð¾Ð¹":10687,"Ð¾Ð¿Ð¾ÑģÑĤÐ°Ð²":10688,"ĠÐ·Ð°ÑĦÐ¸ÐºÑģ":10689,"Ð²Ð¸Ð»ÑĮ":10690,"Ð¾Ð²Ñĭ":10691,"ĠÐ¾ÑĤÐ¼ÐµÑĩÐ°ÐµÑĤ":10692,"Ġyou":10693,"ĠÐ½Ð¸Ð´ÐµÑĢÐ»Ð°Ð½Ð´Ð¾Ð²":10694,"Ġ85":10695,"ĠÐ¼Ð°ÑģÑģÐ°":10696,"ĠÑģÑĬÐµÐ·Ð´Ð°":10697,"Ð³ÑĢÑĥÐ·":10698,"Ð°ÑĢÐ¾Ð²Ð°":10699,"Ð¸ÑĢÐ°ÐµÑĤÑģÑı":10700,"Ð±ÑĭÑĤ":10701,"ĠÑģÐ¾ÑĨÐ¸Ð°Ð»":10702,"ĠÑģÐ¿Ð¾ÑģÐ¾Ð±Ð½Ð¾ÑģÑĤÑĮ":10703,"ĠÑģÑĢÐ°Ð¶ÐµÐ½Ð¸Ñı":10704,"Ð°ÑĤÑĢ":10705,"Ð¾Ð²Ð°Ð½Ð½Ð¾Ð¹":10706,"ĠÑĤÐ°ÐºÐ¾Ð¼":10707,"Ð·Ð°ÐºÐ¾Ð½":10708,"ĠÐ¿ÑĢÐ¸ÑħÐ¾Ð´Ð°":10709,"Ð¾Ð¿ÑĥÑĤ":10710,"ĠÐ¿ÑĢÐ¾ÑģÐ²":10711,"ĠÑĤÑĢÐµÑĤÑĮÐµÐ¼":10712,"ÑĪÐµÐ±":10713,"ĠÐ¾ÑĢÐ³Ð°Ð½Ð¸Ð·Ð°ÑĨÐ¸Ñİ":10714,"ĠÐ½ÐµÐ¿ÑĢÐ°Ð²":10715,"1992":10716,"\"Â»,":10717,"ox":10718,"Ġ\"(":10719,"age":10720,"ĠÐ´ÐµÐºÐ¾ÑĢÐ°ÑĤÐ¸Ð²":10721,"ĠÐ±Ð¾Ð»ÑĮÑĪÐ¾Ð¼":10722,"ĠÑģÐ¾ÑģÑĤÐ¾ÑıÐ²":10723,"Ġph":10724,"Ð¾ÑıÑĤÐ½Ð¾":10725,"ĠÐ¿Ð¾Ð¼Ð¾ÑĩÑĮ":10726,"ĠÐ¿ÐµÑĢÑģÐ¾Ð½Ð°Ð¶Ð°":10727,"Ð¾Ð²Ñĥ":10728,"ĠÐ¿ÐµÑĢÐµÐ¿":10729,"ĠÑĩÐ°ÑģÑĤÑıÑħ":10730,"Ġ72":10731,"ĠÐ²ÐºÐ»ÑİÑĩÐ°ÑİÑĤ":10732,"ĠÐ¿Ð¾Ð²ÐµÑĢÑħÐ½Ð¾ÑģÑĤÑĮ":10733,"ĠÐºÐ¾Ð»Ð»ÐµÐºÑĨÐ¸Ð¸":10734,"ĠÑħÐ¾ÐºÐºÐµÐ¹":10735,"Ð¼Ð¸Ðº":10736,"Ð¼Ð¸ÑħÐ°":10737,"ĠÐ¼Ð¾Ð½Ð°":10738,"ĠÐ¿ÑĢÐ¾ÑģÑĤÑĢÐ°Ð½ÑģÑĤÐ²Ð¾":10739,"ÑĢÐµÐ¶Ð¸ÑģÑģ":10740,"Ð½Ð¸Ñģ":10741,"ĠÐ²Ð°Ð¹":10742,"Ð±Ð¸ÑĢ":10743,"ĠÑģÐ¾Ð±ÑģÑĤÐ²ÐµÐ½Ð½ÑĭÑħ":10744,"ÑįÑģÑĤ":10745,"ĠÐ¿ÐµÑĢÐµÐ´Ð°Ð½Ñĭ":10746,"ĠÐ»Ð°Ð³ÐµÑĢÑĮ":10747,"ĠÑĢÑĥÐ¼ÑĭÐ½":10748,"Ã¼":10749,"Ð°ÑĤÐµÐ»ÑĮÐ½Ð°Ñı":10750,"ĠÐ³ÑĢÐ°Ð½Ð¸ÑĩÐ¸ÑĤ":10751,"ĠÐµÐ²ÑĢÐ¾Ð¿ÐµÐ¹ÑģÐºÐ¾Ð³Ð¾":10752,"ÑĤÐµÑħ":10753,"ĠÐ¸ÑģÐºÑĥÑģÑģÑĤÐ²Ð¾":10754,"yn":10755,"Ð¸ÑĦÐ¸ÐºÐ°ÑĨÐ¸Ñı":10756,"ĠÐ´Ð¸ÑĦÑĦÐµÑĢÐµÐ½":10757,"ĠÐ¿Ð¾Ð»ÑĥÐ¾ÑģÑĤÑĢÐ¾Ð²Ð°":10758,"ĠÐ¾ÑĤÐ¾Ð±ÑĢÐ°Ð¶":10759,"ĠÐ¿ÑĢÐ¸Ð³Ð¾ÑĤÐ¾Ð²":10760,"Ð»Ð°Ð´Ð°":10761,"ĠÑĨÐ¸Ð²Ð¸Ð»":10762,"soft":10763,"ĠÐ¶ÑĥÐºÐ¾Ð²":10764,"ĠÐ¿ÑĢÐ¸ÑĪÐ»Ð¸":10765,"ĠÑĤÐµÐºÑģÑĤÐ°":10766,"ĠÐ¾Ð¾Ð¾":10767,"Ð²ÐºÐ»ÑİÑĩÐ°Ñı":10768,"ĠÑģÐ°Ð¼Ð°Ñı":10769,"Ð¼Ð°ÑĪ":10770,"ÐºÐ¾Ð²ÑĭÐ¼":10771,"Ð°ÑĨÐ¸ÐµÐ¹":10772,"Ð¾Ð²Ð¾Ð´":10773,"ĠÐ²ÑĭÐ²":10774,"ĠÐ¶Ð¸Ð²ÑĭÑħ":10775,"ĠÐ²ÑĥÐ·":10776,"ĠÑģÑĥÑī":10777,"ĠÐ¿ÑĢÐ¸Ð½ÑĨÐ°":10778,"ÐºÐ°ÑĤÐ¾Ð»":10779,"ĠÐ½Ð°Ð¿ÐµÑĩÐ°ÑĤ":10780,"ĠÑĢÐ°ÑĥÐ½Ð´":10781,"ĠÐ²ÑĭÐ·ÑĭÐ²Ð°ÐµÑĤ":10782,"ĠÑģÐ¾Ð²ÐµÑī":10783,"ĠÐºÐ¸Ð¼":10784,"Ġinsee":10785,"Ð¿ÐµÑĢÑĳÐ´":10786,"ĠÐ»ÑİÐ±Ð¸ÑĤÐµÐ»ÑĮ":10787,"ĠÐ²Ð¸Ð½ÑĤÐ¾Ð²":10788,"ÐºÑĢÐ°ÑģÐ½ÑĭÐ¹":10789,"ĠÐ½Ð°Ð·ÐµÐ¼":10790,"ĠÑģÐ°Ð½ÑĤÐ°":10791,"ĠÑįÐºÐ¾Ð½Ð¾Ð¼Ð¸ÑĩÐµÑģÐºÐ¾Ð³Ð¾":10792,":Â«":10793,"ĠÐ°ÐºÑĨÐ¸Ð¾Ð½":10794,"ĠÑĦÑĳÐ´Ð¾ÑĢÐ¾Ð²Ð¸Ñĩ":10795,"ĠÑħÑĢÐ¸ÑģÑĤÐ°":10796,"Ð¸ÑģÑĤÐºÐ°":10797,"Ġcd":10798,"ĠÑģÑĤÐ°ÑĢÐ¾Ð³Ð¾":10799,"Ġ95":10800,"ĠÑįÐ»ÐµÐºÑĤÑĢÐ¾Ð¿":10801,"Ð°ÑīÐ¸Ðµ":10802,"Ð¸ÑĩÐ½Ð¾ÑģÑĤÐ¸":10803,"ÑĢÐµÐ²Ð°":10804,"ĠÑĩÑĳÑĢÐ½Ð¾Ð³Ð¾":10805,"ĠÑĥÑħÐ¾Ð´Ð°":10806,"ÑģÐ½Ð°ÑĩÐ°Ð»Ð°":10807,"ĠÑģÐ¼Ð¸ÑĢ":10808,"ÑģÐ¾Ð²ÐµÑĢÑĪÐµÐ½ÑģÑĤÐ²":10809,"1999":10810,"ĠÐ¿Ð¾Ð»Ð¾Ð¶ÐµÐ½Ð¸Ð¸":10811,"ĠÑĤÑĢÐ¸Ð´":10812,"ĠÐ»Ð¸Ð½Ð¸Ð¹":10813,"ĠÐºÑĢÐ°Ð¹Ð½ÐµÐ¹":10814,"ÑĩÐµÑĤÑĭ":10815,"ĠÐ²Ð¾ÑģÑħ":10816,"ĠÐºÑĢÑĥÐ¿Ð½Ð¾Ð¹":10817,"ĠÑĤÐ¾Ð¿Ð»Ð¸Ð²Ð°":10818,"ÐµÐºÐ¸":10819,"ĠÑĥÐ¿Ð¾ÑĢ":10820,"ÑįÐ»Ð»":10821,"ĠÑĢÐ¾Ð¼Ð°Ð½ÑĤ":10822,"ĠÐ¿Ð¾Ð´ÑĩÐ¸Ð½ÑıÐµÑĤÑģÑı":10823,"ĠÐ¼ÐµÐºÑģÐ¸ÐºÐ°Ð½":10824,"Ð¾Ð²ÐµÑī":10825,"ĠÐ´ÑĢÑĥÐ³Ð¾Ðµ":10826,"ĠÐºÐ¸ÑĢÐ³Ð¸Ð·":10827,"ĠÐ¸Ð¼Ð¿ÐµÑĢÐ°ÑĤÐ¾ÑĢÑģÐºÐ¾Ð¹":10828,"Ð½Ð¾ÑģÑĤÑıÐ¼":10829,"ĠÐ°ÑĤÐ»ÐµÑĤ":10830,"ĠÑĤÑĢÐ°Ð¼Ð²Ð°Ð¹":10831,"ÑĨÐµÑĢÐºÐ¾Ð²ÑĮ":10832,"Ð°ÑıÐ½":10833,"1994":10834,"ĠÐ¾Ð±Ð¾Ð·":10835,"ĠÐºÐ²Ð°Ð½ÑĤ":10836,"ĠÐ¼Ð¸ÑĢÐ¾Ð²Ð¾Ð³Ð¾":10837,"Ġ1861":10838,"ĠÐ²Ð¸ÑĢÑĥ":10839,"ĠÐ¿Ð¾ÐºÐ°Ð·ÑĭÐ²Ð°ÐµÑĤ":10840,"ĠÐ°Ð±ÑħÐ°Ð·":10841,"ÑĤÐµÐ¿ÐµÑĢÑĮ":10842,"Ð¸ÐµÐ²Ð°":10843,"ĠÐ¾Ð±Ð»Ð°ÑģÑĤÑıÑħ":10844,"Ġ62":10845,"ÐºÐ¾Ð¼Ð¼Ñĥ":10846,"ĠÐ¾ÑīÑĥÑī":10847,"Ġbr":10848,"Ð°ÑĢÐºÐ°":10849,"ĠÐ²ÑĭÑģÑĤÑĥÐ¿Ð»ÐµÐ½Ð¸Ð¹":10850,"ĠÐºÐ»ÐµÑĤÐºÐ¸":10851,"ÐºÑĥÐ¼":10852,"Ð¼Ð¸Ð³":10853,"ĠÐ³ÑįÑģ":10854,"ĠÑģÑĢÐµÐ´Ð½Ðµ":10855,"ĠÐ¿Ð¾ÑıÐ²Ð¸Ð»Ð¾ÑģÑĮ":10856,"ĠÐ²Ð¾Ð¹ÑģÐºÐ¾":10857,"ĠÐ²ÑĭÐ¶":10858,"ĠÐ¼ÑĥÐ·ÑĭÐºÐ°Ð»ÑĮÐ½Ð¾Ð³Ð¾":10859,"ÐµÐºÑĨÐ¸Ð¸":10860,".-":10861,"ĠÐ»ÑİÐ´ÑıÐ¼":10862,"ĠÑĥÑĤÐ²ÐµÑĢÐ¶Ð´Ð°ÐµÑĤ":10863,"ÑĨÐµÐ»ÑĮ":10864,"Ð¸Ð¼Ñĭ":10865,"ca":10866,"ĠÐ´Ð°Ð»Ð¸":10867,"ĠÑĤÑī":10868,"ĠÐ¸ÑĢÐ°":10869,"Ð¸Ð·Ñĭ":10870,"ĠÐ¼ÐµÑĤÐ°Ð»Ð»ÑĥÑĢÐ³":10871,"Ð²ÑģÑĤÑĢÐµÑĩ":10872,"ĠÐ°Ð¿Ð¿Ð°ÑĢÐ°ÑĤÐ°":10873,"ĠÐ²ÑģÐ¿Ð¾Ð¼Ð¾Ð³":10874,"ÑģÐ¸Ð´":10875,"ĠÑģÐ¾Ð²ÐµÑĤÑģÐºÐ¸Ðµ":10876,"ĠÐ¸ÑģÐ¿ÑĭÑĤÐ°Ð½Ð¸Ñı":10877,"Ð²ÑĤÐ¾ÑĢÐ°Ñı":10878,"ĠÑĥÑĢÐ°Ð»ÑĮ":10879,"ÑĥÐ´ÑĪ":10880,"Ġgr":10881,"ĠÑĤÐµÐ¼Ñĭ":10882,"ĠÐ¾Ð´Ð¸Ð½Ð°Ðº":10883,"ĠÑģÑĢ":10884,"ĠÐ¾ÑĤÐ»Ð¸ÑĩÐ°ÑİÑĤÑģÑı":10885,"Ġ76":10886,"ĠÑĢÐµÐºÐ¾Ð½ÑģÑĤÑĢÑĥÐºÑĨÐ¸Ð¸":10887,"Ġ1864":10888,"ĠÑĢÐ°ÑģÐºÐ¾Ð¿":10889,"ĠÐ±ÑĥÐ´Ð°":10890,"ĠÐ¾ÑģÐ½Ð¾Ð²Ð¾Ð¹":10891,"ĠÐ¸ÑģÑĤÐ¾ÑĩÐ½Ð¸ÐºÐ¸":10892,"ÑĤÐµÐ¹":10893,"Ð¿ÑĢÐ¾Ð¸Ñģ":10894,"ĠÐºÑĢÐ°ÑģÐ½Ð¾Ð°ÑĢÐ¼":10895,"Ð¼Ð¸ÑĢÐ°Ð»Ð°":10896,"ÐµÐ½ÑĤÐ°ÑĨÐ¸Ð¸":10897,"ĠÐ¼Ð°ÑĢÐ°":10898,"ĠÑĩÐ»ÐµÐ½Ð°Ð¼Ð¸":10899,"ĠÐ¿ÑĢÐµÐ´Ð»Ð°Ð³Ð°ÐµÑĤ":10900,"ÐºÐ¾ÑĢÐ¾Ð»":10901,"Ð·ÐµÐ½":10902,"ÑħÐ¾Ð´Ð¸Ð»":10903,"Ð½Ð°ÑĩÐ°Ð»Ðµ":10904,"ĠÑģÐ¾Ð±ÑģÑĤÐ²ÐµÐ½Ð½Ð¾ÑģÑĤÐ¸":10905,"ĠÐ±Ð¾Ð»Ð¾ÑĤ":10906,"Ð°Ð»Ð¸Ð·Ð°ÑĨÐ¸Ñı":10907,"ĠÐ±Ðµ":10908,"ĠÐ¸Ð·Ð²ÐµÑģÑĤÐ½Ð°Ñı":10909,"ĠÐ¾Ð»Ð¸Ð²":10910,"ĠÑģÐ¾ÑİÐ·Ð½Ð¸ÐºÐ¾Ð²":10911,"ĠÐ±Ð¾Ð³Ð¾Ñģ":10912,"ĠÑĢÐ°Ð·Ð³Ð¾Ð²":10913,"Ð±ÑĥÐ´ÑĮ":10914,"ÐºÑĢÐ¸ÑĤ":10915,"Ð¾ÑģÑĤÑĥÐ¿":10916,"ĠÑĢÐ°Ð±Ð¾ÑĩÐµ":10917,"ĠÐ¿ÑĢÐ¸ÑħÐ¾Ð´Ð¸ÑĤ":10918,"ÑģÑĤÑĢÐ¾Ð¸ÑĤÐµÐ»ÑĮÑģÑĤÐ²Ð¾":10919,"ÑĩÐ°ÑģÑĤÐ¸":10920,"ics":10921,"Ð¸ÑĩÑĮ":10922,"ĠÐ±ÑĢÐ°ÐºÐµ":10923,"Ġcodice":10924,"ĠÐ¼ÐµÐ½ÐµÐ´Ð¶":10925,"Ð¸ÑģÑı":10926,"ĠÐ»Ð¸ÑĢ":10927,"ĠÑģÐ¸ÑģÑĤÐµÐ¼Ð°ÑĤ":10928,"Ð°Ð½ÑĨÐµÐ²":10929,"ÐµÑĤÑĢÐ°Ð¶":10930,"ĠÑĦÐµÑģÑĤÐ¸Ð²Ð°Ð»Ðµ":10931,"ĠÐ²ÑģÐµÐ»ÐµÐ½Ð½Ð¾Ð¹":10932,"ĠÑģÐ¸ÑĤÑĥÐ°ÑĨÐ¸Ñı":10933,"Ð¿ÑĢÐ°":10934,"Ð¸ÑĩÐ½Ð¾Ðµ":10935,"ĠÐ»Ð¸Ñħ":10936,"ĠÐ²ÑĭÑģÑĤÐ°Ð²ÐºÐ¸":10937,"ĠÐµÐ¶ÐµÐ´Ð½ÐµÐ²":10938,"ĠÐ¿Ð¾Ð»ÑĥÑĩÐ°ÑİÑĤ":10939,"ĠÑĥÐ±Ð¸ÑĤÑĮ":10940,"ĠÐ¾Ð±ÐµÑģÐ¿ÐµÑĩÐ¸ÑĤÑĮ":10941,"ĠÑģÐµÐºÑĢÐµÑĤÐ°ÑĢÑı":10942,"ĠÑĤÐ°ÑĤÑĮ":10943,"ÐºÐ¾ÑĢÐ¸ÑĩÐ½ÐµÐ²":10944,"ĠÑĨÐµÑĢÐºÐ²ÐµÐ¹":10945,"Ð°ÑİÑīÐ¸Ð¹ÑģÑı":10946,"Ð¸ÐºÐ°ÑĤ":10947,"Ð°Ð»Ð¸Ñİ":10948,"ĠÐ½Ð°Ð½Ð¾Ñģ":10949,"ĠÑħÐ¸Ð¼Ð¸Ð¸":10950,"Ð²ÑĢÐµÐ¼Ñı":10951,"ĠÑĥÐµÐ·Ð´Ðµ":10952,"ÑİÑīÐ¸Ð¹ÑģÑı":10953,"ĠÑĢÑĥÐºÐ¾Ð¿Ð¾Ð»Ð¾Ð¶":10954,"ĠÑĢÐµÐ½":10955,
[...]
