#version: 0.2 - Trained by `huggingface/tokenizers`
Ð ¾
Ġ Ð
Ð °
Ð µ
Ð ¸
Ð¾ Ð
Ñ ģ
Ñ Ģ
Ñ Ĥ
Ð ½
Ð »
Ð º
Ñ ĥ
Ð ²
Ñ ı
Ð ¼
Ñ ĭ
ĠÐ ¿
Ñģ ÑĤ
Ð ´
ĠÐ ²
Ñ Į
Ġ Ñģ
Ñ ĩ
ÑĢ Ð°
Ðµ Ð½
Ð¾Ð ²
ĠÐ ¸
Ð ·
Ñ ħ
Ð ¿
Ð ¹
ĠÐ ½
Ð¾Ð ´
ĠÐ º
ÑĢ Ðµ
Ð ³
Ð° Ð½
Ñģ Ðº
Ð¾ ÑĢ
Ð¾Ð »
ĠÐ ³
Ð¾Ð ¼
Ð° Ð»
Ð ±
Ðµ ÑĢ
ĠÐ ´
Ñ Ĩ
Ð¾Ð ½
Ñ İ
Ð¾ ÑĤ
ĠÐ ¼
Ðµ Ð»
Ð½ Ñĭ
Ð¾Ð ³
Ñ Ī
ĠÐ ±
Ð¾Ð ¹
ĠÐ½ Ð°
Ðµ ÑĤ
Ð ¶
Ġ ÑĤ
Ð¸ Ð½
Ð¸ ÑĤ
Ñ Ħ
Ð¾ Ñģ
Ð° ÑĤ
ĠÐ °
ĠÐ¿ ÑĢ
ÐµÐ½ Ð¸
Ð¾Ð ±
Ð¸ Ð»
Ð¾ ÑģÑĤ
Ġ 1
Ð¾Ð³ Ð¾
Ð° ÑĢ
ĠÐ ·
Ġ Ñĥ
Ñ ī
Ð¸ Ðº
Ðµ Ð¼
Ð¸ Ð¸
ÑģÑĤ Ð²
ĠÐ³ Ð¾Ð´
Ñģ Ñı
Ð» Ð°
Ġ Ñĩ
Ð¸ Ð¼
Ð° Ðº
â Ģ
Ñ į
Ñ ĳ
Ð¸ Ð¹
Ġ ÑĢÐ°
Ġ (
âĢ Ķ
Ðµ Ð¹
Ð¾Ð º
Ð° Ð¼
Ð½ Ð¾
ÑĢ Ñĥ
Ð¸ Ñĩ
Ð¸ Ñı
Ð° Ð²
Â «
Â »
ĠÐ »
Ð½ Ð°
Ð¸ Ð²
Ðµ Ð´
Ð¸ Ñģ
Ġ âĢĶ
Ġ Â«
Ðµ Ðº
Ġ ÑģÑĤ
Ð» Ñı
ĠÐ± Ñĭ
Ð¸ Ðµ
Ð¸ Ñħ
Ġ Ð¾ÑĤ
Ġ ÑĦ
Ġ Ð¾Ð±
ÐµÐ» ÑĮ
Ġ1 9
Ðµ Ð²
Ġ Ñį
Ð» Ð¸
Ð¾Ð ¿
Ġ 2
Ð¾Ð ·
ĠÐ µ
Ð½ Ð¾Ð¹
Ð¸ Ð·
Ð¾Ð» ÑĮ
ĠÐ¸ Ð·
ĠÐ½ Ðµ
Ðµ ÑĢÐµ
ĠÐ¿ Ð¾
Ð½Ñĭ Ñħ
ĠÐ³Ð¾Ð´ Ð°
Ð³ Ð¾
ÐµÐ½Ð¸ Ñı
Ġ ÑĢ
Ð¾Ð ¶
Ð°Ð» ÑĮ
Ð¸ ÑĢ
Ð° Ñı
ĠÐ² Ñĭ
Ġ ÑĢÐµ
Ð½ Ð¾Ð³Ð¾
Ðµ ÑģÐº
Ñģ Ð¿
ÑĤ Ð¾
Ðº Ð°
ĠÐ· Ð°
Ñĥ Ñİ
Ð½Ñĭ Ð¹
ÑĢÐµ Ð´
Ðµ ÑģÑĤ
Ð¸ ÑģÑĤ
Ð´ Ð°
ÑĨ Ð¸
ĠÐ ¶
ÐµÐ½ ÑĤ
Ġ Ñħ
Ð¸Ñĩ ÐµÑģÐº
Ð¾Ð² Ð°Ð½
ĠÑģ Ð²
ĠÐ±Ñĭ Ð»
Ð½ Ð¾ÑģÑĤ
ĠÐ³Ð¾Ð´ Ñĥ
Ð½Ñĭ Ð¼
ÑĢÐ° Ð½
Ð½Ñĭ Ðµ
Ġ2 0
Ñĥ ÑĢ
Ð» ÑĮ
ÐµÐ½Ð¸ Ðµ
Ð½ Ð¸Ðº
ÑģÐº Ð¾Ð¹
Ñģ Ñģ
ÑģÐº Ð¾Ð³Ð¾
ĠÐ¿ Ð¾Ð»
Ð¸ Ð´
Ð¾ Ñĩ
Ð° Ð´
ÑĤ Ð°
Ð¾ÑĤ Ð¾ÑĢ
Ð» Ðµ
Ġ ÑĪ
ÑĢÐ° Ð²
Ð° ÑģÑĤ
Ðµ ÑģÑĤÐ²
Ñħ Ð¾Ð´
Ġ Ñı
Ð° ÐµÑĤ
Ñı ÑĤ
Ð½ Ðµ
Ñĥ ÑĤ
ĠÐ¿ Ð¾Ð´
Ñĥ Ð´
ÑģÐº Ð¸Ð¹
Ñĥ Ñĩ
Ð¸ ÑĨ
ĠÑĢÐ° Ð·
Ðº Ð¸
Ð¶ Ðµ
ĠÐ¿ÑĢ Ð¾
Ðµ ÑĢÐ°
ĠÐº Ð¾ÑĤÐ¾ÑĢ
Ġ ÑĨ
Ð°ÑĤ ÑĮ
Ñİ ÑĤ
Ð° Ñģ
ÑĢÐµ Ð¼
ĠÐº Ð¾Ð¼
ÑĨ Ð¸Ð¸
Ð¸ Ð³
Ð¾ Ðµ
ĠÐ¿ Ð¾Ñģ
Ð° Ð·
Ð°Ð¼ Ð¸
Ðµ Ð·
ĠÐ¿ ÐµÑĢÐµ
) .
ĠÑĤ Ð°Ðº
Ġ Ð¾Ð½
Ðº Ð¾Ð²
ĠÑģ Ð¾ÑģÑĤ
Ġ Ð¾Ðº
Ð» ÐµÐ½
Ñĥ Ð±
Ð½ Ð¾Ð¼
ĠÑģ Ð¾
Ð° Ñħ
Ð¿ ÑĢ
Ð¶ Ð´
Ð½Ð° Ñı
Ñĭ Ñħ
ĠÐ¸ Ð¼
Ð¸ÑĤ ÐµÐ»ÑĮ
Ð°Ð½ Ð´
ĠÐº Ð¾Ð½
ĠÑĩ ÑĤÐ¾
ÐµÑĢ Ð²
Ġ Ð¾
Ñĭ Ð²
ÑĢÐ° Ð·
Ġ Ð¾Ñģ
ĠÐ¿ ÑĢÐµÐ´
Ð½ Ð¾Ð²
Ñĭ Ð¹
Ñĭ Ðµ
Ðµ Ñģ
Ð¼ Ð¸
) ,
Ġ Ð¾Ð´
ÑĢ Ñı
ÑĢ Ð¾Ð²
Ñĳ Ð½
ĠÑį ÑĤ
Ñĥ Ð½
ÑĤ Ð¾ÑĢ
Ñĥ Ð¿
Ð» ÐµÐ´
Ð° Ð¹
Ð¾ Ñı
ĠÐ² Ð¾
ĠÐº Ð°Ðº
Ð¾ÑĢ Ð¾Ð´
Ð°Ð» Ð¸
ĠÐ´ Ð»Ñı
Ð½ Ñı
Ð°Ð» Ð°
ĠÐ¸ Ð½
Ð½Ð¾ Ðµ
Â» .
ĠÐµ Ð³Ð¾
ĠÐ´ Ð²
Ðµ Ñĩ
ÑĢÐ° ÑĤ
ÑĢÑĥ Ð³
Ð¾Ð½ Ð°
Ġ "
Ðº Ð¾
Ñĥ Ð¶
ÑĢ Ð¾
ĠÑĥ Ñĩ
Ðº ÑĤ
ĠÐ° ÑĢ
Ġ20 0
ĠÐ¿ÑĢ Ð¸
Ðµ Ðµ
Ð± Ð¾ÑĤ
ĠÑģ Ð¿
Ð¸ÑĤ ÑĮ
Ð¸Ñģ ÑĮ
ĠÐ² Ñģ
ĠÑģÐ¾ÑģÑĤ Ð°Ð²
Ð»Ð° Ð²
Ð½Ð¾ÑģÑĤ ÑĮ
Â» ,
ĠÑģ Ð¾Ð²
ĠÐ¿ ÑĢÐµ
ĠÐ° Ð²
Ð¸Ð» ÑĮ
Ġ1 8
ĠÐ´ Ð¾
Ðµ Ð³Ð¾
Ð½Ð¾ÑģÑĤ Ð¸
Ñĥ Ñģ
Ðµ Ñħ
ÐµÑĤ ÑģÑı
1 9
0 0
ĠÐ² ÑĢÐµÐ¼
Ġ 3
Ñİ Ñī
Ġ ÑĢÑĥ
ĠÑģ Ð»
Ġ Ð¾Ð¿
Ð¼ Ð°
Ð¸Ð» Ð¸
ÑĢ Ñĭ
Ġ Ð¾ÑĢ
Ð¸Ð½ Ð°
Ð¾ ÑĢÐ°
Ð» Ñİ
Ð· Ð°
Ġ20 1
Ð°ÑĢ ÑĤ
Ð» Ð¾
ĠÐ² Ð¾Ð·
Ñĥ Ñī
Ð°Ð½ Ð¸Ñı
ĠÐ³ Ð¾ÑĢÐ¾Ð´
Ð´ Ðµ
ĠÐ½Ð° Ñĩ
ÑģÑĤÐ² ÐµÐ½
Ð½ Ð¸
ÑģÐº Ð¾Ð¼
ÐµÐº ÑĤ
ĠÐº Ð°
ĠÑĩ Ð°ÑģÑĤ
Ð½Ð° Ñĩ
ĠÐ° Ð½
Ñĥ Ð»ÑĮ
ÑģÐº Ð¸Ñħ
Ð½ ÑĥÑİ
ĠÐ½Ð° Ð·
ĠÑģÐ² Ð¾
Ð°Ð½ Ð¾Ð²
Ð¾Ñģ Ñģ
Ð»Ð° ÑģÑĤ
ÐµÐ½ Ð°
Ð¾Ð»ÑĮ ÑĪ
Ð¸ Ð¾Ð½
ĠÐ¿ ÐµÑĢÐ²
Ð° Ð³
Ð± ÑĢÑı
Ð¸ Ð±
ĠÐ¸ ÑģÐ¿
ÑģÑĤÐ² Ð°
Ð¸ÑĢ Ð¾Ð²
Ñĥ Ð¼
Ð¸ Ñİ
Ð¸ÑĤ ÐµÐ»
ÑĨÐ¸ Ð¾Ð½
Ġ Ñİ
ĠÑĤÐ°Ðº Ð¶Ðµ
ÑĢÑĥ Ð¿
ĠÑģ Ð°Ð¼
Ðº Ñĥ
ĠÑĢÐ° Ð¹
Ñĭ Ð¼
ÑģÐº Ð°Ñı
Ð¼ ÐµÑĢ
Ðº Ðµ
Ð°ÐµÑĤ ÑģÑı
ĠÐ¿ ÑĢÐ°Ð²
Ðµ Ð³
Ñĥ Ð·
Ð´ ÐµÐ»
ĠÐ±Ñĭ Ð»Ð¸
Ð°ÑĤ ÐµÐ»ÑĮ
Ð° ÑİÑĤ
Ñģ ÐµÐ»
ÐµÐ½Ð¸ Ð¸
ÑĢ Ð¸ÑĤ
Ðµ Ð¿
Ð°Ð½ Ð¸Ðµ
ĠÑĢÐ° Ð±Ð¾ÑĤ
ÐµÐº Ð°
ĠÐ±Ñĭ Ð»Ð°
ĠÐº Ð¾ÑĢ
Ñ Ĭ
Ñĥ Ð»
Ð² Ð»Ñı
Ð¾Ñģ ÑĮ
Ð¿ Ð¾
ÑĢ Ð¸
Ð½ÑĭÐ¼ Ð¸
ĠÑĩ ÐµÐ»
ĠÐ±ÑĭÐ» Ð¾
Ñĳ ÑĤ
Ð°Ð½ Ð°
Ð°Ð½ ÑĤ
ĠÐ¿ Ð¾ÑģÑĤ
ÐµÑĤ Ð°
ĠÐ² ÐµÑĢ
Ð¸Ð¼ Ð¸
Ð¿ Ð¾Ñģ
ÑģÑĤ Ð°Ð²
ĠÐ½ Ð¾Ð²
ĠÑĢ Ð¾ÑģÑģ
Ì ģ
ÐµÐ½ ÑĮ
ĠÐ²ÑĢÐµÐ¼ Ñı
Ġ 4
Ġ Ð¾ÑģÑĤ
Ðµ Ð±
ĠÐ² Ð¾Ð¹
Ð¿ ÑĢÐ°Ð²
Ð¸ÑĢ Ð¾Ð²Ð°Ð½
ÑģÑĤÐ² Ð¾
ĠÐ´ ÑĢÑĥÐ³
ĠÐ¼ ÐµÑģÑĤ
Ñĥ ÑģÑĤ
ĠÐ¸ Ð³
ĠÑģ Ð¾Ð±
ÐµÑĢ Ð¸
Ð¸Ð» ÑģÑı
Ð»Ð° Ð´
ĠÐ¿ÑĢ Ð¸Ð½
Ð° ÑĢÐ°
ÑĤ Ð¸
ÑĨ Ð¸Ñı
Ñı Ð½
ÑĢ Ð¾Ð¼
Ġ19 9
ĠÐ½ Ð¾
ĠÐ¿ÑĢ Ð¾ÑĤ
ĠÐº Ð¾Ð»
Ð¾ÑĢ Ð¼
ĠÑĢÐ° ÑģÐ¿
Ð¾Ð»ÑĮ ÐºÐ¾
Ð» Ð¾Ð²
ĠÐ¼ Ðµ
ÑĥÐ»ÑĮ ÑĤ
Ġ 5
Ñĥ Ñħ
ÐµÑĢ Ð¶
ÐµÐº Ñģ
Ð°Ñģ ÑĮ
ÐµÐ½ Ñĭ
ĠÐ·Ð° Ð¿
ĠÐ¼ Ð°ÑĢ
Ð¸Ð» Ð°
ĠÐ¸ Ð»Ð¸
Ñĳ Ð»
ÑģÑĤ ÑĥÐ¿
Ġ19 4
ĠÐ¾Ð± Ð»Ð°ÑģÑĤ
Ð¾ÑĢ ÑĤ
ĠÑĩÐµÐ» Ð¾Ð²
ÑħÐ¾Ð´ Ð¸ÑĤ
ĠÐ¾Ð± ÑĢÐ°Ð·
Ðµ ÑĨ
ĠÐ¼ Ð¾
Ð¸Ðº Ð¸
Ð¸Ð· Ð²
e r
Ð¾Ð»ÑĮ Ð·
ÑĮ Ñİ
Ð¾Ð· Ð´
Ð°Ð» ÑģÑı
ĠÐ¾Ð± Ñī
ĠÐ¿Ð¾Ð» ÑĥÑĩ
Ð¿ Ð¾Ð»
Ð½ ÐµÐ¹
Ġ i
Ð»Ñİ Ñĩ
ĠÐ± Ð¾Ð»ÑĮÑĪ
Ñı Ð·
Ð¿ Ð°
ĠÑį Ðº
ĠÑı Ð²Ð»Ñı
Ð¸Ðº Ð°
Ð¾Ð» Ð¶
ĠÐ± Ð¾Ð»
ĠÐ¿ÑĢ Ð¾Ð²
ĠÐ· Ð°Ðº
ÐµÐ½Ð¸ Ð¹
ÑĥÑİ Ñī
Ð¸ Ð½Ñĭ
Ð½ Ð°Ðº
ĠÐ¸ ÑģÑĤ
Ð¸Ð½ Ð³
ĠÐ¿ Ð»
ĠÑģ Ðº
Ð¾ÑĢ Ð¾Ð½
Ð³ Ð°Ð½
ÑĢ Ð¾Ð½
ÑĢÐ° Ð¼
ÐµÑĢ Ñģ
ĠÐ° Ð»
ĠÐºÐ¾Ð¼ Ð¿
Ð°Ð½ Ð¸Ð¸
ĠÐ¶ Ðµ
Ð¾Ð» Ð¾Ð³
o r
ĠÑģ ÑĢÐµÐ´
ĠÑĢ Ð¾Ð´
Ð¾Ð¼ Ñĥ
Ð¾Ð³ Ð´Ð°
ĠÐ· Ð°Ð²
ĠÐ¿Ð¾Ñģ Ð»Ðµ
Ñĳ Ð¼
Ð» ÐµÐ½Ð¸Ñı
Ġ 6
ĠÐ¸ Ñİ
ÑĢÐµ ÑĤ
Ñĥ ÑĪ
ÐµÑģÑĤÐ² ÐµÐ½
Ð² ÐµÑĢ
ÐµÐ½Ð¸ ÐµÐ¼
Ñĥ Ðº
ÑĢÐ° Ð¶
ÑĢÐ° Ñģ
ĠÑĢÐ°Ð¹ Ð¾Ð½
ĠÐºÐ¾Ð¼ Ð°Ð½Ð´
Ð°Ð² ÑĪ
ĠÐ¼ Ð°ÑĤ
ÑĢ Ð¾Ð¿
Ð´ Ð¸
ĠÐ¿ÑĢ Ð¾Ð´
ÐµÐ½Ð¸ Ñİ
ÑĢ Ð¾Ð´
Ð¾Ð² Ð°Ð»
ÑĤ Ð°Ðº
ĠÐ¿ Ð¾Ðº
Ð¸ Ð¶
ĠÑĩ ÐµÐ¼
ĠÐ» ÐµÑĤ
ĠÑĨ ÐµÐ½ÑĤ
Ð» Ð¸Ñĩ
Ðº Ð¾Ð¼
ĠÐ³ Ð¾Ñģ
Ð± Ð¾ÑĢ
Ð¼ Ñĥ
Ð° ÑĪ
ĠÑģÑĤ Ð°Ð»
a n
Ð»Ð° Ñģ
Ð°ÑĤ ÐµÐ»
Ð° ÑİÑī
ĠÑĤ ÐµÑĢ
Ð² ÐµÑĤ
ÑģÐº Ð¸Ðµ
Ð¾ÑĢ Ð¸Ð¸
ĠÐ³ ÐµÑĢ
Ðµ ÑģÑģ
ÑĨ Ð°
ÑģÐº Ð¾Ðµ
ĠÐ´ Ðµ
Ðµ Ñī
ÐºÐ° Ð·
ĠÐ³ ÑĢÑĥÐ¿
Ð°ÑĢ Ñı
Ð¸ ÑĨÐ¸
Ð¸ ÑĢÐ°
ĠÐ¾Ñģ Ð½Ð¾Ð²
ĠÐ½Ð° ÑģÐµÐ»
o n
Ġ s
Ð¾Ð²Ð°Ð½ Ð¸Ñı
ĠÑģ ÐµÐ¼
Ð° Ð±
ĠÐ²Ñĭ Ñģ
ĠÐ¸ Ñħ
Ð¸ Ð¿
Ð¾Ð½ Ñĩ
ĠÐº Ð¼
i n
ÑĥÐ´ Ð°ÑĢ
ĠÐ¸ÑģÐ¿ Ð¾Ð»ÑĮÐ·
ÑĢÐ° ÑĦ
ĠÐµ Ð²
Ð¼ ÐµÑģÑĤ
ĠÐ» Ñİ
ĠÐ² Ð¸Ð´
ĠÐº Ð»
ÑĮ Ñı
ĠÐ¾Ð± ÑĬ
Ð½Ð¸Ðº Ð¾Ð²
ĠÑģÐ¾Ð² ÐµÑĤ
Ð¸Ð½ Ð¸ÑģÑĤ
ĠÑģ ÐµÐ²
ĠÐ¼Ðµ Ð¶Ð´
Ð¿ Ð¸Ñģ
ĠÑĥÑĩ Ð°ÑģÑĤ
Ð´ Ð¸Ð½
ÐµÐ¹ ÑģÑĤÐ²
ĠÐ½Ð°Ñĩ Ð°Ð»
Ñĳ ÑĢ
ĠÐµ Ñĳ
ĠÑĩ Ð¸Ñģ
Ð¸ ÐµÐ¼
ĠÐ¿ÑĢÐ¾ÑĤ Ð¸Ð²
ĠÑģ Ð¼
ĠÐ¾Ð±Ð»Ð°ÑģÑĤ Ð¸
ÐµÑĢÐµ Ð²
ĠÑĥ ÑģÑĤ
Ð± Ñĭ
Ð¸Ð· Ð°
ĠÐ¿ Ð¾Ð¼
ĠÐ· Ð°Ð½
ĠÑģ ÐµÑĢ
Ð² Ð¾Ð»
ĠÐ´ Ð¶
ÐµÑĢ Ð½
Ð¿ ÑĢÐµ
ĠÑĤ Ð¾Ð¼
ĠÐ¿ÑĢÐµÐ´ ÑģÑĤÐ°Ð²
Ð¾Ð² Ð°
ĠÐ½Ð°Ð· Ð²
ĠÐ¼ Ð½
Ġ 7
ĠÐ¿ Ð¾Ð²
a r
ÑĥÑī ÐµÑģÑĤÐ²
ÐµÐ½ Ð¾
ĠÐºÐ¾ÑĤÐ¾ÑĢ ÑĭÐ¹
Ð² Ð°
ĠÐ³Ð¾Ñģ ÑĥÐ´Ð°ÑĢ
ÐµÐ½ Ð½Ð¾
ÑģÐº Ð¸Ð¼
Ð½Ð¸Ðº Ð°
Ñı Ð²
Ñı Ð±ÑĢÑı
Ġ( )
Ð¸ ÑĪ
Ð² Ñĭ
Ð°ÑĤ Ð°
Ñı Ñī
Ġ19 8
ĠÑĩÐµÐ»Ð¾Ð² ÐµÐº
Ð¸ ÑģÐº
ĠÐ¼Ð¾ ÑģÐº
ĠÐ³ Ð´Ðµ
ĠÑį ÑĤÐ¾
Ġ1 7
ĠÐ² ÐµÐ»
Ð¿Ð¾Ñģ Ð»Ðµ
ĠÑĢÐµ Ð·
Ð¾Ð¶ Ð´
ĠÑĥ Ðº
ĠÑģ Ð¾Ð·Ð´
ĠÐ³ Ð»Ð°Ð²
Ñģ Ð¾Ð²
Ð· Ñĭ
ĠÐ¿ Ð¾Ð¿
1 8
ÐµÐ´ Ð¸Ð½
Ð² ÐµÑģÑĤ
ĠÑģÐ¾ÑģÑĤÐ°Ð² Ð»Ñı
Ġ x
Ġ c
Ðµ Ð¶
ĠÐ¿ÑĢÐ¾ Ð¸Ð·Ð²
ĠÑģ ÐµÐ»
Ð¾ ÑĢÐµ
Ġ19 3
Ġ %
Ð¸ÑĩÐµÑģÐº Ð¾Ð¹
Ðº Ð¾Ð¹
Ð¾ ÑĪ
Ġ 8
Ð¾Ð» Ð¾Ð¶
e n
Ð¼ ÐµÐ½
Ðº Ð¾Ð»
ĠÐ¼ Ð¾Ð¶
ÑĢ Ð¾Ñģ
Ġ m
ĠÐ´ Ð°Ð½
ĠÑģ ÐµÐ»ÑĮ
Ð¸Ñģ Ñģ
ĠÐ´ Ð¾Ð¼
2 0
ĠÐ±Ð¾Ð» ÐµÐµ
ĠÐ¿ Ð°ÑĢ
ÑĨ ÐµÐ²
ĠÐ¾ÑĢ Ð³Ð°Ð½
Ð³ Ð°
Ñĭ ÑĤ
ĠÑĤ Ð¾
ĠÑĢÐ° Ñģ
ĠÐ´ ÐµÐ»
ĠÐ³ÑĢÑĥÐ¿ Ð¿
Ð½Ð°Ðº Ð¾
Ð¸Ð² ÑĪ
ÑĢÐ° Ð´
ĠÐ¿ Ð¾Ð·
ĠÑĤ ÑĢ
ÑĥÐ± Ð»
ĠÑĥ Ð½
Ñģ Ð°
ĠÐ´ ÐµÑĢÐµÐ²
Ð¸ÑĩÐµÑģÐº Ð¸Ñħ
ĠÑĦ ÑĢÐ°Ð½
Ġ f
Ð¾ÑģÑĤ Ð¸
Ð¾Ð½ Ð¾Ð¼
ĠÐ° Ð»ÑĮ
ĠÐ· Ð°Ð¼
ĠÐº Ð°ÑĢ
Ð² Ð¾
ĠÐ² ÑĤÐ¾ÑĢ
Ð¿ Ð¸Ð¾Ð½
Ġ19 6
i i
ĠÐ´ Ð¾ÑģÑĤ
ĠÐ¿ Ð¾ÑĤ
ĠÐ°ÑĢ Ð¼
Ð¿ ÐµÑĢÐ²
ĠÑıÐ²Ð»Ñı ÐµÑĤÑģÑı
Ġ t
Ġ19 7
ĠÑģÐµÐ² ÐµÑĢ
ĠÐ¼ ÑĥÐ·
l a
ÑĤ ÑĮ
Ð¾Ð± Ñĭ
ÑĪ Ð°
ĠÑĢÐ°Ð· Ð²
ĠÑģÐ² ÑıÐ·
ĠÐ¼ ÐµÑĤ
ĠÑĢÑĥ Ñģ
Ð¼ Ð°Ð½
Ð» Ð¸Ð½
Ðµ ÑĪ
Ñĩ Ð¸ÑĤ
ĠÐºÐ¾Ð½ ÑĨ
Ð¾ ÑĦ
ÑĢÐ° Ð±Ð¾ÑĤ
ÑĢÐµ Ð±
Ð½ Ð¸Ð¼
ĠÐ¼ Ð¾Ð½
ÑĨÐ¸ Ñİ
Ð°Ð» Ð¸ÑģÑĮ
ĠÐ³ Ð¾Ð»
ĠÑĤ Ðµ
Ð» ÐµÐ½Ð¸Ðµ
ĠÐ¸Ð¼ Ðµ
ĠÐ° Ð´
ĠÑĢÐ¾ÑģÑģ Ð¸Ð¸
ĠÑĥ Ð´
Ñį ÑĤ
Ð¸ÑģÑĤ ÐµÐ¼
e s
ÑĨ Ñĭ
Ġ19 5
ĠÑĤ Ð¾Ð»ÑĮÐºÐ¾
ĠÐ° ÐºÑĤ
Ġ1 5
ÑĢÐµ Ð²
Ð½ Ñĥ
Ð½Ðµ Ðµ
Ġ 9
Ñĭ ÑĪ
Ð»Ð° Ð³
ÐµÑĢ ÑĤ
ÑģÑģ ÑĢ
Ð°ÑĢ Ð´
ĠÑĤ Ð¾Ð³Ð¾
ĠÐ¿Ð¾Ñģ Ð»ÐµÐ´
Ñĥ Ð³
ĠÐ¸Ð· Ð²ÐµÑģÑĤ
ĠÐ² Ð¾Ð»
ĠÐ² Ð¾Ñģ
ĠÑģÐ¾ÑģÑĤ Ð¾Ñı
ĠÐ½Ðµ ÑģÐº
Ġ1 0
ĠÑĤÐµÑĢ ÑĢÐ¸ÑĤ
ÑĢÐ° Ð»
ĠÐ´ Ð¾Ð»Ð¶
Ġ Ð¾Ñĩ
ĠÑı Ð·Ñĭ
ĠÐ½ Ð¸Ðº
Ð¸ ÑĢÑĥ
ĠÐ½ ÐµÐ¼
ÑĢÑĥ Ð´
ĠÑı Ð½
ÐµÑĤ Ñĭ
ÑİÑĤ ÑģÑı
a l
ĠÐ· Ð²
ĠÑģ Ð»ÐµÐ´
ĠÐ± ÐµÐ»
Ð¿ Ð¾Ð´
ĠÑĤ ÐµÐ¼
Ð½Ð¾Ð¼ Ñĥ
Ð´ Ð¶
ĠÐ± ÐµÐ·
ĠÐ³ ÐµÐ½
Ð¸ÑĤ ÑģÑı
Ð° ÑģÑģ
ĠÐ¾ÑĤ Ðº
ĠÐ¿ÑĢ Ð¸Ð¼
ĠÑĤ ÐµÐ»
ĠÐ² Ðº
ĠÐ² Ð¾Ð´
ĠÑĢÐµ ÑĪ
ĠÑĩÐµÐ¼ Ð¿Ð¸Ð¾Ð½
ĠÐºÐ¾ÑĤÐ¾ÑĢ ÑĭÐµ
ĠÑį Ð»
ĠÑģ Ñĭ
Ñĥ ÐµÑĤ
ĠÑĤ ÑĥÑĢ
ĠÐ½Ð° Ð´
ĠÐ¿ Ð¾Ð±
Ð¸ÑĩÐµÑģÐº Ð¾Ð³Ð¾
ĠÐ³Ð¾ÑĢÐ¾Ð´ Ð°
Ġ1 6
ĠÑģÑĤ Ð°ÑĢ
ĠÑģ Ð¸ÑģÑĤÐµÐ¼
Ð¸Ðº Ð°Ð½
Ð³ Ñĥ
Ð°Ð»ÑĮ Ð½Ð¾Ð¹
Ð½ Ð¾Ñģ
ĠÑĥ Ñģ
Ð¸ Ñī
ÑĤ Ð¾Ð¼
Ġ p
Ġ19 2
ÑĢÐ° Ñī
ĠÐ´ ÐµÐ¹ÑģÑĤÐ²
ÑĢÐµ ÑģÑĤ
ĠÑĥÐº ÑĢÐ°
Ð¸ÑĩÐµÑģÐº Ð¸Ð¹
Ñı Ð´
ÑıÑĤ ÑĮ
Ġ d
Ð°ÑĤÑĮ ÑģÑı
ĠÐ¼ Ð¾Ð³
ĠÐ¾Ðº ÑĤ
ĠÐ²Ñĭ Ð¿
Ð¾Ð²Ð°Ð½ Ð¸Ðµ
ÐµÑģÑĤÐ² Ð¾
ĠÐ¿ÑĢ Ð¸Ð²
ÐµÐ» Ð¸
ĠÐ¸ ÑģÐº
Ð½ Ð¸ÑĨ
Ð¸Ð½ Ðµ
ÑĢÐ° Ð»ÑĮ
Ð¼ Ñĭ
ĠÐ¶ ÐµÐ½
ĠÐ²Ð¾Ð¹ Ð½Ñĭ
Ð³ ÑĥÑģÑĤ
ÐµÑĢÐµ Ð·
Ð°Ð» Ð¾ÑģÑĮ
ĠÐ°Ð» ÐµÐºÑģ
ĠÑįÑĤ Ð¾Ð³Ð¾
ÐµÑĢ ÑĪ
Ð¸Ð» Ð¸ÑģÑĮ
Ñı Ð»
ĠÐ· ÐµÐ¼
Ð¸ ÑĦ
ĠÑĢÐ¾ÑģÑģ Ð¸Ð¹
Ð² ÐµÐ´
ĠÐ¸Ð½ ÑĤ
Ð³ Ð¾Ð²
Ð°ÑĤ Ðµ
ĠÐ¼ ÐµÐ´
ÑģÐº ÑĥÑİ
ĠÐº ÑĢÐ°Ñģ
a t
Ð¿ Ð»
ÑĮ Ðµ
ĠÐ²Ð¾ ÐµÐ½
ĠÑģ ÐµÐ½ÑĤ
ĠÑĪ ÐºÐ¾Ð»
ĠÑįÑĤ Ð¾Ð¼
ĠÐ± ÑĥÐ´
ĠÑĦ Ð¾ÑĢÐ¼
ĠÐ°Ð² Ð³ÑĥÑģÑĤ
Ð¾ÑĤ Ð¾Ð²
Ð¾Ð» Ð½
ÑĢ Ð¾Ðº
Ð¾Ð» Ð¾
Ð± ÑĥÑĢ
ÑĢÐµ Ð¹
Ð¸Ð» Ð°ÑģÑĮ
Ġ b
ĠÑģ ÑģÑģÑĢ
Ð¾ÑĢ Ð¾Ð²
ĠÐ½ ÐµÐº
ĠÐ¼ Ð¾Ð»
ÑĤÐ¾ ÑĢÐ°
Ð³ Ð»
Ð¸Ð² ÐµÑĢÑģ
ÑıÑĤ ÐµÐ»ÑĮ
Ð² Ð¾Ð´
Ð± Ð¾Ð»
ĠÐ¿ Ð°ÑĢÑĤ
ĠÐ¸Ð¼ Ð¿
" ,
ÑĢÐµ Ñĩ
ĠÐ¾Ð½ Ð¸
ĠÑĤ ÐµÑħ
ĠÐ³ Ð¾ÑĢ
ĠÑĢÐµÐ· ÑĥÐ»ÑĮÑĤ
ĠÐ· Ð´
ĠÐ²ÐµÐ» Ð¸Ðº
Ñı Ð¼
ĠÐ¾Ð´ Ð¸Ð½
Ð½ Ð¸Ðµ
ĠÐ¼ÐµÐ¶Ð´ Ñĥ
Ð¼ Ð¸Ð½Ð¸ÑģÑĤ
Ð°ÑİÑĤ ÑģÑı
h e
Ð°Ð» Ð¾
ĠÐ´ Ð¸
Ð°Ð»ÑĮ Ð½Ð¾
ÐµÑĢÐ° ÑĤ
ĠÐ· Ð°ÑĤ
ĠÐ¼ Ð¸Ð½
ĠÐ²Ñĭ ÑģÑĤÑĥÐ¿
Ð¸ÑĤÐµÐ» ÐµÐ¹
Ð½ ÑĥÑĤ
i c
ÐµÑģÑĤÐ² Ð°
ĠÐ´ ÐµÐºÐ°
ĠÐ°ÑĢ Ñħ
ĠÐ¾Ð½ Ð°
Ġ1 2
ĠÑĢÐ°ÑģÐ¿ Ð¾Ð»Ð¾Ð¶
Ð¼ Ð¾Ð¶
ĠÑĨ ÐµÑĢ
ĠÐ² Ð·
ĠÐ³Ð¾ÑģÑĥÐ´Ð°ÑĢ ÑģÑĤÐ²ÐµÐ½
Ð»Ð¾ Ñī
ĠÐ½Ð° ÑħÐ¾Ð´
Ð¾Ð² Ð¾Ð¹
ĠÑĪ ÑĤ
Ð°Ð» Ð°ÑģÑĮ
Ð± Ð¾Ð¼
ĠÐ²Ñģ Ðµ
ĠÐ¸ ÑĤ
Ñĥ ÑģÐº
ĠÐ· Ð½Ð°Ñĩ
ĠÐ¶ ÐµÐ»
ÑĢÐ° Ð¶Ð´
ĠÐ´ ÐµÑĤ
Ð° Ð¶
ÐµÐ½ÑĤ Ð°
Ġ Ð¾Ð³
ĠÑģÐ» ÑĥÐ¶
Ð¾ Ñī
Ð¸ÑĤ Ñĥ
Ð¾Ð± Ñī
Ð² Ð¾ÑĢ
ĠÑĥÐ½ Ð¸Ð²ÐµÑĢÑģ
Ð°Ð»ÑĮ Ð½Ð¾Ð³Ð¾
Ð°Ðº ÑĤ
ĠÑĤ Ñĭ
Ð± Ð°
Ð´ Ð¾
Ð½Ð¾ÑģÑĤÑĮ Ñİ
ĠÐºÐ¾Ð½ ÑĤ
Ð°Ð»ÑĮ Ð½ÑĭÑħ
Ð¸ÑĤ ÐµÑĤ
ĠÐ¸Ð½ ÑģÑĤ
1 0
ÑĪ Ð¸Ð¹
Ðº Ð¾Ð½
ÑĢÑĭ ÑĤ
ĠÑģÑĤ Ð¾ÑĢÐ¾Ð½
ĠÐ¿Ð¾ Ñĩ
Ðµ ÑĨÐ¸
ÐµÑģÑĤÐ² Ðµ
ĠÐ¶ Ð¸Ð·
ĠÐ½Ð°ÑģÐµÐ» ÐµÐ½Ð¸Ñı
ÑĢÐµÐ´ ÐµÐ»
ĠÐ¼Ð½ Ð¾Ð³
ĠÐ° Ð¿ÑĢÐµ
ÑĪ Ð¸Ñħ
ĠÐ¿ÐµÑĢÐµ Ð´
Ñĭ Ð¼Ð¸
ÑĥÑĢ Ñĭ
Ð½ Ð¸Ð¹
ĠÑĦ Ð¸Ð»ÑĮ
ĠÐ¿ÑĢ Ð¸Ñģ
ĠÑģ ÐµÐ±
Ð¼ Ðµ
Ð³ Ð¸
ÐºÐ° Ñħ
ĠÐº Ð°Ð·
ĠÐ¿ Ð¾ÑĢ
Ð½Ð¸Ðº Ð¸
1 7
Ñı Ð¶
ĠÑĥ Ð¿
ĠÐ³Ð¾Ð´Ð° Ñħ
Ð¸Ðº Ð¾Ð²
ĠÑĦ Ð¸Ð½
Ġ a
Ð¸Ð» Ð¾
Ð» ÐµÑĤ
ĠÐ¿ÑĢ Ð¸Ð·
Ð´ ÐµÑĢÐ¶
ÑĢ Ð¾Ð¹
Ð³ Ðµ
ĠÐµ Ñī
ĠÐ¿Ð¾Ñģ ÐµÐ»
ĠÐºÐ¾ÑĤÐ¾ÑĢ ÑĭÑħ
ĠÑģ Ð¸Ð»
ÑĤ Ð¾Ð²
Ñħ ÑĢÐ°Ð½
ĠÑģ ÑĪÐ°
ĠÐº Ð°ÑĤ
ĠÐ²Ðº Ð»ÑİÑĩ
Ð¾Ð³ ÑĢÐ°ÑĦ
ĠÐ¼ÑĥÐ· Ñĭ
ĠÐ¾Ðº Ð¾Ð½Ñĩ
ĠÑĩ ÑĤ
ÑĦ Ð¾ÑĢÐ¼
Ð»Ð¾Ñī Ð°Ð´
Ð¾ÑģÑĤ ÑĮ
Ð¾Ð³ Ð»Ð°Ñģ
ĠÐº Ð¾Ð³Ð´Ð°
ĠÐ² Ð¾ÑģÑĤ
Ñĥ ÑĢÐ°
ĠÑģÑĤ ÑĢÐ°
Ð¾ ÐµÐ²
ĠÐº Ð¾ÑĤ
ÑĢ ÑĭÐ²
ĠÐ° Ð¼ÐµÑĢ
ĠÐºÐ» ÑĥÐ±
ÐºÐ¾Ð² Ð¾Ð´
ĠÐº Ð°Ð¼
Ð° ÐµÐ¼
Ð¼ ÐµÑĤ
ÐµÐ· Ð´
ĠÐ²Ð¾Ð¹ ÑģÐº
Ð°Ð½ Ñĭ
Ġ r
ĠÑĢÐ°Ð¹ Ð¾Ð½Ð°
ĠÐ¿ÑĢÐ¾Ð¸Ð·Ð² Ð¾Ð´
Ð¸ÑĤÐµÐ»ÑĮ Ð½Ð¾
ĠÐ½ Ð¾Ñı
Ð¸Ðº Ðµ
Ñģ Ð¼
ĠÐ½Ð° ÑĨÐ¸Ð¾Ð½
ÑĦ Ð¾ÑĢ
Ð¾Ð½ Ðµ
ĠÑĩÐ°ÑģÑĤ ÑĮ
ĠÐ¿ ÐµÑĢÐ¸
ĠÐ¿Ð¾Ð» Ð¸ÑĤ
Ð¸ÑĩÐµÑģÐº Ð¸Ðµ
ĠÐµÐ² ÑĢÐ¾Ð¿
ĠÑĩ Ð»ÐµÐ½
ĠÐºÐ° Ñĩ
ĠÐ¿ ÑĥÑĤ
Ð»Ð° ÑģÑģ
Ð¾ÑĤ Ð°
ĠÑĦ ÐµÐ²
ĠÑģ Ð±Ð¾ÑĢ
Ð± ÑĢÐµ
ÑĨ Ð¸Ð¹
ĠÐ´ Ð¾Ðº
Ñı Ð¼Ð¸
ĠÐ¾Ðº ÑĢÑĥÐ³
ĠÐ² Ð¼ÐµÑģÑĤ
ĠÑģÐ¾ÑģÑĤÐ°Ð² Ðµ
Ð°Ð» Ðµ
Ð¸ ÐµÐ¹
Ðº Ð²
ĠÐº Ð½
ĠÐ²Ñĭ ÑĪ
ĠÑĥ Ð¶Ðµ
ĠÐ´Ð² Ð°
ĠÑģ ÑĥÐ´
Ð½ ÐµÐ¼
ĠÐº Ð°Ð½
ĠÑĩÐ°ÑģÑĤ Ð¸
Ġ1 4
Ð² Ðµ
ÑģÑĤ Ð¾Ñı
ĠÐ¼ Ð¾ÑĢ
Ð»Ð¸ Ð·
ĠÐ¸ÑģÑĤ Ð¾ÑĢ
Ð¸Ð½ Ñĥ
ÑģÑĤÐ² Ð¾Ð¼
Ð¿ Ð¸ÑĤ
Ð½ Ð¸Ñħ
Ñį Ð½
i s
ÑĨ ÐµÐ½
ĠÐ² Ð»Ð°Ð´
Ð» Ð¸Ð²
Ð· Ð¸Ð´
ĠÐµÑī Ñĳ
ĠÐ½ÐµÑģÐº Ð¾Ð»ÑĮÐºÐ¾
ÑĢÐ° ÐºÑĤ
ĠÐ·Ð°Ð½ Ð¸Ð¼
ĠÐ¿ÐµÑĢÐ¸ Ð¾Ð´
ĠÑıÐ½ Ð²
Ð¾Ð± ÑĢÐ°Ð·
Ð°Ð» Ð¸ÑģÑĤ
Ð°Ð»ÑĮ Ð½ÑĭÐ¹
" .
ÐµÐ½ Ð½ÑĭÑħ
Ð» Ð¾Ð¶
ÐµÐ½ Ð½ÑĭÐ¹
ĠÐ² ÐµÐºÐ°
1 5
Ð´Ð° Ñĩ
Ð½Ð¾ ÑĪ
ÐµÐ½ Ð´
Ð° Ð¿
ĠÐ» Ð¸ÑĤ
ĠÑĦÐµÐ² ÑĢÐ°
Ġ1 3
ĠÐ½Ð°Ð· ÑĭÐ²
ÐµÐ² Ð¸Ñĩ
ĠÑĩ ÐµÑĢÐµÐ·
ĠÑĥ Ð±
ĠÐ½ÐµÐº Ð¾ÑĤÐ¾ÑĢ
ĠÐ¼Ð¾Ð¶ ÐµÑĤ
ĠÑĩÑĤ Ð¾Ð±Ñĭ
ĠÐ¼ Ð°Ñı
ÐµÑĢ Ð¾Ð¼
ĠÑģ ÐµÐ·
ĠÑģÑĤ ÑĢÐ¾
ĠÑģÐ¿ ÐµÑĨÐ¸
ÐµÑĢ Ð¾Ð²
ĠÐ½Ð° ÑĢÐ¾Ð´
ĠÐ¼Ð°ÑĤ Ñĩ
ĠÐº ÑĢÐ°
ÑĢÐ°ÑĤ Ð¸Ð²
ĠÑģÑĤ Ð°Ð½
Ð¿ÑĢ Ð¸
ĠÐ´Ð² ÑĥÑħ
ÐµÑĢ Ð³
ĠÐ¿ ÐµÑģ
ĠÐ» Ð¸Ð½
Ð¸Ð² Ð¸Ð·
ĠÑĤÐµÑĢÑĢÐ¸ÑĤ Ð¾ÑĢÐ¸Ð¸
ĠÑĥ ÑĤ
ĠÐ¾Ðº Ð¾Ð»Ð¾
ĠÐ½Ð° Ñģ
ĠÐ¼ ÑĥÐ¶
Ð°ÑĢ Ð¾Ð´
Ġ ,
ĠÐ´ Ð¾Ð»
ĠÑıÐ½Ð² Ð°ÑĢÑı
Ð¾Ñģ Ð¾Ð±
ĠÐ¿ ÐµÑĤ
Ð´ ÐµÐ¼
ĠÐºÐ¾ÑĢ Ð¾Ð»
ĠÑģÐ¾ÑģÑĤÐ°Ð²Ð»Ñı ÐµÑĤ
ĠÑĥ Ð¿ÑĢÐ°Ð²
1 2
ÑĥÑİ ÑĤ
u s
ÑĢ Ð¸ÑģÑĤ
ĠÐ·Ð°Ð¿ Ð°Ð´
ĠÐ¿ÑĢ Ð¾Ð³
ÑģÑĤÐ² Ðµ
ĠÐºÐ¾ÑĤÐ¾ÑĢ Ð¾Ð¹
ĠÑģ ÑĥÑīÐµÑģÑĤÐ²
ĠÐ¸Ð½ Ð´
ĠÐ½ ÐµÐ´
ĠÐ½ Ð¸Ñħ
ĠÐ± Ð¾Ð³
ĠÐº ÑĥÑĢ
ĠÐ°Ð²Ð³ÑĥÑģÑĤ Ð°
ĠÑĢÑĥ ÐºÐ¾Ð²Ð¾Ð´
ĠÐ³ ÑĢÐ°Ð½
Ð½Ð¸Ðº Ð¾Ð¼
ĠÐ¼ÐµÑģÑĤ Ð¾
ÑĢÐµ Ð»
Ð°Ð½ Ð¾
ĠÐµ ÑģÑĤ
ĠÐ¿ÑĢÐ¾ ÑĦ
ĠÐº ÑĢÑĥÐ¿
Ð¾Ð² Ð¾ÑĢ
ĠÐ¾Ñģ Ð¾Ð±
ĠÑįÐº ÑģÐ¿
ĠÑģÐ¾ Ñİ
Ð¼ Ð°ÑĤ
ĠÐ¿ Ð»Ð¾ÑīÐ°Ð´
ĠÐ¿ÑĢÐ¾Ð´ Ð¾Ð»Ð¶
ĠÐ¸Ñİ Ð»Ñı
ĠÐ¾ÐºÑĤ ÑıÐ±ÑĢÑı
ÐµÑģ ÑĮ
ĠÐ¸Ð· Ð´
ĠÑĢÐµ Ð³
ĠÐ² ÑģÑĤ
ĠÐ°Ð»ÐµÐºÑģ Ð°Ð½Ð´
Ðµ ÑĦ
ĠÑĥÑģÑĤ Ð°Ð½Ð¾Ð²
ĠÐ´ Ð¾ÑĢ
ĠÑģÐµÐ½ÑĤ ÑıÐ±ÑĢÑı
ĠÐ¿Ð¾Ð»ÑĥÑĩ Ð¸Ð»
ĠÑĢÐ°Ð· Ð»Ð¸Ñĩ
Ð½ ÐµÐ²
ĠÑģ ÑĩÐ¸ÑĤ
ĠÐ¾ ÑĦ
ĠÐ´ÐµÐºÐ° Ð±ÑĢÑı
ĠÐ± Ð¾ÑĢ
Ð¸Ð·Ð° ÑĨÐ¸Ð¸
Ð¸ÑĩÐµÑģÐº Ð¸
ÑģÑģ Ð»ÐµÐ´
Ñı Ñģ
ĠÐ½Ð°Ð· Ð½Ð°Ñĩ
ÑĢÐ° ÑģÑĤ
Ð¸Ð½ Ð¾
ĠÑģ Ð°Ð½
ĠÐ¸Ñİ Ð½Ñı
ĠÐ¿Ð¾Ð± ÐµÐ´
ĠÐ´ÑĢÑĥÐ³ Ð¸Ñħ
Ð¿ÑĢ Ð¸Ð¼
ĠÐ³ÐµÐ½ ÐµÑĢÐ°
ĠÐµ Ð´Ð¸Ð½
ĠÐ¼ Ð¸ÑĢÐ°
Ġ g
ĠÐ½Ð° Ð¿ÑĢÐ°Ð²
ÑģÐ¿ ÑĥÐ±Ð»
ĠÑģÐ» ÑĥÑĩ
ĠÐ°ÑĢÐ¼ Ð¸Ð¸
ÑħÐ¾Ð´Ð¸ÑĤ ÑģÑı
Ð¸ÑĨ Ñĭ
ĠÐ¼ ÐµÐ½
Ð½ Ð¾Ð²Ð°Ð½
ĠÐ°Ð»ÑĮ Ð±Ð¾Ð¼
ĠÑĢÐ°Ð¹Ð¾Ð½ Ðµ
ĠÐ³Ð¾Ð´ Ñĭ
Ñģ Ð»
ĠÐ¼Ð°ÑĢ ÑĤÐ°
ĠÐ»Ñİ Ð±
ĠÐºÐ½ Ð¸Ð³
Ðº Ð¸Ñħ
ĠÐ´ Ð¸Ð²Ð¸Ð·
Ð¾ÑģÑĤ ÑĢÐ°Ð½
Ð¾ÑĢÐ° Ñı
Ð¾Ð½ Ð¾Ð²
ĠÐ¾ÑģÑĤ ÑĢÐ¾Ð²
ĠÐ¶ Ð¸Ð²
Ġ â
ĠÐ¼ Ð°Ðº
Ð°ÑĢ Ð¸
ĠÐ´ Ð¾Ð±
l e
ÑĥÐ´ Ð¾Ð¶
2 00
Ð² Ñģ
Ð°ÑĢ Ñħ
ÑĤ Ðµ
ĠÐ²Ð¾Ð· Ð¼Ð¾Ð¶
ĠÑģÐ²Ð¾ ÐµÐ¹
ĠÐº Ð»Ð°ÑģÑģ
1 6
Ðº Ð¸Ð¹
Ð¾Ð· Ñı
Ð¸ÑĨ Ð¸Ð¸
ÑĢÑĥ Ð¶
Ð± Ð¾Ð»ÑĮÑĪ
ĠÐ¿Ð¾Ð¼ Ð¾Ñī
ĠÑĢÐµ ÑģÐ¿ÑĥÐ±Ð»
Ðµ ÑģÐ¿
ĠÐ´ Ð°
ĠÐ¿ Ð¾Ð³
ÑĢ ÐµÐ½
ĠÐºÐ¾ÑĤ Ð¾ÑĢÐ°Ñı
ĠÐ°Ð¿ÑĢÐµ Ð»Ñı
ĠÑĢÐ° Ð½
Ġ Ð¾Ð·
ĠÐ¼ Ð°Ð»
Ġ Ð¾Ð»
Ð² Ð°ÑĤ
Ð¿ Ð°Ð´
ĠÐº ÑĥÐ»ÑĮÑĤ
ĠÐ¾Ð¿ ÑĢÐµÐ´ÐµÐ»
ĠÐµ Ð¼Ñĥ
ĠÑģÐ»ÐµÐ´ ÑĥÑİÑī
ĠÑĦ ÐµÐ´
Ñĥ Ð»Ñı
ĠÐ¿ÑĢÐµ Ð·Ð¸Ð´
ĠÐ³ ÑĥÐ±
Ñı Ñħ
Ð¸ÑĤ Ð°
Ð½Ðµ Ð³Ð¾
ĠÐ²ÐµÑĢ Ñħ
ÐµÐ¼ Ñĥ
ĠÐ·Ð°ÑĤ ÐµÐ¼
Ġ v
ÑĥÑĢ Ð½
Ð¾Ð´ Ð½Ð°ÐºÐ¾
Ñĩ Ð¸Ð½
i t
Ð¸Ð» Ð¾ÑģÑĮ
ĠÑģÐ¾ Ð¾ÑĤ
r o
Ġ 0
Ð¼ Ð¾Ð½
ĠÑĥ ÑģÐ¿
Ñĳ Ñħ
ĠÐºÐ¾Ð½ ÑģÑĤ
Ġ n
ĠÐ¾Ð´ Ð½Ð°ÐºÐ¾
Ð± Ñĥ
ĠÑĤ ÑĢÐ¸
ĠÐ» Ð¸ÑĪ
ĠÐ² ÑħÐ¾Ð´
ĠÐ´Ðµ ÑıÑĤÐµÐ»ÑĮ
Ð¼Ð¸Ð½Ð¸ÑģÑĤ ÑĢÐ°ÑĤÐ¸Ð²
Ħ ĸ
ĠÐ²Ñģ ÐµÑħ
ÐµÐ½ Ð½Ð¾Ð¹
ĠÐ½Ð° Ð³
Ð¾Ð´ Ð°
ĠÐ¼Ð¾ÑģÐº Ð¾Ð²
Â ²
ĠÐºÐ¾ÑĤÐ¾ÑĢ Ð¾Ð³Ð¾
1 4
ĠÐ°ÐºÑĤ Ð¸Ð²
ÐµÑĢ Ñĭ
Ð¸ÑĤ ÐµÑĤÐ°
Ñĥ ÑĢÐµ
ĠÐ¾ÑĤ Ð´
Ð¿ Ð¾Ð½
ĠÐ¸ Ð²
ĠÐ½Ð¾Ñı Ð±ÑĢÑı
ĠÐ¸ ÑģÑģÐ»ÐµÐ´
ĠÐ³ÑĢÑĥÐ¿Ð¿ Ñĭ
ĠÑħ ÑĥÐ´Ð¾Ð¶
ĠÑİ Ð¶
Ð» ÑģÑı
Ð° ÑģÑĤÐ²
ĠÐ¿ÑĢÐ¾ Ð¸Ñģ
ĠÐ¾ÑĤ Ð»Ð¸Ñĩ
Ð°ÑĤ Ñĭ
ÑĢ ÑĮ
Ð¾Ð´ Ðµ
ĠÐ¿ Ð¸Ñģ
Ñĩ ÐµÑģÐº
ÑģÐº Ð¾
Ð» Ð°Ð½Ð´
ÑĳÐ½ Ð½ÑĭÑħ
m u
Ð°Ð»ÑĮ Ð½ÑĭÐµ
ĠÑĥ Ð²
ĠÐ¶ÐµÐ» ÐµÐ·
ĠÐ²Ð¼ÐµÑģÑĤ Ðµ
Ðº Ð°Ð¼Ð¸
ĠÑĢÐ°Ð·Ð² Ð¸ÑĤ
Ð¸Ðµ Ð²
ÑĥÐ½ Ð°ÑĢÐ¾Ð´
ÑĢÑı Ð´
ÑĢ Ð¸Ð³
ĠÐºÐ°Ñĩ ÐµÑģÑĤÐ²Ðµ
ĠÐ¿Ð¾Ð´ Ð´ÐµÑĢÐ¶
ÑĪ ÑĳÐ»
ÑĢÐ° Ð±
Ġf or
ĠÐ² Ð»Ð°ÑģÑĤ
Ð´ ÐµÐ½
ĠÐ²ÑĭÑģ Ð¾Ðº
ĠÐ¾ÑĤ Ð½Ð¾Ñģ
ĠÑĥ Ð»Ð¸
ĠÑĤ Ð¾ÑĢ
ĠÐ¾Ðº Ð°Ð·
ĠÐ¾ÑĤ Ð´ÐµÐ»
Ð¸Ñı ÑĤ
ĠÑį Ð½
Ġ201 0
ĠÑģÑĤ ÐµÐ¿
ĠÐ¼ ÑĥÐ½
Ð¸Ð½ Ð¾Ð²
ĠÐ¼ Ð¾Ð´
ĠÐ¿ ÐµÑĢ
ĠÑģÐ² Ð¾Ðµ
ÑĪ ÐµÐ¹
ĠÑįÐº Ð¾Ð½Ð¾Ð¼
ÑģÐºÐ¾Ð¼ Ñĥ
Ñī Ð¸ÑĤ
Ð¸ÑĨÐ¸ Ð¿
Ñĩ Ð¸Ñģ
Ð¸Ð» Ð»
ÑĢÐ¾Ð¼ Ðµ
ĠÐ¸Ð· Ð±
ĠÑģ Ð¾Ð»
ĠÑģ Ð¸Ð¼
ĠÑĦÐµÐ²ÑĢÐ° Ð»Ñı
ĠÑģÑĤ ÑĢÐ°Ð½
Ġ19 0
Ġ w
ÐµÑĢÐ° ÑĨÐ¸Ð¸
ĠÐº Ð²
Ð¾Ð² Ð°ÑĤÑĮ
Ð¸ÑĤÐµÐ» Ð¸
ĠÐ°Ð½ ÑĤ
ĠÐ°Ð¼ÐµÑĢ Ð¸ÐºÐ°Ð½
Ð¾Ð·Ñı Ð¹
ĠÐ²ÑĤÐ¾ÑĢ Ð¾Ð¹
ĠÐ° ÐºÐ°
ĠÐ¿ÑĢÐ¾ÑĦ ÐµÑģÑģ
Ð» ÐµÐ¹
1 3
ĠÑĩÐ¸Ñģ Ð»Ðµ
Ð¾Ð¼ Ð¸Ð½
ÑĢÐµ Ð¿
ÑĪ Ðµ
Ð°ÑĢ ÑĮ
ÑĤÐ°Ðº Ð¶Ðµ
ĠÐ±Ñĭ ÑĤÑĮ
ÐµÐ½ Ð½ÑĭÐµ
ÑĢÐ° Ñħ
ĠÑĪ Ð¸ÑĢ
ĠÑįÑĤ Ð¾Ð¹
Ð³ Ð»Ð°Ð²
e l
ĠÐ± ÐµÑĢÐµ
Ð» Ð¾Ð¼
Ġ .
ĠÑģ Ð¼ÐµÑĢ
Ġ2 5
ÑĢÑĥ Ð·
ĠÐµÑģÑĤ ÑĮ
ÑĪ ÐµÐ³Ð¾
ĠÑĩÐµÐ»Ð¾Ð² ÐµÐºÐ°
ĠÐ²ÑĢÐµÐ¼ ÐµÐ½Ð¸
Ð¿ÑĢÐ¸Ð¼ ÐµÑĢ
ĠÑĤ Ð°Ð½
ĠÑĢ Ñĭ
ĠÐ½Ð° ÑĥÑĩ
ĠÐ½Ð°Ð·Ð² Ð°Ð½Ð¸Ðµ
ĠÐ¿ÑĢÐ°Ð² Ð¸ÑĤÐµÐ»ÑĮ
Ð¸ÑĤÑĮ ÑģÑı
ĠÑĤÐµ Ð°ÑĤ
ĠÑģÐµÐ± Ñı
ÑĨ ÐµÑģÑģ
ĠÑģÐ¾Ð¾ÑĤ Ð²ÐµÑĤ
ĠÐ°ÐºÐ° Ð´ÐµÐ¼
ĠÐ³ Ð°Ð·
Ð°ÑĢÐ° ÐºÑĤ
ĠÑģÐ» Ð¾Ð²
Ð°ÑĢ Ð¾Ð²
ĠÐ³ÑĥÐ± ÐµÑĢÐ½
ĠÐ¿Ð¾Ðº Ð°Ð·
ĠÑģÑĢÐµÐ´ Ð¸
ĠÐ¿Ð» Ð°Ð½
Ġâ Ħĸ
ĠÐ¿ÑĢÐ¾Ð³ ÑĢÐ°Ð¼
ĠÑĥÑĩÐ°ÑģÑĤ Ð¸Ðµ
ĠÐ°ÑĢ ÑĤ
ĠÑģ Ð¾Ð´
Ð¾ÑĢ ÑĥÐ¶
ĠÐ¶ÐµÐ½ Ñī
Ð°Ð½ Ð¸ÐµÐ¼
ĠÐ³Ð¾Ð´ Ð¾Ð²
ĠÑįÐ» ÐµÐºÑĤ
ÑĥÐ½ Ðº
mu la
ĠÐ¼ÐµÐ¶Ð´ ÑĥÐ½Ð°ÑĢÐ¾Ð´
Ñĳ Ð²
Ð³ Ð¾ÑĢÐ¾Ð´
ÑĦ ÑĦ
Ð¸ Ð°Ð½
ĠÑĦ ÑĥÑĤ
Ð¾Ð³Ð»Ð°Ñģ Ð½Ð¾
Ð» ÐµÐ¼
ĠÐ¼ÑĥÐ½ Ð¸ÑĨÐ¸Ð¿
ĠÑģÑĤ Ð¾Ð»
ĠÑĢÐµ Ð´
ĠÑĢ ÑıÐ´
ÐµÑĢÐµ Ð´
Ð¸ÑĨ Ð°
ĠÐ¿Ð¾ÑģÑĤ ÑĢÐ¾
ĠÐ½ÐµÐ¼ ÐµÑĨ
ĠÐº ÑĢÑĭ
ĠÑģÐ²Ð¾ Ñİ
ĠÐ´Ð¾ÑĢ Ð¾Ð³
ĠÐ² ÐµÐ´
ĠÑĢÐµ ÐºÐ¸
Ñį ÑĤÐ¾
ĠÐºÐ° Ð¶Ð´
Ð¼ ÐµÐ½ÑĤ
Ð¿ÐµÑĢÐ² ÑĭÐµ
ĠÑģÐ¾ ÑĨÐ¸
ÐµÐ² Ð°
ĠÐ¿ÑĢ Ð¸Ñĩ
Ġ3 0
ĠÑĤ ÑĢÐ°Ð½
Ñģ Ñĭ
Ðº Ð¾ÑĢ
ĠÐ¶ ÑĥÑĢÐ½
ĠÐ½Ð¸Ðº Ð¾Ð»
Ð· Ð²
ĠÑĦ Ð»
Ð² Ð¾ÑģÑĤ
ÑĨ ÑĥÐ·
ĠÐ¶Ð¸Ð· Ð½Ð¸
ĠÑģÑĤ Ð°ÑĤ
ÑıÑĤ ÑģÑı
ĠÐ²Ñģ ÐµÐ³Ð¾
Ð¸Ñı Ñħ
ĠÐ³Ð¾ÑĢÐ¾Ð´ Ðµ
ÐµÑģÑĤ ÑĮ
ĠÑģÐ¾Ð² ÑĢÐµÐ¼
ĠÐ°Ð½ Ð³Ð»
Ð¾Ðº Ð°
ĠÐ½Ð° ÑħÐ¾Ð´Ð¸ÑĤÑģÑı
Ð»Ð°Ñģ ÑĮ
Ð°Ð» Ð¸Ð·
ĠÑģÐ²Ð¾Ðµ Ð³Ð¾
Ñģ ÐµÐ´
ĠÐ» ÑĥÑĩ
Ð° Ñī
ĠÐ¾ÑĤ Ð½Ð¾ÑĪ
ĠÑĤ ÐµÑĩ
s t
Ð°Ð½ Ð¸Ð¹
ĠÐ¿Ð¾ ÑıÐ²
ĠÐ½ Ð¸
Ð°ÑĤ Ð¾ÑĢ
Ġ( "
ĠÐ» ÐµÐ½
ÑģÑĤÐ² Ð¸Ð¸
ĠÑĩ ÐµÑĤÑĭ
ĠÐ¿ Ð¾Ð½
ÑģÑı Ñĩ
ĠÐ½Ð° Ð±
Ñĥ Ð²
Ð¾Ð½ Ð´
Ð¾Ð± Ð¾Ð´
ĠÐ½Ð°ÑĩÐ°Ð» Ðµ
Ġ o
Ð±ÑĥÑĢ Ð³
ÑĨÐ¸ ÐµÐ¹
ĠÑĥ ÑĢÐ¾Ð²
ĠÐ¿ Ð¾ÑĢÑĤ
Ð¸ Ð´Ð°
Ð¸ÑĩÐµÑģÐº Ð°Ñı
Ð³ Ð¾ÑĤÐ¾Ð²
ĠÐ¿ ÑĢÐµÐ¼
r e
Ðº Ð¾Ð³Ð¾
ĠÐ° Ð·
ĠÐ¼Ð¾Ð¶ Ð½Ð¾
ĠÐ¾Ñģ Ð½Ð¾Ð²Ð°Ð½
Ð¸Ð½ ÑģÐºÐ¾Ð³Ð¾
ĠÑģÐµÐ» Ð¾
ĠÑĨ ÐµÐ»
Ð¿Ð¾Ñģ Ð»ÐµÐ´
ÑĢÐµ Ðº
Ġ âĢ
Ġ h
ĠÑĥÑĩ Ð°ÑģÑĤÐ²
ĠÐ°Ð² ÑĤÐ¾Ð¼
ÐµÐ½ Ð½Ð¾Ð³Ð¾
ĠÑģÐ¿ Ð¾ÑģÐ¾Ð±
ĠÑģÐ¾Ð² ÐµÑĤÐ°
Ð½ Ð°Ð¼
Ð°ÑĤ Ð¾Ð²
ĠÐ´Ð² Ð¸Ð¶
ÐµÐ´ ÐµÐ½Ð¸Ñı
Ð¸Ñģ Ð¸Ð¼
1 1
00 0
Ð¾Ð² ÑĭÑħ
Ð½Ðµ Ñģ
ĠÐ¸Ð¼Ðµ ÐµÑĤ
ĠÐ»Ñİ Ð´
Ñĭ Ñĩ
ÐµÐºÑĤ Ð¸Ð²
ĠÐºÐ¾Ð½ÑĨ Ðµ
u n
Ð½Ð° ÑģÐµÐ»
a m
Ġ l
ÑĭÐ² Ð°ÐµÑĤ
ÑĤ ÐµÑĢ
Ð¾Ð» Ð¾ÑĤ
ĠÑĥ Ð³
ĠÐ¼ Ð½Ð¾Ð³Ð¾
ĠÑģÐ² ÑıÑĤ
ĠÐ± Ð»Ð°Ð³
Ġfor mula
ĠÐºÐ¾Ð» Ð¸Ñĩ
ĠÑģ ÐµÐº
ĠÐ± Ð°Ð»
ĠÐº Ð½Ñı
Ð´ Ð»Ñı
Ð· Ð´
ĠÐ° Ð±
ĠÑģÐ¾ ÑħÑĢÐ°Ð½
ĠÐ¼ Ð¸Ð½Ð¸ÑģÑĤ
Ð² Ð¸Ð½
ĠÑĢÐ°Ð· ÑĢÐ°Ð±Ð¾ÑĤ
ĠÐ° Ðº
ĠÑģ Ð´ÐµÐ»
ĠÑĦ ÑĢÐ¾Ð½
ĠÑģ Ð¾ÑĤ
ĠÐ´ ÐµÐ½ÑĮ
ĠÑħ Ð°ÑĢÐ°ÐºÑĤ
ÑĢÑĥ ÑĪ
ĠÐ¼ÑĥÐ·Ñĭ Ðº
ÑĢÐ°Ð¶Ð´ Ð°Ð½
ĠÐ³ Ðµ
ĠÐ¿ÑĢÐµÐ´ÑģÑĤÐ°Ð² Ð»Ñı
Ð»Ðµ Ð¶
ĠÑĥ ÐºÐ°Ð·
ĠÑĦÑĢÐ°Ð½ ÑĨÑĥÐ·
ĠÑģÐ¾Ð± ÑģÑĤÐ²ÐµÐ½
ÑģÐº Ð°Ð·
ĠÐ² ÐµÐº
ÑģÑĤÐ¾Ñı Ñī
ĠÐ¿ Ð°Ð¼
ĠÑģÑĤ Ð°Ð»Ð°
ĠÐ´ ÐµÐ¿
Ð½Ð°ÑģÐµÐ» ÐµÐ½Ð¸Ðµ
ĠÑįÑĤ Ð¾ÑĤ
ĠÐ²Ñĭ Ð¿Ð¾Ð»
ĠÑģÐ¾ Ð¾Ð±Ñī
ĠÐ¿ÑĢÐ¾Ð² Ð¾Ð´
ĠÑĢ Ð¾Ð¼
c h
Ð¸ÑĤÐµÐ» ÐµÐ¼
. ,
ĠÑĥ Ð·
ĠÐ¸ÑģÐº ÑĥÑģ
Ñĥ Ð´Ð°
Ġ( Â«
ĠÐ¿ÑĢÐ¾ ÐµÐºÑĤ
ĠÑģÐ² Ð¾Ð¹
Ð¼ Ð¸Ð½
Ð°Ð»ÑĮ Ð½Ð¾Ðµ
Ð½ Ñİ
ĠÑĨÐµÑĢ ÐºÐ²
Ð¾ÑģÑĤ Ð¾
Ð¾Ñģ Ð»Ð°Ð²
o m
Ñģ Ð¾
ĠÐ¼Ð¾Ð» Ð¾Ð´
ĠÑĢÐ°Ð±Ð¾ÑĤ Ñĭ
ĠÐ¼ Ð°Ð³
Ð» Ñĥ
Ð°Ð½ Ð¸Ñİ
e t
o l
ĠÐ¼Ð°ÑĤ ÐµÑĢÐ¸
ĠÑģÐ²ÑıÐ· Ð¸
Ð³ Ð°ÑĢ
ĠÑģÐ¾Ð² ÐµÑĢÑĪ
ĠÐ½Ðµ Ð·
ĠÐ¿ ÑıÑĤ
ĠÑĢÐ° ÑģÑģ
ÑĦ ÐµÑĢ
ĠÐ² ÑħÐ¾Ð´Ð¸ÑĤ
ĠÐ²ÑģÑĤ ÑĢÐµÑĩ
ĠÑĢÐµÐ³ Ð¸Ð¾Ð½
Ð¸Ð¼ Ð¿
3 0
Ð°Ð» Ð¾Ð³
ĠÐ± ÑĢÐ°
Ð¾Ð¶ Ð¸Ð²
ĠÐ½Ð° Ð¿Ð¸Ñģ
ĠÐ¼ Ð°ÑģÑģ
ĠÐ±Ñĭ Ð²
Ð¸Ð· Ð¼
ĠÐ¼ Ð¾Ð¼
ĠÑĥÐ½Ð¸Ð²ÐµÑĢÑģ Ð¸ÑĤÐµÑĤ
Ñģ Ð°Ð¼
Ð¾Ð± ÑĢÐ°Ð¶
ĠÐ¿ÑĢ Ð¸Ðº
Ð¾Ðº ÑĢÐ°ÑĤ
Ñı Ð²Ð»Ñı
Ġ1 1
i l
ĠÐº Ð°ÑĢÑĤ
ÑĥÑĤ ÑģÑĤÐ²
ĠÐ¸ÑģÐ¿ Ð¾Ð»Ð½
Ġ18 9
ÐµÐ· Ð´Ð°
Ð° Ðµ
ĠÐ¿Ð¾Ð· Ð²Ð¾Ð»
ĠÑĨÐµÐ½ÑĤ ÑĢÐ°Ð»ÑĮ
ĠÑģ Ð¾Ð¿
ÑģÐº Ð¸Ð¼Ð¸
ĠÑĤ Ð¾Ñĩ
ÑĢÐ°Ð· Ð´
ĠÐº Ð¾
ÑĢ Ð¾ÑģÑĤÑĢÐ°Ð½
ĠÑģÑĤ ÑĥÐ´
ĠÐ± Ð°Ð·
ĠÐ¿ÑĢ Ð¾Ð±
ÑģÑĤ ÑĢÐ¾
ĠÑģÐ¾Ð´ ÐµÑĢÐ¶
ĠÐ»Ð¸ÑĪ ÑĮ
ĠÑģÑĤÑĢÐ¾ Ð¸ÑĤÐµÐ»ÑĮ
ĠÐ¿ÑĢ Ð¸Ð³
ĠÐº Ð¾ÑĢÐ°
ĠÐ¸ÑģÑĤ Ð¾ÑĢÐ¸Ð¸
Ð¾Ð² Ð°Ð»Ð¸
Ñĩ ÑĳÑĤ
ĠÐ¼ Ð¸ÑĢÐ¾Ð²
ĠÑħ Ð¾ÑĤ
ĠÐ¿ÐµÑĢÐ² Ð¾Ð¹
ĠÑį ÑĤÐ°
ĠÑĤ ÑĢÐ°
i on
ĠÐº ÑĢÐµÑģÑĤ
Ð¾Ð»Ð¾Ð³ Ð¸Ð¸
ĠÐ²Ð¾Ñģ ÑģÑĤ
ĠÐ°Ð² ÑĤ
ĠÐº ÑĥÐ±
ĠÑħ Ð¾ÑĢ
Ð¿ ÐµÑĤ
ĠÐ´ Ð°Ð»ÑĮ
ÑĤÐ¾ÑĢ Ð¾Ð¼
ĠÐºÐ¾ÑĢ Ð¿
ĠÐ¿ÐµÑĢÐ² ÑĭÐ¹
Ð° Ð´Ð°
Ð¸Ð½ ÑģÐºÐ¸Ð¹
ÑĥÑģ Ð°
ĠÐ¾Ð±ÑĢÐ°Ð· Ð¾Ð¼
ÑĪ Ð¸Ð¼
ĠÐ² ÐµÐ½
Ð¸Ðº Ñĥ
ĠÐµ Ð¿
ĠÑģ ÐµÑĢÐµ
Ð¾ÑĤ Ñĭ
Ð¸ÑĤÐµÐ» Ñı
ĠÑģÐ¾Ð± Ð¾Ð¹
ĠÐ¿ÑĢ Ð¾Ð¼
ĠÐ³ ÑĢÐ°Ð¶Ð´Ð°Ð½
ĠÐ¸Ð¼ ÐµÐ½Ð¸
Ñģ Ð»Ð¸
ĠÐ¾ÑĤ Ð¿ÑĢÐ°Ð²
ÑĦÐ¾ÑĢ Ð¼Ð°
Ð¸Ñģ Ð°
ĠÐ¾ÑģÑĤ Ð°Ð²
ĠÐ² Ð¾Ð¿
ĠÐ½Ðµ Ð³Ð¾
ĠÑģ Ð¸Ð½
Ð½ Ð¸Ñĩ
ĠÐ¸ Ñģ
ĠÑĢÐ¾ÑģÑģÐ¸Ð¹ ÑģÐºÐ¾Ð¹
Ð°Ð»ÑĮ Ð½Ð°Ñı
ĠÐ²Ñĭ Ð±
ĠÑĤ ÑĢÑĥÐ´
ĠÐ¾Ñģ Ð²
Ð» ÐµÐº
ÐµÑĢ Ð±
ĠÑĢÐµÐ·ÑĥÐ»ÑĮÑĤ Ð°ÑĤÐµ
ÐµÑģÑĤ Ð¸
ĠÐ°Ð´ Ð¼Ð¸Ð½Ð¸ÑģÑĤÑĢÐ°ÑĤÐ¸Ð²
Ñģ ÑĢÐµÐ´
Ð¾Ð½ Ð¸
Ġ201 1
ĠÐ³ Ð»
ĠÑĦ Ð¸Ð»
Ð¾ÑĢ Ð¾Ð¶
ĠÑĢÐµ Ð¶
ĠÐ·Ð° Ñħ
ĠÐ¾ÑĤÐº ÑĢÑĭÑĤ
ĠÐ¼ Ð¸Ð»
Ð¸Ñħ Ð°
ĠÑģ Ð¸Ð»ÑĮ
ĠÑĤ ÑĢÐµÑĤ
Ġ200 8
ÑĤ Ñĭ
ĠÐ´Ð°Ð½ Ð½ÑĭÐ¼
Ð¾Ñģ Ð½Ð¾Ð²
Ð¾Ð¶Ð´ ÐµÐ½Ð¸Ñı
Ġ201 2
ÑĪ Ð¸Ðµ
Ġ200 9
ĠÐ¿ÑĢÐµÐ´ Ð¿ÑĢ
ÐµÐ½ÑĤ Ð¾Ð²
Ġ -
ĠÑı Ð¿Ð¾Ð½
ÑĮ ÐµÑĢ
ÐµÑĢ Ð¸Ð¸
ÑĢ Ð¸Ð²
ĠÐ²Ð¸Ð´ Ðµ
ĠÑģÐ²Ð¾ Ð¸Ñħ
Ð¸ÑĢÐ¾Ð² Ð°Ð»
Ġ200 7
Ð¶ ÐµÐ½
ĠÐ´ Ð¾Ð¿
ĠÐ´ÑĢÑĥÐ³ Ð¸Ðµ
ĠÐ² Ð½ÑĥÑĤ
Ð¸Ð± Ð¾Ð»
ĠÐºÐ¾ÑĢÐ° Ð±
ĠÐ¿Ð¾Ð» Ð¾Ð¶
ĠÐ¾Ñĩ ÐµÐ½ÑĮ
ĠÐ²Ñĭ ÑħÐ¾Ð´
ÑĢ Ð¸Ð´
ĠÐ½ ÐµÐ¹
ÑĢÑĥ Ðº
Ð»ÐµÐ½ Ñĭ
ÑģÐº Ð°
ĠÐ·Ð° Ð±
ĠÐ¿ÑĢÐ¾ ÑĨÐµÑģÑģ
ĠÑĢÐ° ÑģÑĤ
Ð» Ð¸Ñı
Ð¸Ð±Ð¾Ð» ÐµÐµ
ÐµÑģÑĤÐ²ÐµÐ½ Ð½Ð¾Ð¹
ÐµÐ» Ð°
Ð± Ðµ
ĠÐ° ÑĦ
ĠÑĤÑĭ ÑģÑıÑĩ
ĠÐ²Ð¾Ð· ÑĢÐ°ÑģÑĤ
Ð¿Ð¸Ñģ Ð¸
ÑĢÐ°ÑĤ ÑĮ
Ð¸Ð½ Ð¾Ð¹
ĠÐ½Ð° ÑģÑĤÐ¾ÑıÑī
ĠÐ¸Ð· Ð¼ÐµÐ½
ĠÐ´ ÐµÐ¼
Ð» Ð¾Ð½
ĠÐ²Ð¾ÑģÑĤ Ð¾Ñĩ
ĠÑĢÐ°ÑģÐ¿ ÑĢÐ¾ÑģÑĤÑĢÐ°Ð½
ĠÑĢÐ° Ð±
ĠÐ¼ Ð°Ð½
ÐµÐ½ ÐºÐ¾
ĠÑģÑĤ Ð°Ð»Ð¸
ĠÐ´ ÑĢÐµÐ²
ĠÐ²ÐµÑĢ Ñģ
Ġi i
ĠÐ° Ð¿
19 9
ĠÑĤÐµÑħ Ð½
ĠÐ¿ÑĢ Ð¾Ñģ
ĠÑĢ Ð¸Ð¼
Ð¸Ð½ ÑģÐºÐ¾Ð¹
Ð¾Ñı Ð½
ĠÑĢÐ°Ð±Ð¾ÑĤ Ð°Ð»
ĠÐ½ ÐµÐ²
ĠÐ¿ÑĢÐ¸Ð¼ ÐµÐ½
Ð¾ Ñħ
ĠÐ½ Ð¾Ñģ
ĠÐ» ÐµÑģ
ĠÐ± Ð¾ÐµÐ²
Ð¾Ð² Ð°ÑĤÐµÐ»ÑĮ
Ð² ÑĢÐ°Ñī
ÑģÑĤ ÑĢ
ĠÐ°Ð² Ð¸
Ð²Ð¾Ð» Ñİ
Ð´ Ñĥ
Ðº ÑĥÑĢ
u r
ĠÑĨÐµÑĢÐºÐ² Ð¸
Ð² Ð°ÑĢÐ´
Ð¸Ñħ ÑģÑı
ĠÐ»Ð¸ÑĤ ÐµÑĢÐ°ÑĤ
ĠÑĢÐ° Ð²
Ġ200 6
ĠÐ¾Ð´ Ð½Ð¾Ð¹
Ð°ÑĤ Ð¸Ð²
ĠÑħÐ°ÑĢÐ°ÐºÑĤ ÐµÑĢ
a s
ĠÑĤ Ð°Ð¼
Ġ2 4
Ð½Ñı Ñı
Ġ( ;
Ð·Ð° Ð¿Ð°Ð´
ĠÐºÐ¾ÑĤÐ¾ÑĢ Ð¾Ð¼
Ð¸Ð¼ Ð¾
Ð¸ÑģÐº Ð¾Ð¿
ĠÐ³ ÑĢÐ°ÑĦ
Ð¾Ð² Ð¸Ñĩ
ĠÐºÐ¾Ð¼ Ð¼Ñĥ
Ñĥ ÐµÑĤÑģÑı
ĠÑģÐµÐ²ÐµÑĢ Ð¾
ĠÐ·Ð°Ðº Ð»ÑİÑĩ
ÑĢÐµ Ð³
Ð¿ÑĢ Ð¾
ĠÐ²Ð¾Ð· Ð´
Ð¸ÑĤ ÑĥÑĤ
Ġx v
ÑĢ Ð¾Ð»
ĠÐ°Ð½ Ð´
ĠÑĥÑģ Ð»Ð¾Ð²
Ð½ ÑĮ
ĠÑĢÐ° Ð´Ð¸
ĠÐ¾Ð±ÑĬ ÐµÐ´Ð¸Ð½
5 0
ĠÐ·Ð°Ð¿ Ð¸Ñģ
ĠÐ¿ÑĢÐ¸Ð½ Ð¸Ð¼
ĠÐ± Ð°ÑĢ
ĠÐ° Ð³
Ð½ ÑĥÐ»
Ðº Ð°Ðº
ĠÐ¿ Ð°ÑĢÐ°
ÑĨ Ð¾Ð²
ĠÐ· Ð°Ñı
ÑĥÐ½ ÐºÑĤ
Ð½ Ð°ÑĢ
ÑĢÐµ Ð·
Ð°ÑĤÐµÐ» ÐµÐ¹
ĠÐ¾Ð¿ Ð¸Ñģ
ĠÑģÑĤÑĢÐ° Ð½Ñĭ
ĠÑĨÐµÐ½ÑĤ ÑĢ
ĠÐ¿ Ð°
ĠÑĨÐµÑĢ ÐºÐ¾Ð²
ĠÐ¾Ð´ Ð½Ð¸Ð¼
Ñĩ Ð¸Ð²
ĠÐ» Ð¸Ñĩ
ĠÐ´ÐµÑĢÐµÐ² Ð½Ñı
Ð» ÐµÐ½Ð¸Ð¸
ĠÐ´Ð² Ð¾ÑĢ
ÑĢÐ°Ð½ Ð¸Ñĩ
ĠÐ¿ ÑĢÐ°ÐºÑĤ
ĠÐ» ÐµÐ²
ÑĨ Ðµ
ĠÐ²ÑĭÐ¿ ÑĥÑģÐº
ÑĥÐ»Ñı ÑĢ
Ð»Ð° ÑĪ
Ð»ÐµÐ½ Ð°
Ð¾ÑĤ Ð¸Ð²
ĠÑĥÐºÑĢÐ° Ð¸Ð½Ñĭ
Ð°Ð½ ÑĮ
ĠÑĦÐ¸Ð»ÑĮ Ð¼
Ñĥ Ð¼Ð°
Ð¾ÑģÑĤ Ð°Ð²
ĠÐ¿Ð¾ ÑįÑĤ
ÐµÐ½ Ñģ
Ð² Ð¾Ð·
ĠÐ¿Ð¾Ñģ ÑĳÐ»
Ð¸ÑĩÐµÑģÐº Ð¾Ðµ
ĠÐ´Ð° Ð¶Ðµ
ĠÐ¿ ÐµÑĢÑģ
ĠÐº Ð¸Ð½
Ġ18 8
ĠÐ´ ÐµÐ²
ĠÐ± ÐµÑĢ
ĠÐ¸Ð¼Ð¿ ÐµÑĢÐ°
ĠÐ¿ Ð°ÑĤ
Ð°ÑĤÐµÐ» Ñı
Ð¼ Ð°ÑĢ
Ñį Ð¹
Ð°Ð» Ð¾Ð²
ĠÑģ Ð¾Ð·
Ð°Ð½ Ð³
in g
ĠÐ¿ÑĢÐ¾ ÑĪ
ÐµÑģÐ¿ ÐµÑĩ
Ð¸ÑĨ Ðµ
ĠÐ¿ÑĢÐ¾ ÑħÐ¾Ð´
ĠÐ¿ ÑĥÐ½ÐºÑĤ
Ð° ÑĨÐ¸Ð¸
Ġ2 2
ĠÐ¾ÑĢÐ³Ð°Ð½ Ð¸Ð·
a c
ĠÑĤ Ð¸
ÑĥÐ½ Ð´
ĠÐ¿ÑĢÐ¾Ð² Ð¸Ð½
ÑĩÐ¸Ñģ Ð»ÐµÐ½
Ġ e
ĠÐ¼Ð¾Ð³ ÑĥÑĤ
Ðº Ð°Ð¼
ÑĤ ÐµÐ½
ĠÐ¿ÑĢ Ð¾Ð¶Ð¸Ð²
Ð¸Ð»Ð¸ Ñī
Ð¸ÑĩÐµÑģÐº Ð¸Ð¼
Ġt he
ĠÐ¿Ð°Ð¼ ÑıÑĤ
Ð² Ð¸Ð´
ĠÑħ Ð¾Ð·ÑıÐ¹
ĠÐ¼ Ð»
Ġ18 6
ĠÑģ Ð½
ĠÐ° ÑĤ
ĠÐ» ÐµÐ³
ĠÐ¿ÑĢ Ð¸Ñħ
ÑĭÑĪ Ð»ÐµÐ½
ĠÐ³ Ð¾Ð²Ð¾ÑĢ
ĠÑİ Ð³Ð¾
âĢ ¦
ĠÑĦ Ð°Ðº
ĠÐ¼ Ð¸ÑĢ
ĠÑĢÐµÑģÐ¿ÑĥÐ±Ð» Ð¸ÐºÐ¸
Ġ201 3
ĠÐ° Ð¼
ĠÐ½Ð°Ñĩ Ð°Ð»Ð°
ĠÐ²Ð¾Ð¿ ÑĢÐ¾Ñģ
Ġ( ,
ĠÐ¾ÑĦ Ð¸ÑĨÐ¸
ĠÐ¾Ð± ÑĭÑĩ
ĠÐ³ Ð°Ð»
ÑĪ Ð¸ÑĢ
ĠÐ´ Ð°Ð²
ĠÐ½Ðµ Ð¾Ð±
Ð¸Ð¹ ÑģÐºÐ¾Ð³Ð¾
ĠÐ¾ÑĤÐ´ ÐµÐ»ÑĮ
Ñģ Ð¸Ð¼
ĠÑĩ ÐµÐ³Ð¾
ĠÐ¾Ð±ÑĢÐ°Ð· Ð¾Ð²Ð°Ð½
ĠÐ± ÑĢÐ¸ÑĤ
Ðº ÑĢÐ¾Ð¼Ðµ
ĠÑģÐ¼ÐµÑĢ ÑĤÐ¸
ÑĮ ÑıÐ½
Ð¾ÑĢ Ð¸Ñı
Ð¾ÑĢ Ð¸
ÑĢÑĥ ÐºÑĤ
ĠÐ·Ð° ÑīÐ¸ÑĤ
ĠÐ³ Ð³
Ñı ÐµÑĤÑģÑı
ĠÐ¸Ð³ ÑĢÐ¾Ðº
Ð°Ð½ Ðµ
ĠÐ¾Ð± ÐµÑģÐ¿ÐµÑĩ
ĠÑģÐ¾ ÐµÐ´Ð¸Ð½
Ð± Ð¾
Ñı ÐµÑĤ
ĠÐ¸Ð½ÑģÑĤ Ð¸ÑĤÑĥÑĤ
ĠÐ¿ÑĢÐ¸Ð· Ð½
ĠÑĤÐµÑĩ ÐµÐ½Ð¸Ðµ
Ð¸Ð·Ð² ÐµÑģÑĤ
Ð½ Ð¾Ð´
ĠÑĤÑĢ ÑĳÑħ
ĠÐº Ð°Ð»
Ñģ Ñĥ
ĠÐ¿ Ñģ
Ð¸Ð» Ð¸Ñı
ÑĤ Ñĥ
Ð¾Ð» Ð°Ð³
Ġ201 4
Ġ2 3
Ð°Ð» Ð¸Ð¸
ĠÐ¿Ð»Ð¾ÑīÐ°Ð´ ÑĮ
Ð» Ñĭ
ĠÑįÑĤ Ð¸Ñħ
19 4
ÐµÑĤ Ðµ
Ð¾ÑĢ ÑĤÐ°
ĠÑģÐµÐ»ÑĮ ÑģÐ¾Ð²
ÑģÐ¼ Ð¾ÑĤ
Ġ200 1
ĠÑĪÐ¸ÑĢ Ð¾Ðº
Ñģ ÑĢ
2 5
ÐµÑĤ ÑĮ
ÐµÐº ÑĤÐ°
ĠÑģÑĤÐ¾ÑĢÐ¾Ð½ Ñĭ
ĠÐ² Ð°Ñģ
ĠÐ½Ð°Ð·Ð½Ð°Ñĩ ÐµÐ½
ÑĢÐµ Ð¶Ð´
ĠÐ´ Ð¾Ñĩ
ĠÑģ Ð¾Ñģ
ĠÑĢ Ð¾Ð»ÑĮ
Ð°ÑģÑĤ Ñĭ
Ð°Ð½ ÑĤÐ°
ĠÐ¼ Ð°ÑĪ
Ð¸ÑģÑĤ Ð¾Ð²
ĠÑĦ ÑĥÐ½Ðº
ĠÑĤ Ð¾ÑĤ
ĠÐ·Ð° Ð´
Ġx i
ĠÐº Ð¸ÑĤ
ĠÑĢÐµ Ð¹
ĠÑĤ ÑĢÐµÐ±
Ð²ÐµÑĢ Ð¶Ð´
ĠÐ± ÑĢÐ¾Ð½
Ð¿ ÑĢÐµÐ´
Ð°Ð´ Ð»ÐµÐ¶
Ð¸Ðº Ð¾
ĠÐ² Ð½Ðµ
ĠÐ¾ Ñħ
ĠÐ¼Ð¾Ð¼ ÐµÐ½ÑĤ
Ġ200 0
ĠÐ³ ÑĢ
ĠÐ¿ÐµÑĢÐµ Ð¿Ð¸ÑģÐ¸
ÐµÑĢ Ñħ
ĠÐ½Ð°Ñĩ Ð°Ð»ÑĮ
Ð¼ Ð¾
ĠÑģÐ¾ÑĤ ÑĢÑĥÐ´
ĠÐ¾ÑĤ Ñģ
ĠÑıÐ²Ð»Ñı ÑİÑĤÑģÑı
ÐµÑĢÐ° Ð»ÑĮ
Ð¿ Ð¾Ñĩ
ĠÑĦÑĥÑĤ Ð±Ð¾Ð»
ĠÑģÐº Ð¾ÑĢ
Ġ18 7
ĠÐ¾ÑĤ ÐµÑĩ
ĠÑĦ Ð¸Ð·
Ġ2 6
ĠÐ· Ð°Ð»
ĠÐ´ Ð»Ð¸Ð½
ÑģÑĤÐ² Ñĥ
Ñı Ð±ÑĢÐµ
ĠÐ± Ð»
Ð¸ÑĢÐ¾Ð²Ð°Ð½ Ð¸Ñı
Ð¾Ð· Ð½Ð°Ñĩ
i d
ĠÐ°Ð² ÑĤÐ¾ÑĢ
Ð» ÐµÐ½Ð¸ÐµÐ¼
ĠÐ¿ÑĢÐ¾ Ð¸Ð·
ĠÐ¿ÑĢÐµÐ´ Ð»Ð¾Ð¶
Ð¾Ð² ÑĭÐµ
ĠÐ¾Ð±Ð»Ð°ÑģÑĤ ÑĮ
Ð¾Ð² Ð¾
ĠÐ½Ðµ Ð±Ð¾Ð»ÑĮÑĪ
ĠÐºÐ¾ÑĢÐ¾Ð» ÐµÐ²
ĠÐ¾ÐºÑĢÑĥÐ³ Ð°
ĠÐ¿ Ð°Ð»
ĠÐ·Ð°Ðº Ð¾Ð½
ĠÐ´Ðµ ÑģÑı
ĠÑĢÐ°Ð± Ð¾Ñĩ
Ñį ÑĢ
ĠÐ´Ð² Ðµ
ĠÑĢÐ°Ð· Ð´ÐµÐ»
Ð°Ð½ Ð´Ð°
ĠÐ¿Ð¾ÑģÐµÐ» ÐµÐ½Ð¸Ñı
ÑĨ ÐµÐ½ÑĤ
ĠÐº ÑĢÐ¸ÑĤ
ĠÐ·Ð°Ñı Ð²
ĠÐ» Ñĥ
Ñİ ÑĢ
ĠÐ· Ð¾Ð»Ð¾ÑĤ
ĠÐ¾Ñģ ÑĥÑīÐµÑģÑĤÐ²
ĠÐ¼ÐµÐ½ ÐµÐµ
ĠÐ² Ð°Ð»
ĠÑģÐ¾Ñİ Ð·Ð°
Ð°Ð»ÑĮ Ð½ÑĭÐ¼
ĠÑģÐ¿ Ð¾ÑĢÑĤ
ĠÐ¼ Ñĭ
ĠÑģÐ²Ð¾ Ð¸
ĠÐ¿Ð¾ÑģÑĤ ÑĥÐ¿
ĠÑĥ Ð¼ÐµÑĢ
Ð±Ñĭ Ð»
ĠÐ±ÑĥÐ´ ÐµÑĤ
Ð¾Ð² Ð¾Ð³Ð¾
ĠÐ» Ð¸Ð³
Ð°ÑĤ Ð¾Ð¼
ĠÑģÑĤ Ð°Ð½Ð¾Ð²
ĠÑģÐµÐ»ÑĮ ÑģÐºÐ¾Ð³Ð¾
Ð¸Ð¹ ÑģÐºÐ¸Ð¹
Ġ2 8
Ð°ÑĤÐµÐ» ÐµÐ¼
ĠÐ¾Ð» Ð¸Ð¼Ð¿
ĠÐ¾ÑĤÐº ÑĢÑĭ
ĠÐ¿ÑĢÐ¸Ð½ Ð°Ð´Ð»ÐµÐ¶
ĠÐ½ÐµÐ¾Ð± ÑħÐ¾Ð´
ÑĳÐ½ Ð½ÑĭÐ¹
ĠÑģÑĤ ÑĢÐµÐ»
ĠÐ´ ÑĥÑħ
ĠÐ²ÑĭÐ¿Ð¾Ð» Ð½
ĠÑģÐ» Ð¾Ð¶
ĠÑĢÐ°Ð· Ð¼
ĠÐ½Ð°Ñĩ Ð¸Ð½
Ð½Ð°ÑĢ ÑĥÐ¶
Ð°Ð½ Ñģ
ĠÐ²Ð¾ Ð¾ÑĢÑĥÐ¶
a d
ĠÑĢÐ°ÑģÐ¿ Ð¾Ð»Ð°Ð³
Ġ200 5
ĠÐ» ÐµÐ¹
Ð°Ð´ Ñĭ
Ġ2 7
ÑģÐº Ð¾ÑĢÐµ
Ñģ Ð²
Ð¸ ÑĢÐµ
ĠÐ´ ÑĢ
ĠÐ± ÑĢÐ°ÑĤ
Ñĩ Ð¸Ðº
ĠÑģÐ² Ð¾Ð±Ð¾Ð´
ÐµÐ½ Ð½Ð°Ñı
ĠÐº Ð¾Ñģ
Ġi n
ÐµÐº ÑģÑĤ
ĠÑģÑĤ Ð°ÑĤÑĮ
Ð¼ ÐµÑĩ
ĠÐº Ð°Ð²
Ð³ Ð¾Ð´
ĠÑģÐ² ÐµÑĤ
ĠÑģÐ¾Ñİ Ð·
ĠÐ´Ð¾ÑģÑĤ Ð¸Ð³
ÑĢÐ°Ð² Ð½
Ð¸Ð¹ ÑģÐºÐ¾Ð¹
ĠÐ³ÐµÑĢ Ð¼
ĠÑĦÑĢÐ°Ð½ ÑĨÐ¸Ð¸
Ñį Ðº
an d
ÑĪ ÑĤ
Ð» ÑĥÑĩ
Ð°Ð½ ÑģÐºÐ¾Ð¹
ĠÐ¿ÑĢÐµÐ´ ÑģÐµÐ´
Ñģ Ð¾Ð³Ð»Ð°ÑģÐ½Ð¾
ÑĳÐ½ Ð½ÑĭÐµ
ĠÐ¼ Ð°ÑģÑĤ
Ð¸Ð¼ ÐµÐ½
Ðº Ð¸Ð½
ĠÐ¾Ð± Ð¾ÑĢÐ¾Ð½
Ðº Ð¸Ðµ
ĠÐ¸Ð· Ð¾Ð±ÑĢÐ°Ð¶
19 8
Ð´Ð° ÑİÑī
ĠÐ½ÐµÑģÐº Ð¾Ð»ÑĮ
Ð³ ÐµÑĢ
ĠÑĩ ÐµÑĤ
ĠÐºÐ¾Ð¼Ð¿ Ð¾Ð·
ÑĢÐµ ÑģÑģ
ĠÐ¸ Ð´
ĠÑĢÑĥ Ð±
âĢ Ļ
ĠÐ» Ð¸Ð±
Ġ1 00
ÑģÐ¼Ð¾ÑĤ ÑĢÑı
Ð¸Ðµ ÑģÑı
Ðµ Ñı
Ðº Ð»
ĠÐ¼ Ð¸Ðº
ĠÐ¼ Ð°ÑĢÑĤ
ĠÐ°ÑĢÑħ Ð¸ÑĤ
Ġ194 1
Ð½ Ð¸Ð¸
Ġ200 4
ÑĢÐ° Ñĩ
ĠÐ·Ð°Ð² ÐµÑĢÑĪ
ĠÑĥ Ð¼
ĠÑģÐ¸ÑģÑĤÐµÐ¼ Ñĭ
Ð´Ð° ÐµÑĤ
ÐµÑĩ Ð°ÑĤ
Ð¸Ð² Ð°ÐµÑĤ
ÐµÐ» Ð¸Ñĩ
ĠÐ² Ð¿ÐµÑĢÐ²ÑĭÐµ
Ñĩ Ð°ÑģÑĤ
ĠÑĩ Ð°Ñģ
Ð°Ð² Ð¸ÑģÐ¸Ð¼
Ð°Ð²ÑĪ Ð¸Ð¹
Ð¼ Ð¸ÑĤ
ĠÑĤÐ¾ÑĢ Ð³Ð¾Ð²
o t
ĠÐ¿ÑĢÐ¸Ð½ Ñı
ĠÐ¿ Ð¾Ð»ÑĮÐ·
ĠÑĤ ÑĢÑĥ
ĠÑģÐ°Ð¼ Ð¾Ð»
ĠÐ¼Ðµ ÑģÑı
ĠÐ² Ð°Ð¶
ĠÐ¼Ð¾Ð½ Ð°ÑģÑĤÑĭ
ĠÑĨ Ð²ÐµÑĤ
ĠÑĩÐ°ÑģÑĤ Ð¾
ĠÑħ Ð¾Ð´Ðµ
ĠÑģÐµÐ¼ ÐµÐ¹
ĠÐ¾Ð´ Ð½Ð¾Ð³Ð¾
Ð½Ð¾Ð² ÑĮ
ĠÑĥÐ½Ð¸Ð²ÐµÑĢÑģ Ð¸ÑĤÐµÑĤÐ°
ĠÐ¼ ÐµÑħ
Ġ201 5
ĠÐµ ÑģÐ»Ð¸
ĠÐ¾ÑĢÐ³Ð°Ð½ Ð¸Ð·Ð°
Ð¾Ð¼ ÐµÑĤ
ĠÑģ ÑĥÐ¼
ĠÐ¿Ð°ÑĢÑĤ Ð¸Ð¸
Ð»Ð° Ð¼
en t
ii i
Ñģ Ð¾Ð½
ĠÐ» Ð¸ÑĨ
ĠÐ¿ Ð°Ð²
ĠÐ¾Ð´ Ð½Ð¾
ĠÐ¿Ð¾Ð» Ñĥ
ĠÐ± Ð¾
ĠÐ± Ð¾Ñı
Ð° ÑĦ
ĠÐ² Ð»Ð¸Ñı
ĠÑĦÐµÐ´ ÐµÑĢÐ°ÑĨÐ¸Ð¸
ĠÐºÐ¾Ð¼Ð¿ Ð»
Ð± ÐµÑĢ
ĠÐ¸Ð³ ÑĢÐ°
ÑĢÐ° Ðº
Ġ2 1
Ð· Ð°Ð½
Ð¸Ð¹ ÑģÐºÐ¸Ñħ
Ð¾ ÑıÑĤ
Ð¾Ð· Ð°
ĠÐ²Ñĭ Ð¸Ð³
Â» )
ĠÐ²Ñģ Ñĳ
ĠÐ¿Ð¾Ð» Ð¾Ð²
ĠÐ¸Ð· ÑĥÑĩ
ĠÐºÐ½Ñı Ð·
ĠÐ¸Ð½ ÑĦÐ¾ÑĢÐ¼Ð°
Ġ k
ĠÑĩÐ¸Ñģ Ð»Ð¾
ĠÐºÐ¾Ð¼Ð°Ð½Ð´ Ñĭ
ÑĢÐµ ÑĪ
ĠÐ°Ð²ÑĤÐ¾Ð¼ Ð¾Ð±
ĠÐ¿ÑĢÐ¸ Ð±
Ð¿ Ð¾Ð·
ĠÐ¿ÑĢ Ð¾Ð¿
Ð¼ ÑĥÐ½
Ðº Ð°Ð½
Ð¸ÑĩÐµÑģÐº Ð¾Ð¼
ĠÐ¼ Ð°Ð¹
ÑĪ Ð°Ñı
ĠÐ¾ÑĤ ÐºÐ°Ð·
ÐµÐ» Ñı
ĠÐ¿Ð¾Ñĩ ÑĤÐ¸
2 4
Ðº Ð°ÑĤ
Ð° Ñĩ
ÑĮ Ð¸
ÑĦ ÐµÐ´
ĠÐ½ Ð¾Ð¼
Ð¸Ð± Ð»Ð¸
ÑĥÐ±Ð» Ð¸Ðº
ÑĭÐ² Ð°ÐµÑĤÑģÑı
ĠÐ± Ð»Ð¸Ð·
ĠÐ¿Ð» Ð°ÑĤ
e d
ĠÑħ ÑĢÐ¸ÑģÑĤ
ĠÐ¿Ð¾ Ñħ
Ð¿ÐµÑĤ ÐµÑĢ
ĠÐ¿Ð¾ÑģÑĤ Ð¾ÑıÐ½
ĠÐ¸Ð³ ÑĢÑĭ
ĠÐ² Ð½Ð¾Ð²ÑĮ
ĠÐº ÑĢ
ĠÑĤ Ð¸ÑĤ
ĠÐ²ÐµÑĢÑħ Ð¾Ð²
ĠÐ¶ÐµÐ½Ñī Ð¸Ð½
ĠÐ¼ ÐµÐ»
ĠÐ²Ð»Ð°ÑģÑĤ Ð¸
Ġ5 0
ĠÐ´Ð¸ ÑĢÐµÐº
ĠÐ½Ð° ÑĥÐº
Ð´ Ð²
Ð¿Ð¾ Ñħ
ĠÐ¾Ð± Ð½Ð°ÑĢÑĥÐ¶
i g
ĠÐ¿ÑĢÐ¾Ð¸Ð·Ð² ÐµÐ´
ĠÐ² Ð¾Ðº
ÑĪ Ð»Ð¸
ĠÑįÑĤ Ð¸
Ð¸ÑĢÐ¾Ð² Ð°ÑĤÑĮ
ĠÑĦ Ð¾Ð½
Ð¾Ð´ Ð°ÑĢÑı
ĠÑĤ ÑıÐ¶
Ñģ Ð»ÐµÐ´
2 3
ĠÐ± Ð°Ð½
Ð³ Ð¾ÑĢ
ĠÐ¾Ð¿ ÐµÑĢÐ°
ĠÑģ Ð¾Ñĩ
ÑģÑĤÐ²ÐµÐ½ Ð½Ð¾
ĠÐ¿ÑĢÐ¸Ñħ Ð¾Ð´
ÑģÐ» ÑĥÐ¶
Ð¾Ð½Ð° Ñĩ
ĠÐ² ÐµÑģ
ĠÐ·Ð°Ð² Ð¾Ð´
Ġ194 4
ĠÐ¾Ð±ÑĬ ÑıÐ²
ĠÐ¾ÑĢ Ð´ÐµÐ½
ÑĨ Ð°Ð¼Ð¸
ĠÐ¸ Ð´Ðµ
ĠÐ¸ÑģÑĤ Ð¾Ñĩ
ĠÐ¶ Ð¸ÑĤÐµÐ»ÐµÐ¹
ĠÑĥÑĩ Ñĳ
Ð¾ Ð¸ÑĤ
ĠÐ³ÑĥÐ±ÐµÑĢÐ½ Ð¸Ð¸
Ð°Ð» Ñĭ
ĠÐ² ÑģÑĤÑĥÐ¿
ĠÐ± Ð°ÑĤ
u m
ĠÐºÐ¾Ð¼Ð¿ Ð°Ð½Ð¸Ð¸
ĠÑĨÐµÐ½ÑĤ ÑĢÐ°
ĠÐ¸ÑģÐº Ð»ÑİÑĩ
ĠÐºÐ° Ð¿Ð¸ÑĤ
ĠÑħ Ð¾Ð»
ĠÐ¿Ð¾Ð´ Ð³Ð¾ÑĤÐ¾Ð²
ĠÐ³Ð¾Ð» Ð¾Ð²
ĠÐ¸ ÑĢ
Ð¸ÑĩÐµÑģÐº ÑĥÑİ
ĠÐº Ð¾Ð´
" )
ĠÐ²Ñĭ Ð±Ð¾ÑĢ
ĠÐ¼Ð¾ÑģÐº Ð²Ðµ
ĠÐ³ÑĢÑĥÐ¿ Ð¿Ð°
ĠÐ²Ñĭ Ð´ÐµÐ»
ĠÐ¾Ð±ÑĬ ÐµÐºÑĤ
ĠÐ³ÐµÐ½ÐµÑĢÐ° Ð»
Ð» Ð¾ÑģÑĮ
ĠÐ´ ÐµÐ±
ÑģÐ¿ Ð¾ÑĢÑĤ
ĠÑĤ Ð¸Ð¿
ĠÐ²Ð¾Ð· Ð½Ð¸Ðº
Ð¾ÑĢ Ð²
ĠÐ±Ð¾Ð»ÑĮÑĪ Ðµ
Ð° ÑĨÐ¸Ð¾Ð½
ĠÑģÑĭ Ð³
Ð¿Ð¾ÑģÐ»ÐµÐ´ ÑģÑĤÐ²Ð¸Ð¸
Ð¸Ñĩ ÑĤ
ĠÑģÐ¾Ð·Ð´ Ð°Ð½
ĠÐ½Ð° Ð¸Ð±Ð¾Ð»ÐµÐµ
Ð½Ð¾ÑģÑĤ ÐµÐ¹
ĠÑĢÐµ Ð²Ð¾Ð»Ñİ
Ñį Ð»
ÐµÐ½ÑĤ Ñĭ
ĠÐºÐ¾ÑĤÐ¾ÑĢ Ð¾Ðµ
ĠÑģÐ²Ð¾ Ñĳ
Ð¾Ðº Ðµ
ĠÐ°ÐºÐ°Ð´ÐµÐ¼ Ð¸Ð¸
ĠÐ½Ð°ÑģÑĤÐ¾ÑıÑī ÐµÐµ
Ð± Ð¸Ð½
ÐµÑĢ ÑĮ
ĠÐ¸Ð¼ ÐµÐ»
Ñģ ÑĮ
ĠÑį Ð¼
ĠÐ³ Ð²Ð°ÑĢÐ´
Ð°Ð»ÑĮ Ð½Ð¾Ð¼
19 7
Ð· Ð½Ð°Ñĩ
19 6
ĠÑĢ Ð¾Ð»
ĠÑģÐµÐ¼ ÑĮÐµ
ĠÐ· Ð½Ð°Ðº
ĠÐ¸Ð¼ Ñı
ĠÑĢÐ¾Ð´ Ð¸Ð»ÑģÑı
ĠÐºÐ¾Ð¼ Ð¸ÑģÑģ
ĠÐ¿Ð¾Ð¿ ÑĥÐ»ÑıÑĢ
ĠÐ±Ð¾ÑĢ ÑĮ
Ð»Ñİ Ð´
i a
Ð¸Ð· Ð¼Ð°
2 2
Ð¾Ð² ÑģÐºÐ¾Ð³Ð¾
i r
Ð¾Ñĩ Ð½Ð¾
ĠÐºÐ¾Ð½ Ñģ
ĠÐ±Ð¾Ð»ÑĮÑĪ Ð¸Ð½
ĠÐ¸ÑĤ Ð¾Ð³
ĠÐ¿ÑĢÐ¾Ð± Ð»ÐµÐ¼
ĠÐ¾ÑĤ Ð²ÐµÑĤ
ĠÐ¿Ð¾ÑģÑĤ Ð°Ð²
ĠÑĤÑĭ Ñģ
ĠÑĪÐºÐ¾Ð» Ñĭ
ÐµÑĢ Ð½Ð¾
ĠÐ¿ÑĢÐ¾Ð¼ ÑĭÑĪÐ»ÐµÐ½
Ð¾Ð½ Ñĭ
ĠÑģÑĤÐµÐ¿ ÐµÐ½Ð¸
Ġ199 0
ĠÐ¿Ð¾Ð´ Ð¿Ð¸Ñģ
ĠÐµÐ²ÑĢÐ¾Ð¿ ÐµÐ¹
Ð¾ÑĤ Ðµ
ÑĢÐ° Ð¹
Ð¶Ð´ Ñĭ
ĠÑĩÐ°ÑģÑĤ Ð½Ð¾ÑģÑĤÐ¸
Ñģ Ðµ
ĠÐ² ÐµÑĤ
ĠÐ¾ÑĤÐµÑĩ ÐµÑģÑĤÐ²ÐµÐ½Ð½Ð¾Ð¹
Ġ2 9
ĠÐ¾Ð±ÑĢÐ°Ð· Ð¾Ð²Ð°Ð½Ð¸Ñı
ĠÑĢ Ð¾ÑģÑĤ
ĠÑĤÐ¸ Ð¿Ð°
Ð¾Ð² Ð°Ð»Ð°
ĠÐ¿ÑĢÐµ Ð¿Ð¾Ð´
ĠÑĥÐ¿ÑĢÐ°Ð² Ð»ÐµÐ½Ð¸Ñı
Ðº Ð°Ñı
Ð» Ð°Ð½
ĠÑįÐ» ÐµÐ¼
Ñį ÑĤÐ°
ĠÐ²ÑĭÐ¿ ÑĥÑī
Ð¸Ñī Ðµ
ĠÑĢÐ°Ð·Ð»Ð¸Ñĩ Ð½ÑĭÑħ
ĠÑĦ Ð¾ÑĢ
ĠÑģÐ±Ð¾ÑĢ Ð½Ð¾Ð¹
u t
ÑģÐº Ð¾Ð»ÑĮ
ĠÑĢÐµÐ´ Ð°Ðº
ÐµÐ½ Ð½ÑĭÐ¼
ĠÑĤÑĥÑĢ Ð½Ð¸
o s
ĠÐ¿ Ð¾Ð¶
4 0
ĠÐ¿ÑĢ ÑıÐ¼
ĠÑħÐ¾ÑĤ Ñı
ĠÑģ Ð°
ĠÐ¾ÑĢÐ³Ð°Ð½ Ð¸Ð·Ð°ÑĨÐ¸Ð¸
ĠÐ´Ð¾Ðº ÑĥÐ¼
Ð¾Ð² ÑģÐºÐ¸Ð¹
Ð¿ ÑĤ
ĠÐ½ Ð¸Ð¼
ĠÐ° ÑģÑģ
ĠÐ¼ÐµÑĤ Ð¾Ð´
Ġ194 3
ĠÐ´ Ð°Ð»
ĠÐ½ÐµÐ· Ð°Ð²Ð¸ÑģÐ¸Ð¼
ĠÐ²ÐµÐ»Ð¸Ðº Ð¾Ð¹
ĠÐ¾Ðº ÑĢÑĥÐ¶
Ð³ Ð¾Ð»
ĠÑĢÐ°Ñģ ÑģÐºÐ°Ð·
ĠÐ»ÑİÐ´ ÐµÐ¹
Ð½Ð¸ÑĨ Ð°
ÑĥÑī ÐµÑģÑĤÐ²ÐµÐ½
ĠÐ²Ñģ ÐµÐ¼
ĠÑĥÐ² ÐµÐ»Ð¸Ñĩ
Ð¸ÑĩÑĤ Ð¾Ð¶
Ð¾Ñģ Ð¾ÑĦ
ĠÐ¿ÑĢÐµÐ·Ð¸Ð´ ÐµÐ½ÑĤ
ĠÐ¿ Ð¾Ð»ÑĮ
ĠÑĤÑĢ ÐµÐ½
ĠÐ³ Ð¾Ð½
ĠÐ´Ð¸Ð²Ð¸Ð· Ð¸Ð¸
ĠÐ¿ÑĢÐ¾Ð² ÐµÐ´
ĠÐ´ Ð¾Ð½
ÐµÐ¼ Ð°ÑĤ
ĠÐ½ Ð¸Ð¶
ĠÐ¿ÐµÑĢÐµ Ð²Ð¾Ð´
ĠÐ± ÑĢÐ¸Ð³
Ð¶ Ð°
ĠÐ± ÑĢ
e c
ĠÐºÐ¾Ð»Ð¸Ñĩ ÐµÑģÑĤÐ²Ð¾
Ð½ Ð¸Ñı
ĠÐ¼Ð¸ÑĢÐ¾Ð² Ð¾Ð¹
ĠÐ¾ÑģÐ½Ð¾Ð² Ð½Ð¾Ð¼
ĠÐ¿ Ð¾Ð·Ð´
ĠÑģ Ð»Ð°Ð²
ĠÐ¾Ð± ÑıÐ·
ÑģÑĤ Ð°Ð½
ĠÑģ ÐºÐ°Ð·
ĠÐ´ÐµÑĤ ÐµÐ¹
ĠÐ¾ÐºÐ¾Ð½Ñĩ Ð¸Ð»
Ð»ÐµÐ½ Ð¾
ĠÐ³ ÑĢÑĥÐ·
ĠÐ²Ð¾Ð· Ð³Ð»Ð°Ð²
ĠÐ¿Ð¾Ñģ Ð²
ĠÐµÐ²ÑĢÐ¾Ð¿ Ñĭ
o d
ĠÑĤ Ð¾Ð»
Ð´ Ñĭ
ĠÑĥÑĤ Ð²ÐµÑĢÐ¶Ð´
Ð¾ Ñĥ
ĠÑĢÐ° Ð¼
ÑģÐº Ðµ
2 8
2 6
Ð½Ð¾Ð² Ð°
Ñĳ Ð´
Ñģ Ð¸
Ġ )
ĠÐ¾Ð±Ñī ÐµÑģÑĤÐ²ÐµÐ½
Ð½Ð¸Ðº Ð°Ð¼Ð¸
ÑĢÐ° ÑĨÐ¸Ð¸
ĠÐ¼ Ð¼
ĠÑħÐ¾ÑĢ Ð¾ÑĪ
ĠÑģÐµÐ· Ð¾Ð½Ð°
ĠÑģÐ°Ð½ ÐºÑĤ
Ð¾Ð² ÐµÐ´
ĠÑģÑĤÐ°Ð» Ð¾
ĠÑģÑĤÑĢÐµÐ» ÐºÐ¾Ð²
ĠÐ¾Ð± Ð¾Ð·Ð½Ð°Ñĩ
ĠÐ± Ð¸
ĠÑĩ ÐµÑģÑĤÑĮ
ĠÑģ ÑĬ
Ð¸Ð» Ñı
ĠÐ¿ÐµÑĢÐ² Ð¾Ð³Ð¾
ĠÐ² Ð¸Ð½
Ð» Ð¸ÑģÑĮ
Ð¸Ð¼ Ð¸ÑĢ
ĠÑĨ ÐµÐ»ÑĮ
Ġx x
Ð¾Ð¿ Ð¸Ñģ
Ġ200 2
ĠÐ·Ð½Ð°Ñĩ Ð¸ÑĤÐµÐ»ÑĮ
ĠÐ²Ð¾Ð· Ð²ÑĢÐ°Ñī
ÑĢÐ° Ð³
ĠÐ²Ð½ÑĥÑĤ ÑĢÐµÐ½
ĠÐ¾ÑĤ Ð¼ÐµÑĩ
ĠÐºÐ¾Ð¼Ð¿Ð» ÐµÐºÑģ
Ð» ÑĥÐ¶
ĠÑģÐµÐ» Ðµ
ĠÐ¸Ð² Ð°Ð½Ð¾Ð²
Ð¸Ð½Ð³ ÑĢÐ°Ð´
ĠÐ·ÐµÐ¼ Ð»Ð¸
ĠÑĪ ÑĤÐ°
ĠÐ´ Ð¾Ð³
ĠÐ° Ñį
Ð´ Ð°Ð½
ĠÐ¿ÑĢÐµ Ðº
Ð¾ ÐµÐ´Ð¸Ð½
Ð¾Ð» Ð°
Ñĥ Ð»Ð¸
ÑĪ ÐµÐ¼
ÑģÐºÐ¾Ð»ÑĮ ÐºÑĥ
ĠÑģÐµÐ» Ð°
Ð¾Ð² Ð¾Ð»ÑĮ
Ð¸Ñı Ð¼Ð¸
Ð¸Ñĩ Ð°
Ð°ÑİÑī Ð¸Ñħ
ĠÐ² Ð¸Ðº
ĠÐ² ÐµÑī
ÐµÑģ Ð»Ð¸
ĠÐ½Ð° Ð¿ÑĢÐ¸Ð¼ÐµÑĢ
ĠÐ± ÑĥÑĢ
ĠÐ¿ÑĢ Ð¸ÑĢ
ĠÑĢÐµ Ñĩ
Ð°ÑĤ Ñĥ
ĠÐ¼Ð» Ð½
Ð¾ÑĢ Ñĭ
ÐµÐ½ Ð½Ð¾Ðµ
ĠÐ½Ð° ÑģÑĤÑĥÐ¿
Ð¸Ð¼ Ð°
ĠÐ¼Ð½Ð¾Ð³ Ð¸Ñħ
ĠÑĢÐ¾Ð´ Ð°
ĠÑģÐ¾Ð¾ÑĤÐ²ÐµÑĤ ÑģÑĤÐ²
ĠÑģ ÑĥÐ¿
ĠÐ·Ð´ ÐµÑģÑĮ
i m
ĠÐ» Ð°ÑĤ
ĠÑį Ð¿
ĠÐ±Ð¾Ð»ÑĮÑĪ Ð¾Ð¹
ÑĨÐ¸ Ð¿
Ġ" Â«
ĠÑĤ Ð²Ð¾ÑĢ
ĠÐ¼Ð¾ Ñī
Ð¾Ð² ÑģÐºÐ¾Ð¹
ĠÐ½ÐµÑģÐºÐ¾Ð»ÑĮ ÐºÐ¸Ñħ
Ð¸Ð² Ð°Ð»
ĠÑģÐ¸Ð¼ Ð²Ð¾Ð»
ĠÑĥÐ½ Ð¸ÑĩÑĤÐ¾Ð¶
Ð» Ð¸Ðº
ĠÐ¸Ð½ÑĤ ÐµÑĢÐµ
ĠÑģÑĤ Ð°Ð²
2 7
ÑĤÐ° Ñħ
Ð»Ñı Ð½
ĠÑĨ Ð°ÑĢ
Ñı Ñĩ
Ġ4 0
ÑĢÐ° ÑģÐ¿
Ð°Ð» Ð»
2 1
ĠÐ²ÐµÑĢ Ð½ÑĥÐ»
ĠÑģÐ»ÑĥÑĩ Ð°Ðµ
ĠÐ¿ÑĢÐµÐ´Ð¿ÑĢ Ð¸ÑıÑĤ
Ð½Ð¾Ð´ Ð¾ÑĢÐ¾Ð¶
ĠÐ¿ÑĢÐ¸Ðº Ð°Ð·
Ð»Ð¸ Ð¶
Ð² ÑħÐ¾Ð´Ð¸ÑĤ
ĠÑģ ÑĩÑĳÑĤ
ĠÐ± Ð°ÑĪ
Ġ199 9
i v
ÐµÐ½Ð¸Ñı Ñħ
ÑĢÑĥ Ñģ
Ġo f
ĠÐ¸Ð¼Ð¿ ÐµÑĢÐ¸Ð¸
ĠÑģ ÑĨÐµÐ½
ĠÐº Ð¾ÑģÑĤ
ĠÐ° ÑĤÐ°Ðº
ĠÐ¾Ð± ÑĥÑĩ
r a
ĠÑģÐµÑĢ Ð¸Ð¸
Â» ).
ĠÑĦ Ð°Ð¼
ĠÑģÐ²Ð¾ Ð¸Ð¼
ĠÑĢÐµ Ð»Ð¸
ĠÑģÐ¾Ð± ÑĭÑĤ
ĠÑĤ Ð¾Ð½
ĠÑĤÐ°Ðº Ð¸Ñħ
ĠÐº Ð¸ÑĢ
ĠÐµÐ¿ Ð¸ÑģÐºÐ¾Ð¿
ĠÐ´Ð¾Ð»Ð¶ Ð½Ð¾ÑģÑĤÑĮ
ĠÑĤ ÐµÐºÑģÑĤ
ĠÐºÑĥÐ»ÑĮÑĤ ÑĥÑĢÑĭ
ÑĤ Ð¾Ð½
ÑĳÐ½ Ð½Ð¾Ð³Ð¾
ĠÐ¼ÐµÑģÑĤ Ðµ
ĠÐº ÑĥÐ¿
Ð°ÑĢ Ñĭ
ĠÐ³ÐµÑĢÐ¼ Ð°Ð½Ð¸Ð¸
Ð¾Ð²Ð°Ð½ Ð¸ÐµÐ¼
2 9
Ðº Ð¸Ð¼
Ð¸Ð± Ð¸ÑĢ
Ġs t
ĠÑģÐ¾Ð² Ð¼ÐµÑģÑĤ
ĠÑĤ Ð°Ð¹
ĠÐ¿ÑĢÐµÐ´ Ð¿Ð¾Ð»
Ð¾Ð½ ÑĤ
Ð·Ð°Ð½ Ð¸Ð¼
ĠÐ°Ð»ÐµÐºÑģÐ°Ð½Ð´ ÑĢ
ĠÑĤ ÐµÐ¿
ĠÐºÐ¾Ð½ ÐºÑĥÑĢ
Ñĳ Ð¶
Ð½Ð° Ð´
Ð± Ð¸ÑĤ
ĠÐ¿Ð¾Ð¿ ÑĭÑĤ
ĠÑħ ÑĢÐ°Ð¼
ÐµÐ¹ Ð½
Ġ194 5
Ð»Ðµ Ñĩ
ĠÐ¿ÑĢ Ð¾ÑģÑĤ
Ðº Ð¼
ĠÐ¿Ð¾Ð» Ð½Ð¾ÑģÑĤÑĮÑİ
ÐµÐ½ Ðµ
ĠÑĤÐµÐ¼ Ð¿
ĠÐ»Ð¸Ð½ Ð¸Ð¸
ĠÑĩ ÐµÑĢ
Ð± Ð¸
ĠÑģ ÑĥÐ±
ĠÐº ÑĢÐµÐ¿
Ð» ÐµÐ²
ÑĢÐµ Ñģ
ĠÐ½ Ð¸Ð·
ĠÐ±ÐµÑĢÐµ Ð³Ñĥ
ĠÐ´Ð¾Ð¼ Ð°
ĠÐ±ÑĢÐ¸ÑĤ Ð°Ð½
ĠÑĥÑģÐ¿ ÐµÑħ
ĠÐ¼Ð½ Ð¾Ð¶
Ð¾Ðº Ñģ
Ð½ Ð¾Ð²Ð°Ð½Ð¸Ñı
Ð°Ð»ÑĮ Ð½ÑĥÑİ
ĠÐ½ ÐµÑĤ
ĠÐµÐ´Ð¸Ð½ ÑģÑĤÐ²ÐµÐ½
Ð½ Ð¾Ð³
Ð¸Ðº Ð¾Ð¼
ĠÑĩÐµÐ¼Ð¿Ð¸Ð¾Ð½ Ð°ÑĤÐ°
ĠÐ¿ÑĢÐ¾Ð¸Ð· Ð¾ÑĪ
Ð¿ÑĢ Ð¸Ð½
ĠÐ²Ð¾Ð¹ÑģÐº Ð°
ĠÐ´Ð¾Ð¿ Ð¾Ð»Ð½
ÐµÑĢ Ð¾
ĠÐ´ÐµÐ± ÑİÑĤ
ĠÑĩ ÑĳÑĢ
Ð¿Ð» Ð¾ÑĤ
ĠÑģÑĤÐ°Ð½ ÑĨÐ¸Ð¸
ÑĦ Ð°
ĠÐ¸Ð½ÑģÑĤ Ð¸ÑĤÑĥ
ĠÐ¼ÐµÑĤ ÑĢÐ¾Ð²
ĠÐ· ÑĢ
ĠÐ¼ÐµÑħ Ð°Ð½
ÑĢÐ¾Ð´ Ð¸Ð»ÑģÑı
ĠÐ¾Ð±ÑĢÐ°Ð· Ð¾Ð²Ð°Ð½Ð¸Ðµ
Ð¼Ð°ÑĤ ÑĢÐ¸Ð²
ĠÐ±ÐµÐ» Ð¾ÑĢ
ĠÐ³Ð» ÑĥÐ±
ĠÐ½ÐµÐºÐ¾ÑĤÐ¾ÑĢ ÑĭÑħ
Ġ18 5
ĠÐ· Ð½Ð°Ð¼
o w
ĠÐ¿ÑĢÐ¸Ð½ ÑıÐ»
Ġxi x
ĠÑĦÐ°Ðº ÑĥÐ»ÑĮÑĤ
ĠÐ²Ð¾ÑģÑģÑĤ Ð°Ð½Ð¾Ð²
ĠÐ¿Ð¾Ð» ÐºÐ°
ÑĢ Ð¸Ñģ
ĠÑģÐ¾Ð± ÑĢÐ°Ð½
Ð´ Ð¾Ð²
ĠÐ¾Ñĩ ÐµÑĢÐµÐ´
ĠÐ° ÑģÑĤ
ĠÐ½Ð°Ð³ ÑĢÐ°Ð¶Ð´
ĠÐ¿Ñģ Ð¸Ñħ
Ð¸Ð» Ð¸Ð¸
ĠÐº ÑĢÑĥÐ³
ĠÐ» Ð¸Ð´
ÐµÑĢÐµ Ð¶
ÑĳÐ½ Ð½Ð¾Ð¹
ĠÑĥÑĩÐ°ÑģÑĤÐ² Ð¾Ð²Ð°Ð»
ĠÐ½Ð¾Ð² ÑĭÐ¹
Ñĥ ÑģÑģ
ĠÐ¿Ð» Ð¾ÑĤ
Ñģ ÐµÐ¼
Ð¿ Ð¾Ð¼
ĠÑĢÐ°Ð±Ð¾ÑĤ Ñĥ
ĠÐ¿ÐµÑĢÐ² ÑĭÐ¼
ĠÐ» Ð¸
ÑĳÑĤ ÑģÑı
Â °
Ð± Ð¾Ð»ÑĮ
Ġ200 3
ĠÐ¼Ð½Ð¾Ð³ Ð¸Ðµ
Ð² ÑĳÑĢ
ĠÐ³ Ð°
ĠÑģ ÐµÑĤ
ĠÑħ Ð¾Ð´
ĠÑĤ Ð¾Ð³Ð´Ð°
ĠÐ¾Ð´ Ð½Ð°
ĠÑĢÐµÐ¶ Ð¸ÑģÑģ
ÑĤ ÐµÐ»
ĠÐ³ Ð°ÑĢ
ĠÐ¿ Ð¸ÑģÑĮ
âĢ ľ
ĠÐ¾Ð±Ñī ÐµÑģÑĤÐ²Ð°
Ð¼ Ð¾ÑĤ
ĠÐ´Ð°Ð»ÑĮ Ð½ÐµÐ¹
ĠÑĦÐ¸Ð» Ð¾ÑģÐ¾ÑĦ
ĠÐ¼ Ð¸ÑĤ
Ġ194 2
ĠÐ¾Ð± ÑĢÐ°ÑĤ
ÑģÑĢÐµÐ´ Ð¸
Ñį Ð¼
ĠÐ¾Ð³ ÑĢÐ°Ð½Ð¸Ñĩ
ĠÐ½ Ð°Ð»
ĠÐ¿Ð¾ÑĢ ÑıÐ´
ĠÑĥÑĩ Ð¸Ð»Ð¸Ñī
Ð°Ð»ÑĮ ÑıÐ½
ĠÑģÐ¼ Ð¾Ð³
ÐµÑĢ Ñĥ
ĠÐ¶ÐµÐ»ÐµÐ· Ð½Ð¾Ð´Ð¾ÑĢÐ¾Ð¶
ĠÐ±Ð¾Ð» Ð³Ð°ÑĢ
ĠÐ¿ÑĢ Ð¸Ð´
ĠÐ½Ð°Ð·Ð² Ð°Ð½Ð¸ÐµÐ¼
ĠÐ¼Ð¾ÑĢ Ñı
Ð¾Ñĩ Ð½Ð¾Ð¹
ÑĢ Ð¾Ð³
ĠÐ¶ Ð¸Ð»
ĠÐ¸Ð½ÑģÑĤÐ¸ÑĤÑĥ ÑĤÐ°
Ð¾Ð² ÑĭÐ¼
Ð°ÑİÑī Ð¸Ð¹
ĠÐ´ÐµÐ¿ ÑĥÑĤ
g c
Ð¸Ð²ÑĪ Ð¸Ð¹
ĠÐ¼ Ð°Ñģ
Ð°Ð½Ð´ Ð¸Ð´
ÑĤ ÐµÐ¼
ĠÐ½Ð°Ñģ Ð»ÐµÐ´
ĠÐ½Ð° Ð¹
ĠÑĦ Ð¾ÑĤ
o p
Ñİ Ð¶
ĠÐ¿ÑĢÐ¸Ñģ Ð¾ÐµÐ´Ð¸Ð½
ĠÐ¾ÑĤÑģ ÑĥÑĤÑģÑĤÐ²
ÑįÑĤ Ð¾ÑĤ
ĠÐ ¹
ÐµÐ½ ÐµÐ¼
ĠÑģÐµÐ± Ðµ
ĠÑĤÑĢÐµÑĤ ÑĮ
Ð¾Ñģ Ð»Ð¾Ð²
ĠÑĤ Ð¾Ð¿
ĠÑĩÐµÑĤÑĭ ÑĢÐµ
Ñĩ Ð°ÑĤ
Ñı Ð±
ĠÑį ÑģÑĤ
ĠÐ» ÑĮ
ĠÑĢÐµÐ·ÑĥÐ»ÑĮÑĤ Ð°ÑĤ
ĠÐ¼ÑĥÐ¶ ÑĩÐ¸Ð½
ĠÐ¼ Ð¸ÑħÐ°
ĠÑģ Ñĥ
ÑĢ ÑĳÑħ
ĠÐ¸Ð¼Ðµ ÑİÑĤ
ĠÐ½Ð¾Ð² Ð¾Ð³Ð¾
ĠÐ¿ÑĢÐ°Ð² Ð¾ÑģÐ»Ð°Ð²
Ñħ Ð°
ĠÐ¿ÑĢÐµÐ¿Ð¾Ð´ Ð°Ð²
Ð¾Ð² Ð°Ð²ÑĪ
Ð¾ÑĢ Ð³
ĠÐ´Ð² Ð¸Ð³
ĠÐ½Ð¾Ð² Ð¾Ð¹
ĠÐº Ð¾Ð¿
ĠÐ½ÐµÐ¾Ð±ÑħÐ¾Ð´ Ð¸Ð¼
Ð°Ð½ Ð½ÑĭÑħ
ĠÐ¼Ð°ÑĢ ÑĪ
ÑģÐº Ð¸
ĠÐ½ÐµÐºÐ¾ÑĤÐ¾ÑĢ ÑĭÐµ
ĠÐ¾Ð¿ ÑĥÐ±Ð»Ð¸Ðº
Ñģ Ð¾Ð¼
ĠÐ²ÑĭÑĪ ÐµÐ»
ĠÐ¸ÑĤ Ð°Ð»Ð¸Ð¸
ĠÐºÐ¾Ð» Ð¾Ð½
ĠÐ¿Ð¾Ð¼Ð¾Ñī ÑĮÑİ
ĠÐ¸Ð·Ð± ÑĢÐ°Ð½
Ð¾Ðº Ð¾Ð¼
ĠÐº Ð»Ð°Ð´
ĠÐ± Ð¸ÑĤ
Ġ j
Ñı ÑĢ
Ñģ ÑĦ
ĠÐ´ÐµÑģÑı ÑĤ
ĠÐ² Ð°ÑĢÐ¸
ÑĢÐµÐ¼ ÐµÐ½Ð½Ð¾
Ð»Ðµ Ð³
ĠÐºÑĢÐ° Ð¹
Ġ( ),
Ðº Ð°ÑĢ
ĠÑį ÑĢ
ĠÑĩÐµÐ¼Ð¿Ð¸Ð¾Ð½ Ð°ÑĤÐµ
Ð½Ð° Ð¿ÑĢÐ¸Ð¼ÐµÑĢ
Ð² ÐµÐ¹
ÑĪ Ð»Ð°
ĠÐ¾ÑģÐ² Ð¾Ð±
ĠÐº Ð¸Ð»
Ð´ Ð¾Ð½
ĠÑģ ÑĢÐ°Ð¶
Ñĳ Ð·
ĠÑģÐ¾Ð²ÐµÑĤ ÑģÐºÐ¾Ð³Ð¾
ĠÑģÑĭ Ð½
Ð² Ð°ÑĢ
Ð»Ð° Ð·
Ñİ Ð·
ĠÐ°Ð»ÑĮÐ±Ð¾Ð¼ Ð°
ĠÐ°ÑĢÑĤ Ð¸Ð»Ð»
Ġ201 6
ĠÐ» Ðµ
Ðº ÑĥÐ¿
Ð· ÐµÐ¼
ĠÑĪÑĤ Ð°ÑĤ
ĠÐ½ ÑĮÑİ
Ð¸Ð½ Ð°Ð¼
Ð½Ð° Ñħ
ĠÐ²Ð½Ðµ ÑĪ
Ð¾Ð¿ Ð°Ñģ
ĠÑĢÐµÑĪ ÐµÐ½Ð¸Ðµ
ĠÐ¿ÑĢÐ¸Ð½ ÑıÑĤ
ĠÐ· Ð½
Ñĭ Ñģ
ÑĢÐ¾Ð¿ Ð¾Ð»
ĠÑį ÑĦÑĦ
ĠÑĥÑĩ ÐµÐ±
ĠÑĢÐµ Ðº
ĠÐ¿Ð¾Ð»ÑĥÑĩ Ð¸Ð»Ð°
Ð°Ð½ Ð¸
ĠÑĥÐ´ Ð°Ð»Ð¾ÑģÑĮ
Ð½Ð¸ Ð¶
ĠÐ¿ Ð¸ÑĤ
ÑĦ Ð¸Ð½
ĠÐºÐ¾ÑĤÐ¾ÑĢ ÑĥÑİ
Ð¾Ðº Ñĥ
Ð¸Ñģ Ð»
ĠÑĩÐ»ÐµÐ½ Ð¾Ð¼
ĠÐºÐ¾Ð½ ÑĦ
ÐµÐ½Ð¸Ñı Ð¼Ð¸
ĠÑĤÐ¸ÑĤ ÑĥÐ»
Ð°ÐºÑĤ Ð¸Ð²
ĠÐ¿ÐµÑĢÐ² ÑĭÑħ
ĠÐ± Ð¾Ð»ÑĮ
ĠÐ¿Ð¾ÑģÐ² ÑıÑī
ĠÐ´ÑĥÑħ Ð¾Ð²
ÑıÐ²Ð»Ñı ÐµÑĤÑģÑı
ĠÐ·Ð°Ð¼ ÐµÑģÑĤ
Ðº Ð¾Ð³Ð´Ð°
ĠÐ²Ð¾Ð·ÑĢÐ°ÑģÑĤ Ðµ
ĠÐºÐ°Ð· Ð°Ñħ
Ð¸ÑĨ Ð¸Ñı
ĠÐ» Ð°
Ð» Ð¸Ð½Ð°
ĠÐ¿ÑĢÐ¾ÑĦÐµÑģÑģ Ð¸Ð¾Ð½
ĠÐ¾ÑģÐ½Ð¾Ð² Ðµ
ĠÐ´ÐµÑĢÐµÐ² Ð½Ð¸
Ð²Ñģ Ðµ
ĠÐ¾ÑģÑĥÑīÐµÑģÑĤÐ² Ð»Ñı
ĠÐ·Ð° Ð´Ð°Ñĩ
ĠÐ·Ð°Ñħ Ð²Ð°ÑĤ
ĠÑĥÑģÐ¿ ÐµÑĪ
ÐµÐ» Ð¾
ÐµÐ½ Ð¸ÑĤ
ĠÑģÑĤ ÑĢÑĥÐºÑĤ
ĠÐ´ÐµÑıÑĤÐµÐ»ÑĮ Ð½Ð¾ÑģÑĤÐ¸
ĠÑģÑĤÐ°ÑĤ ÑĥÑģ
ĠÐ²Ñĭ ÑģÑĤÐ°Ð²
Ð°ÑĤÐµÐ» Ð¸
ĠÐ± Ð°
ÑĨ Ñĥ
ÐµÑĢ ÑĤÐ°
Ð¸ÑĤÐµÐ»ÑĮ Ð½Ð¾Ð³Ð¾
ĠÐ´ÑĢÑĥÐ³ Ð¾Ð¹
t er
ĠâĢ ŀ
Ð¸ÑĤÐµÐ»ÑĮ Ð½Ð¾Ð¹
ĠÐ²ÐµÐº Ðµ
Ð´ Ð¾Ð¼
Ð¾Ð± ÑĢÐ¸ÑĤ
ĠÑģÐ² ÑıÑī
ÑĢÐ°Ð·Ð´ Ð½
Ð· Ð°ÑĤ
ĠÑģ Ð¾Ðº
ĠÑĢ Ñı
ĠÑıÐ·Ñĭ ÐºÐ°
ĠÑĤ ÑĢÐµ
ĠÑįÐ½ ÐµÑĢÐ³
ĠÑĢÐµ Ð³Ñĥ
ĠÐ¿ÑĢÐ¾Ð²Ð¸Ð½ ÑĨÐ¸Ð¸
ÐµÐ² Ð¸Ð´
ÑĢ Ð¾Ð±
ĠÑģÐµÐ²ÐµÑĢ Ð½Ð¾Ð¹
ĠÐ¿Ð¾ÑģÑĤ Ð°Ð½Ð¾Ð²
Ð¾ÑĢ Ð¾Ð¼
ĠÑģ ÐµÐ½
ĠÐ³ÐµÑĢ ÑĨ
Ñĳ ÑĤÐ°
19 5
ĠÐ¸Ð¼Ð¿ÐµÑĢÐ° ÑĤÐ¾ÑĢ
ĠÐ½ Ð¾Ñĩ
Ð¸Ð½ Ð´
ĠÑĥÑĩ ÑĢÐµÐ¶Ð´
Ġ( ).
ĠÐ½ ÑĳÐ¼
Ð¾Ñģ Ð°
ĠÑĤ Ñİ
Ð¸Ð» Ðµ
6 0
ÑĪ ÐµÐµ
ĠÑģÐ¾Ð» Ð´
ĠÐ¾Ð± Ð¾ÑĢ
Ñĳ ÑĢÐ°
Ñı Ð»Ð¸
ĠÑģÐµÐ· Ð¾Ð½Ðµ
ĠÑģ ÑĢÐ°Ð²Ð½
ĠÐ´ Ð¸ÑģÐº
ĠÐº Ñĥ
ĠÑĤ Ð¾Ð²
ĠÐºÐ¸ÑĤ Ð°Ð¹
Ð½ ÐµÐº
Ð¾Ð² Ð°Ñı
ĠÑģ Ð¸Ð½Ð³
ĠÐ¾ÑĦ Ð¸ÑĨ
Ġ 000
e m
Ð°Ð½ Ð¾Ð¼
Ð° ÐµÐ²
Ð¸Ð¼ Ðµ
ĠÐ¿Ð¾Ð· Ð¶Ðµ
ĠÐ¼ ÐµÑĢ
ÑĮ ÑİÑĤ
19 3
Ð¸Ñģ Ð¾Ðº
ĠÐ¿Ð¾Ð¼ ÐµÑī
ĠÑĩÐ°ÑģÑĤ ÑĮÑİ
ĠÑĢÐ°Ð·Ð²Ð¸ÑĤ Ð¸Ñı
ĠÐ¿ÑĢÐ¾ÑĤÐ¸Ð² Ð½Ð¸ÐºÐ°
ĠÐ¿Ð¾ ÑĢÐ°Ð¶
ĠÑģ Ð±
ĠÐ¿ÑĢÐ°Ð² Ð°
ĠÐ¿Ð¾ÑĤ Ð¾Ð¼
Ð³ ÐµÐ½
ĠÐ± Ð¸Ð±Ð»Ð¸
ĠÑĪ Ð°Ñħ
ĠÐ¿Ð¾ÑĤ ÐµÑĢ
Ð¸Ð½ ÑĤ
Ð¸ÐºÐ° ÑĨÐ¸Ð¸
Ñĭ Ð³
ĠÐ¿ÐµÑĢÐµ ÑħÐ¾Ð´
ĠÑı Ð²
ĠÐ¿ÐµÑģ Ð½Ð¸
Ð°Ð½ Ð½ÑĭÐµ
Ð¾ÑĢÐ° Ñħ
ĠÑĦ Ð°ÐºÑĤ
ĠÐ¼ Ð¾ÑģÑĤ
ĠÑĢÐ°ÑģÐ¿Ð¾Ð»Ð¾Ð¶ ÐµÐ½
ĠÐ¼Ð¸Ð» Ð»Ð¸
ÑİÑī Ð¸Ð¹
ÑĭÐ² Ð°Ð»
Ð¸Ð² Ð°ÐµÑĤÑģÑı
Ð¸Ð³ Ð¸Ð½
ĠÐ¾ÑĢ ÑĥÐ¶
Ñģ ÐµÑĢ
ĠÐ½Ð°ÑģÐµÐ» ÐµÐ½Ð¸Ðµ
ĠÐ¾ ÑĨÐµÐ½
ÑĢÐ¾ ÑĦ
ĠÐºÐ¾Ð½ÑģÑĤ Ð°Ð½ÑĤ
ĠÑĥ ÐµÐ·Ð´Ð°
ÑĭÐ² Ð°ÑİÑĤ
Ð¾Ð±Ñĭ Ñĩ
ĠÐ²Ð¸Ð´ Ð¾Ð²
ĠÑģÐµÐº ÑĢÐµÑĤ
ĠÐºÐ»ÑĥÐ± Ð°
ĠÐ¸ÑĤ Ð°Ð»ÑĮÑıÐ½
ĠÑģÐ°Ð¼ ÑĭÑħ
ĠÐ¼ ÐµÐ½ÑĮ
Ð¾Ð¿ ÑĢ
ÐµÐ² Ð¾Ð¹
ĠÐºÑĢÐµÑģÑĤ ÑĮÑıÐ½
ĠÐ±ÑĥÐ´ ÑĥÑī
ĠÐ¼Ð°ÑĤÑĩ Ðµ
Ð± ÐµÐ»
Ð¸ÑĤ Ð°ÑĢ
ĠÐºÐ¾Ð½ ÑĨÐ°
Ġ Ñī
ĠÑĨÐµÑĢÐºÐ¾Ð² ÑĮ
ĠÐ¿Ð¾ÑįÑĤ Ð¾Ð¼Ñĥ
ĠÐ¸Ð³ ÑĢ
ÑĤÐ¾ Ñĩ
ĠÐ¸Ð½ Ð¶ÐµÐ½
ĠÐ¿Ð¾Ð³ Ð¸Ð±
ÑĢÐ° Ð»Ð°
Ð¸Ñģ Ð¿
Ġ199 2
ĠÐ²ÐµÑĢÐ½ÑĥÐ» ÑģÑı
Â» ),
Ð½Ð¾Ð² ÑĢÐµÐ¼ÐµÐ½Ð½Ð¾
ĠÐ² Ð¸Ð·
ĠÐ´ Ð½ÐµÐ¹
Ġ198 0
Ð¸ÑĢÐ¾Ð²Ð°Ð½ Ð¸Ðµ
ĠÐ¿ÑĢÐ¸ Ð¾Ð±
ĠÐºÐ° ÑĦÐµÐ´
Ð´Ð¸ ÑĨÐ¸Ð¾Ð½
8 0
Ġ18 4
ĠÐº Ð°Ð½Ð´Ð¸Ð´
ĠÑĥÐ¿ Ð¾Ð¼Ð¸Ð½
Ð»Ñı ÑĢ
ĠÑĤÐµÐ¼Ð¿ ÐµÑĢÐ°ÑĤ
ĠÐ¿Ð¾Ð´ ÑĩÐ¸Ð½
ĠÐ¾Ð±ÑĭÑĩ Ð½Ð¾
Ð¾Ð» ÐµÑĤ
ĠÐ´Ð² ÑĥÐ¼
Ð¸ÑĨ ÐµÐ¹
ĠÐ¼ Ð»Ð°Ð´
ĠÑıÐ·Ñĭ Ðº
ĠÐ±Ð»Ð°Ð³ Ð¾Ð´Ð°ÑĢÑı
Ð¾Ð¼ Ð±
Ð°ÑĤÐµÐ»ÑĮ Ð½Ð¾
Ð°Ð² Ð»Ð¸Ð²
Ð¿ Ð¾Ðº
Ð» ÐµÐ½Ð¸Ð¹
ĠÐ²ÐµÐ»Ð¸Ðº Ð¾Ð±ÑĢÐ¸ÑĤ
ĠÑģÑĤ Ð°Ð´
ĠÐ¼ÐµÑģÑĤ Ð°
ĠÐ½Ð° ÑģÑĤ
Ð¾Ñģ Ñı
Ġ199 1
ĠÑĢ Ð¾Ð±
ĠÑĤÐ°Ðº Ð¸Ðµ
Ð¸ÑĤÐµÐ»ÑĮ Ð½ÑĭÐ¹
ĠÐ² ÐµÑģÑĮ
ÑĥÑİÑī Ð¸Ñħ
ĠÐ¶Ð¸Ð² Ð¾ÑĤ
Ð¼ Ð°Ð¹
Ð·Ð°Ð½Ð¸Ð¼ Ð°ÐµÑĤ
Ð¾Ð² ÑĭÐ¹
Ð¸ÑĤÐµÐ»ÑĮ Ð½ÑĭÑħ
Ð¾Ð³ÑĢÐ°ÑĦ Ð¸Ð¸
Ð» ÐµÐ½Ð¸Ñİ
ĠÐ»Ð¸Ð± Ð¾
Ñĥ ÑĢÑĥ
Ð¸Ð» ÐµÑĤ
Ġ Ð¾Ð²
ĠÐ± ÑĢÐ°Ð·
ĠÐ· ÐµÐ»
at ion
ĠÐ³ÐµÑĢ Ð¼Ð°Ð½
ĠÐ° ÑĢÐµÑģÑĤ
ĠÑĩÐµÑĤÑĭ ÑĢÑĳÑħ
Ð½Ñĭ Ð½Ðµ
ĠÐ² Ð°ÑĢ
ÑĮ ÐµÐ²
ĠÐ²Ñĭ Ð·Ð²
ĠÐ¿ ÐµÑħ
ĠÐºÐ¾Ð¼Ð¿ Ð°Ð½Ð¸Ñı
Ġ% ,
t he
ÑĢÐ°Ð· Ð´ÐµÐ»
ĠÑģÐ¾Ð²ÐµÑĤ ÑģÐºÐ¸Ð¹
Ð°Ð½ Ð½ÑĭÐ¹
ĠÐ´ Ð¼Ð¸ÑĤ
ĠÐ³Ð¾ÑģÑĥÐ´Ð°ÑĢÑģÑĤÐ²ÐµÐ½ Ð½Ð¾Ð³Ð¾
ÑĤ ÑĢ
ÑıÑģ ÑĮ
ĠÐ²Ð»Ð°Ð´ Ð¸Ð¼Ð¸ÑĢ
Ð¾Ð²Ð°Ð½ Ð°
ĠÐ¶Ð¸Ð· Ð½ÑĮ
Ñĭ Ð½Ðµ
Ġ201 7
ĠÐ·Ð°Ð² Ð¾ÐµÐ²
Ð½Ð¸ Ñİ
Ð¾Ð²Ð°Ð½ Ñĭ
ĠÂ« "
ĠÐ¿ÑĢ Ð¾Ñĩ
ÑĤÐ¾ÑĢ Ð¾Ð²
Ð½ÑĥÑĤ ÑĮ
ĠÐ´Ð²Ð¸Ð¶ ÐµÐ½Ð¸Ñı
ĠÑıÐ·Ñĭ ÐºÐµ
ĠÐ¿ÑĢÐ¾Ð¸Ñģ ÑħÐ¾Ð´Ð¸ÑĤ
ĠÐ¼ Ð¸ÑĢÐµ
Ð» Ð°ÑĤ
ĠÐ°ÑĢ Ð¼Ð¸
ÑĢÐµÑĩ ÐµÑģÐº
Ð°Ð½ ÑģÐºÐ¾Ð³Ð¾
Ġi ii
Ġ193 0
ĠÐ³Ð¾ÑģÑĥÐ´Ð°ÑĢ ÑģÑĤÐ²Ð°
ĠÑı ÑĢ
ĠÐºÑĥÐ»ÑĮÑĤ ÑĥÑĢ
ĠÐ² Ð½Ð¸Ð¼
ĠÐºÐ¾Ð¼Ð¼Ñĥ Ð½Ñĭ
ĠÑĩÐ¸Ñģ Ð»ÐµÐ½
ĠÐºÐ¾ÑĤÐ¾ÑĢ ÑĭÐ¼
ĠÐ½ Ð°Ð½
ĠÐ± ÐµÑģÐ¿
Ð´ ÑĢÑĥÐ³
ĠÑĢÐ° Ðº
ĠÑģ Ñħ
Ð°Ñı ÑģÑĮ
Ð¿Ð° ÑĢÐ°ÑĤ
Ġ6 0
ĠÑĢÐ° Ð½ÐµÐµ
ĠÑĢÑĥÐºÐ¾Ð²Ð¾Ð´ ÑģÑĤÐ²Ð¾Ð¼
ĠÐ² Ð¾ÑĢ
Ġ196 0
ÐºÐ¾Ð² Ð°
Ð¾Ð» Ð½Ñı
ĠÐ¿ÐµÑĢÑģ Ð¾Ð½Ð°
a g
ĠÐ¾Ð± ÑĢÐ°Ñī
ĠÐ¿Ð¾Ð´ Ð¾Ð±
Ð°Ðº Ð¾Ð²
ĠÐºÐ¾ÑĢÐ¿ ÑĥÑģ
Ð´ Ð°Ð²
ĠÐ¿Ð¾Ð² ÐµÑĢÑħ
Ð¸ Ð¾
ĠÐ¼ Ð°
ĠÐ² Ð½
ĠÐ¾ÑĤ ÑĢÑıÐ´
Ġ19 20
ĠÑģ Ð°Ð¹
Ñĥ Ñı
Ð´ ÐµÑĢ
Ð²ÐµÑĢ Ð³
ĠÐ± Ð¾Ð¹
Ġ18 0
ĠÐ¿ÑĢÐ¾Ð³ÑĢÐ°Ð¼ Ð¼
ĠÑĥÐ½Ð¸Ð²ÐµÑĢÑģÐ¸ÑĤÐµÑĤ Ðµ
ĠÐºÐ¾Ð½ÑĨ ÐµÑĢÑĤ
ĠÐ¿ÑĢÐ¸ÑĢ Ð¾Ð´
ĠÐ´Ð¾Ð¼ Ð°ÑĪ
ĠÑħ Ð¸Ð¼
ÑĥÑİÑī Ð¸Ð¹
Ð¾Ð» Ð¾Ð²
ĠÐ¼ÐµÐ´ Ð¸ÑĨ
ĠÐ²ÐµÑĢÑģ Ð¸Ð¸
ÑĢÑĥ Ñĩ
ÑĥÑİÑĤ ÑģÑı
Ñį Ð»ÑĮ
ĠÑģ Ð¾Ð³Ð»Ð°ÑģÐ½Ð¾
Ð¸ÑĤÐµÐ»ÑĮ Ð½ÑĭÐµ
ĠÐ¼Ð°Ðº ÑģÐ¸Ð¼
Ð²Ð° ÑĢÐµ
Ð¾ÑĤ Ð²Ð¾ÑĢ
ĠÐ¾ÑģÑĤÑĢÐ¾Ð² Ð°
Ð°Ð» Ð¾Ð¼
ÑĨ Ð°ÑĤ
ĠÑĤ Ð°
ÑĥÑĤ ÑĮ
Ð·Ð°ÑĤ ÐµÐ¼
ĠÐ¿ÑĢÐ¾Ð¸Ñģ Ñħ
ĠÐ¾ÐºÐ¾Ð½Ñĩ Ð°Ð½Ð¸Ñı
ĠÑģÐ°Ð¼Ð¾Ð» ÑĳÑĤ
ĠÑħÑĢÐ¸ÑģÑĤ Ð¸Ð°Ð½
ĠÑįÑĤ Ð¸Ð¼
ĠÐ¿ÑĢÐ¾ÑĤ ÑıÐ¶
ĠÑģÑĤ Ð¸Ñħ
ĠÐ±Ð¸Ð±Ð»Ð¸ Ð¾ÑĤ
ĠÐº Ð¸ÐµÐ²
ĠÐ¿ÑĢÐ¾Ð² ÑĳÐ»
ĠÐ´Ð¾Ð»Ð¶ ÐµÐ½
ÐµÐ½ Ð½
Ð¶ Ð¸
ÑĨ Ð°ÑĢ
ĠÑĦ Ð¸Ð»Ð¸
Ñı Ð³
ĠÐ² Ð·Ð°
ĠÐ¼Ð¸Ð½Ð¸ÑģÑĤ ÐµÑĢ
ĠÑİÐ¶ Ð½Ð¾Ð¹
ĠÐ²Ð¾Ð» Ð¾ÑģÑĤÐ¸
ÑĢ Ð¸Ð¸
ĠÐ¿ÑĢÐ¸Ð² Ð¾Ð´
ĠÐ¼Ð°ÑĢ Ðº
Ġ18 3
ĠÐ¸Ð¼ ÐµÐ½Ð½Ð¾
ĠÐºÐ¾Ð¼Ð°Ð½Ð´ Ð¸ÑĢ
ĠÑĤ Ð¾Ð¼Ñĥ
ĠÐ¿ ÐµÐ´
ÐµÐ½ Ð·
ĠÑĢÐ°Ñģ ÑĪÐ¸ÑĢ
Ð°Ðº Ñĥ
ĠÑĢÐ° ÑģÐº
ĠÐ± Ñİ
ĠÐµ Ð¹
u l
Ġ197 0
ĠÐ¼Ð¸Ð½ ÑĥÑĤ
ÑĢ Ð¸Ð¹
ĠÐº ÑĢÐ¾Ð²
ĠÐ¶ Ð°Ð½
ĠÐ» Ð¾Ð½Ð´
Ð³ ÑĢÑĥÐ¿
ĠÐ´Ð¶ Ð¾Ð½
ĠÐ¿ÐµÑĢÐ² Ð¾Ð¼
ĠÐ½ Ð¾ÑĢÐ¼
ĠÑģÐ¾ÑģÑĤÐ°Ð²Ð»Ñı Ð»Ð¾
ĠÑĨÐµÐ»ÑĮ Ñİ
Ð² Ð°Ð»
ĠÐ´ÐµÐ¹ÑģÑĤÐ² Ð¸Ñı
Ġ199 8
ĠÑģÐ¾ÑģÑĤ Ð¾Ð¸ÑĤ
ĠÐ³ ÑĢÐµ
ÑĢÐ°Ð· Ñĥ
ĠÐ· Ð¸Ð¼
ĠÐ²Ñģ ÐµÐ¹
ĠÑģÐ°Ð¼ ÑĭÐ¼
o c
ĠÐ¿Ð¾ ÑģÐºÐ¾Ð»ÑĮÐºÑĥ
Ð»Ð° Ð±
ĠÐ²Ð¾Ð·Ð¼Ð¾Ð¶ Ð½Ð¾ÑģÑĤÑĮ
ĠÐ½Ð¾Ð² ÑĭÑħ
ĠÐ¿ÑĢÐ¸Ð¼ ÐµÑĢÐ½Ð¾
Ð¾Ð¿ Ð¾Ð»
ĠÐºÐ¾ÑĢ Ð¾ÑĤ
ĠÑģ Ð¾Ð³Ð»Ð°Ñģ
Ñĳ Ñģ
Ð¾Ð²Ð°Ð½ Ð¸Ð¹
ĠÑĤÐ°Ð½ ÐºÐ¾Ð²
Ð¸ÑĩÐµÑģÐº Ð¸Ð¼Ð¸
Ð°ÑĢ Ð¼
Ð¾Ð¶Ð´ ÐµÐ½Ð¸Ðµ
Ð°Ð´ Ðµ
ĠÐ¿Ð¾ÑģÐµÐ» ÐµÐ½Ð¸Ðµ
ĠÐ¾Ð± Ð²Ð¸Ð½
Ð¾Ð¿ Ð¾Ð»ÑĮ
Ð´ ÐµÐ½Ð°
ar d
Ġ199 7
Ð°Ð¹ Ð´Ð¶
ĠÐ¾ÑĢ Ð¸Ð³Ð¸Ð½
ĠÑģÐ¿ Ð°Ñģ
ĠÑĥ ÐµÐ·Ð´
ĠÐ¿Ð» ÐµÐ¼
ĠÐ¸ÑģÐ¿Ð¾Ð»ÑĮÐ· ÑĥÐµÑĤÑģÑı
Ð¸ÑĤ Ñĭ
Ġ3 5
ĠÐ³ Ð¾ÑĤÐ¾Ð²
ĠÐ¿ ÑĤ
ĠÐ¿ÑĢÐ°Ð²Ð¸ÑĤÐµÐ»ÑĮ ÑģÑĤÐ²Ð°
Ġ3 1
Ñı ÑİÑĤ
ĠÐ¿ÐµÑĢÐµ Ð´Ð°Ñĩ
ĠÐ² Ð²ÐµÐ´
Ð¸ÑĤÐµÐ» ÑıÐ¼Ð¸
ĠÑģÐ°Ð¼ Ð¾
ĠÐºÐ»Ð°Ð´ Ð±
ĠÐ·Ð°Ðº Ð¾Ð½Ñĩ
Ð¿ Ð¿
Ð°Ð½ ÑģÐºÐ¸Ð¹
Ðº Ð¾Ð´
Ð´Ð¸Ð½ Ðµ
ĠÐ¸ Ð½Ð¾ÑģÑĤ
ĠÐ²ÐµÑĢÑħÐ¾Ð² Ð½Ð¾Ð³Ð¾
Ð¸ÑģÑĤ Ð°
ĠÐ¸Ð½Ð¾ÑģÑĤ ÑĢÐ°Ð½
ĠÐ»Ð¸ÑĤÐµÑĢÐ°ÑĤ ÑĥÑĢ
ĠÑĢÐ°Ð¼ ÐºÐ°Ñħ
Ñĥ Ð¶Ð´
ĠÐ³Ð¾Ð» Ð¾Ñģ
ÐµÑĢÐ± Ð°Ð¹Ð´Ð¶
ĠÑģÐ² Ð¸Ð´
Ð½Ð¸ÑĨ Ñĭ
Ð² ÐµÑĤÐ°
ĠÐ´Ð¾ÑģÑĤ ÑĥÐ¿
Ġ199 5
Ð°ÑİÑī Ð¸Ðµ
Ð¿ ÐµÑĢÐµ
ĠÐ´ ÐµÐº
ÑģÑĤ ÑĢÐµ
ĠÐ°Ð½ Ð³
ĠÐ³Ð»Ð°Ð² Ð½ÑĭÐ¼
ĠÐ¿ Ð°Ð½
Ð² Ð¾Ñģ
ĠÑģÐ¾ ÑĢÐµÐ²
Ð°Ð½ ÑģÐ¾Ð²
ÐµÐ³ Ð¾ÑģÑı
ĠÑĢÑĥÑģ ÑģÐºÐ¾Ð¹
ĠÐ½Ðµ Ñĳ
ÐµÑĦ Ð¾Ð½
Ġ19 18
ĠÐ± ÑĥÐº
Ð¸Ðº Ñģ
ĠÐºÐ¾ÑĢÐ¾Ð» Ñı
ĠÐ¼Ð¾ÑģÐºÐ¾Ð² ÑģÐºÐ¾Ð¹
Ð°Ðº Ð°
ĠÑģÐ¸Ð» Ñĭ
Ðº ÑĢÐ°Ñģ
ÑĭÐ² Ð°ÑĤÑĮ
ĠÑĩ ÑĥÐ²
ĠÑĪÐºÐ¾Ð» Ñĥ
ĠÐ·Ð°Ð½ ÑıÐ»
ĠÐ¼Ð°ÑģÑĤ ÐµÑĢ
ĠÐ·Ð° Ð³
Ð°ÑĢÑĤ Ð°Ð¼
ĠÐ¸ÑģÐ¿ ÑĭÑĤ
ĠÐ¿ÑĢÐµÐ·Ð¸Ð´ ÐµÐ½ÑĤÐ°
Ð² Ð¸Ð¶
Ð² Ð¸
ĠÑĥÑĩ ÐµÐ½Ð¸
ĠÐ±Ð°ÑĤ Ð°Ð»ÑĮ
) ;
ĠÐ´Ð¾ÑģÑĤ Ð°ÑĤ
ĠÐºÐ¾ÑĢÐ¿ ÑĥÑģÐ°
ĠÑĢ Ð¾Ð·
ĠÑĦ ÐµÑĢ
ĠÐºÑĢÑĭ Ð¼
ĠÐ»ÐµÐ½ Ð¸Ð½Ð³ÑĢÐ°Ð´
ĠÐ´ Ð½Ñı
ĠÐ´ÑĢÑĥÐ³ Ð¸Ð¼Ð¸
ĠÐ² ÑģÐºÐ¾ÑĢÐµ
ĠÐ¼ÑĥÐ½Ð¸ÑĨÐ¸Ð¿ Ð°Ð»
ĠÐ½Ð°Ð± Ð»ÑİÐ´
ĠÑĤÐµÐ°ÑĤ ÑĢÐ°
ÑĥÑģÑĤ Ñı
ĠÐºÐ¾Ð¼ Ð°Ð½Ð´Ð°
ĠÐ½Ð°Ð·ÑĭÐ² Ð°ÐµÐ¼
ĠÐ³Ð¾ÑģÑĥÐ´Ð°ÑĢÑģÑĤÐ²ÐµÐ½ Ð½Ð¾Ð¹
Ñı Ð»Ð°
ĠÐ´ÐµÑĢÐµÐ² Ð½Ðµ
ĠÑĢÐ°Ð· Ð¼ÐµÑĢ
Ð¿ÐµÑĢÐ² ÑĭÐ¹
ĠÑĦÐ¸Ð»ÑĮ Ð¼Ð°
Ñĩ ÐµÐ»
ÐµÐ¹ Ð¼
ĠÐ½Ð° Ð¿
Ðº Ð¾Ð¿
ĠÑĤÐµÑĢÑĢÐ¸ÑĤ Ð¾ÑĢ
Ðº Ð¸Ð¼Ð¸
Ġ199 4
ĠÐ³ Ð¸Ð¼
Ð¿ Ð¾ÑģÑĤ
Ð¸ Ð°ÑĤ
ĠÐ±ÐµÐ· Ð¾Ð¿Ð°Ñģ
ÑİÑī Ð¸Ñħ
Ġ199 6
ĠÑħÑĥÐ´Ð¾Ð¶ ÐµÑģÑĤÐ²ÐµÐ½
Ð² ÐµÐ»
Ð¸Ðº Ð¾Ð¹
ĠâĢ ĵ
7 0
ĠÐ² Ð¿Ð¾ÑģÐ»ÐµÐ´ÑģÑĤÐ²Ð¸Ð¸
Ð½Ðµ ÑģÐ¼Ð¾ÑĤÑĢÑı
ĠÐ½ ÑĭÐ½Ðµ
Ð»Ñı ÐµÑĤ
ĠÑģ ÐµÑĢÐ¸
ĠÑĢÐ°Ð· ÑĢÑĥÑĪ
Ð¸ÑĢÑĥ ÐµÑĤ
ÑĦÐµÑĢ ÐµÐ½
Ð°ÑİÑī ÐµÐ¹
Ð¹ Ð¾ÑĢ
Ð¸ Ð¾Ð½Ð°
Ð°Ð¹ Ð»Ð¾Ð²
ĠÐ¸Ð· ÑĢÐ°
ĠÐ·Ð° Ñī
ĠÐ¼ Ð¸Ñħ
ĠÐ³ÐµÑĢÑĨ Ð¾Ð³
ÑĥÑīÐµÑģÑĤÐ²ÐµÐ½ Ð½Ð¾
ĠÐº ÑĢÐ¸ÑģÑĤ
ĠÑĦÑĢÐ¾Ð½ ÑĤÐ°
Ð¼ Ð¾ÑĢ
ĠÐºÑĢÑĥÐ¿ Ð½ÐµÐ¹
Ð· Ð°Ðº
ĠÐ± Ð°ÑģÑģ
Ġ199 3
ĠÑģÐ» Ð¾Ð²Ð°
Ð² Ñĥ
ĠÐºÐ¾Ð½ÑģÑĤ ÑĢÑĥÐº
ĠÐ¿ÑĢÐµÐ´ÑģÑĤÐ°Ð²Ð»Ñı ÐµÑĤ
Ð¾ÑģÑĤ Ð°ÑĤ
ĠÐ¾ÑĢ ÑĥÐ´
ĠÐ¿ÑĥÑĤ Ð¸
ĠÐ°Ð² ÑģÑĤ
ĠÐºÐ¾Ð½ÑĤ ÑĢÐ¾Ð»
Ð½ ÐµÐ½
Ñĩ Ð°Ñģ
ĠÐ¿ÐµÑĢÐµ Ð¸Ð¼ÐµÐ½
ĠÐ¿ÑĢÐ°Ð² Ð¾
ĠÐ¿ÐµÑĢÐ² ÑĥÑİ
ÑĦ Ð¸Ð»ÑĮ
ĠÑģÑĤÐ°Ð½Ð¾Ð² Ð¸ÑĤÑģÑı
ĠÑĥ ÑĢ
ÐµÐ½ÑĤ Ð¾Ð¼
ĠÐºÐ¸Ð» Ð¾Ð¼ÐµÑĤ
ĠÐ¿ÑĢÐ¸Ñģ Ð²Ð¾
ĠÑİ Ð³
ÑĢ Ð¾Ð·
ĠÐ¿ÑĢÐ°ÐºÑĤ Ð¸ÑĩÐµÑģÐºÐ¸
ÐµÐ³ Ð´Ð°
Ð¸Ñĩ Ð½Ð¾
ĠÐ°Ð² ÑģÑĤÑĢ
Ð¿Ð¾Ñģ ÑĢÐµÐ´
ĠÐ°Ð½Ð´ ÑĢÐµ
ĠÑĤ ÑĢÐ°Ð²
Ð½Ñĥ Ð¶Ð´
ÑĥÑİÑī Ð¸Ðµ
Ð¸Ð² Ð°
Ġd e
ĠÐ¿ÐµÑĢ ÐµÐ½
ĠÑģ Ð°Ð´
ĠÑĨÐµÐ½ÑĤ ÑĢÐ¾Ð¼
Ñĥ ÐºÐ¸
ĠÐ¾ÑĤ Ð¼ÐµÑĤ
ĠÐºÑĢÐ° Ñı
Ð½ Ð¸ÑĤ
ĠÐ¾Ð¿ ÐµÑĢÐ°ÑĨÐ¸Ð¸
ÑĨÐ¸Ñı Ñħ
ĠÑģÐ»ÑĥÐ¶ Ð±Ñĥ
ĠÐº Ð°Ð´
ÐµÑĢÐ° Ð¼Ð¸
ĠÐ¸ÑģÑģÐ»ÐµÐ´ Ð¾Ð²Ð°Ð½Ð¸Ñı
Ð¾ÑģÑĤ ÑĮÑİ
ĠÐ¿ ÑĥÑĪ
ÑĨ ÐµÐ¼
Ð¾Ðº Ð¾Ð½Ñĩ
Ð°Ð½Ð´ Ð°ÑĢÑĤ
ĠÐ¿Ð°ÑĢ Ð¸Ð¶
Ð² ÐµÐ½
ĠÐ¿ÑĢÐ¸Ñģ ÑĥÑĤÑģÑĤÐ²
ĠÐºÐ¾Ð½ÑĤ ÑĢÐ°ÐºÑĤ
ĠÑĢÐ°Ð· Ð½ÑĭÑħ
ĠÐ¿ÑĢÐ¸ ÑĪ
ĠÐ´Ð²ÑĥÐ¼ Ñı
ĠÐ³Ð¾ÑĢÐ¾Ð´ ÑģÐºÐ¾Ð³Ð¾
ĠÑĥÐ± Ð¸Ð¹
ĠÐ°ÑĢÑħÐ¸ÑĤ ÐµÐºÑĤ
ĠÐ°Ð· ÐµÑĢÐ±Ð°Ð¹Ð´Ð¶
ĠÐ²Ñĭ Ð½ÑĥÐ¶Ð´
ĠÐ¿Ð¾Ð» ÐºÐ¾Ð²
ĠÐ¿Ð¾ÑĤ ÑĢÐµÐ±
ĠÑģÐµÑĢÐµ Ð±ÑĢÑı
ĠÑģÐ²Ð¸Ð´ ÐµÑĤ
ĠÑıÐ½ Ð²Ð°ÑĢÐµ
ĠÐ²Ñĭ ÑĢÐ°Ð¶
ĠÐ¿ÐµÑĢÐ² ÑĭÐµ
ĠÐ½Ðµ ÑĦ
Ð² Ð¸Ð³
ĠÐ²Ð¾Ð´ Ñĭ
Ð¿ Ñĥ
Ð¿ Ð°ÑĢÐ°
Ñĩ ÐµÑĢÐµÐ·
ĠÐ¿ÑĢ Ð¸ÑģÑĤ
ĠÐ¼Ð½ ÐµÐ½Ð¸Ñİ
ĠÐ¿ÐµÑĢÐµ ÑĪÑĳÐ»
ĠÐºÐ½Ð¸Ð³ Ð¸
Ġ y
ĠÐ¿ÑĢÐµ ÑģÑĤ
ĠÐ¿ Ð¾Ð»ÑĮÑĪ
Ġ194 0
ĠÑħ ÑĢÐ°Ð½
Ð¼ ÐµÐ´
ÑĢ Ð¸Ñı
ĠÑģÐ¸ÑģÑĤÐµÐ¼ Ð°
ĠÐ¾ÑģÐ¾Ð± ÐµÐ½Ð½Ð¾
ĠÐ¾Ð±Ñī ÐµÐ³Ð¾
Ð¿ Ð¾Ð²
Ð±ÑĥÑĢ Ð³Ðµ
Ð± ÐµÑĢÐ³
ĠÐ³Ð»Ð°Ð² Ð½Ð¾Ð³Ð¾
ĠÑģ ÑĦÐ¾ÑĢÐ¼
ĠÐ´ÑĢÑĥÐ³ Ð¸Ð¼
ĠÑĤÑĢÐ°Ð½ ÑģÐ¿Ð¾ÑĢÑĤ
ĠÐµÐ¿ Ð°ÑĢÑħ
ĠÑĦÐµÐ´ ÐµÑĢÐ°Ð»ÑĮ
Ñĳ Ð³
ĠÐ²Ð¾ ÐµÐ½Ð½Ð¾
ĠÑĢÐ° Ð´
ĠÑĢÐ¾Ð» Ð¸
Ð¸Ð² Ð°ÑĤÑĮ
ĠÐ¿ÑĢÐµ Ð¸Ð¼
ĠÐºÐ°ÑĤ ÐµÐ³
ĠÐ³ÐµÐ½ÐµÑĢÐ° Ð»ÑĮ
Ð³ Ð»Ñı
Ð¿ Ñĭ
ÑģÑĦ ÑģÑĢ
ĠÐ¿Ð¾Ð¼Ð¾Ñī Ð¸
ĠÐ¿ÑĢÐ¾Ð¸Ð·Ð²Ð¾Ð´ ÑģÑĤÐ²Ð°
ĠÐ´ÐµÑıÑĤÐµÐ»ÑĮ Ð½Ð¾ÑģÑĤÑĮ
ĠÐ¾ÑĤÐ»Ð¸Ñĩ Ð¸Ðµ
Ð½Ñİ Ñİ
ĠÑĢÐ°Ð· ÑĢÐµÑĪ
ĠÐ¿ÑĢÐµÐ´ Ð¾ÑģÑĤÐ°Ð²
ĠÐ²Ñĭ Ð·
ÐµÐ½ Ð½Ð¾ÑģÑĤÐ¸
Ðº Ð¾Ðµ
ĠÐ·Ð°Ð² ÐµÐ´
Ðº Ð»ÑİÑĩ
Ð¸Ð½ Ð¸
Ð¸ÑģÑĤ Ñĭ
ĠÑĤÐ°Ðº Ð¸Ð¼
ĠÐ²Ð·Ð° Ð¸Ð¼
Ġ201 8
a p
ĠÐºÐ¾Ð½ÑĤ ÑĢ
ĠÑĥÐ´ Ð°ÑĢ
ÑĢ Ð¸Ðº
ĠÐ¿Ð¾Ð¼ Ð¾Ð³
ĠÑģÐµÑĢÐµ Ð´Ð¸Ð½Ðµ
ÐµÑħ Ð½
ĠÐ³Ð²Ð°ÑĢÐ´ ÐµÐ¹
ĠÑĪÐºÐ¾Ð» Ðµ
Ð» ÐµÑĢ
ĠÐ¿ÑĢÐ¾ ÐµÐºÑĤÐ°
ĠÑĢÐ°Ð±Ð¾ÑĤ Ðµ
ĠÐ´ ÑĥÑĪ
ĠÐ¼Ð¾ÑģÐº Ð²Ñĭ
Ð½Ð°Ñĩ Ð°Ð»Ð°
ĠÐ²Ð°ÑĢÐ¸ Ð°Ð½ÑĤ
Ð¾ÑĢÐ¾Ð½ ÐµÐ½
Ð´Ð° ÑİÑĤ
ĠÐ¿Ð¾Ð´ ÑĤ
ĠÐºÐ°ÑĢ ÑĮÐµÑĢ
ĠÐ» Ð°Ð³
ÐºÐ¾Ð½ ÑģÑĤ
Ð²Ñĭ ÑĪ
ĠÑĥÑģÑĤ ÑĢÐ¾Ð¹
Ñĩ ÐµÑĤ
ĠÑĢÐµÐ³Ð¸Ð¾Ð½ Ðµ
ĠÐ²ÐµÐ´ ÑĥÑī
ĠÐ¼ Ð°Ðµ
ĠÐ´Ð¾Ð»Ð¶ Ð½Ñĭ
ÑĢÐµ Ð»ÑĮ
ĠÐ½Ð°ÑħÐ¾Ð´ Ð¸Ð»ÑģÑı
ĠÐ¸ÑģÐ¿Ð¾Ð»ÑĮÐ· Ð¾Ð²Ð°Ð»
ĠÐº ÑĤÐ¾
ÑģÑĤ Ð°ÑĤ
ÑĨ Ð²ÐµÑĤ
ĠÐ¿ Ð°Ð¿
ĠÐº Ð¸Ð½Ð¾
ĠÑĢ ÑģÑĦÑģÑĢ
Ð½ ÐµÑĢ
Ġ193 9
ĠÑģ Ð½Ð¾Ð²Ð°
Ð¸ÑĢÐ¾Ð²Ð°Ð½ Ð°
ĠÐ°ÑĦ ÑĢ
ĠÐ¼Ð½Ð¾Ð³Ð¾ ÑĩÐ¸ÑģÐ»ÐµÐ½
ĠÑĩÐ°Ñģ Ð¾Ð²
ĠÐ¿Ð¾Ð» Ðµ
Ġ17 9
ĠÑģÐµÐ½ÑĤ ÑıÐ±ÑĢÐµ
ĠÐ²ÑĭÑģÑĤÑĥÐ¿ Ð°Ð»
ĠÐ¿ÑĢ Ð¾Ðº
ĠÐ½Ð¾Ð² ÑĭÐµ
ĠÐ¿ Ð°ÑģÑģ
ĠÑįÑĤ Ð¾Ð¼Ñĥ
Ð± Ð°Ð½
ĠÑģÐµÐ»ÑĮÑģÐ¾Ð² ÐµÑĤ
Ð°Ð´ Ð¼Ð¸Ð½Ð¸ÑģÑĤÑĢÐ°ÑĤÐ¸Ð²
ĠÐ¿ÑĢÐµ Ð¾Ð±ÑĢÐ°Ð·
Ñģ Ð¾Ð»
ĠÐ¿ÑĢ Ð¸Ð»
ĠÑĦ Ð¸Ð³
Ñģ ÐµÐ½
ĠÐ´Ð¾Ð»Ð¶ Ð½Ð¾ÑģÑĤÐ¸
ĠÑĢÐ°Ñģ ÑģÑĤÐ¾Ñı
ÑĢÐ° Ð»Ð¸
ĠÐ¸ÑģÐ¿ Ð¾Ð»Ð½Ñı
ĠÑģÑĩÐ¸ÑĤ Ð°ÐµÑĤÑģÑı
ĠÑĤÑĢÐ° Ð´Ð¸ÑĨÐ¸Ð¾Ð½
ÑĢÐ°Ð± Ð°ÑĤ
ĠÐ´Ð²Ð¾ÑĢ ÑıÐ½
ĠÑģÐ¾Ð²ÐµÑĤ ÑģÐºÐ¾Ð¹
ĠÐ¿ Ð»Ð¾
ÑĢ Ð¾ÑģÑĤ
ĠÑģÐ¿Ð¾ÑĢÑĤ Ð¸Ð²
ĠÐºÐ¾Ñģ Ð¼
ĠÐ½Ð°Ð³ ÑĢÐ°Ð´
ĠÐ¸Ð½Ð´ ÐµÐºÑģ
Ð°Ð³ Ð¾Ð³
ĠÐºÐ¾Ð¼ Ð¼ÑĥÐ½
ĠÐ´Ð¾ÑĢÐ¾Ð³ Ð¸
Ð³Ð¸ Ð¾Ð·
Ñĥ ÐºÑĤ
ĠÐ² Ð¸ÑĤ
Ñħ Ð¾Ð·
ĠÑĤ Ð°ÑĤ
er s
ĠÐ¿ ÑĥÐ±Ð»
ĠÐ½Ð°Ð³ÑĢÐ°Ð¶Ð´ ÑĳÐ½
Ð¸Ñģ Ð»Ð°Ð²
ĠÐ² ÐµÑĩ
ĠÑĪÐºÐ¾Ð» Ð°
ĠÐ¿Ð¾ ÑħÐ¾Ð´
ĠÐ¿Ð¾Ð´ ÑĢÐ°Ð·Ð´ÐµÐ»
ĠÐ¿Ð¾ÑģÑĳÐ» Ð¾Ðº
ĠÑĥÐ¿ ÑĢÐ°Ð·Ð´Ð½
Ð°Ð¼ ÐµÑĢ
ĠÐ°ÑĢÑħ Ð¸Ðµ
ĠÐ¿Ð¾Ð² ÑĭÑĪ
Ñĩ ÐµÐ¼
Ð¸Ð½Ð³ Ð°
ĠÑģÐ¾ÑĤÑĢÑĥÐ´ Ð½Ð¸Ñĩ
Ð¿ Ðµ
ĠÐ°Ð²Ð³ÑĥÑģÑĤ Ðµ
ÐµÐ» ÐµÐ¹
ĠÑĢ ÑĦ
i e
ĠÐ´ÐµÐºÐ° Ð±ÑĢÐµ
ĠÐ¸Ð½ Ð¾Ð³Ð´Ð°
. .
ĠÑģÐ¾Ð»Ð´ Ð°ÑĤ
ĠÐ¿ÑĢÐµÐ´ ÐµÐ»
Ð¿ÐµÑĤÐµÑĢ Ð±ÑĥÑĢÐ³
ĠÐ½Ð°ÑĨÐ¸Ð¾Ð½ Ð°Ð»ÑĮÐ½Ð¾Ð¹
ĠÐ·Ð² Ð°Ð½Ð¸Ðµ
ĠÐ¾ÑĤ ÑĨÐ°
ĠÑģÐ¾Ð·Ð´ Ð°Ð½Ð¸Ñı
t a
Ð¾Ñĩ Ð½ÑĭÑħ
ÑĢÐ°ÑģÐ¿ Ð¾Ð»Ð¾Ð¶
ĠÐ³ Ð¾Ð¼
Ñĭ Ðº
Ð» ÐµÐºÑĤÐ¸Ð²
ĠÐ¿ÐµÑĢÐµ Ñģ
. /
Ð¾Ð²Ð°Ð» Ð¾
Ġ19 17
ĠÐ¿ÑĢÐ¸Ð½ ÑĨÐ¸Ð¿
ĠÐ¿ Ð»Ð°Ð²
ĠÑģ Ð¾Ð³
ĠÑģ ÐµÑģÑĤ
Ð± Ð°ÑĢ
ĠÐ²ÐµÐ» Ð¸Ñĩ
ĠÑĢÐ°Ð·Ð² ÐµÐ´
ĠÑĢÐ°ÑģÑģ Ð¼Ð°ÑĤÑĢÐ¸Ð²
ĠÐ¿ÑĢ Ð¾ÑģÑĤÑĢÐ°Ð½
ĠÐ¼ ÐµÑĩ
Ð² Ð¼ÐµÑģÑĤ
Ð½ÐµÐº Ð¾ÑĤÐ¾ÑĢ
Ñħ Ð¾ÑĤ
ĠÑģÐ²Ð¾ ÑĳÐ¼
ĠÐ¼Ð¾ÑģÐºÐ¾Ð² ÑģÐºÐ¾Ð³Ð¾
Ð°ÑĤ Ð¾ÑĢÐ°
ĠÐºÐ¾Ð¼Ð¿ ÑĮÑİÑĤ
ĠÑģ ÐµÐ³
ĠÐº ÑĥÐ·
ĠÐ½Ð¸ Ð¶Ðµ
ÑĢÐ° Ð¼Ð°
ĠÐ¼Ð°ÑĢÑĤ Ðµ
Ġ195 0
Ð¼ Ð°Ðº
ĠÐ³ Ð¸Ð´
ĠÑģ Ð°Ð»
ĠÐ½Ðµ Ð¿ÑĢ
ĠÐµ Ð³
ĠÐ¿Ð¾ÑĢÑĤ ÑĥÐ³
ĠÐ¾ÑĢ Ð´ÐµÐ½Ð°
Ð¿ ÐµÑĢ
ĠÐ²ÐºÐ»ÑİÑĩ Ð°Ñı
ĠÐ¾Ð± Ð»Ð°
ĠÐ¾Ð´ Ð½Ð¾Ð¼
ĠÐ¸ÑģÐºÑĥÑģ ÑģÑĤÐ²Ð°
ĠÐ¾ÑĤ Ð²
Ð¶ ÐµÐ»
ĠÐ¿Ð°ÑĤ ÑĢÐ¸
Ð¸ÑģÑĤ Ð°Ð½
" ).
ĠÐ²ÑĤÐ¾ÑĢ Ð¾Ð³Ð¾
ĠÐ¿Ð¾Ð» Ðº
ĠÑģÐµÐ· Ð¾Ð½
ĠÑįÑĤ Ñĥ
ĠÑģ ÑĢÐ¾Ðº
ĠÐ³ÐµÑĢ Ð¾Ñı
ĠÐ´ Ð°ÑĤ
ĠÐ¾ÑĤÐ½Ð¾ÑĪ ÐµÐ½Ð¸Ñı
ĠÐ°ÑĢÑĤÐ¸Ð»Ð» ÐµÑĢ
ĠÐ¿Ð»Ð¾ÑīÐ°Ð´ Ð¸
ÑĦ ÑĢÐ°Ð½
Ñİ Ð½
ÑıÐ± ÑĢÑĮ
ÑĢÐµ Ñī
ĠÑĤ Ð°Ð»
ĠÐº ÑĢÐ¾Ð¼Ðµ
ĠÐ² ÑģÐ¿
ĠÐ´Ð¾Ð» Ð»
Ġ198 9
ĠÐ·Ð°Ð¼ ÐµÑĤ
ĠÐ¿ ÑĮ
ĠÑĦÐ¸Ð½ Ð°Ð½ÑģÐ¾Ð²
ÑİÑī Ð¸Ðµ
ĠÐ¾ÐºÑĤ ÑıÐ±ÑĢÐµ
Ð± ÐµÐº
Ð½ Ð¾Ðº
ĠÐº Ð°Ð½ÑĤ
Ð°Ð² ÑĤÐ¾ÑĢ
ĠÐ¿ÐµÑĢÐµ ÐµÑħ
Ð± Ð¾Ð¹
ĠÑģÑĤÑĢÐ°Ð½ Ðµ
Ð¾ÑĢ Ð³Ð°Ð½
ÑĪ Ð¸
Ðº ÐµÑģÑĤ
ĠÐ´ ÑĢÐ°Ð¼
ĠÐºÐ¾Ð¼ Ð¸ÑĤÐµÑĤÐ°
ĠÐ°Ð»ÐµÐºÑģÐ°Ð½Ð´ ÑĢÐ°
ĠÐ¿ ÑĢÐ°Ð·Ð´
ĠÐºÐ°ÑĢ ÑĮ
ÑģÐº Ð¾Ð²
ĠÐ¾Ð· Ð½Ð°Ñĩ
ĠÑģ ÑĢÐ°Ð·Ñĥ
ĠÐ³Ð¾ÑģÑĥÐ´Ð°ÑĢÑģÑĤÐ²ÐµÐ½ Ð½ÑĭÐ¹
ĠÐ¿ÑĢÐ¾Ð¸Ñģ ÑħÐ¾Ð´
ĠÐ¿ÑĢÐµ ÑģÑĤÑĥÐ¿
ĠÑģÐ²ÑıÑĤ Ð¾Ð³Ð¾
Ġ7 0
ĠÑģ Ð¸Ð³
ĠÐ¾ÑĩÐµÑĢÐµÐ´ ÑĮ
ĠÐ¿ ÑĭÑĤ
ĠÐ½Ðµ Ð¿Ð¾ÑģÑĢÐµÐ´
Ð°Ñģ Ð°
ĠÐ¿ ÐµÐ²
ÑģÑĤ Ð°ÑĢ
Ð² Ð¾Ð¹
ĠÑģÐµÐ¼ ÑĮÐ¸
ar t
Ñı ÑİÑĤÑģÑı
ĠÐ² Ð»Ð°
Ð°Ð½ Ð°Ð²Ð»Ð¸Ð²
ĠÐ´Ð¾Ð± Ð°Ð²
Ð°Ð¼ Ð°
ĠÑĨÐµÐ½ÑĤ ÑĢÐµ
ĠÑĢÐ¾ÑģÑģÐ¸Ð¹ ÑģÐºÐ¸Ð¹
b o
ĠÐ´ Ð¸Ð¿
ĠÑĥÐºÑĢÐ° Ð¸Ð½
ĠÑģ ÐµÐ¹
ĠÐ¾ÑĢÐ´ÐµÐ½ Ð¾Ð¼
ĠÑĥÑģ Ð¸Ð»
Ð¶Ð´ Ðµ
ĠÐ´Ð°Ð½ Ð½ÑĭÑħ
3 1
ÑĢ Ð¸Ñħ
ĠÑĥÐ¿ÑĢÐ°Ð² Ð»Ñı
ĠÐ¼Ð¸Ðº ÑĢÐ¾
ĠÐ¿ ÑıÑĤÑĮ
ĠÐºÐ° Ð¿
ÑĳÐ½ Ð½Ð°Ñı
Ðº Ð¾Ð»ÑĮ
ĠÑĩÐµÐ¼Ð¿Ð¸Ð¾Ð½ Ð°ÑĤ
ĠÐ½Ð°ÑĩÐ°Ð» Ð¾
ĠÑģÐ¾Ð¾ÑĤÐ²ÐµÑĤ ÑģÑĤÐ²Ð¸Ð¸
ĠÐ½Ðµ Ñģ
ĠÐ·Ð°Ð¼ ÐµÐ½
ĠÑĪ ÐµÑģÑĤ
Ð¸ÑĨ Ñĥ
ĠÐ°Ð»ÐµÐºÑģÐ°Ð½Ð´ ÑĢÐ¾Ð²
ĠÑį ÑģÐº
" ),
Ð»Ð° Ð¼ÐµÐ½ÑĤ
ĠÐ½Ð° ÑĢ
ĠÐºÐ°ÑĢÑĮÐµÑĢ Ñĥ
Ñĩ Ð»ÐµÐ½
ĠÐ² Ð¸Ð»ÑĮ
ĠÐ¿Ð¾ÑģÑĤÑĥÐ¿ Ð¸Ð»
ĠÑĨ Ð¸Ðº
ĠÑĢÐ°Ð· Ð³
ĠÑĦ ÐµÑģÑĤ
ĠÐ´ ÑĥÐ±
ĠÐ³ ÑĢÐ¸Ð³
ĠÐ²ÐµÐ»Ð¸ÐºÐ¾Ð±ÑĢÐ¸ÑĤ Ð°Ð½Ð¸Ð¸
Ð³Ð¸ Ð¾Ð½Ð°
ĠÑĢÑıÐ´ Ð¾Ð¼
ĠÐ¾Ð¿ Ð°Ñģ
Ð² ÑĢÐ°ÑĤ
ĠÐ¸Ð³ ÑĢÐ°Ñħ
ĠÐ³Ð»Ð°Ð² Ðµ
ĠÐ± Ð¾Ð¼Ð±
ĠÐ¼ Ð¸ÑģÑģ
ĠÐºÐ»Ð°Ð´Ð± Ð¸ÑīÐµ
ÑģÑĤ ÑĢÐ¾Ð¹
ĠÐºÑĢÐ°Ñģ Ð½Ð¾Ð¹
Ð½ Ð°Ð²
Ð² ÐµÑĢÐ¶
ÑĤÐ°Ðº Ð¸Ð¼
ĠÑĥÑĩÐ¸Ð»Ð¸Ñī Ðµ
ĠÐºÑĥÐ± ÐºÐ°
Ð± ÑĥÐ´
ĠÐ²Ð¾Ð¹ Ð½Ðµ
ĠÑĤÐµÑħÐ½ Ð¾Ð»Ð¾Ð³
ĠÐ¾Ð¿ ÑĭÑĤ
ĠÐºÐ°ÑĤ Ð¾Ð»
Ðº Ð¸Ð½Ð°
ĠÑį Ð¿Ð¾Ñħ
ĠÐ°Ð²ÑģÑĤ ÑĢÐ°Ð»
al l
ĠÐ·Ð°Ð¿Ð°Ð´ Ð½Ð¾Ð¹
ĠÐ¸Ñİ Ð½Ðµ
ĠÐ°Ð¿ÑĢÐµ Ð»Ðµ
ĠÐ¾Ð»Ð¸Ð¼Ð¿ Ð¸Ð¹ÑģÐºÐ¸Ñħ
Ñĥ ÐºÐ¾Ð²
Ð¾ÑģÑĤÐ¾ ÑıÑĤÐµÐ»ÑĮ
ÑĢÑĥ ÑĤ
ĠÐ¾Ð±Ð¾ÑĢÐ¾Ð½ Ñĭ
o g
Ġ8 0
ĠÑģÐ¾ÑģÑĤÐ°Ð² Ð°
ĠÐ½Ð° Ð¿ÑĢ
ĠÑĢÑı Ð´Ð°
ĠÐ²ÑĭÐ¿ ÑĥÑģÑĤ
ĠÐ¿ÐµÑĤ ÑĢÐ¾Ð²
ĠÐµÐ² ÑĢÐµÐ¹
ĠÐ¿Ð¾Ð» Ñı
ĠÐºÐ² Ð°ÑĢÑĤ
ÑģÑĤÐ² Ð¸Ðµ
ĠÐ·Ð´ Ð°Ð½Ð¸Ñı
Ð¿ Ð°ÑĢ
ĠÑģ Ð¸ÑĤÑĥ
ĠÑĩÐ¸Ñģ Ð»Ð°
es t
ĠÐ¿ÑĢÐ¾Ð³ÑĢÐ°Ð¼ Ð¼Ñĭ
19 0
Ð°Ð²ÑĪ Ð¸Ñħ
ĠÑĢÐ¾Ð¼ Ð°Ð½
ĠÐ·Ð°Ð² Ð¸ÑģÐ¸Ð¼
ĠÐ³ ÑĢÐµÑĩÐµÑģÐº
ĠÐ¸Ð² Ð°Ð½
ĠÐ¾ÑĤ ÐµÑĨ
Ð¸ÑĢÐ¾Ð² Ð°Ð»Ð¸
ĠÑĢÐ°Ð·Ð²Ð¸ÑĤ Ð¸Ðµ
Ñİ Ñģ
ĠÐ²Ð¾ÐµÐ½ Ð½Ð¾Ð³Ð¾
ÑıÑģ Ð½
ĠÐ¿ÑĢÐ¾ÑĦÐµÑģÑģ Ð¾ÑĢ
ĠÑĢÐµ ÑĦÐ¾ÑĢÐ¼
ĠÑĩ Ð¸ÑĤ
ĠÐ¸Ñİ Ð»Ðµ
Ðµ ÐµÐ²
ĠÐ½Ð°ÑģÐµÐ» ÑĳÐ½Ð½ÑĭÑħ
ĠÐºÐ°Ð¼ Ð¿
ĠÐµ ÐºÐ°ÑĤ
ĠÐ¼Ð¾Ð»Ð¾Ð´ ÑĳÐ¶
ĠÐ¿ÑĢÐ¾ÑĤÑıÐ¶ ÐµÐ½Ð¸Ð¸
ĠÐ½Ð° ÑĢÑĥÑĪ
ĠÐ· Ð°ÑĢ
ĠÑģÑĢÐµÐ´ ÑģÑĤÐ²
ĠÐ¿ÐµÑĤ ÐµÑĢ
ĠÑĦÐ°Ð¼ Ð¸Ð»Ð¸Ñı
Ð¾Ð½Ð°Ñĩ Ð°Ð»ÑĮÐ½Ð¾
ĠÐ²Ñģ ÐµÐ³Ð´Ð°
ĠÐ°ÑĢ Ð³
ÐµÑĢ Ð¸Ð¼
Ð± Ð»
ĠÑĩÐµÑĤ Ð²ÑĳÑĢ
a y
ĠÑĩ ÐµÑĢÐ½
ÐµÐ¹ ÑģÑı
ĠÑĢÐµÐ·ÑĥÐ»ÑĮÑĤÐ°ÑĤ Ð°Ð¼
ĠÐ´Ð¾ÐºÑĥÐ¼ ÐµÐ½ÑĤ
ĠÑģÑĤ ÑĢ
ĠÐ±Ð¾Ð»ÑĮÑĪ Ð¾Ðµ
Ð¾ÑĤ Ñĥ
Ġc h
ÑĪ ÑĤÐ°
ĠÐ·Ð°Ð½ ÑıÑĤ
ĠÑĥÐ»Ð¸ ÑĨÑĭ
3 5
ÑģÑĤÐ²ÐµÐ½ Ð½ÑĭÑħ
ĠÐ¿ÑĢÐµÐ´Ð¿ÑĢ Ð¸Ð½
ĠÑĦÑĥÑĤ Ð±Ð¾Ð»ÑĮ
ĠÑĢÐ°Ð·Ð¼ ÐµÑī
9 0
ĠÐºÐ¾Ð» Ð»ÐµÐºÑĤÐ¸Ð²
Ð»Ð¸ ÑĪ
ÑģÑĤ ÑĢÐ°
ĠÐ¿Ð¾Ð»ÑĥÑĩ Ð¸Ð»Ð¸
ÑĥÑİÑī ÐµÐ³Ð¾
Ð¾Ð´ Ð½Ñı
ÑĥÑİÑī Ð¸Ð¼
ÑĤ Ð°Ð½
u p
c e
ÑģÑĤ Ð¾
ĠÑĨÐµÐ½ÑĤÑĢÐ°Ð»ÑĮ Ð½Ð¾Ð¹
Ð¾ÑĤ ÑĢÐµÐ±
Ð¾Ð´ Ð¸Ð½
Ñĥ ÐµÐ¼
ĠÐºÐ» ÐµÑĤ
ĠÐ´ Ð¸Ð½
Ð²Ñģ ÐµÐ³Ð¾
Ð³ ÐµÐ¹
ĠÐ´ ÑĥÐ¼
Ð¸ÑĢÐ¾Ð²Ð°Ð½ Ñĭ
ÐµÑģÑĤÐ² Ð¾Ð¼
Ġ19 19
Ð¶Ðµ Ð³Ð¾Ð´
ĠÑģÑĭ Ð½Ð°
ĠÐ¸ Ð»
i p
ĠÑģÐ»ÑĥÐ¶ Ð¸Ð»
ĠÐ½Ð°Ñģ ÑĩÐ¸ÑĤ
Ð¾Ð½ Ð¾Ñģ
ĠÐ¿ÑĢÐ¾ ÑıÐ²
ĠÐ¿ Ð»ÐµÐ½
Ñĳ Ð·Ð´
ÑĤÐµÑĢ ÑĢÐ¸ÑĤ
6 4
ĠÐ°Ð´ Ð¼Ð¸Ð½Ð¸ÑģÑĤ
ĠÐ³ÐµÑĢ Ð¾
ĠÑģÐ°Ð¼ Ð¾Ð³Ð¾
ĠÑĩ ÐµÑħ
ĠÑĢÐµÐ»Ð¸ Ð³Ð¸Ð¾Ð·
Ð¾ÑģÑĤ ÑĢÐ¾Ð²
ĠÑģ ÑĥÑħ
Ð½Ð° Ð·Ð½Ð°Ñĩ
ĠÑĢÐµÐ²Ð¾Ð»Ñİ ÑĨÐ¸Ð¸
ĠÑģÐ¿ ÐµÐºÑĤ
ĠÐ³ Ñĥ
ĠÑģÐµÐ»ÑĮ ÑģÐºÐ¾Ðµ
ĠÐ°Ð½ Ð°Ð»Ð¾Ð³
ĠÐºÐ°Ð² Ð°Ð»
ĠÑģÐ¾ÑĨÐ¸ Ð°Ð»Ð¸ÑģÑĤ
ĠÑģÐ¾ÑģÑĤÐ¾Ñı Ð½Ð¸Ñİ
ĠÐ¾ÑĤÐ½Ð¾Ñģ Ð¸ÑĤÑģÑı
Ð½Ð¸Ðº Ðµ
ĠÐ½Ð¾Ñı Ð±ÑĢÐµ
Ð¿Ð¾Ð» Ð¸ÑĤ
Ð¾Ð· Ð²
Ð¾ ÑĨÐ¸
ĠÑģÐ»ÐµÐ´ÑĥÑİÑī Ð¸Ðµ
Ð°Ñı ÑģÑı
ĠÐ¾Ð±Ð¾ÑĢ ÑĥÐ´
ĠÐºÐ¾Ð¼Ð¿Ð¾Ð· Ð¸ÑĤ
ĠÑģÐ»ÑĥÐ¶ Ð±Ñĭ
Ñģ ÐµÐ²
ĠÐ¿ÑĢÐµÐ¼ Ð¸Ð¸
ĠÐ¼ Ñĥ
ĠÐ¾ÑģÑĤ Ð°Ð½Ð¾Ð²
ÑĨ ÐµÐ½Ð¸
ÑĥÑĢ Ð³
ĠÑģÐµÑĢ ÑĮ
ĠÐ²Ð¾Ð·Ð´ ÑĥÑĪ
Ð¾ ÑħÑĢÐ°Ð½
ĠÑĩ ÐµÑĢÑĤ
ĠÐ²ÑĭÑĪ Ðµ
ĠÐ² Ð´
ĠÑĤ Ð°Ð±
ĠÐ» Ð¾Ð´
Ġ ÑĨÐ¸
ĠÐºÐ¾Ð½ÑģÑĤ Ð¸ÑĤÑĥ
Ð½Ð° Ð·Ð²
ĠÐºÐ½Ñı Ð¶
ĠÑģÑĭÐ³ ÑĢÐ°Ð»
ĠÐ³Ð¾ÑĢÐ¾Ð´ ÑģÐºÐ¾Ð¹
ĠÑģÐµÐ»ÑĮÑģÐ¾Ð² ÐµÑĤÐ°
Ð¸ÑĢÑĥ ÐµÑĤÑģÑı
ĠÑģÐ¿ Ð¸ÑģÐº
Ġ4 5
ĠÑģÐµÑĢ Ð±
ĠÐ·Ð´ Ð°Ð½Ð¸Ðµ
ĠÐ¿ÑĢÐ°Ð²Ð¸ÑĤÐµÐ»ÑĮ ÑģÑĤÐ²Ð¾
ÑĤÐ¾Ð² ÑĭÐ¹
ĠÐ¼ÐµÐ´ Ð°Ð»ÑĮ
ÐµÑĢ Ðº
ĠÑĢÐ°ÑģÐ¿Ð¾Ð»Ð¾Ð¶ ÐµÐ½Ð°
Ð¾Ð´ Ð½
ĠÑĤÑıÐ¶ ÑĳÐ»
ĠÐ¶ÑĥÑĢÐ½ Ð°Ð»Ð¸ÑģÑĤ
Ð°Ð»Ð¸ ÑĦ
Ñĭ Ð´
Ð¿ Ð°ÑĤ
ĠÐµÐ²ÑĢÐ¾Ð¿ Ðµ
ĠÐ¿ÑĢ Ð¸ÑĤ
ĠÑĦÐµÐ²ÑĢÐ° Ð»Ðµ
ĠÐ½ ÑĥÐ¶
ĠÐ¿ÐµÐ´ Ð°Ð³Ð¾Ð³
Ð¾ Ð°Ð½
ĠÐ°Ð²Ð¸ Ð°ÑĨÐ¸Ð¾Ð½
Ñį ÑĤÐ¸
ĠÐ±Ð°ÑģÑģ ÐµÐ¹
Ð¸Ð½ Ð¾Ð¼
Ñĥ Ñį
ĠÐ²Ð¼ÐµÑģÑĤ Ð¾
Ð¾Ð²Ð°Ð½ Ð¸Ð¸
ĠÐº ÑĢÐ°ÑĤ
ĠÐ²ÑĭÑĪ Ð»Ð°
ĠÐº Ð»Ð¸
ĠÐ´Ð¾Ñĩ ÑĮ
ĠÑĦÐ» Ð¾ÑĤÐ°
ĠÐ» ÐµÑĩ
ĠÐ¼Ð½Ð¾Ð¶ ÐµÑģÑĤÐ²Ð¾
ĠÑįÐºÑģÐ¿ ÐµÐ´
Ð» Ð¸ÑĤ
ĠÐ´Ð¸Ð¿ Ð»Ð¾Ð¼
ĠÐ°Ð²ÑĤÐ¾Ð¼Ð¾Ð± Ð¸Ð»ÑĮ
Ð»ÐµÐ½ Ð½ÑĭÐµ
Ð¿ÑĢ Ð¾Ð´
ĠÐ° Ð¹
ĠÐ¾ÑĤ ÑģÑĤÐ°Ð²
ÑĪ ÑĥÑİ
Ð´Ð¸Ð½ Ð°Ð¼
Ð²Ñĭ Ñģ
ĠÑģÑĤÑĢÐ¾Ð¸ÑĤÐµÐ»ÑĮ ÑģÑĤÐ²Ð¾
ĠÑģÐ°Ð¼ Ð¾Ð¹
Ð´ ÑĢ
ĠÐ± ÐµÐ¶
Ð»Ñı ÐµÑĤÑģÑı
t h
ĠÐ¸Ð½ÑĤÐµÑĢÐµ Ñģ
ĠÑĥÑģÐ»Ð¾Ð² Ð¸ÑıÑħ
Ñģ Ð¸Ð½
Ð· Ð¸Ð¸
ĠÐ±Ð¾ÐµÐ² ÑĭÑħ
ĠÐ·Ð½Ð°Ñĩ ÐµÐ½Ð¸Ðµ
ÑĨ Ð¸Ðº
ĠÐ¾Ð±Ñī Ð¸Ð½Ñĭ
ĠÑĦÐ¸Ð»ÑĮ Ð¼Ðµ
ĠÑĥ ÑģÑĤÑĥÐ¿
ĠÑĨ Ð²ÐµÑĤÐ°
ĠÑĤÐµÑĢ Ð¼Ð¸Ð½
Ð¸Ð¹ ÑģÐºÐ¾Ð¼
ĠÐ´Ð¾Ð³ Ð¾Ð²Ð¾ÑĢ
ĠÑģÐ¾Ð³ Ð»Ð°ÑĪ
Ñĳ ÑĢÐ¾Ð¼
ĠÑĩÐ»ÐµÐ½ Ð¾Ð²
Ð²ÐµÑĢ Ð´
Ð¸ÑģÑĤ Ð¸ÑĩÐµÑģÐºÐ¸Ð¹
ĠÑģÐ°Ð¼ Ð¾ÑģÑĤÐ¾ÑıÑĤÐµÐ»ÑĮ
o v
ĠÐ¾Ð´ Ð½Ð¾Ð²ÑĢÐµÐ¼ÐµÐ½Ð½Ð¾
ĠÑģÐ¾Ñĩ Ð¸Ð½
ĠÑıÐ¿Ð¾Ð½ Ð¸Ð¸
Ð´Ð° ÐµÑĤÑģÑı
ÑĤ Ð°Ð¼
ĠÐ¿ÑĢÐ°Ð² Ð¸Ð»Ð¾
Ð¸Ð² Ð°ÑİÑĤ
ĠÑģÐ¾ Ð¾ÑĢÑĥÐ¶
Ðº ÑĥÑĤ
ĠÐ¼Ð°ÑĤ ÐµÐ¼Ð°ÑĤ
a e
ĠÐ³ Ð¸Ð±
ÐµÐ½ Ð½Ð¾Ð¼
ĠÐ¿ÑĢÐµÐ·Ð¸Ð´ Ð¸
ĠÐ¿ÑĢÐ¾Ð¸Ð·Ð² ÐµÐ´ÐµÐ½Ð¸Ñı
ĠÐ´ ÐµÑĢÐ¶
ĠÐ¸Ð½ÑģÑĤ ÑĢÑĥ
ĠÐ±Ð¾Ð³ Ð°ÑĤ
ĠÐ¿ÑĢÐ°Ð² Ð»ÐµÐ½Ð¸Ñı
ĠÑģÐµÐ¼ÐµÐ¹ ÑģÑĤÐ²Ð°
ĠÐ¿ Ð»Ð°ÑģÑĤ
ĠÐ³ Ð¸Ð¿
Ð¸Ð´ ÐµÑĢ
ĠÐ³ ÑĢÑĥ
ĠÐ¸ÑĤÐ¾Ð³ Ðµ
ĠÑıÐ·Ñĭ ÐºÐ¾Ð²
ĠÑĦ ÑĳÐ´
ĠÑĤ ÑĥÑĢÐµ
ĠÑģÑĤ Ð°Ð½Ð´Ð°ÑĢÑĤ
ĠÐ¿Ð°ÑģÑģ Ð°Ð¶
ĠÑģÐ²Ð¸Ð´ÐµÑĤ ÐµÐ»ÑĮ
ĠÐ¼Ð°ÑĪ Ð¸Ð½
ĠÐ²Ð¾Ð·Ð´ ÑĥÑħ
ĠÐ¾ÑĤ ÑĢÐ°Ð¶
ĠÐ±Ð» Ð¾Ðº
ĠÑĢ Ð¸Ñģ
ĠÐ²Ð¾ ÐµÐ²
ĠÐ² ÑĢÐ°Ñĩ
ĠÐ²Ð°Ñģ Ð¸Ð»ÑĮ
Ġ z
ĠÐ² Ð¼
Ð´ Ð°Ð»
ĠÑĢÑĥÑģ ÑģÐºÐ¾Ð³Ð¾
Ð¾Ñĩ Ð½ÑĭÐ¹
ĠÐ´Ð¾ÑģÑĤÐ°ÑĤ Ð¾ÑĩÐ½Ð¾
ĠÐ´ ÐµÐ½
ĠÐ± ÐµÐ´
ÑĨÐ¸Ð¾Ð½ Ð½Ð¾Ð¹
ĠÐ²ÐµÑĢ Ð¾ÑıÑĤ
ĠÐº Ð°Ð»Ð¸
ĠÐ¿ Ð¸Ð»
ĠÐ¸Ð¼ ÐµÐ»Ð¸
ĠÐ²Ð½Ð¸Ð¼ Ð°Ð½Ð¸Ðµ
ĠÑģÐ¾Ð¿ ÑĢÐ¾Ð²
ĠÑģ ÑİÐ¶
Ð¾Ð½Ñĩ Ð°Ð»ÑģÑı
ĠÐ°ÑĢÑħÐ¸ÑĤ ÐµÐº
ĠÐ¿Ð¾Ð· Ð¸ÑĨÐ¸Ð¸
ÑĢÐµÐ³ Ð¸Ð¾Ð½
ĠÐ²Ð»Ð¸Ñı Ð½Ð¸Ðµ
ĠÐ± ÐµÐ»ÑĮ
ĠÑģÐ¾Ñģ ÐµÐ´
ĠÐº Ð¸ÑģÐ»
ĠÐ¼ÑĥÐ· ÐµÐ¹
ĠÐ¿ÑĢÐ¾ Ð¸Ð³
ĠÐ½Ð°ÑħÐ¾Ð´ ÑıÑĤÑģÑı
ĠÐ½Ð°Ñĩ Ð°Ð»Ð¸
ĠÑĦ Ð¸ÑĢ
ĠÐ±Ð¾Ð»ÑĮÑĪÐ¸Ð½ ÑģÑĤÐ²Ð¾
ĠÑħÐ¾ÑĢÐ¾ÑĪ Ð¾
ĠÐ±ÐµÐ»Ð¾ÑĢ ÑĥÑģ
ĠÐ½Ð¸ÐºÐ¾Ð» Ð°Ð¹
ĠÐ¼ ÑĥÑģ
Ð°Ð» ÐµÐºÑģ
ĠÐ±Ð¾Ð» ÐµÐ·
Ð¸Ð» Ð¸Ð¹
Ð¸Ð·Ð° ÑĨÐ¸Ñı
ĠÐ¸Ð³ ÑĢÐ°Ð»
s e
ĠÑĢÐ°Ð·Ð»Ð¸Ñĩ Ð½ÑĭÐµ
Ð¾Ð² ÐµÑĢ
ĠÐ´Ð¾ ÑħÐ¾Ð´
q u
Ð°Ð´Ð¼Ð¸Ð½Ð¸ÑģÑĤÑĢÐ°ÑĤÐ¸Ð² Ð½ÑĭÐ¹
ĠÑģ ÑģÑĢ
Ð°Ðº Ð¸
Ð¿Ð¾Ð· Ð¶Ðµ
Ð°Ð»ÑĮ Ð½ÑĭÐ¼Ð¸
ĠÑģÑĤ ÑĢÐµÐ¼
Ð» Ð¾Ð¿
ĠÐ³Ðµ Ð¾ÑĢÐ³
ĠÐ±Ñĭ ÑģÑĤÑĢÐ¾
ĠÑĦÐ¾ÑĢÐ¼ Ñĭ
Ð°ÑĢÑĮ ÐºÐ¾Ð²
ĠÑĢÐµ Ð±
Ġ Ð¾Ð¶
ÑĪ Ð¸Ð½
ĠÐ¶ÐµÐ½Ñī Ð¸Ð½Ñĭ
Ð¸ÑĢÐ¾Ð²Ð°Ð½ Ð½ÑĭÑħ
ĠÐ¿ÑĢÐ¸Ð³ Ð»Ð°ÑĪ
Ñĥ Ð¶Ðµ
ĠÑģÐ¿ÐµÑĨÐ¸ Ð°Ð»Ð¸ÑģÑĤ
ĠÑĤÑĥÑĢ Ð½
ĠÐ¾Ð³ ÑĢÐ¾Ð¼
Ð°Ð¼ÐµÑĢ Ð¸ÐºÐ°Ð½
ĠÐºÐ¾Ð¼Ð°Ð½Ð´ Ñĥ
ĠÐ²Ð¾ÐµÐ½ Ð½ÑĭÑħ
ĠÑĤ ÑĢÐ°Ð´
ĠÐ·Ð° Ð±Ð¾Ð»
ĠÐ¸ÑģÐ¿Ð¾Ð»ÑĮÐ· Ð¾Ð²Ð°ÑĤÑĮ
ÑĨ Ð°Ð¼
ĠÐ¿ÑĢÐ¾ ÑħÐ¾Ð´Ð¸ÑĤ
Ð· Ð°Ð¼
ĠÑĤÐµÐ» Ð°
ĠÐµÐ³ Ð¸Ð¿
Ð¶ ÐµÐ¹
ĠÐ¿Ð¾Ðº Ð°
ĠÐ°ÑĢÐ¼ Ð¸Ñı
Ð»ÑıÐ½ Ð´
ĠÑģÑĤÐ°Ð½ ÑĨÐ¸Ñı
ĠÑĪÑĤ Ð°ÑĤÐ°
ĠÑģ Ð¸Ð±Ð¸ÑĢ
ĠÑĥÐ»Ð¸ ÑĨÐ°
ĠÑĥÑĢÐ¾Ð² Ð½Ñı
ĠÐ²Ð¾Ñģ Ð¿
ĠÑĤÐ²Ð¾ÑĢ Ñĩ
Ñĩ Ð¸ÐºÐ¾Ð²
Ð°Ð» Ñĥ
ĠÑĪ Ð²ÐµÐ´
ĠÐ´Ð¸Ð²Ð¸Ð· Ð¸Ñı
ĠÐ±ÐµÐ·Ð¾Ð¿Ð°Ñģ Ð½Ð¾ÑģÑĤÐ¸
Ð¸ ÑĢÐ°ÑĤ
ĠÐ¿Ð¾Ð» Ð½Ð¾Ð¼
ĠÐ½Ð°Ð» Ð¸Ñĩ
ĠÑĩÐµÐ»Ð¾Ð² ÐµÑĩ
Ð° ÑĨÐ¸Ñı
Ð½Ð¸Ðº Ñĥ
ĠÐ¿Ð¾Ð·Ð´ Ð½ÐµÐµ
Ð»Ð¸ Ð±Ð¾
ÑĥÑĩ Ð°ÑģÑĤ
ÐµÐ½ Ð½ÑĭÐ¼Ð¸
ĠÐ²Ð¾ÑģÑĤÐ¾Ñĩ Ð½Ð¾Ð¹
u b
ÑĢÐ° Ð½Ñĭ
ÑģÑĤÐ²ÐµÐ½ Ð½ÑĭÐ¹
Ð°Ð´ ÑĮ
ĠÑĢÐ°ÑģÐ¿Ð¾Ð»Ð°Ð³ Ð°ÐµÑĤÑģÑı
ĠÑįÐ»ÐµÐºÑĤ ÑĢÐ¾Ð½
ÑĤÐµÐ½ Ð°Ð½ÑĤ
ĠÐ´ Ñį
ĠÐ½Ð°Ð·Ð² Ð°Ð½Ð¸Ñı
ĠÐ²ÑĭÐ±Ð¾ÑĢ Ð¾Ð²
Ġ Ð¾Ð¼
ĠÑĤ Ñĥ
ÐµÐ½ ÑģÐºÐ¾Ð³Ð¾
Ġ9 0
Ð·Ð° Ð¿
Ġ193 8
ĠÐ°ÑĢÐ¼ ÑıÐ½
ĠÐº Ð¾Ð»ÑĮ
Ð¼ ÑĥÐ·
ĠÐ±Ð¾Ñı Ñħ
ĠÐ¿Ð°ÑĢÑĤ Ð¸Ð¹
ĠÑį Ð²
ĠÐ¼Ð¸ÑħÐ° Ð¸Ð»
ĠÑģÑĤ ÐµÐ½
ĠÑĪ Ð²ÐµÐ¹
ĠÐ¼Ð¸Ñħ Ð°Ð¹Ð»Ð¾Ð²
ĠÐ°Ð½Ð³Ð» Ð¸Ð¸
Ð°Ð½ Ð½Ð¾Ð¹
ĠÐºÐ¾ÑĤÐ¾ÑĢ Ð¾Ð¼Ñĥ
ĠÑģ Ð¸Ð´
ÑĤÐµÐ» ÐµÑĦÐ¾Ð½
or d
Ð¸ÑģÑĤ ÑĢ
ĠÐ½ Ð¸Ñĩ
Ñĥ Ð½Ð°
ÑħÐ¾ÑĤ Ñı
Ð¶ Ð¸Ð²
ÑĭÐ² Ð°Ð»Ð¸
ĠÐ³ ÑĢÐ°Ð¼
Ġ193 7
Ð¾Ð² Ð¾Ðµ
ĠÑĤÐµ Ð¾ÑĢÐ¸Ð¸
ÐµÐ½ ÑģÐºÐ¸Ð¹
ĠÐ´ Ð»
ĠÐºÐ¾Ð½ÑĦ Ð»Ð¸Ðº
ÑĢÐ° Ð½Ð°
ĠÐ¾Ðº ÐºÑĥÐ¿
ĠÐ¿ ÑĥÑģÑĤ
ĠÑģÐ¸Ð»ÑĮ Ð½Ð¾
ĠÑģÐ¿ Ð¸ÑģÐ¾Ðº
ÐµÐ² ÑģÐºÐ¸Ð¹
ÑĳÐ½ Ð½ÑĭÐ¼
ĠÑįÐ¿ Ð¸Ð·
Ð´ ÐµÑĤ
ÑĦÐ¸Ð»ÑĮ Ð¼
ĠÐ¿Ð¾ Ð¸ÑģÐº
ĠÐ¿ÑĢÐµÐ´Ð¿Ð¾Ð» Ð°Ð³
Ð¾Ð± Ð¾ÑĢ
ĠÐ¿Ð¾Ðº Ð¸Ð½
Ð²ÐµÑĢ Ñħ
ĠÐ¿Ð¾Ð´ Ð²ÐµÑĢÐ³
ĠÐ¿Ð¾Ð± ÐµÑĢÐµÐ¶
Ġ198 8
ÐºÐ¸ Ð¿Ð°
ĠÐ» Ð°Ð²
ĠÐ³ Ð¾ÑģÑĤ
ĠÐ² Ð¾ÑĢÐ¾Ð½
ÑĥÑĩ Ð¸
ÑĢÐ¾ ÑĪ
ĠÐºÐ¾Ð» Ð»ÐµÐº
Ð¾Ðº Ð¾
ĠÑĤÐ°Ðº Ð¾Ð¹
ĠÐ¿Ð¾Ð² ÑĤÐ¾ÑĢ
ĠÑĢÑĥÑģ ÑģÐºÐ¸Ð¹
ĠÐ¸Ð½ÑĤ ÐµÑĢ
ĠÐ»Ð¸Ð³ Ð¸
ĠÑģÐ¿ ÑĥÑģÑĤÑı
Ð¾Ð¶ Ðµ
Ð°Ð»ÑĮ Ð½Ð¾ÑģÑĤÐ¸
ĠÐ¾Ð½ Ð¾
ĠÐ¶ÑĥÑĢÐ½ Ð°Ð»Ð°
ÑĦ Ð¾Ð½
ĠÐ½Ðµ ÑģÐ¼Ð¾ÑĤÑĢÑı
ĠÐ³Ð¸Ð¼ Ð½Ð°
ĠÐ´Ð¾Ð»Ð» Ð°ÑĢÐ¾Ð²
ĠÐ¿Ð¸Ñģ Ð°Ð»
ĠÐ½Ð° ÑĤ
Ð± Ð»Ð°Ð³
3 4
Ð½ÐµÐºÐ¾ÑĤÐ¾ÑĢ ÑĭÐµ
ĠÐ¿Ð¾Ð½ Ð¸Ð¼
ĠÑģÐ»Ð¾Ð² Ð°Ð¼
Ð°Ð¹ Ð½
ÑĨÐ¸Ð¾Ð½ Ð½ÑĭÑħ
Ð»Ð¸ ÑģÑĤ
ĠÐ½Ð°Ð¿Ð¸Ñģ Ð°Ð»
ĠÐ² Ð¸Ð´Ð°
ĠÐ²Ð¾Ñģ Ð¿Ð¸ÑĤ
ĠÐ¸Ð½ Ð¸ÑĨÐ¸
ÐµÐ½ÑĮ Ñİ
ĠÐ² Ð°Ð½
ĠÐ¾Ð´ Ð½Ñĥ
ĠÐ¼Ð¾ ÑĢÐµ
Ñ ĸ
ĠÑĢÐµ ÐºÐµ
ĠÐ¾Ðº Ðµ
ĠÐ¼ Ð°Ð»ÑĮ
ÑıÑĤÑĮ ÑģÑı
ĠÐ¸Ð· Ð³Ð¾ÑĤÐ¾Ð²
Ð¾ÑĤ Ð¾Ð¹
ĠÐº Ð¿
ĠÐ¼Ðµ Ð¶
Ġ20 19
Ñĩ Ð¸Ð½Ñĭ
ĠÑĤÑĢÑĥ Ð´Ð°
Ġ /
ĠÑĢÐµ Ð°Ðº
ĠÐ² Ð°Ð³
ĠÑĩ Ð¸ÑģÑĤ
ĠÑĢÐµÐ³Ñĥ Ð»ÑıÑĢ
ĠÑģÑĤ Ð¾Ñı
ĠÐ¾Ð±Ñī ÐµÐ¹
ÐµÐ½ Ð½ÑĥÑİ
ĠÐ¿Ð¾Ð·Ð²Ð¾Ð» ÑıÐµÑĤ
ĠÐ»Ñİ Ð´Ð¸
ĠÑģ ÑĦ
ÐµÐ½ ÑģÐºÐ¾Ð¹
8 5
Ð¿ Ñģ
ĠÐ¸Ð½ ÑĦ
ĠÐ¼ÑĥÐ·ÑĭÐº Ð°Ð½ÑĤ
ĠÑģÐ±Ð¾ÑĢ Ð½ÑĥÑİ
Ð¸ÑĤÐµÐ»ÑĮ Ð½Ð¾Ðµ
ĠÐ½ÐµÐ´ Ð¾ÑģÑĤÐ°ÑĤ
ĠÐ²Ð¾ÐµÐ½ Ð½Ð¾Ð¹
ĠÑģÐ¿ ÑĢÐ°Ð²
ĠÑĢÐ°Ð±Ð¾ÑĤ Ð°ÑĤÑĮ
ĠÐ¿ ÐµÑĩÐ°ÑĤ
ÐµÐ½ÑĮ ÑĪ
ĠÑĩÐµÑĤ Ð²ÐµÑĢ
ĠÐ¼Ð¾Ð³ Ð»Ð¸
Ð»Ð°Ð½Ð´ Ð¸Ð¸
Ð°ÑĢ Ð´Ð°
ĠÐ¾ ÑĪ
ĠÐºÐ¾Ð½ ÐµÑĩ
ĠÑĤ ÑĢÐ¾
ĠÐ½Ð°ÑĨÐ¸Ð¾Ð½ Ð°Ð»ÑĮÐ½Ð¾Ð³Ð¾
ÐµÐ² ÑĭÑħ
ĠÐ¸Ð³ ÑĢÐµ
Ð¿ÑĢ Ð¾Ð²
ĠÐ½Ð° Ð¼
Ð¾Ñĩ Ð½Ð¾Ð³Ð¾
ĠÐ½Ðµ Ð¸Ð·Ð²ÐµÑģÑĤ
ĠÐ¿ Ð°Ð´
ĠÑħ Ð°ÑĢ
ĠÐ¸ÑģÐºÑĥÑģ ÑģÑĤÐ²
Ð¿Ð¾Ñĩ ÑĤÐ¾Ð²ÑĭÐ¹
ĠÑĤÐ¾Ð² Ð°ÑĢ
Ð·Ð´ ÐµÑģÑĮ
Ġxv iii
Ð¸Ð¼ Ð°ÑĤ
Ñģ Ð°Ð½
ĠÐ» Ð°Ð±
ĠÐ¿Ð¾Ð½ ÑıÑĤ
Ð½Ð¸Ðº Ð°Ð¼
ĠÑĥÑģÑĤÐ°Ð½Ð¾Ð² Ð»ÐµÐ½
ÑĤ Ð¸Ð½Ð³
Ð¾Ð´ ÐµÐ¹ÑģÑĤÐ²
ĠÑģ Ð¸ÑĢ
ĠÑģÑĤ Ð¾
ĠÐº Ð¾ÑĢÐµ
ĠÑģÑĤÑĢÐ° Ð½Ð°Ñħ
ÑĩÐµÐ¼ Ð¿Ð¸Ð¾Ð½
h t
ĠÐ·Ð°Ðº Ð°Ð·
ĠÐ¿ÑĥÐ½ÐºÑĤ Ð¾Ð²
Ð¾Ð² Ð°Ð»ÑģÑı
Ġ3 6
ĠÑĦ Ð°Ð±
ÐµÑģ Ð°
ĠÐ½Ð¸ÐºÐ¾Ð» Ð°
ĠÐ´ Ð¸ÑģÑģ
ĠÐ¼Ð¸ÑĤ ÑĢÐ¾Ð¿Ð¾Ð»
Ġ194 6
ĠÐ½Ð°Ð¿ÑĢÐ°Ð² Ð»ÐµÐ½
ĠÐ°Ð²ÑĤ Ð¾Ð±
Ð¾Ð¿ÑĢ Ð¸ÑıÑĤ
ÐµÑĢ Ð´
ĠÐ½ Ð¾Ð³
ÑĤÐ° Ð¹
ĠÑįÐºÑģÐ¿ ÐµÑĢÐ¸Ð¼
ĠÐ½Ð¾Ð² Ð³Ð¾ÑĢÐ¾Ð´
ĠÐ·Ð½Ð°Ð¼ ÐµÐ½Ð¸ÑĤ
Ð² ÑģÐºÐ¾ÑĢÐµ
ĠÐ´Ð¾ÑģÑĤ Ð¸Ð¶
ĠÐ²Ð¾Ðº ÑĢÑĥÐ³
Ð°Ð½ Ð¸ÐµÐ¹
ĠÑģÑĥÑīÐµÑģÑĤÐ² ÑĥÐµÑĤ
ÐµÑĢ Ð¸Ð½
ĠÐºÐ¾Ð¼Ð¼Ñĥ Ð½Ð°
ĠÐ±ÑĢÐ°Ð· Ð¸Ð»Ð¸Ð¸
ĠÐ± ÐµÐ½
ĠÐ°ÑĢÑħÐ¸Ðµ Ð¿
ĠÐ·Ð½Ð°Ñĩ Ð¸ÑĤÐµÐ»ÑĮÐ½Ð¾
ĠÐ² ÑģÑı
Ð¾Ðº Ð¾Ð»
ĠÐ´Ð²Ð¸Ð¶ ÐµÐ½Ð¸Ðµ
ĠÐ¾Ð± Ð»Ð°Ð´
Ð°Ð½ Ð½Ð°Ñı
Ð¾Ð²Ð°Ð½ Ð¾
Ñĥ Ð°
ĠÑģÐ¿ Ð¾ÑĢÑĤÐ°
Ð¾Ð²Ð¾Ð»ÑĮ Ð½Ð¾
ÑĢÐ°Ð±Ð¾ÑĤ Ð°Ð»
ĠÐ¿ÑĢÐµÐ¼ ÑĮÐµÑĢ
ÑĤÐµÐ»ÐµÑĦÐ¾Ð½ Ð½ÑĭÐ¹
ĠÐ°ÑĢÐ¼Ð¸ Ñİ
Ð³ ÐµÐ»ÑĮ
ĠÐ²Ð¾Ð·Ð¼Ð¾Ð¶ Ð½Ð¾
ĠÑģÐµÑĢ Ð´
ĠÐ» ÑĳÐ³
ÐµÐ½Ð¸Ñı Ð¼
Ð½Ð° ÑħÐ¾Ð´Ð¸ÑĤÑģÑı
ĠÐ²Ñģ Ñİ
ĠÑģÑĤÑĢÐ¾Ð¸ÑĤÐµÐ»ÑĮ ÑģÑĤÐ²Ð°
ĠÐ·Ð² ÐµÐ·Ð´
il l
ĠÐ²Ð»Ð°ÑģÑĤ ÑĮ
ĠÐ³ÑĢÑĥÐ¿Ð¿ Ñĥ
ĠÐ°Ñį ÑĢÐ¾Ð¿
ĠÑĢ Ð¾Ðº
ĠÐ³ÐµÑĢ Ð¾Ð¹
ĠÐµ Ð¶ÐµÐ³Ð¾Ð´
ÑĥÑģÑģ Ð¸Ð¸
Ð¿ÑĢÐ¾ Ð¸Ð·Ð²
ĠÐ´ÐµÑĢÐµÐ² ÑıÐ½
ĠÑĪÑĤ ÑĥÑĢ
Ð½Ð° Ð±
Ð½Ñĥ Ð²
ĠÐ²Ð¸Ðº ÑĤÐ¾ÑĢ
ĠÑĨÐµÐ» Ð¾Ð¼
t r
ĠÐ¿ÐµÑĢÐµ Ð²ÐµÐ´
ĠÐ¿ÑĢÐµÐ·Ð¸Ð´Ð¸ ÑĥÐ¼Ð°
ĠÐ²ÑģÑĤ ÑĢÐµÑĤ
ĠÐ´ Ð¸Ñģ
Ð¼ ÐµÐ½Ð¸
ĠÑģÐ²ÑıÑī ÐµÐ½
Ð¼ Ð¾Ð»
ĠÑĥ Ð»
ĠÐ» ÐµÐº
ĠÐ¸Ð½ÑģÑĤÑĢÑĥ Ð¼ÐµÐ½ÑĤ
4 5
ĠÐ³ÑĢÑĥÐ¿Ð¿ Ðµ
ĠÐ° Ñħ
ĠÐ¿ÐµÑģ Ð½Ñı
ĠÐ¿Ð¾ ÐµÐ·Ð´
ĠÑįÐ»ÐµÐºÑĤ ÑĢ
ĠÑģ ÑĥÐ´Ð°
ĠÐºÐ»Ð°ÑģÑģ Ð°
ÐµÐ» Ð»
ĠÑĦÐ» Ð¾ÑĤ
ĠÐ¾Ð´Ð½Ð¾ Ð¸Ð¼
ĠÐ½Ð¸Ðº Ð°Ðº
ĠÐ³Ð¾ÑĢÐ¾Ð´ Ð¾Ð²
Ð¾ÑģÑĤ ÑĢÐ¾
ÑĥÐ³ Ð¾Ð»ÑĮ
ĠÐ·Ð°ÑıÐ² Ð¸Ð»
Ð½Ð° Ð¸Ð±Ð¾Ð»ÐµÐµ
ĠÐ¿ Ñĭ
ĠÐ¿ÐµÑģ ÐµÐ½
ĠÐ¿ÐµÑħ Ð¾ÑĤ
ĠÐ» Ð¸ÑģÑĤ
ÐµÑĢÑĤ Ð²
Ñī Ð¸Ðº
ĠÐ´ÐµÐ¿ Ð°ÑĢÑĤÐ°Ð¼
ĠÐ·Ð°Ð± Ð¸Ð»
Ñģ ÑĥÑĢ
ĠÐ¿ÑĢÐ¸ Ð±Ñĭ
ĠÐ´Ð°Ð»ÑĮÐ½ÐµÐ¹ ÑĪÐµÐ¼
Ð»Ñı Ð»
ÑĥÐ¼ ÐµÑĢ
Ġ [
ĠÐ±ÐµÑĢ Ð»Ð¸Ð½
ĠÐº Ð»ÑİÑĩ
ĠÑģÐµÑĢÑĮ ÑĳÐ·
ÑģÐº Ð¾ÑĢ
ĠÐ´ÐµÐ¼ Ð¾ÐºÑĢÐ°ÑĤ
ĠÐ±ÑĢÐ¾Ð½ Ð·
ĠÑįÐºÑģÐ¿ Ð»Ñĥ
ĠÑģÐ¾ÑģÑĤÐ¾Ñı Ð»ÑģÑı
Ð¼ Ð°Ð½Ð°
Ð¸Ð½ ÑģÐºÐ¾Ð¼
ĠÑģÐµÑĢ Ð³Ðµ
Ð» Ð»
Ð°ÑĢ Ð¸Ð¸
ÐµÐº Ð°Ð½
ĠÑĢÐµ ÐºÐ°
ÐµÐº Ð¾Ð¼
Ð±ÑĥÑĢ Ð³Ð°
ĠÑĤ Ð¸Ñħ
ÑĢ Ð¸ÑĨ
ÑĢ Ð¾ÑģÑģ
ĠÐ²Ð¾Ð¹ÑģÐº Ð°Ð¼Ð¸
ĠÑĦÐ¾ÑĢÐ¼ Ñĥ
ĠÐ²ÐºÐ»ÑİÑĩ Ð°ÐµÑĤ
Ð¾Ð½ Ð¸Ð¼
ĠÐ¿ÐµÑĢÐ² Ð°Ñı
ĠÑĥ Ð³Ð»
Ð² ÑĤÐ¾ÑĢ
Ð¿ Ð¾ÑĢ
ĠÑģÑĤÐ¾ÑĢÐ¾Ð½ Ñĥ
ĠÐ¼Ð°ÑĤÑĩ ÐµÐ¹
ĠÐ¿ÑĥÑĤ ÑĳÐ¼
ĠÐ¾Ð· ÐµÑĢÐ°
n gc
ĠÐ» Ð¸Ð²
Ð· Ð°Ð²
Ñı ÑİÑī
an t
g e
Ð»Ñİ Ð±
ĠÑģÐ¸ÑģÑĤÐµÐ¼ Ðµ
ĠÑĥÐ´ Ð¾ÑģÑĤÐ¾
Ð¿ ÐµÐ´
ĠÐ·Ð°Ð² Ð¾Ð´Ð°
ĠÐ» Ð¸Ðº
ĠÐ´Ð¾Ðº ÑĤÐ¾ÑĢ
ĠÐºÑĢÐ°Ñģ Ð½Ð¾
Ð· Ð¾Ð»Ð¾ÑĤ
ĠÐ·Ð½Ð°Ðº Ð¾Ð¼
ĠÐ¿Ð¾Ð´ ÑħÐ¾Ð´
Ð¸Ñı Ð¼
Ð¸ÑĤ Ð¾Ð²
Ð± ÑĭÐ²
Ð¾Ð³ ÑĢÐ°Ð´
ÑĦ Ð¸Ð»
ĠÐ½Ð°ÑĥÑĩ Ð½Ð¾
ĠÐ´Ð¾Ð¼ Ðµ
ĠÐºÐ°Ð¶Ð´ ÑĭÐ¹
Ð»Ð¸Ð¶ Ð°Ð¹
ĠÐ¸Ð·Ð²ÐµÑģÑĤ Ð½ÑĭÐ¹
Ðº Ñģ
ĠÐ¿ÑĢ Ð¸Ð·Ð²
ĠÐ¿ÑĢÐµÐ´ Ð½Ð°Ð·Ð½Ð°Ñĩ
ĠÐ²Ñĭ Ð²Ð¾Ð´
ÑĥÐ³ Ð¸
ĠÑĦÑĥÑĤÐ±Ð¾Ð» Ð¸ÑģÑĤ
ĠÑĤÑĥÑĢÐ½Ð¸ ÑĢÐ°
ĠÐ¿ÑĥÑĤ ÐµÑĪ
ĠÑģÐº ÑĥÐ»ÑĮ
Ð¸ÑĨ Ð¸Ð¹
ĠÐ¿ÑĢÐ¾Ð´ ÑĥÐºÑĤ
ĠÐ¿Ð¸Ñģ Ð°ÑĤÐµÐ»ÑĮ
Ð³Ð¾ Ðµ
Ġ198 7
ĠÐ¸Ð½ÑĦÐ¾ÑĢÐ¼Ð° ÑĨÐ¸Ð¸
Ð»Ðµ Ð±
Ñģ ÑĥÑīÐµÑģÑĤÐ²
i f
ĠÑıÐ²Ð»Ñı Ð»ÑģÑı
ĠÐ¼ÐµÑģÑı ÑĨÐµÐ²
ĠÐ± Ð¸Ð·
ĠÐ¾ÑģÐ²Ð¾Ð± Ð¾Ð¶Ð´
ĠÐ±Ð¸Ð±Ð»Ð¸Ð¾ÑĤ ÐµÐº
ĠÐ¼ÑĥÐ·Ñĭ ÐºÐ¸
ĠÐ° ÑĢÐ°Ð±
ÑĢ Ð´
ĠÐ¿ÑĢ Ð¾ÑģÑĤÐ¾
ĠÐ¸Ð·Ð²ÐµÑģÑĤ Ð½Ð¾
ĠÐ¸ÑģÑĤ ÑĢÐµÐ±
ÑĨ Ð¾Ð¼
ĠÑĥÐ± Ð¸ÑĤ
Ġ5 00
ĠÐºÐ¾Ð¼Ð¸ÑģÑģ Ð¸Ð¸
Ð± ÑĢ
ĠÐ¿Ð¾ÑĤ Ð¾Ð¼Ñĥ
Ð¸Ð´ Ð¾Ð²
ĠÐ·Ð°Ð¿ Ð°Ñģ
ĠÐ°Ð²ÑĤÐ¾Ð¼ Ð°ÑĤ
ĠÑĢÑĭ Ð±
Ð± Ð¸Ð»
ĠÑĦÐ°ÐºÑĥÐ»ÑĮÑĤ ÐµÑĤ
Ġ198 6
ĠÐ± Ð¾Ð¶
Â» "
ĠÐ²ÑĭÐ¿Ð¾Ð» Ð½Ñı
ĠÐ½ Ð¸Ð´ÐµÑĢ
ĠÐ¾ÑĢ ÐºÐµÑģÑĤ
7 5
ĠÐ¾ÑģÐ½Ð¾Ð² Ð½Ð¾Ð¹
Ð¸Ð¹ ÑģÐºÐ°Ñı
ĠÑĥÐ¼ ÐµÐ½ÑĮÑĪ
Ð¼Ð¾Ð¶ Ð½Ð¾
ĠÐ¶ÐµÐ»ÐµÐ· Ð½Ð¾Ð¹
Ð¾Ð½ Ñĥ
ÐµÐ· Ð´Ðµ
ĠÑĢÐ°Ðº ÐµÑĤ
Ġi v
ĠÐ°Ð²ÑĤ Ð¾Ð½Ð¾Ð¼
ĠÑį ÑĦ
ĠÑį ÐºÐ¸Ð¿Ð°
ĠÐ·ÐµÐ¼ Ð»Ñı
ĠÐ¾ÑĢ Ð³
Ð¾ÐºÐ¾Ð½Ñĩ Ð¸Ð»
u d
Ð³ Ð¾Ñģ
ĠÐ¾Ðº ÑĢÐ°
Ð²Ð° Ð¶
ĠÐ³ Ð»Ð°Ð·
Ð°Ð´ Ð¶
Ð²Ð¼ÐµÑģÑĤ Ðµ
ĠÐ¾Ð±ÑĬ ÑĳÐ¼
ĠÑį Ð´
Ñħ Ð¾Ð·ÑıÐ¹
Ð¼ Ð½Ð¾Ð³
Ñĩ Ð°Ð¹
Ñĩ Ð¸
ĠÐ¼ÐµÑĤ Ð°Ð»Ð»
ĠÐ´Ð»Ð¸Ð½ Ð¾Ð¹
ĠÐ¿Ð¾ÑĢ ÑĥÑĩ
Ñĥ Ð¹
Ð· Ðµ
ĠÑĢÑĥÑģ ÑģÐºÐ¸Ñħ
ĠÑĥÑģ Ð»
ĠÑģÐ¾Ð²Ð¼ÐµÑģÑĤ Ð½Ð¾
ĠÐ³ÑĢÐ°Ð½ Ð¸ÑĨÑĭ
ĠÑĪÐ²ÐµÐ¹ ÑĨÐ°ÑĢ
ĠÐ±Ð°Ð· Ðµ
ĠÑģ Ð½Ð¸Ð¼
ĠÐ¾ÑĤÐ½Ð¾Ñģ Ð¸ÑĤÐµÐ»ÑĮÐ½Ð¾
ĠÐ´Ð¾Ðº Ð°Ð·
ĠÐ¸ Ð»ÑĮ
ĠÐ¸Ð¼Ð¿ÐµÑĢÐ° ÑĤÐ¾ÑĢÐ°
Ð½ ÐµÑĤ
ĠÐ³Ð»Ð°Ð² Ð½ÑĭÐ¹
Ð°ÑĤ Ð¾
ĠÐ·Ð°Ðº ÑĢÑĭÑĤ
ĠÐ¸Ð½ÑĤ ÐµÑĢÐ½
ĠÑĪÑĤÐ° Ð±Ð°
ĠÐ¿Ð°ÑĢÑĤ Ð¸Ñı
ĠÐ°ÐºÑĤÐ¸Ð² Ð½Ð¾
ĠÑģ Ð½Ð°ÑĩÐ°Ð»Ð°
Â Ń
ÑĢÐ° Ð´Ð°
ÑĭÐ´ ÑĥÑī
ĠÐºÐ¾Ð½Ñģ ÐµÑĢÐ²
ÑĢ Ð³
ĠÐ¿ÐµÑĢÐ² Ð¾Ðµ
ĠÐ´ÐµÐ¹ÑģÑĤÐ² Ð¸Ð¹
ĠÐ¿ ÐµÑĩ
ÑĢÐ¾Ð½ Ð¾Ð¼
3 8
ĠÐ¿Ð¾Ñģ ÐµÑī
Ð¿ Ð¸ÑģÑĮ
ÑĢÑı Ð´Ð°
Ð°Ð¼ ÐµÑĤ
ĠÐ½Ð° Ð´Ðµ
Ð¸ÑĢÐ¾Ð² Ð°Ð»Ð°
ĠÑĢÐ°Ð´Ð¸ Ð¾
Ðµ Ñĳ
ÑģÑĤÐ²ÐµÐ½ Ð½Ð¾Ð¹
Ñħ Ð¾Ð²
ĠÐ¿ÐµÑĢÐ¸Ð¾Ð´ Ð°
ĠÐ¸Ð²Ð°Ð½Ð¾Ð² Ð¸Ñĩ
ĠÐ³Ð¾ÑģÑĥÐ´Ð°ÑĢ ÑģÑĤÐ²
ĠÐ²ÐµÑĢ ÑĤ
Ð¸Ð´ Ðµ
ĠÐ±Ð¾Ð»ÑĮÑĪ Ð¾Ð³Ð¾
ĠÑĢÐ°Ð±Ð¾ÑĤ Ð°ÐµÑĤ
ĠÐº ÑĢÐµÐ¹
ĠÐ´ÐµÐ² ÑĥÑĪ
ĠÑģÐ¾ÑģÑĤÐ°Ð²Ð»Ñı Ð»Ð°
Ð¸Ð½ ÑģÐºÐ°Ñı
ÑĥÐ¼ Ð°Ð½
Ð¿ Ð¾ÑĢÑĤ
ÐµÑĢÐ°ÑĤ Ð¸Ð²
ĠÐ°ÑģÑģ Ð¾ÑĨÐ¸
Ġ198 5
ÑĨÐ¸Ð¾Ð½ Ð½Ð¾Ð³Ð¾
ĠÑģÐ¼ÐµÑĢ ÑĤ
ÐµÐ² Ð¾
ĠÐ±Ð¾Ð»Ð³Ð°ÑĢ Ð¸Ð¸
Ð¿Ð¾Ñģ Ð¾Ð±
ĠÐ²ÑħÐ¾Ð´ ÑıÑĤ
ĠÐ½Ðµ Ñĥ
ĠÐºÑĥÑĢ Ñģ
ĠÐ¿Ð¾Ð´ Ð°Ð²
Ġ6 5
ĠÐµÐ² ÑĢÐµ
ĠÑģÐ²ÑıÑĤ Ð¾Ð¹
ĠÑĦÑĥÐ½Ðº ÑĨÐ¸Ð¾Ð½
ÑĮÑı Ð¼Ð¸
ÐµÐº Ð°ÐµÑĤ
ĠÑĤÐ¾Ñĩ ÐºÐ¸
ĠÑİ Ð³Ðµ
Ġ3 8
ĠÐ¾Ð±ÑıÐ· Ð°Ð½
ĠÐ¿ Ð»Ð°
ĠÐ½ Ð¸Ð¼Ð¸
ÑĥÐ» ÐµÐ¼
ĠÑģÐ²Ð¾ Ð¸Ð¼Ð¸
ĠÑģÑĤ ÑĢÐ°ÑĤ
ĠÐ¾ÑģÐ½Ð¾Ð² Ð½ÑĭÑħ
ĠÑģ Ð½Ñı
ĠÐ¼Ð¾ÑģÐº Ð²Ð°
ÐµÐ½ÑĤ Ð°Ð¼Ð¸
Ġ17 8
ĠÐ¼ ÐµÑĢÐµ
Ð¸ÑĨÐ¸ Ñİ
Ġ192 9
Ð¸Ð¼ ÑģÑı
Ð¾Ð½ Ð¸Ð¸
Ð°Ð¼ Ð±
ĠÐ¿ÑĢ Ð¸Ðµ
ĠÐ¸Ð·Ð²ÐµÑģÑĤ ÐµÐ½
ĠÑģÐµÐ² ÐµÑĢÐµ
3 7
ÑĨ Ð¾
Ġ192 6
ĠÐ¼Ð°Ð³ Ð°Ð·
ĠÑħ ÑĢÐ°Ð¼Ð°
ĠÐ¸Ð½ÑĤ ÐµÑĢÐ²
ĠÐ¼ÑĥÐ½Ð¸ÑĨÐ¸Ð¿ Ð°Ð»ÑĮÐ½Ð¾Ð³Ð¾
Ñĥ ÐºÐ°
ĠÐ°Ð¿ Ð¿Ð°ÑĢÐ°ÑĤ
ĠÐºÐ°ÑĢ Ð»
Ð¸ÑĤ Ð¸
ĠÑģÐ¾Ð¾ÑĤÐ²ÐµÑĤ ÑģÑĤÐ²ÐµÐ½Ð½Ð¾
ĠÑģÐ¾Ð± Ð¸ÑĢÐ°
ĠÐ¿ÑĢÐ¾Ð¸Ð·Ð²Ð¾Ð´ ÑģÑĤÐ²Ð¾
ĠÐº Ð³
ĠÐ´ Ð¾Ð²Ð¾Ð»ÑĮÐ½Ð¾
ĠÑįÑĦÑĦ ÐµÐºÑĤÐ¸Ð²
ĠÐ² Ð½ÐµÑģ
ĠÑħ Ð°ÑĢÑĮÐºÐ¾Ð²
ĠÐ´ Ð¸Ð·
ĠÐ·Ð°Ð¿Ð¸Ñģ Ð¸
Ġ and
ĠÐ»ÐµÐ½ Ð¸Ð½Ð°
ĠÑģ Ð¾Ð¼
ĠÐ·Ð°Ð²Ð¸ÑģÐ¸Ð¼ Ð¾ÑģÑĤÐ¸
Ð½Ð°Ðº Ð¾Ð¼
ĠÐ°ÐºÑĤ ÑĳÑĢ
ĠÐ½Ðµ Ð¾Ð´Ð½
ĠÐºÐ½Ð¸Ð³ Ðµ
ĠÑģÑĢÐµÐ´ Ð½ÐµÐ¹
Ð´ Ð¾Ðº
ÐµÐº Ð¾
ĠÐ´ Ð½Ðµ
ĠÐ¿Ð¾Ðº ÑĢÐ¾Ð²
Ð¸Ð´ Ñĥ
ĠÐ³ÑĢÐ¸Ð³ Ð¾ÑĢ
ĠÐ¿ÐµÑĢÐ² ÐµÐ½
ÑĢÐ¾Ñģ Ð»Ð°Ð²
ĠÐ±Ð¾ÑĢ Ð¸Ñģ
Ġ196 5
ĠÐ²ÑĭÐ¸Ð³ ÑĢÐ°Ð»
ĠÐ¿ÑĢÐ¸Ð½Ð¸Ð¼ Ð°Ð»
un d
ĠÐ°Ð· Ð¸Ð¸
ĠÑģÐ¾Ð·Ð´ Ð°Ð²
Ð°Ñħ Ð°
ĠÐ¿ ÐµÐ½Ñģ
Ð¿ ÐµÑĢÐµÐ´
ĠÑģÐ¾ÑģÑĤÐ¾Ñı Ð»Ð°ÑģÑĮ
ĠÐ¿Ð¾ÑģÐ»ÐµÐ´ Ð½Ð¸Ð¹
ĠÐ¿ÑĢÐ¾ÑĤ ÐµÑģÑĤ
ĠÑĤÑĥÑĢÐ½Ð¸ ÑĢÐµ
ĠÑģÑĨÐµÐ½ Ð°ÑĢ
ĠÑĤ Ð¾Ð¹
ĠÑģÐ»ÑĥÑĩ Ð°Ð¹
a b
Ð¾Ð²Ð°Ð½ Ð¸Ñİ
ĠÑģÑĤÐ¾ÑĢÐ¾Ð½ Ðµ
ĠÐ± Ð¾Ðº
ĠÑģÐ»ÐµÐ´ ÑĥÐµÑĤ
Ð½ Ð°Ð»
ĠÐ°Ð¼ÐµÑĢÐ¸ÐºÐ°Ð½ ÑģÐºÐ¸Ð¹
ĠÑĢÑĭ Ð½
Ġ196 8
ĠÐ¿Ð¾Ñģ ÐµÑĤ
ĠÐ¾ÑĪ Ð¸Ð±
ĠÐ¶Ð¸Ð² Ð¾Ð¿Ð¸Ñģ
ĠÑģÐ¼ Ð¾Ð»
Ġ% .
ĠÐ·Ð°Ð½Ð¸Ð¼ Ð°Ð»ÑģÑı
ĠÑĢÐµ Ð²
ÑĢ Ð¸Ð½
ĠÐ¿Ð¾Ð±ÐµÐ´ Ñĭ
6 5
ĠÐ¿Ð°ÑĢ Ð»Ð°Ð¼ÐµÐ½ÑĤ
Ð¾ÑĢÐµ ÑĨ
ÑĨ Ð°ÑĤÑĮ
ĠÑĢÑĥ Ð¼Ñĭ
Ð¸Ð²ÑĪ Ð¸ÑģÑĮ
in e
ĠÐ·Ð°Ñī Ð¸Ñī
ĠÐºÐ¾Ð½ÑģÑĤÐ°Ð½ÑĤ Ð¸Ð½
ĠÐ¿ÐµÑĢÐµ Ð¼
Ġ195 9
ĠÐ´ÐµÐ±ÑİÑĤ Ð¸ÑĢÐ¾Ð²Ð°Ð»
ĠÐ± ÐµÐ³
ĠÐ¿ÑĢÐµÐ´ ÑĭÐ´ÑĥÑī
Ð¸Ð² Ð°Ð½Ð¸Ñı
Ð² ÐµÑģ
ĠÐº Ð°Ñģ
Ġ3 4
ĠÐ¿Ð¾Ð»Ð¾Ð² Ð¸Ð½Ðµ
3 3
i o
Ð¹ ÑĤÐ¸
ĠÑģÐ°Ð¼ Ð¾Ð¼
ĠÐ´ Ð°ÑĢ
Ð¾ÐºÑĢÐ°ÑĤ Ð½Ð¾
ĠÐ¿ÑĢÐµÐ´Ð¿Ð¾Ð» Ð¾Ð¶
ĠÐ´Ð¸ÑģÑģ ÐµÑĢÑĤÐ°
Ġ u
ĠÐ¿ÑĢÐµÐ´ÑģÑĤÐ°Ð² Ð¸ÑĤÐµÐ»ÐµÐ¹
ĠÐ¿ÑĢÐ¾Ð¸ÑģÑħ Ð¾Ð¶Ð´ÐµÐ½Ð¸Ñı
Ġ194 8
ĠÐ¿ÑıÑĤ Ð¸
ÐºÐ¾Ð¼ Ð°
Ð½Ðµ Ñĩ
ĠÐºÐ½ÑıÐ· Ñı
Ð¸ÑĤÐµÐ»ÑĮ Ð½ÑĭÐ¼
ĠÐ·Ð½Ð°Ñĩ ÐµÐ½Ð¸Ñı
ĠÐ¸ÑģÑģÐ»ÐµÐ´ Ð¾Ð²Ð°Ð½Ð¸Ð¹
Ð¿Ð»Ð¾ÑĤ ÑĮ
ĠÐ¿Ð¾Ð±ÐµÐ´ Ñĥ
Ð¸Ð¼ Ð¾ÑģÑĤÑĮ
ĠÐºÑĢÑĥÐ¿ Ð½ÑĭÑħ
ĠÐ²ÐµÐ»Ð¸Ðº Ð¾Ð³Ð¾
ĠÑĪ Ð°ÑĢ
ĠÐºÐ¾ÑĢÐ°Ð± Ð»Ñı
Ġ198 4
ĠÐºÐ¾Ð½ ÑĦÐµÑĢÐµÐ½
ĠÐ² ÑĢÑĥÑĩ
ĠÑģ ÑĥÑĤ
Ð¿ ÐµÑĩÐ°ÑĤ
Ð¾ÑĢÐ° ÑĤÐ¾ÑĢ
ÐµÐ¼ ÑĭÑħ
Ġ Â°
ĠÐ¿ÑĢÐµÐ¸Ð¼ ÑĥÑīÐµÑģÑĤÐ²ÐµÐ½Ð½Ð¾
ĠÐ¸Ð·Ð´ Ð°ÑĤÐµÐ»ÑĮ
ĠÑĩÐ°ÑģÑĤ ÐµÐ¹
ĠÐ¼ ÑıÑĩ
ĠÐ± Ð°Ð¹
ĠÑĪ Ð¾ÑĤ
ĠÑħ Ð¾Ðº
ĠÑĦÑĢÐ¾Ð½ ÑĤ
a v
ĠÐ» Ð¾Ð³
Ð¼ÐµÑĢ ÑĩÐµÑģÐº
ÐµÐ² ÑģÐºÐ¾Ð³Ð¾
ÑĢÐµÐ¼ Ñı
ĠÑĢÐ°ÑģÐ¿Ð¾Ð»Ð¾Ð¶ ÐµÐ½Ñĭ
ĠÑĦ Ðµ
ĠÑħÐ¾Ð·ÑıÐ¹ ÑģÑĤÐ²
ĠÑĪÐ¸ÑĢÐ¾Ðº Ð¾
Ð¾Ðº Ð¾Ð»Ð¾
ĠÐ¸ Ð¾Ð°Ð½
Ð¸ÑĢÐ¾Ð²Ð°Ð½ Ð¾
ĠÐ¿ÑĢÐ¾Ð¼ÑĭÑĪÐ»ÐµÐ½ Ð½Ð¾ÑģÑĤÐ¸
ĠÐ² Ð¾ÑģÑĮ
ĠÐ±Ð¾Ð¼Ð± Ð°ÑĢÐ´
Ð¼ Ð°Ð»
ĠÑĤÐ°ÑĤ Ð°ÑĢ
ĠÐ´Ð¾Ð»Ð¶ Ð½Ð°
ÑĪ Ð¸Ð¼Ð¸
ĠÑģ Ð°Ð²
Ð¾Ð´ Ð°ÑĤÐµÐ»ÑĮ
ĠÐ¼ Ð°ÑĤÑĮ
Ġ192 1
ĠÐ¿Ð¾Ð» Ð¾Ñģ
Ġ193 6
ĠÑģÑĤÐ°ÑĢ ÑĪÐ¸Ð¹
ĠÐ¸Ð¼ ÐµÐ½ÐµÐ¼
Ġ192 2
Ð¿ Ð¾Ð»ÑĮ
Ð»Ðµ ÑĢÐ°
ÑĥÐ»ÑĮ Ð¼Ð°Ð½
Ð¼Ðµ Ð¶Ð´
Ð¾Ð² ÐºÐ°
Ð¿Ð¾ ÑįÑĤ
ĠÑģÐµÐ¼ ÑĮ
ĠÐ·ÐµÐ¼ ÐµÐ»ÑĮ
ĠÐ¿Ð¾ÑģÐ»ÐµÐ´ Ð½Ð¸Ðµ
ĠÐ´Ð¾Ñĩ ÐµÑĢÐ¸
ÑĤ Ð¾Ð³Ð´Ð°
ĠÐ»ÑĥÑĩ ÑĪÐ¸Ñħ
ĠÐ·ÑĢ ÐµÐ½Ð¸Ñı
i b
ĠÐ½Ð°ÑĩÐ°Ð»ÑĮ Ð½Ð¸ÐºÐ°
ĠÐ²Ð¾ÑģÑĤ Ð¾ÐºÐµ
Ð¿Ð¾Ð¼ Ð¸Ð¼Ð¾
ĠÐ¸ÑģÐ¿ Ð°Ð½Ð¸Ð¸
ĠÐ¿ÑĢÐµÐ´ Ð»Ð°Ð³
ĠÐº Ð¾Ð¶
Ġ197 9
Ð¾Ð² ÑĥÑİ
Ð¾ÑĢ ÑĦ
ĠÐ³ÑĢÐ°Ð¶Ð´Ð°Ð½ ÑģÐºÐ¾Ð¹
ĠÑģÐ½ ÑıÑĤ
Ð¾Ð»Ð¾Ð³ Ð¸Ñı
3 2
ĠÐ± Ð°Ðº
ĠÑģÐ¸Ð» Ñĥ
ĠÑĨ ÐµÐ½
ĠÐ²Ð· ÑıÑĤ
a k
ÑĪ ÐµÐ»
ÑĨ ÐµÐ¿
ĠÑĥÐ¿ Ð¾ÑĤÑĢÐµÐ±
ÐµÑī Ñĳ
Ð¾ÑĢ Ð¾Ð³
ĠÐ¸Ð½ÑģÑĤÐ¸ÑĤÑĥÑĤ Ðµ
p h
ÑģÑĤÐ²ÐµÐ½ Ð½Ð¾Ð³Ð¾
ĠÐ¸ÑģÑĤÐ¾ÑĢ Ð¸Ñİ
ĠÑĥÐ»Ð¸ ÑĨÐµ
ĠÐ½Ðµ Ð°ÐºÑĤÐ¸Ð²
ĠÑģÐ¾Ð¿ ÑĢ
Ñĩ Ð¸ÐºÐ°
ÐµÑģÑĤÐ² Ñĥ
Ð¿ÑĢ Ð¾Ñģ
ĠÑĥÑĢÐ¾Ð² Ð½ÐµÐ¼
Ðº Ð°Ð»
ĠÑĥÑĩÐ°ÑģÑĤ Ð½Ð¸Ðº
ĠÑĤÐµÐ°ÑĤ ÑĢÐ°Ð»ÑĮ
ĠÐºÐ¾Ð¼ Ð¸ÑĤÐµÑĤ
ĠÐ¿ÑĢÐ¾Ð´ ÑĥÐº
ĠÐ´ÐµÐ¼ Ð¾Ð½
Ð¾Ð»Ð¾Ð³ Ð¸ÑĩÐµÑģÐºÐ¸Ñħ
Ð° Ð¾
Ġ197 5
ĠÑĤÑĢÐµÐ½ ÐµÑĢ
Ð¸Ð¼ Ð¾ÑģÑĤÐ¸
ÑģÐµÐ» Ð¾
Ġ3 7
Ġ195 4
Ð¼ ÐµÐ¹
Ð¾Ð² Ð¾Ð¼
ĠÐ¿ÑĢÐµ Ð¶Ð´Ðµ
Ð°Ð» Ð¸Ð·Ð°ÑĨÐ¸Ð¸
ĠÑĢÐ°Ð±Ð¾ÑĤ Ð°
Ġ192 4
ÑĳÐ½ Ð½Ð¾Ðµ
Ð¿ Ð¾Ð±
ĠÐ¼ÐµÐ¶Ð´ÑĥÐ½Ð°ÑĢÐ¾Ð´ Ð½Ð¾Ð³Ð¾
Ð¸Ð² Ð°Ð»Ð¸
Ð¸ÑģÑģ Ð»ÐµÐ´
Ð½ Ð¾Ð¶
ÐµÐ²Ð¸Ñĩ Ð°
ĠÐ¿ÑĥÑĤ ÑĮ
ĠÑħÐ¾Ð·ÑıÐ¹ ÑģÑĤÐ²Ð°
ĠÐ¼ ÑĭÑĪ
ĠÑģÐ¾Ð¿ÑĢ Ð¾ÑĤÐ¸Ð²
Ðº Ð¸ÑĢ
ĠÐ¾ÑĦÐ¸ÑĨÐ¸ Ð°Ð»ÑĮÐ½Ð¾
Ð¸Ð½ ÑĮ
ĠÐ¿Ð¾Ð»Ð¾Ð¶ ÐµÐ½Ð¸Ðµ
Ð½Ð°Ñĩ Ð°Ð»ÑĮÐ½Ð¾
Ġ193 5
ĠÐ¸Ñģ ÑħÐ¾Ð´
Ð¾ÑĢ Ð´
Ð¼ Ð¾Ñģ
ĠÐ»Ðµ Ð¾Ð½
ÑĨ ÐºÐ¸Ð¹
ĠÐ¿ Ð¸Ñī
. )
ĠÑģÐµÑĢ Ð³ÐµÐ¹
Ð½Ð°Ð·Ð² Ð°Ð½Ð¸Ðµ
ĠÐ¼ÐµÐ´ Ð°Ð»Ð¸
ĠÐ» ÐµÐ´
Ġ197 3
ĠÐ¿ÐµÑĢÐµ ÑģÐµÐ»
Ã ©
ĠÐ°Ð´Ð¼Ð¸Ð½Ð¸ÑģÑĤÑĢÐ°ÑĤÐ¸Ð² Ð½Ð¾
ĠÐ±ÑĥÐ´ ÑĥÑĤ
ĠÐ¿ÑĢÐµÐ´ÑģÑĤÐ°Ð² Ð¸ÑĤÐµÐ»Ð¸
Ð¿ Ð»Ð¾ÑīÐ°Ð´
ĠÐ¸Ð¼ ÐµÐ½
ĠÑĨ Ðº
ĠÐ²ÑģÑĤÑĥÐ¿ Ð¸Ð»
ÐµÑĢ Ð¸Ñı
Ð¸Ð´ Ñĭ
ĠÑįÑģÐº Ð°Ð´
Ð¾ ÑģÐº
ĠÑĦÐ¾ÑĢÐ¼ Ðµ
ĠÐ±ÑĢÐ¸Ð³ Ð°Ð´Ñĭ
ĠÐ²Ð¾ ÑĪÐ»Ð¸
ĠÐ¿ÑĢÐ¾Ð´ Ð°Ð¶
ĠÐ¿ÑĢÐµÐ´ÑģÐµÐ´ Ð°ÑĤÐµÐ»ÑĮ
ĠÑģÐ² ÐµÐ´ÐµÐ½Ð¸Ñı
ĠÐ¸Ð· Ð³
ÑģÑĤ Ð°
ĠÐ±Ð¾Ð»ÑĮÑĪ ÑĥÑİ
ĠÐ½Ð°Ð¿ÑĢÐ°Ð² Ð»ÐµÐ½Ð¸Ñı
Ġ195 8
. Â«
Ġ198 2
ĠÐ·Ð° ÑģÑĤÐ°Ð²
ĠÑĤÑĢÐ°Ð½ Ñģ
ÑĭÐ² Ð°Ñı
ĠÐ½Ð°ÑĥÑĩ Ð½ÑĭÑħ
ĠÐ¿Ð¾Ð¼Ð¾Ñī ÑĮ
Ð¸Ðº Ð°Ð¼Ð¸
ĠÐ¾ÑģÑĤÑĢÐ¾Ð² Ðµ
Ð°ÐµÐ¼ ÑĭÑħ
ĠÐ² Ð¾Ð»ÑĮ
ĠÐ²Ð¾Ð·Ð¼Ð¾Ð¶ Ð½Ð¾ÑģÑĤÐ¸
ĠÐ·Ð² ÑĳÐ·Ð´
ĠÑı Ðº
ĠÐ¿ ÑĥÐ½Ðº
ĠÑĥ Ð»ÑĥÑĩ
ĠÑĢÐµ ÐºÐ¾ÑĢ
Ð¾Ñĩ Ð½ÑĭÐµ
Ð¾ÑĢ Ð´Ð¶
ĠÐ¿ÑĢÐ¾Ð¸Ð·Ð¾ÑĪ Ð»Ð¾
n e
Ð´ Ð²Ð°
ĠÐ¿ÑĢ Ð¾ÑĢ
ĠÑĢÐ¾ÑģÑģ Ð¸Ñı
ĠÐ¿Ð°ÑĤÑĢÐ¸ Ð°ÑĢÑħ
ĠÐ¼Ð¾Ð½Ð°ÑģÑĤÑĭ ÑĢÑı
ĠÑĢÐ°Ð· Ð°
ĠÐ¼Ð¾Ð´ ÐµÐ»Ð¸
Ð½ÐµÐ¼ Ñĥ
ÐµÐ¿ ÐµÐ½Ð½Ð¾
ĠÐ¸Ð·Ð¼ÐµÐ½ ÐµÐ½Ð¸Ñı
Ð°ÑĤÐ¾ÑĢ Ð¾Ð¼
Ð¾Ð· Ð³
ĠÐ¾ ÑħÑĢÐ°Ð½
ĠÑĢÐ°ÑģÑĤ ÐµÐ½Ð¸Ð¹
ĠÐ¿ÑĢÐ¸Ð½Ñı ÑĤÐ¾
ÐµÐ½ ÑĨÐ¸
Ð»Ð° Ð¹
ĠÑĢÐµÐ· ÐµÑĢÐ²
ĠÑĥÐ»Ð¸ ÑĨ
Ġ195 6
18 9
Ġ3 2
Ð½Ð° ÑĨÐ¸Ð¾Ð½
Ġ196 6
Ñĭ Ð»
ĠÐ²ÑħÐ¾Ð´ Ð¸Ð»
ÑģÐºÐ¾ ÑħÐ¾Ð·ÑıÐ¹
Ġ196 3
ĠÐ°ÑĢÑħÐ¸ÐµÐ¿ Ð¸ÑģÐºÐ¾Ð¿
ĠÐ°ÑĢÑħ Ðµ
Ð¾Ðº ÑĢÑĥÐ³
Ġ +
ĠÐ¾ÑĢÐ³Ð°Ð½Ð¸Ð·Ð° ÑĨÐ¸Ñı
Ð¸Ð¹ ÑģÐºÐ¸Ðµ
ĠÑģÐ»ÐµÐ´ÑĥÑİÑī Ð¸Ð¹
Ð¾Ð´ Ñĭ
Ð»Ñı ÑĤÑĮ
ĠÐ¼ ÐµÐºÑģ
ĠÑĥÐ² Ð¸Ð´
ĠÑĩ Ð°ÑĢ
ĠÐ¾Ð± ÑģÐ»ÑĥÐ¶
ĠÑħ Ð°Ð½
ĠÐ¼ ÐµÐ¼
ĠÑĥÐ»ÑĥÑĩ ÑĪ
ĠÐ¾ÑĤ ÑģÑĤÑĥÐ¿
ĠÐ¸ÑģÐ¿Ð¾Ð»ÑĮÐ· Ð¾Ð²Ð°Ð½Ð¸Ñı
Ð¿ ÐµÑģ
Ð¼ Ð¾Ð¹
ĠÐ¾ÑĤÐ½Ð¾ÑĪ ÐµÐ½Ð¸Ð¸
ĠÐ¾Ð± Ð¸ÑĤ
ĠÐºÐ¾Ð¼Ð°Ð½Ð´ Ð¸ÑĢÐ°
ĠÑĤÑİ ÑĢÑĮ
ĠÐ±Ð¾Ð»ÑĮÑĪ Ð°Ñı
ÑĢÐ°Ð½ ÑĤ
) :
Ð» Ð¾ÑĤ
ĠÑĤÐµÑĢÑĢÐ¸ÑĤ Ð¾ÑĢÐ¸Ñı
ÑĢÐ¸ Ð¿
Ð°Ð²ÑĪ Ð¸Ðµ
ĠÐ¼ÑĥÐ· ÐµÑı
3 6
ĠÐ¾ÑĤÐ´ÐµÐ» ÐµÐ½Ð¸Ñı
ĠÐ³Ð°Ð· ÐµÑĤÑĭ
Ð¸Ð³ ÑĢÐ°
Ġxv ii
ĠÐ¿ Ð°Ðº
ĠÐºÐ¾Ð¼Ð°Ð½Ð´ Ðµ
ĠÐ´Ð² Ð¾ÑĢÐ¾Ð²
Ġt o
is t
ĠÐ¿Ð»Ð¾ÑĤ Ð½Ð¾ÑģÑĤÑĮ
in d
Ð¾Ð½ Ð¸Ðº
ĠÑĢÐµÑĪ ÐµÐ½Ð¸Ñı
ĠÐ½Ð°ÑħÐ¾Ð´ ÑıÑī
ĠÑĤ Ð¾Ðº
ĠÐ¿Ð°ÑĢ Ðº
Ð° ÑĢÐµ
ĠÐ²Ð· ÑĢÑĭÐ²
ĠÑĥÐ¿ÑĢÐ°Ð² Ð»ÐµÐ½Ð¸Ðµ
Ġc om
ĠÐ½Ð° ÑĥÐºÐ¸
ÐºÐ¾Ð¼ Ð°Ð½Ð´
ĠÑģÐ¾Ð²ÑĢÐµÐ¼ ÐµÐ½Ð½Ð¾Ð¹
Ðµ Ð¶Ð´
Ġ198 3
ĠÐ¼Ð¾Ð´ ÐµÐ»ÑĮ
Ġ la
Ġ3 00
ĠÐºÐ¾Ð½ Ð³
ĠÐ¸Ð³ ÑĢÐ¾Ð²
ÑģÑĤÐ°ÑĤ Ð¸ÑģÑĤÐ¸ÑĩÐµÑģÐºÐ¸Ð¹
Ġ197 6
Ð°ÑİÑī Ð°Ñı
Ð¾Ð½ ÑĮ
ĠÐ³ Ð°Ð²
Ð¸ÑĢÐ¾Ð² ÐºÐ¸
ĠÑĤÐµÐ» ÐµÐ²Ð¸Ð´
Ñĭ Ð½
Ð² Ð¿Ð¾ÑģÐ»ÐµÐ´ÑģÑĤÐ²Ð¸Ð¸
Ñĩ Ð°Ð½
ĠÐ´ÐµÐ» Ð¾
ĠÑģÐ»ÑĥÑĩ Ð°Ñı
ĠÐ¾Ñģ Ð°Ð´
ĠÐ²ÑĭÐ± Ð¾ÑĢÐ°Ñħ
ĠÑĤÑĥÑĢÐ½ Ð¸ÑĢ
Ð¸ÑĤ Ð¾Ð¼
Ġ197 2
Ġ196 2
ĠÐ¼Ð¸Ð½ Ð¸Ð¼
ĠÑģÑĥÐ¿ ÑĢÑĥÐ³
Ġ196 7
Ð² Ð¿ÐµÑĢÐ²ÑĭÐµ
Ð¾Ð² Ð°ÑĤÑĮÑģÑı
Ð¿ Ð¾Ð·Ð´
Ġ197 4
ĠÐ»ÑĮ Ð²
ĠÑĢ Ð¾Ñģ
ĠÐ½Ð° Ð¿Ð°Ð´
ĠÐ´ÑĢÐ°Ð¼ Ð°ÑĤ
Ð¿ Ð¾ÑĤ
ĠÐ¿Ð¾ÑģÐ»ÐµÐ´ Ð¾Ð²Ð°ÑĤÐµÐ»ÑĮ
Ð½Ð¸Ðº Ð°Ñħ
Ð¸Ð½ ÑģÐºÐ¸Ñħ
ĠÐ½Ð°ÑĩÐ°Ð» Ð¾ÑģÑĮ
ĠÑĩÐµÑĤÐ²ÑĳÑĢ ÑĤ
Ñģ Ð¾ÑģÑĤÐ°Ð²
ĠÐ·Ð°Ð¼ ÑĥÐ¶
ĠÐ½ÐµÑĥ Ð´Ð°Ñĩ
ĠÑĥ Ð»ÑĮ
ÑĤÐ¾ÑĢ Ñĭ
ĠÑģÑĢÐµÐ´ ÑģÑĤÐ²Ð°
ĠÑĢÑĥ Ðº
ĠÐ¾ÐºÑĢÑĥÐ³ Ðµ
ĠÐ¶Ð¸Ð²Ð¾ÑĤ Ð½ÑĭÑħ
ĠÑĦÑĥÐ½Ðº ÑĨÐ¸Ð¸
ĠÐ½Ð°Ð¿ÑĢÐ°Ð² Ð»ÐµÐ½Ð¸Ð¸
ĠÐ½Ð¸Ðº Ð¾Ð³Ð´Ð°
ĠÐ¶ÑĥÑĢÐ½ Ð°Ð»
ĠÑģÐ¿Ð¾ÑģÐ¾Ð± ÑģÑĤÐ²
Ð¸ÑģÑĤ Ð¾Ð¼
Ġ197 8
ĠÑĩÐ¸ÑģÐ»ÐµÐ½ Ð½Ð¾ÑģÑĤÑĮ
Ġ196 4
ÑįÐ» ÐµÐºÑĤ
ĠÐºÐ¾Ð½ÑĤÑĢ Ð¾Ð»ÑĮ
ĠÐµÐ² Ð³
ĠÑģ Ð½Ð¸Ð¶
Ð¾ÑĤ Ð°Ð½
ĠÐ²ÑĤÐ¾ÑĢ Ð¾Ð¼
es s
ĠÐ² Ð¸ÑĨÐµ
ÑĨ ÐºÐ¾Ð³Ð¾
ĠÑģÐµÐ»ÑĮ ÑģÐºÐ¾ÑħÐ¾Ð·ÑıÐ¹
ĠÑģÐ¾ÑĢÐµÐ² Ð½Ð¾Ð²Ð°Ð½Ð¸Ñı
7 8
ĠÐ¼Ð°ÑĤÑĩ Ð°
ĠÐ·Ð°ÐºÐ¾Ð½ Ð¾Ð´Ð°ÑĤÐµÐ»ÑĮ
Ñģ ÑĥÐ´
ĠÑĩ ÐµÑĢÐµ
Ð¿ Ð¾Ð¿
ĠÐ² Ð²
ĠÐ¿ Ð¸ÑĪ
Ñĥ ÐºÐ°Ð·
ĠÐ½Ð¾Ð² Ð°Ñı
ĠÐ¿Ð°ÑĢÑĤ Ð¸Ð·
Ð¿Ð»Ð¾ÑĤ Ð½Ð¾ÑģÑĤÑĮ
Ġ192 3
ĠÐ·Ð°ÑīÐ¸ÑĤ Ñĭ
Ġ15 0
ÑĪ Ð°Ð²
Ð³Ð¾Ð² Ð¾ÑĢ
ĠÐ¿Ð»Ð°ÑĤ ÑĦÐ¾ÑĢÐ¼
Ñĳ Ð¹
ĠÐ¿ ÑĥÐ±
Ð¼ Ð°Ñħ
ĠÑĪ Ð¾Ñĥ
ÐºÐ¾Ð² Ð¾
Ñĩ ÐµÐ½ÐºÐ¾
7 6
ĠÑĢÐµÑĪ Ð¸Ð»
ĠÑģÐµÑĤ Ð¸
ĠÐ¾Ð´ ÐµÑĢÐ¶
ĠÐ½Ð°Ð·ÑĭÐ² Ð°ÑİÑĤ
Ð´ÑĢÑĥÐ³ Ð¸Ðµ
ĠÐ» Ð°Ð·
ĠÐ»ÑİÐ± Ð¾Ð²
ĠÐ½ Ð¾ÑĢÐ²
Ð°Ñī Ðµ
Ð½ Ð¾Ð¿
ĠÐºÐ¾Ð¼Ð°Ð½Ð´ Ð¾Ð²Ð°Ð½Ð¸ÐµÐ¼
Ð¹Ð¾ÑĢ Ðº
ĠÑĤ Ð¸Ð¼
ĠÑĤÐ¾Ð²Ð°ÑĢ Ð¸Ñī
ĠÐ³ÐµÐ½ÐµÑĢÐ° Ð»Ð°
Ð¼Ð¾ÑĤ ÑĢ
ĠÐ¾Ð± Ðµ
ĠÐ¿Ð¾Ðº Ð¾Ð»
Ð¼ Ð¼
ĠÐ»Ð¸ÑĤÐµÑĢÐ°ÑĤ ÑĥÑĢÑĭ
ĠÑĥ Ð¸Ð»ÑĮ
ĠÐ·Ð´ Ð¾ÑĢÐ¾Ð²
ĠÐ¿Ð¾ÑģÑĳÐ» ÐºÐ°
ĠÐ±Ð¾ÑĢÑĮ Ð±Ñĭ
ĠÑĥÑĢÐ¾Ð² Ð½Ðµ
ĠÐ¿ÑĢÐµÐ´ Ð¼ÐµÑĤ
Ġ198 1
Ð½Ð° Ð¹
ĠÐ²ÐµÑģÑĮ Ð¼Ð°
ĠÐºÐ°ÑĤÐµÐ³ Ð¾ÑĢÐ¸Ð¸
ĠÐ»ÐµÐ¹ Ð±
ÑĢÐ° Ð´Ðµ
Ñī Ð¸ÐºÐ¾Ð²
ÐºÐ¾Ð² ÑģÐºÐ¾Ð³Ð¾
Ġs p
ĠÐ¿Ð¾Ð²ÐµÑĢÑħ Ð½Ð¾ÑģÑĤÐ¸
ĠÑĢÐ°Ð· Ð½Ð¾
Ġ195 7
ĠÐ´Ð¸Ð½ Ð°ÑģÑĤ
ĠÐºÐ°ÑĤ Ð°Ð»Ð¾Ð³
Ð¸Ð½ Ð°Ñħ
ĠÐ±ÐµÑĢÐµ Ð³
Ð¸ Ð¶Ðµ
Ġ196 1
Ð»ÐµÐ½ Ð½ÑĭÑħ
ĠÐ½Ð°ÑĩÐ°Ð» Ð°ÑģÑĮ
ĠÐ¿ÑĢÐ¾Ð¶Ð¸Ð² Ð°Ð»Ð¾
ĠÐ¿Ð¾ÑģÑĤÐ¾ÑıÐ½ Ð½Ð¾
ĠÐ½Ð°Ð·ÑĭÐ² Ð°ÐµÑĤÑģÑı
ÑĢ Ð¾ÑĤ
ĠÐ¸Ñģ Ñĩ
Ð³ Ð¾Ð»ÑĮ
ĠÐ± Ð°Ð±
Ġ194 7
ĠÐ²ÑĢÐµÐ¼ ÐµÐ½ÐµÐ¼
Ġ197 7
ĠÐ¿ÑĢÐµÐº ÑĢÐ°ÑĤ
ĠÐ± Ð¾Ð±
ĠÐ¼Ð¸Ð½Ð¸ÑģÑĤÐµÑĢ ÑģÑĤÐ²Ð°
ĠÐºÐ¾Ð¼Ð¿ Ð°Ð½Ð¸ÐµÐ¹
ĠÐ³Ð¾Ð²Ð¾ÑĢ Ð¸ÑĤ
Ð¿Ð»Ð¾ÑīÐ°Ð´ ÑĮ
ĠÐ¸Ð¼Ðµ ÐµÑĤÑģÑı
ĠÑįÐºÐ¾Ð½Ð¾Ð¼ Ð¸ÐºÐ¾
ĠÐ» ÐµÐ¶
ĠÑģÑĤ Ð°ÑĢÑĤ
Ð¸ÑĦ Ð¸ÐºÐ°
ĠÑĥÐ´ Ð°Ð»
ÑĥÐº ÑĢÐ°
ĠÑĢÐ°Ð½ ÐµÐ½
ÑĢÐ¾Ð² Ð¾Ð»ÑĮ
ĠÑģÐ¸ÑģÑĤÐµÐ¼ Ñĥ
ÑģÑĤÐ²ÐµÐ½ Ð½ÑĭÐµ
Ġ3 9
ÑĤÐ¾ÑĢÐ° Ñı
Ñĳ ÑģÑĤ
en d
ÑĥÐ» Ñĭ
Ð¼ Ð¾Ð²
Ð¾Ð¿ Ð¾Ð»Ð¾Ð¶
ĠÐ´Ð¾Ð» Ð³
ĠÐ¿Ð¾ÑıÐ² Ð¸Ð»Ð¸ÑģÑĮ
ĠÐ½Ð¸Ð´ÐµÑĢ Ð»Ð°Ð½Ð´
ĠÑĢÐ°ÑģÐ¿ ÑĢÐµÐ´ÐµÐ»
ĠÐ½ÐµÐºÐ¾ÑĤÐ¾ÑĢ Ð¾Ðµ
ĠÐ¿ÑĢÐµÐ´ÑģÐµÐ´ Ð°ÑĤÐµÐ»Ñı
ĠÐ¼Ð°Ð» ÐµÐ½ÑĮ
ĠÑĪÑĤÐ° Ð±
4 8
ĠÐ±ÐµÐ»ÑĮ Ð³
ĠÑĢÑĥÐ± Ð»ÐµÐ¹
ĠÐ¸ÑģÐ¿Ð¾Ð»ÑĮÐ· ÑĥÑİÑĤÑģÑı
Ð¾Ñĩ ÐºÐ¸
ĠÑģÐ´ÐµÐ» Ð°ÑĤÑĮ
Ð½ Ð°ÑĤ
ĠÐºÐ¾ÑĢ Ð¾Ð»ÑĮ
Ġ193 4
ĠÑįÑĤ Ð½
Ð°Ð»ÑĮ Ð±Ð¾Ð¼
ÐºÐ¾Ð½ÑģÑĤ ÑĢÑĥÐº
ĠÑģÐ¾Ð²ÐµÑĤ ÑģÐºÐ¸Ñħ
ĠÐ¼ Ð¸ÑĦ
ĠÐ´Ð¾ÑģÑĤ Ð°Ð²
ÑĤÐµÑĢÑĢÐ¸ÑĤ Ð¾ÑĢÐ¸
ĠÐ¸Ð·Ð²ÐµÑģÑĤ Ð½ÑĭÑħ
ĠÐ¼ Ð°Ð»Ð¾
ĠÑĤÐµÐ¿ ÐµÑĢÑĮ
ĠÐ² Ð¿Ð»Ð¾ÑĤÑĮ
Ġ193 3
Ð°ÑĤÐµÐ»ÑĮ Ð½Ð¾Ð¹
ĠÐ³Ð²Ð°ÑĢÐ´ Ð¸Ð¸
ÐµÑĢ Ð¾ÑģÑģ
ĠÐ³Ð»Ð°Ð² Ð½Ð¾Ð¹
Ġ197 1
ĠÐ½Ð°Ð· Ð°Ð´
ÑĨÐµÐ½ÑĤ ÑĢ
Ð± Ð°Ð»
Ð¸ÑĢÐ¾Ð²Ð°Ð½ Ð½Ð¾Ð¹
Ð°Ð½Ð¾Ð² Ð°
on e
ĠÑİ ÑĢÐ¸Ð´
ĠÐ²Ð·Ð°Ð¸Ð¼ Ð¾Ð´ÐµÐ¹ÑģÑĤÐ²
ÐµÐ½ Ð¾Ð¼
f or
Ġ196 9
ĠÐ¿ÑĢÐµ ÑģÑģ
ĠÐ´ ÑĢÑĥÐ·
ĠÑģÐ¼ ÐµÑĪ
ĠÑģ ÑĥÐ»
ĠÑģÐµÐ³ Ð¾Ð´Ð½Ñı
i x
3 9
ĠÐ·Ð°Ð¿ ÑĢÐµÑī
ĠÐ·Ð°Ð±Ð¾Ð» ÐµÐ²
Ð¾Ð½ Ñģ
ĠÐ± Ð¾ÑĢÑĤ
Ġ al
ĠÑģÑĤÑĢÐ°ÑĤ ÐµÐ³
ĠÐ¿Ð¾Ð´Ð´ÐµÑĢÐ¶ ÐºÑĥ
ĠÐ±ÑĭÐ² ÑĪÐµÐ³Ð¾
Ð¿ ÑıÑĤ
ĠÐ²Ð½ÑĥÑĤ ÑĢÐ¸
ĠÐ³ Ð¾
ĠÐ²ÐµÑĢ Ð½ÑĥÑĤÑĮ
ĠÐ±ÑĢ Ñİ
ÑĥÐ¿ ÑĢÐ°Ð²
Ð´ ÐµÐ»ÑĮ
ĠÐ± ÑĥÑħ
ÑĩÐµÐ» Ð¾Ð²
Ġ193 1
Ð½Ð¸ÑĨ ÐµÐ¹
ĠÑĤÐ¾Ð½ Ð½
ÐºÐ¾Ð² ÑģÐºÐ¸Ð¹
Ð± ÑĢÐ°
Ð¸Ð½ ÑģÑĤÐ²Ð¾
f t
ĠÐ¸Ð½Ð¾ÑģÑĤÑĢÐ°Ð½ Ð½ÑĭÑħ
ĠÑĥÑĩ Ð¸Ð»ÑģÑı
ĠÑį Ð¹
200 8
ÑĨ ÐµÑĢ
Ð½ Ð¾Ð·
ĠÐ¸Ð·Ð´ Ð°Ð½Ð¸Ñı
Ð¸Ð¼Ð¸ ÑĢÐ°
ĠÐ¿Ð¾ÑģÑĤ ÑĢÐ¾Ð¹
Ð¸Ð± Ð¾Ð»ÑĮÑĪ
ÑĥÑİÑī ÐµÐ¹
ĠÑģÐµÐ¼ ÑĮÑı
Ð¾ÑĦ Ð¸ÑĨÐ¸
ĠÑģÐ¾Ðº ÑĢÐ°Ñī
ĠÐ² ÑĢÐ°
ĠÐ¼ ÐµÐ·
ĠÑĤÐµ Ð¾
ĠÑģ Ð°Ðº
ĠÐ± ÐµÑģ
Ð½Ð¾ÑģÑĤ ÑıÑħ
ĠÐ·Ð° ÑģÐ»ÑĥÐ¶
Ð¸ÑģÑĤ Ð¾ÑĢ
Ð¸ÑĩÐµÑģÐº Ð¾Ð¼Ñĥ
ĠÐ¸ÑģÐ¿ Ð°Ð½
ĠÐ´ ÑĢÑĥÐ¶
ĠÐºÐ¾Ð½ÑĨ ÐµÐ¿
Ð°ÑĤÐµÐ»ÑĮ Ð½ÑĭÑħ
ĠÐ¾Ð¿ ÑĤ
ĠÑģÐ²Ð¾ ÐµÐ¼Ñĥ
ĠÐ¿Ð¾Ð»ÑĥÑĩ Ð¸ÑĤÑĮ
ĠÐ¿Ð¾ Ñį
i k
ĠÐ·Ð°Ð½Ð¸Ð¼ Ð°ÐµÑĤ
ĠÐ´Ð¸Ð²Ð¸Ð· Ð¸Ð¾Ð½
ĠÐ¼Ð¸Ð»Ð»Ð¸ Ð¾Ð½Ð¾Ð²
ĠÐ¾ÐºÐ°Ð· Ð°Ð»ÑģÑı
Ġ194 9
ÑĳÐ» ÑĤ
ĠÑĢÐ°ÑģÐ¿ Ð¾ÑĢ
Ð°Ð²ÑĪ ÐµÐ³Ð¾
Ð¸ÑĦ Ð¸ÐºÐ°ÑĨÐ¸Ð¸
ĠÐ¾ÑĤÐ´ÐµÐ» Ð°
Ð»Ð° Ñħ
Ðº Ð½
ÑģÑĤ ÑĢÐµÐ»
ĠÑĥ ÑħÐ¾Ð´
ĠÑĢÐµ Ð°Ð»Ð¸Ð·
ĠÐ¿ÑĢÐµÐ´ÑģÐµÐ´ Ð°ÑĤÐµÐ»ÐµÐ¼
ĠÐºÐ°Ð·Ð°Ñħ ÑģÑĤ
ĠÐº Ð¸ÑĢÐ¾Ð²
ĠÑĩÐµÐ»Ð¾Ð²ÐµÑĩ ÐµÑģÐº
ĠÑĪ ÐµÑģÑĤÑĮ
ĠÐ¼ÑĥÐ½Ð¸ÑĨÐ¸Ð¿ Ð°Ð»ÑĮÐ½Ð¾Ðµ
ĠÐ¿ÑĢÐ¾ ÑĪÑĳÐ»
Ð´ Ñı
Ð¸ÑĤÐµÐ»ÑĮ Ð½Ð¾ÑģÑĤÐ¸
ĠÐ½Ðµ Ð³
ĠÑı ÑĢÐ¾ÑģÐ»Ð°Ð²
4 4
ÐµÑģ Ð¾
ĠÐ¿ÑĢÐ¾Ð² ÐµÐ´ÐµÐ½Ð¸Ñı
ĠÐ²ÐµÑĢÑģ Ð¸Ñı
ĠÑĥÐ¿Ð¾Ð¼Ð¸Ð½ Ð°ÐµÑĤÑģÑı
ĠÐ¾ ÑĨÐµÐ½Ð¸
ĠÐ»Ð°Ð± Ð¾ÑĢÐ°ÑĤÐ¾ÑĢ
ĠÐ¸ÑģÑģÐ»ÐµÐ´ Ð¾Ð²
ĠÐ° ÑģÐ¿
ĠÐ¿Ð°ÑĢ Ð¸Ð¶Ðµ
ĠÑģ Ð¾Ð»Ð½
ĠÐ·Ð°Ð½Ð¸Ð¼ Ð°Ð»
Ġ192 8
ĠÑįÐºÑģÐ¿Ð»Ñĥ Ð°ÑĤÐ°
ĠÐ½Ð°Ð·Ð² Ð°Ð½
Ð¸Ð²ÑĪ Ð¸Ñħ
ĠÐ¶ ÐµÑģÑĤ
ĠÐ²Ð´ Ð¾Ð»ÑĮ
ĠÐ¿ÐµÑĢÐµ Ð³Ð¾Ð²
Ðº Ð¾ÑĤ
5 5
ĠÐ¿Ð¾ÑıÐ² Ð¸Ð»Ð°ÑģÑĮ
Ð¿Ð¾Ñħ Ð¾ÑĢÐ¾Ð½ÐµÐ½
ĠÐ¿ÑĢÐ¸ÑĪ Ð»Ð¾ÑģÑĮ
ĠÐº ÑĢÐµÐ¼
ĠÐ¿Ð¾ÑģÑĤÑĢÐ¾ ÐµÐ½
ĠÐ½Ð°ÑĢÐ¾Ð´ Ð°
ĠÐ´ÐµÐ¿ÑĥÑĤ Ð°ÑĤÐ¾Ð²
ĠÑģ ÐµÐ´
ĠÑģÐµÐ»ÑĮ ÑģÐºÐ¸Ð¹
ÑĦ Ðµ
Ð¾ÑĤ Ðº
ĠÐº Ð¸Ðµ
ĠÐ´ÑĢÑĥÐ³ Ð°
ÐµÐ½ÑĤ Ðµ
Ð¿Ð¾ÑįÑĤ Ð¾Ð¼Ñĥ
Ð¼ ÐµÐ»ÑĮ
ĠÐ¸Ð½Ð¸ÑĨÐ¸ Ð°ÑĤÐ¸Ð²
Ð¾Ðº Ð¸
Ð¼Ð½Ð¾Ð³ Ð¸Ðµ
ĠÐ³Ð¾Ñģ Ð¿Ð¾Ð´
t e
ĠÐ¿ÑĢÐµÐº ÑĢÐ°Ñī
ĠÑĢÐ°Ð±Ð¾Ñĩ Ð¸Ñħ
ĠÑģÑĤ Ð°
ĠÐ¿Ð¾ ÑıÐ²Ð»Ñı
ĠÑģ Ð°Ñħ
ĠÐ¶ ÐµÐ½Ð¸
Ñĳ Ðº
Ð¸ÑĤÐµÐ»ÑĮ Ð½Ð°Ñı
ĠÐ²Ð¾Ð· Ð²ÐµÐ´
ÑĪÑĤÐ° Ð±
ĠÐ´ Ð¸ÑģÑĤÐ°Ð½
ĠÐ¼ÐµÑģÑĤ Ð½Ð¾ÑģÑĤÐ¸
ĠÐ²Ð¸Ð· Ð°Ð½ÑĤ
Ð¾Ð» Ñı
ĠÐ¼ Ñį
ĠÑĦ Ð¾Ð½Ð´
ĠÑģÐ¾ ÑĦ
ÑıÑģ Ð½Ñı
ĠÐ²Ð¾ÐµÐ½ Ð½ÑĭÐ¹
ĠÑģÐ´ÐµÐ» Ð°Ð»
ĠÐ¿ÑĢÐ¸Ð± Ð»Ð¸Ð·
ÐºÐ¾Ð¼ Ð¿
ĠÐ´Ð²Ð° Ð¶Ð´Ñĭ
ĠÑĤÐµÐ» ÐµÐ²
ĠÑĥÐº ÑĢÐµÐ¿
Ð± ÐµÐ·
ĠÐ¿Ð¾ÑıÐ² Ð¸Ð»ÑģÑı
ÐµÑĢÐ° Ð¼
ĠÐ² ÐµÑģÑĤ
ĠÑģÐ¾Ð· Ð²
ĠÐ¿ÑĥÑĤÐµÑĪ ÐµÑģÑĤÐ²
ÑĨ ÐµÐ»
Ð¸ÑĢÑĥ ÑİÑī
ĠÐ¿ÑĢÐ¸ÑģÐ²Ð¾ ÐµÐ½Ð¾
ĠÑģÑĬ ÑĳÐ¼
ĠÐ°Ð¼ÐµÑĢ Ð¸ÐºÐ¸
ÑıÐ» Ð¸ÑģÑĮ
ĠÐ±Ð¾ Ñİ
Ñħ Ð¾
Ð¸Ð» Ð»Ð¸
Ð¿ÑĢÐ¾ ÐµÐºÑĤ
ĠÑģÐ»Ð°Ð² Ñĭ
Ð±Ð¾Ð» ÐµÐµ
Ð´ ÐµÑĢÐµÐ²
ĠÐ´Ð¾Ð¼Ð°ÑĪ Ð½Ð¸Ñħ
ĠÐ²ÑĭÑħÐ¾Ð´ Ð°
ĠÐ´Ð¸ Ð°Ð»
ĠÐ· ÑĥÐ±
ĠÐ·Ð°Ð¿Ð°Ð´ Ðµ
ĠÐ¾ÐºÑĤ ÑıÐ±ÑĢÑĮ
ĠÐ¼ÑĥÐ½Ð¸ÑĨÐ¸Ð¿Ð°Ð» Ð¸ÑĤÐµÑĤ
ĠÐ½Ð¾Ð² Ð¾Ðµ
ĠÐ³Ð°Ð» Ð°ÐºÑĤ
ĠÐ²Ð· Ð³Ð»Ñı
Ġ193 2
ĠÐ´Ð¸ÑĢÐµÐº ÑĤÐ¾ÑĢ
ĠÐ»Ð¸Ð³ Ðµ
ĠÐ¿Ð°Ð² Ð»Ð¾Ð²
Ġ192 7
ĠÐ¸Ð· Ð¾Ð±
ĠÑģÑĤ Ð¸Ð»Ðµ
ĠÐ½Ð°ÑħÐ¾Ð´ Ð¸Ð»Ð¸ÑģÑĮ
Ð¸Ð½ ÑģÐºÐ¾Ðµ
ĠÐ¿ Ð¾ÑĢÐ¾Ð´
ĠÑĢÐµ Ð¼Ð¾Ð½
ĠÑį Ð»ÑĮ
ĠÐ¾Ð±Ñī ÐµÑģÑĤÐ²Ð¾
ĠÑĨÐ¸ ÑĦ
ĠÐ²Ð¾Ð¹ Ð½Ñĥ
ĠÑģÑĤ Ð¸Ð»
ĠÐ´ Ñİ
ĠÐ¸ ÐºÐ¾Ð½
ĠÐ¸Ð¼ ÐµÐ»Ð°
Ð°Ð» Ð¸Ñı
ÑĢÐµ Ð¶
ĠÐ» ÑĳÑĤ
Ñģ ÐµÐ»ÑĮ
ĠÐº Ð¾Ð²
ĠÐ¸Ð½Ð¶ÐµÐ½ ÐµÑĢ
ĠÐ± Ð»Ð°
ĠÐ¼ÐµÑģÑĤ Ð½ÑĭÑħ
Ð¸Ñĩ Ð½ÑĭÐ¹
ĠÐ²ÑĭÑģ ÑĪÐµÐ¹
ĠÑģÐ»ÐµÐ´ÑĥÑİÑī ÐµÐ¼
ĠÐ¼ÐµÑĤ Ð°Ð»
Ð»ÐµÑĤ Ð¾Ð¼
ĠÑģÐ² ÐµÑĢÑħ
s p
ĠÐ¿ÑĢÐ°Ð²Ð¾ÑģÐ»Ð°Ð² Ð½Ð¾Ð¹
ĠÑĦÐ¸Ð½ Ð»ÑıÐ½Ð´
ĠÐ´ Ð¸Ðº
ĠÑĥÑĩÐ°ÑģÑĤ Ð½Ð¸ÐºÐ¾Ð²
ĠÐ´ Ñĥ
Ð°ÑİÑī ÐµÐ³Ð¾
Ð½ Ð¸Ð·
Ñį Ñģ
Ð´ Ð»Ð¸Ð½Ð°
Ġxv i
Ð¿ÑĢ Ð¾Ð¼
ĠÑĦ Ð»Ð°Ð³
ĠÐ½ÐµÐ¼ Ñĥ
Ð¿Ð¾Ð·Ð´ Ð½ÐµÐµ
ĠÐ¼ÐµÐ¶Ð´ÑĥÐ½Ð°ÑĢÐ¾Ð´ Ð½ÑĭÑħ
ĠÐºÐ¾Ð½ÑĨ Ñĥ
ÐµÑĤ Ð¾Ð²
ĠÐ¿Ð¾Ð´ Ð²Ð¾Ð´
ĠÑĦ ÑĢÐ¸Ð´
o u
ĠÐ·ÐµÐ» Ñĳ
ĠÐ¼ÑĥÑģ ÑĥÐ»ÑĮÐ¼Ð°Ð½
Ð¾Ð³ ÑĢÐ°Ð¼
Ð¾Ð· Ñĭ
ic e
ĠÐ½Ð¸ÐºÐ¾Ð» Ð°Ñı
ĠÐ²Ñĭ ÑģÐºÐ°Ð·
ĠÐ¼Ð¾ÑģÐº Ð²Ñĥ
ĠÑħ Ñĥ
ĠÐ¿ÑĢÐ°Ð² Ð¸Ð»
ĠÑģÑĭ Ð½Ð¾Ð²
ĠÑĢÐµÐ± ÑĳÐ½
ĠÐ¿ÑĢÐµ ÑģÐ»ÐµÐ´
ĠÐ²Ðº Ð»Ð°Ð´
Ð²Ð° Ñĩ
ĠÐºÐ°Ð¶Ð´ Ð¾Ð¹
o b
Ð½Ð¸ ÐµÐ¼
Ð¼ Ð¾Ð´
ĠÑĢÐµÐ´Ð°Ðº ÑĨÐ¸Ð¸
Ð· Ð¸
ĠÐ¿ Ð¸ÑĢ
ĠÐ½ Ð¾Ð¼Ð¸Ð½
ĠÐ²Ð¾Ð·Ð³Ð»Ð°Ð² Ð¸Ð»
Ð°Ð» Ð¸Ð·Ð°
ĠÑĥÑģÑĤ ÑĢÐ¾
ĠÐ½Ð¾Ð² ÑĥÑİ
ĠÐ¿Ð¾Ñĩ ÑĳÑĤ
Ð² Ð°Ð¹
ĠÐ¿ÑĢÐµÐ´ÑģÑĤÐ°Ð² Ð¸ÑĤÐµÐ»ÑĮ
Ð¸Ð» Ð¾Ð²
ĠÑĢÐ°ÑģÐ¿Ð¾Ð»Ð¾Ð¶ ÐµÐ½Ð¾
ÐµÐµ ÑģÑı
ĠÐ¼Ð» ÑĢÐ´
ĠÐ½ÐµÐ¿Ð¾ÑģÑĢÐµÐ´ ÑģÑĤÐ²ÐµÐ½Ð½Ð¾
ĠÐ¿Ð¾Ð´Ð¿Ð¸Ñģ Ð°Ð»
ĠÐ³ÑĢÑĥÐ¿Ð¿ Ð¾Ð¹
ĠÐ¿Ð°Ð¼ÑıÑĤ Ð¸
ĠÐ²Ð¾ ÑĪÑĳÐ»
Ð»Ð» ÐµÐ»ÑĮ
Ġ19 14
ĠÐ·ÐµÐ¼ Ð»Ðµ
Ð¸ÑĤÐµÐ»ÑĮ Ð½Ð¾ÑģÑĤÑĮ
Ð¿ÐµÑĢÐ² Ð°Ñı
ĠÐ´Ð¾Ð± ÑĢÐ¾Ð²Ð¾Ð»ÑĮ
ĠÑĦÐ¸Ð³ ÑĥÑĢ
ĠÐ¾ÑĢ Ð¸
Ġ195 3
ĠÐ¸ÑĤÐ¾Ð³ Ð°Ð¼
ĠÐ¼ ÑĥÑħ
ĠÐ³ÑĢÐ°Ð½ Ð¸ÑĨ
ĠÐºÐ» Ð¸Ð½
ĠÑģÐ¾Ð·Ð´ Ð°Ð½Ð¸Ðµ
ĠÐ¿ÑĢ Ð¾Ð»
ĠÑĢÑĥ Ñĩ
ĠÐ¼ÑĥÐ¶ ÑĩÐ¸Ð½Ñĭ
ÑĨÐ¸Ð¾Ð½ Ð½ÑĭÐ¹
ĠÐ¾ÐºÐ¾Ð½Ñĩ Ð°Ð½Ð¸Ð¸
Ð¸Ð² Ð°ÑİÑĤÑģÑı
ÑĭÐ² Ð°ÑİÑĤÑģÑı
ĠÑģÑĢÐµÐ´ Ð½ÐµÐ¼
ĠÑĥÑĢÐ¾Ð² ÐµÐ½ÑĮ
ĠÑİÐ³ Ð¾ÑģÐ»Ð°Ð²
ĠÑĦ Ð¾ÑĢÑĤ
ĠÐºÐ¾Ð» ÑħÐ¾Ð·
Ð¸ Ð°
Ġ192 5
ĠÑģÑĥÐ´ ÑĮ
Ð» Ð¾ÑĢ
ÑĬ ÑĳÐ¼
ĠÐ²ÑĭÑģÑĤÑĥÐ¿ Ð¸Ð»
ĠÑĤÐµÑĢÑĢÐ¸ÑĤÐ¾ÑĢ Ð¸Ñİ
ĠÐ²Ð»Ð°Ð´ ÐµÐ»ÑĮ
ĠÐµÑģÑĤ ÐµÑģÑĤÐ²ÐµÐ½
ĠÐ²ÐµÐ½ Ð³
ĠÐ´ÐµÐ» Ð°
Ð°Ñī Ð¸Ñħ
ĠÑĢÐµ ÑģÑĥÑĢ
ĠÐ²Ñģ Ð»ÐµÐ´
ĠÑĪ Ð²Ðµ
ĠÐºÐ° Ð±
Ð°ÑĢ Ðº
Ð¶ Ñĥ
ĠÑģÐ¾ÑģÑĤÐ¾Ñı Ñī
ĠÐ¿ÑĢÐ¾Ð¸Ð·Ð²ÐµÐ´ ÐµÐ½Ð¸Ð¹
ĠÐ¸Ð· Ð¼ÐµÑĢ
Ġr e
ÑĢÐ°Ð½ ÐµÐµ
el l
ĠÑģÑĤÐµÐ¿ ÐµÐ½ÑĮ
ĠÐ± Ð°ÑĢÐ°
Ð¸ÑĢÐ¾Ð²Ð°Ð½ Ð½ÑĭÐ¹
ĠÑĥÑĩÐ°ÑģÑĤ Ð¸Ñı
ĠÐ½ÐµÐ² Ð¾Ð·
ĠÐ°ÑĢÐ³ ÐµÐ½ÑĤ
ÑĪ ÐµÐ²
ĠÐ½Ð°ÑĩÐ°Ð» Ð¾Ð¼
ĠÐ½Ð¾Ð² Ð¾Ñģ
ÐºÐ° Ð¶Ð´
a st
ĠÑģÑĩÑĳÑĤ Ð¾Ð¼
ĠÐ¼ ÐµÐ»ÑĮ
ĠÐºÐ¾ÑĢÐ°Ð± Ð»ÐµÐ¹
ĠÑĢÐµ Ð¼
Ġ Ð¾Ð»ÑĮ
ÐµÐ» Ðµ
ĠÐ½Ð° Ð¿Ð¾Ð»
Ð¸ÑĢÐ¾Ð²Ð°Ð½ Ð½ÑĭÐµ
ĠÐ¿ÑĢÐ¾Ð±Ð»ÐµÐ¼ Ñĭ
ĠÑĢÐ°Ð· Ð±
ĠÐ½Ð°ÑĢÐ¾Ð´ Ð¾Ð²
ÐµÐ» Ñİ
ĠÐ± Ð¸ÑĢ
ĠÐ²ÑĭÐ¿ÑĥÑī ÐµÐ½
ĠÐºÐ¾Ð¼Ð¿ÑĮÑİÑĤ ÐµÑĢ
ĠÑģÐ¾ÑģÑĤÐ¾Ñı Ð½Ð¸Ð¸
6 2
Ð¿Ð¾Ðº ÑĢÐ¾Ð²
ĠÑħÑĥÐ´Ð¾Ð¶ Ð½Ð¸Ðº
Ð¾Ð¹ ÑĤÐ¸
ÑĢ Ð¸ÑģÐ°
ĠÑģÐ¿ ÑĥÑĤ
ĠÑĤÐµÐ°ÑĤ ÑĢ
ĠÐ¿ÑĢÐ¸Ð² Ð»ÐµÐº
ÐµÐºÑģ Ñĥ
Ð¼Ð¾ ÑģÐº
ĠÐ¾ÑĤ Ð±
Ð°Ð´ Ð¸
6 8
ĠÐ²Ñĭ ÑĤ
ĠÑĤ ÑĳÐ¼
ĠÐ¾ÑĤÐº ÑĢÑĭÐ²
ĠÐ¿ÑĢÑıÐ¼ Ð¾
Ð¿ ÑĥÑģÐº
ĠÐ¼Ð¸Ð½Ð¸ÑģÑĤ ÑĢÐ°
c t
ĠÐ¿ÐµÑĢÐµ Ð±
ĠÐ±Ð°Ð» ÑĤ
ÑĤ ÐµÑħÐ½
Ð¸Ð¹ ÑģÐºÐ¸Ð¼
Ð½ ÐµÐ½Ð¸Ñı
ĠÐ± ÐµÑģÑģ
ĠÐ²ÐµÑĢ ÑĪ
ĠÑģÐ¾Ð±ÑĭÑĤ Ð¸Ð¹
Ð¾Ð¹ ÑĩÐ¸Ð²
ĠÐ¿Ð¾Ñģ Ð»
Â» ".
ĠÐ½Ð°ÑĩÐ¸Ð½ Ð°ÐµÑĤ
ĠÐ¿ÑĢÐ¸Ñĩ ÑĳÐ¼
Ð¿ÑĢÐµ Ð·Ð¸Ð´
ĠÑĥÐºÑĢÐ° ÑĪ
Ð± Ð»Ð¸Ð·
ĠÑģÑĤÐ°ÑĤ Ð¸ÑģÑĤ
ĠÐ±Ð¾ÑĢÑĮ Ð±Ðµ
ĠÐ±Ð¾Ð»ÑĮÑĪ Ð¸Ð¼
ĠÑĤ Ð¾Ð¶Ðµ
ĠÐ¼Ð°ÑĢÑĪ ÑĢÑĥ
Ġ195 5
ĠÐ¿ Ñĥ
Ð¾Ð´ Ñĥ
ĠÑĩ ÑĢÐµÐ·
ĠÑģÐ»Ð¾Ð² Ð¾
ĠÐ½Ð°ÑĩÐ¸Ð½ Ð°ÐµÑĤÑģÑı
ĠÑģÐ¾Ð·Ð´ Ð°Ð½Ð¸Ð¸
ĠÐºÐ¾Ð½ ÑĤÐ°Ðº
ĠÑģÐº Ð»Ð¾Ð½
ĠÐ¼Ð°Ð³ Ð¸ÑģÑĤ
ĠÑĥÑģÐ¿ÐµÑĪ Ð½Ð¾
ĠÐ°Ð²ÑĤÐ¾Ð± ÑĥÑģ
Ðº ÑĥÑİ
ĠÐ³Ð¾Ð» ÑĥÐ±
ĠÐ¾ÑĤÐ½Ð¾Ñģ ÑıÑĤÑģÑı
Ð½ Ðº
ĠÐ¾Ðº ÑĢÐµÑģÑĤ
ÑĳÑĤ ÑĢ
ĠÐ°Ð³ ÐµÐ½ÑĤ
ĠÑĤÐµÐ°ÑĤ ÑĢÐµ
ÑģÐ¾Ð² ÐµÑĤ
ĠÐ¿ÑĢÐ°Ð² Ð¾Ð¼
ĠÐ²ÑģÑĤÑĢÐµÑĩ Ð°ÐµÑĤÑģÑı
Ð¸ÑĢÐ¾Ð² Ð°Ð»ÑģÑı
ĠÑģÑĤÐ¾Ð» Ðº
ĠÑĢÐ°Ð·Ð½Ð¾ Ð¾Ð±ÑĢÐ°Ð·
ĠÑĩ ÑĥÐ´
i an
ĠÐ½Ð°ÑĢÐ¾Ð´ Ð½Ð¾Ð³Ð¾
ĠÐ¼ÐµÐ½ Ñı
ĠÑĩ ÐµÑĪ
Ġ4 4
ĠÐ²ÑĭÑģ Ð¾ÑĤÐµ
ĠÐ¿ÐµÑĤ ÑĢÐ°
Ñĩ ÑĳÑĢ
ĠÑħÐ¾ÑĢ Ð²Ð°ÑĤ
Ð°Ð¼ Ð¿
ĠÐ¿ÑĢÐµ Ð¶
ĠÐ¿ÑĢÐµÐ´ÑģÑĤÐ°Ð² Ð»ÐµÐ½
ÑĳÐ½ Ð½ÑĭÐ¼Ð¸
ĠÐ¾ÑĢÑĥÐ¶ Ð¸Ñı
ĠÐ¸ÑģÑĩ ÐµÐ·
ĠÐ·Ð°Ð» Ð¾Ð¶
ĠÑĢ Ð¾Ð¶Ð´
ĠÐ´Ð¾Ð¼ Ð¾Ð²
ĠÐ¾ÑĤÐ´ÐµÐ» ÐµÐ½Ð¸Ðµ
ĠÐ´Ð°Ð½ Ð½ÑĭÐµ
ĠÐ¾ÑģÐ½Ð¾Ð²Ð°Ð½ Ð¸Ð¸
Ð°ÑĤ Ð¾ÑĢÐ¾Ð²
Ð»Ð¸ ÑĨ
ĠÑĢ Ð¸Ñĩ
ĠÐºÐ¾Ð» Ð»ÐµÐ´
o k
ĠÐ¼ Ð°Ñħ
Ñĭ Ð¶
Ð¸Ñĩ Ð½ÑĭÑħ
ĠÑģÑĥÐ´ ÐµÐ±
ĠÐ²ÑĭÐ½ÑĥÐ¶Ð´ ÐµÐ½
5 4
ĠÑĢÐ°Ð±Ð¾ÑĤ Ð°Ð»Ð¸
ĠÐ¼ Ð¾ÑĤÐ¸Ð²
Ñģ Ð¼ÐµÐ½
Ð· Ð°Ñģ
ĠÐºÐ°Ð¶Ð´ Ð¾Ð³Ð¾
ÐµÑĢÐµ Ð¼Ð¾Ð½
ÑĥÑģ Ð»Ð¾Ð²
Ð¾ Ñİ
Ð¿Ð¾Ð» ÑĥÑĩ
ĠÐ¼ Ð°Ð´
ĠÐ»Ð°ÑĤ Ð²
ĠÐ¸Ð·ÑĢÐ° Ð¸Ð»ÑĮ
7 4
ĠÐ¾ÑģÑĤÑĢÐ¾Ð² Ð¾Ð²
ĠÑģ ÐµÑĢÐ²
ĠÑħ Ð°
ĠÑĢ Ðº
Ð½Ð° Ð³
ĠÐ½ÐµÐ¾Ð±ÑħÐ¾Ð´ Ð¸Ð¼Ð¾
Ð¸Ñĩ Ð½ÑĭÐµ
Ð¸ÑĤ Ðµ
ĠÑİ Ð³Ñĥ
Ð°Ð½ Ð½Ð¾Ð³Ð¾
Ñĩ Ðµ
ÑģÐ¾Ð» ÑİÑĤ
Ġ =
ĠÐ¿Ð¾ÑģÑĤ ÐµÐ¿ÐµÐ½Ð½Ð¾
ĠÐ¿ ÑĥÐ»ÐµÐ¼
ÑģÑĤÐ² Ð¾ÑĢ
Ð³ÑĢÑĥÐ¿ Ð¿Ð°
s o
Ñı ÑĤÐ¾
ĠÐ±ÑĢÐ° ÑĤÐ°
ĠÐºÐ°Ð¿Ð¸ÑĤ Ð°Ð½
ĠÐ¾Ñģ Ð½Ð¾Ð²Ð°Ð½Ð¸Ñı
ĠÐ°ÑįÑĢÐ¾Ð¿ Ð¾ÑĢÑĤ
ĠÐ¸Ð½Ð´ Ð¸Ð²
ĠÑģÑĤÐ°Ð´ Ð¸Ð¾Ð½
ĠÑĢÐ°ÑģÑģÑĤÐ¾Ñı Ð½Ð¸Ð¸
Ð¾Ð³ Ð¾ÑĢ
ĠÑįÐºÐ¾Ð½Ð¾Ð¼ Ð¸ÐºÐ¸
ĠÐµÐ¿Ð°ÑĢÑħ Ð¸Ð¸
ĠÐºÐ°Ð²Ð°Ð» ÐµÑĢ
ÑĢÐ° Ð¼Ð¸
ĠÑģÐ¾Ð± Ð¾ÑĢÐ°
Ð¿Ð° Ð´Ð°ÐµÑĤ
Ġ4 8
Ñį ÑĦÑĦ
ĠÐºÐ¾Ð¼ Ð¼ÐµÑĢÑĩÐµÑģÐº
Ñħ Ð°Ð½
ĠÐ´Ð¾ÑĢÐ¾Ð³ Ð°
ĠÑĢÐ°Ð¹Ð¾Ð½ Ð¾Ð²
ĠÐ¿Ð¾ÑĢÑıÐ´ ÐºÐ°
Ġ3 3
ĠÑģÐ¾Ð²ÑĢÐµÐ¼ ÐµÐ½Ð½Ð¾Ð³Ð¾
ĠÑĥ Ð¶
ĠÐºÐ½Ð¸Ð³ Ñĥ
ĠÐ°ÑģÑĤ ÑĢÐ¾Ð½Ð¾Ð¼
ĠÐ´Ð¶ Ð¾ÑĢÐ´Ð¶
ĠÐ½Ð°ÑĩÐ°Ð»ÑĮ Ð½Ð¸Ðº
Ñĩ Ð°
ĠÐ³ Ð¸ÑĤ
ÑģÑĤ ÐµÑĢ
ÐµÑĢÐµ Ð¹
ĠÑĢÐ° ÑĥÐ½
ÑıÑī Ð¸Ð¹
ÑĢÐµ ÑĤÐ°
ÑĮ Ð¼Ð¸
ĠÑĤÐµÐ» ÐµÐºÐ°Ð½
ĠÐ¾Ð±Ð¾Ð·Ð½Ð°Ñĩ ÐµÐ½Ð¸Ñı
ÑĪ ÐµÑģÑĤÐ²
ĠÐ²ÑģÐµÐ¼ Ð¸ÑĢ
iv e
Ð²ÐµÑģÑĤ Ð¸
Ð¾ÑģÑĤ Ð°Ð½
ĠÑĦÐ°Ð± ÑĢ
ĠÐ·Ð°Ð¼ÐµÑģÑĤ Ð¸ÑĤÐµÐ»ÑĮ
ÐµÐ½ Ð½Ð¾ÑģÑĤÑĮ
ĠÑģ Ð´
ĠÐ° ÑĤÐ¾Ð¼
Ñĳ ÑĢÐ¾Ð²
ÐµÐ½ ÑĨÐµÐ²
ĠÑĢ Ð¾Ð³
ĠÑģÐ¾Ð± Ð¾ÑĢ
Ð± Ð°ÑĤ
ĠÐ²ÑĭÑģÑĤÑĥÐ¿ Ð»ÐµÐ½Ð¸Ñı
Ð½ Ð¸Ð¼Ð¸
Ðµ ÑĢÐ°Ð½
ĠÐ³ Ð°Ð¼
ĠÐ¿ÑĢÐµÐ´ ÑĥÑģ
ĠÑĦÑĢÐ°Ð½ÑĨÑĥÐ· ÑģÐºÐ¸Ð¹
ĠÑĩÐµÐ¼Ð¿Ð¸Ð¾Ð½ Ð¾Ð¼
Ġ6 4
ĠÐ¿ ÑĢÐ°
ÑĤ Ð°Ð²
ĠÑģÐºÐ°Ð· Ð°Ð»
ĠÐ¿ÑĢÐ¸Ð½Ñı Ð»Ð¸
ÑĤÐ¸ ÑĦ
ÑĤ Ð²
ĠÐ¶ Ð¸ÑĤÐµÐ»Ð¸
ĠÑģ ÐµÑĢÐ¶
ĠÑı Ð´
ĠÐ»ÐµÑĤ Ð¾Ð¼
ĠÐ¾Ð±ÑĬÐµÐºÑĤ Ð¾Ð²
ĠÑģ ÑħÐ¾Ð´
ÐµÐ»ÑĮ Ð´
ĠÐ»Ð¾Ð½Ð´ Ð¾Ð½
ĠÑģÐ½ Ð°ÑĢÑı
ĠÐ²Ð· ÑĢÐ¾Ñģ
ĠÐ¼ Ð¾ÑĤ
ĠÑĥÑģÑĤ Ð°Ð½Ð°Ð²Ð»Ð¸Ð²
ĠÐ¿ÑĢÐµÐ´Ð¿ÑĢÐ¸Ð½ Ð¸Ð¼
Ð±Ð»Ð°Ð³ Ð¾Ð´Ð°ÑĢÑı
ĠÐºÐ½Ð¸Ð³ Ð°
Ð¿ÐµÑĢÐ² Ð¾Ð½Ð°ÑĩÐ°Ð»ÑĮÐ½Ð¾
ĠÐ» Ð¾Ðº
ĠÑĢ Ð¾Ð¶Ð´ÐµÐ½Ð¸Ñı
ĠÑģÐ¾Ð·Ð´ Ð°Ð½Ð°
ĠÐ¼ÐµÐ¶Ð´ÑĥÐ½Ð°ÑĢÐ¾Ð´ Ð½Ð¾Ð¹
ĠÐ½ÐµÐ¼ÐµÑĨ ÐºÐ¸Ð¹
ĠÐ± ÐµÐ¹
ĠÐ²Ñĭ Ð´
ĠÐ´Ð¸ Ð°Ð¼ÐµÑĤ
ĠÐ¿ÑĤ Ð¸ÑĨ
ĠÐ» Ð¸ÑĨÐ°
ÑĤ ÑĢÐ¸
ĠÐ·Ð² Ð°Ð½Ð¸Ñı
ĠÑģÐ¾Ð´ÐµÑĢÐ¶ Ð¸ÑĤ
ĠÐºÑĢÐ°Ñģ Ð½Ð¾Ð³Ð¾
ĠÐ¿ ÑģÐº
Ð¾Ðº Ð¾Ð¹
ĠÐ´ Ð·
ÑĪ Ð¸ÑģÑĮ
ĠÐ¾ ÑĦÐ¾ÑĢÐ¼
ĠÐºÐ°Ð² ÐºÐ°Ð·
Ð°ÑĤÐµÐ» ÑıÐ¼Ð¸
ĠÑĥÑĩÐ°ÑģÑĤ Ð¾Ðº
ÑĥÑĩ Ð°ÑģÑĤÐ²
Ð¼ Ð¸ÑĢ
ÑĢÑĥ Ð±
7 2
Ð´ Ð°ÑĢ
Ġ195 2
Ð² Ð»Ð°Ð´
ĠÑģ Ð»Ð°Ð±
ĠÐ½ Ð°Ð»Ð¾Ð³
ĠÐ¼Ð¾Ð½Ð°ÑģÑĤÑĭ ÑĢÑĮ
ÑĢÐµ Ð¿Ð»
ĠÐ»Ð¸Ð½ ÐµÐ¹
ĠÐ½Ð¾Ð² ÑĭÐ¼
Ġ7 5
Ð°Ð´ ÑĨÐ°ÑĤ
ĠÐ´ÑĢÑĥÐ³ Ð¾Ð¼
Ð¾Ñĩ Ð½Ð¾Ð¼
ĠÐ¿ÑĢÐ¸ ÑĳÐ¼
ĠÐºÐ² Ð°Ð»Ð¸ÑĦ
Ð°Ðº Ð¾Ð¼
Ð» Ð¸Ñģ
ĠÐ²Ð¾ ÑģÐº
Ġn e
ĠÐ¾Ð·Ð½Ð°Ñĩ Ð°ÐµÑĤ
ĠÐ¾ÑĤ ÑĢÐ¸ÑĨ
ĠÐ³Ð»Ð°Ð² Ð½ÑĭÑħ
ĠÐ½Ð¾Ñĩ ÑĮ
ĠÐ¼Ð¾Ð¼ ÐµÐ½ÑĤÐ°
ĠÐ·Ð°Ðº Ð¾Ð½Ð¾Ð¼
Ñĥ Ð»Ð°
Ð°ÑĤ Ð¾Ð»
ĠÐ¿ÐµÑĢÐµ Ð²Ð¾Ð·
ĠÐ¿ÐµÑģ Ð½Ñİ
Ð¶ Ð°Ð½
ĠÑģÑĤÑĢÐµÐ»ÐºÐ¾Ð² Ð¾Ð¹
ĠÑģÑİÐ¶ ÐµÑĤ
ĠÑĤÐµÑħ Ð½Ð¸ÐºÐ¸
ĠÑģÐ¾Ð²ÑĢÐµÐ¼ ÐµÐ½Ð½ÑĭÑħ
ÑıÑī Ð¸Ñħ
ĠÐ·Ð² ÑĥÑĩ
Ñĳ Ð²Ð°
Ð¸Ð² Ð°Ñı
ĠÐ¸Ð³ ÑĢÑĥ
ĠÑĤÑĢÐµÑĤ Ð¸Ð¹
ĠÐ²Ð°ÑĢ ÑĪÐ°Ð²
Ġ19 15
ĠÐ±ÑĭÐ² ÑĪÐ¸Ð¹
ĠÑĤÐ²Ð¾ÑĢ ÑĩÐµÑģÐº
ĠÑĦÑĥÑĤÐ±Ð¾Ð» Ñĥ
ĠÑĤ ÑĢÐ°Ð¼
Ñĩ ÑĤÐ¾
ĠÐ¼ÐµÐ½ÑĮ ÑĪÐµ
ĠÐ±ÐµÐ»Ð¾ÑĢ ÑĥÑģÑģÐ¸Ð¸
ĠÑĢÐµ ÐºÐ¾Ð¼
ĠÐ²Ð½ÑĥÑĤÑĢÐµÐ½ Ð½Ð¸Ñħ
Ġr ec
ĠÐ´Ð¾ÑĢÐ¾Ð³ Ðµ
ĠÐ²Ð¸Ð´ Ñĭ
ĠÑħÐ°ÑĢÐ°ÐºÑĤÐµÑĢ Ð¸ÑģÑĤ
ĠÐ·Ð° ÑģÐµÐ´
Ð°ÑĤ Ð¾ÑĢÐ¸Ð¸
ÑģÐ¿ Ð¾ÑĢÑĤÐ°
Ñĩ ÐµÑĢ
ÑĪ ÐµÐ¼Ñĥ
ÑģÑĤ Ð°Ð½Ð¾Ð²
Ð· ÐµÐ»
ĠÐ¼ ÑĥÑĢ
ĠÑĦÐ°ÐºÑĤ Ð¸ÑĩÐµÑģÐºÐ¸
ĠÐ½Ð°ÑħÐ¾Ð´ Ð¸Ð»Ð°ÑģÑĮ
ĠÐ¿ÑĥÐ½Ðº ÑĤÐ°
Â» ;
ĠÑĤÐµÐ¼Ð¿ÐµÑĢÐ°ÑĤ ÑĥÑĢÐ°
ĠÐ½ÐµÐ±Ð¾Ð»ÑĮÑĪ Ð¾Ð¹
Ð¾ÑĤ Ð¸Ð¿
ĠÑĦÐµ Ð¾Ð´
Ð¸Ð½Ð° ÑĨÐ¸Ð¸
m a
ĠÐ³Ð¾ÑĢ Ñĭ
ĠÐ¿Ð¾Ð»Ñĥ Ð¾ÑģÑĤÑĢÐ¾Ð²
ÑĭÐ² Ð°Ð»Ð¾ÑģÑĮ
ĠÐ¼ÐµÑģÑı ÑĨÐ°
ĠÐºÐ°Ð½ Ð°Ð´
6 7
ĠÑģÐ¿ÐµÐºÑĤ Ð°Ðº
ĠÑģ ÑģÑĭ
Ð·Ð½Ð°Ñĩ ÐµÐ½Ð¸Ñı
Ñģ Ð¾Ð±
ĠÐ²Ñĭ Ð´Ð°ÑİÑī
ĠÐ¿ÑĢÐµÐ´Ð»Ð¾Ð¶ Ð¸Ð»
ĠÐ¿Ð¾Ñĩ ÑĤÐ¾Ð²
an g
ĠÐ¿ÑĢÐµÐ´Ð¿ÑĢÐ¸ÑıÑĤ Ð¸Ñı
Ð´ ÐµÐ¹ÑģÑĤÐ²
ĠÐ³ÑĢÐ°ÑĦ Ð°
ĠÐ½Ð¸Ñĩ ÐµÐ³Ð¾
8 8
ÑĥÑĢ Ð¾Ð²
Ð¸Ñĩ Ð½Ð¾Ð¹
ĠÑģÐ²Ð¾Ð±Ð¾Ð´ Ñĭ
ĠÐ¾Ð¿ÑĥÐ±Ð»Ð¸Ðº Ð¾Ð²Ð°Ð½
ÑĭÐ² Ð°
ĠÐ´ÐµÐ» Ðµ
ĠÑģÐ¾Ð·Ð´ Ð°Ð»
ĠÐ²Ñģ ÐµÑĢÐ¾ÑģÑģ
Ñį Ð´
ĠÐ¿ÑĢÐ¸Ð² ÐµÐ»Ð¾
ĠÑįÑĦÑĦ ÐµÐºÑĤ
ĠÐ²ÑĢÐµÐ¼ ÐµÐ½Ð°
Ġ ar
ĠÐ¿Ð¾ÑĢÑĤÑĥÐ³ Ð°Ð»Ð¸Ð¸
ÑĦ Ð¸
ÐµÐ¼ Ð°
ĠÐ½Ð° ÐºÐ°Ð·
ÑĢÑĥ Ð½
ĠÑĢÐµÐ¹ ÑĤÐ¸Ð½Ð³
Ð¾ÑģÑĤ Ð¾Ñı
ĠÐ¿Ð°Ð¼ÑıÑĤ Ð½Ð¸Ðº
ĠÐ¸ Ð±
ĠÐ¼Ð°ÑĢ Ð¸Ñı
ĠÐ² Ð°ÑĪ
ÑĤ ÑĢÐ°
Ð¾Ðº Ð¾Ð²
ĠÑģÐ°Ð¼ ÑĭÐ¹
ĠÐ°Ð²ÑģÑĤÑĢÐ°Ð» Ð¸Ð¸
ĠÐ¿ÐµÑĢÐµÐ¸Ð¼ÐµÐ½ Ð¾Ð²Ð°Ð½
d e
Ð¿Ð¾Ð± ÐµÐ´
ĠÐ¿ÑĢÐ¾Ñģ Ð¿
ĠÐ¿ÐµÑĢÐµ Ð²
Ñģ ÐµÑĢÐ²
ĠÑĤÑĢÑĥ Ð±
ĠÑĤÐ°Ðº Ð¾Ð³Ð¾
Ð¾ÑĤ Ð¾Ñĩ
ĠÐ¿Ð¾Ð»Ð¸ÑĤ Ð¸ÐºÐ¸
ĠÑĩÐ»ÐµÐ½ Ñĭ
ĠÐ°ÑĢ ÐµÐ½Ð´
ĠÑĪ Ð¾ÑģÑģ
ĠÐ¸ ÐµÑĢ
ĠÐ¾ÑĤÐ´ÐµÐ»ÑĮ Ð½ÑĭÑħ
ĠÑĢÑĥ Ð´
ĠÑįÐ¿Ð¸Ð· Ð¾Ð´
ĠÐ»ÐµÐ¹ ÑĤÐµÐ½Ð°Ð½ÑĤ
ĠÐ± ÑĢÐ¾Ñģ
ĠÐ¸Ð·Ð± Ð¸ÑĢÐ°ÑĤ
ĠÑĨ ÐµÐ¿
ĠÐ°Ð¼ÐµÑĢÐ¸ÐºÐ°Ð½ ÑģÐºÐ¾Ð¹
Ð½Ð¸ÑĨ Ðµ
ĠÐ¼ Ð¾Ð·
ĠÑģÐ²Ð¸Ð´ÐµÑĤÐµÐ»ÑĮ ÑģÑĤÐ²
ĠÐ¿Ð¾Ñģ ÑĢÐµÐ´
ĠÐ´Ð¶ ÐµÐ¹Ð¼
ÑįÐº Ð¾Ð½Ð¾Ð¼
ĠÑģÐ¾ÑģÑĤÐ¾Ñı Ð»
ĠÐº ÑĥÐ´Ð°
ĠÐ¸ÑģÐ¿Ð¾Ð»ÑĮÐ· Ð¾Ð²Ð°Ð½Ð¸Ðµ
ÑĮ ÐµÑĢÐ°
Ð¾Ð» Ñİ
Ð½ ÐµÑģÑĤ
ĠÑĢÐ°Ñģ ÑħÐ¾Ð´
ĠÐ¿ÑĢÐ¸Ð³ Ð¾Ð²Ð¾ÑĢ
Ð¸ÑĢÑĥ ÑİÑĤ
ÑĢÑı Ð·
Ð¾Ð²Ð°Ð» Ð¸ÑģÑĮ
ĠÐ¸Ð³ ÑĢÐ°ÑĤÑĮ
ĠÐ¿Ð¾Ñģ Ð°Ð´
ÐºÐ¾Ð² ÑĭÑħ
Ð¿ÑĢÐ¸Ð½ Ð¸Ð¼
Ñı ÐµÐ¼
ÑĢ Ð¾ÑĢ
ĠÐ¿ÑĢÐ¸Ð² ÐµÐ´
Ð½Ðµ Ð³
ĠÑįÐ¼ Ð¸Ð³
ĠÑĦÐ¸Ð»Ð¾ÑģÐ¾ÑĦ Ð¸Ð¸
ĠÐ²Ð¾Ð´ Ð¾
ĠÐ½ÐµÐ¾Ð´Ð½ Ð¾ÐºÑĢÐ°ÑĤÐ½Ð¾
Ðº ÑĥÐ»ÑĮÑĤ
Ð½ÐµÐ² ÐµÐº
ĠÑĦÐ» Ð¾ÑĢ
Ñĭ ÐºÐ°
ĠÑģÐºÐ¾ÑĢ Ð¾ÑģÑĤÑĮ
ĠÑģÐ¾Ð²ÐµÑĢÑĪ Ð¸Ð»
ĠÐ¿Ð¾Ð¿ Ð°Ð»
Ð¾Ð± Ð½Ð¾Ð²
ĠÐ¿ÑĢÐ¾Ð² Ð¾Ð·Ð³
ÑģÐº ÐµÑĤ
ĠÑĤ Ð°ÑĢ
ig ht
ĠÑģÐ»ÑĥÑĩÐ°Ñı Ñħ
ĠÐ¼Ð¾Ð» Ð´Ð°Ð²
ĠÐ²ÑħÐ¾Ð´ Ð¸Ð»Ð°
ĠÑģ Ð¸Ñħ
ÑģÐ¾Ð² ÑĢÐµÐ¼
ĠÐ¿ÐµÑĢÐµÐµÑħ Ð°Ð»
ĠÑĦ ÑĢ
Ð»ÐµÐ½ Ð½ÑĭÐ¹
ĠÐ¼ Ð³
ĠÐ¿Ð¾Ð² ÑĢÐµÐ¶Ð´
ĠÐ¿ÑĢÐ¾ÑħÐ¾Ð´ Ð¸Ð»
Ð² Ð¸ÑĤ
ÑģÑĤÐ² Ð¸Ñı
Ġ195 1
Ð¿ ÑĢÐµÐ¼
Ð¾Ñı Ð·Ñĭ
ĠÐ²Ð¾Ð¹ Ð½Ð°
Ð· Ñı
ĠÐ½Ð° Ð¸Ð¼ÐµÐ½
ĠÑįÐºÑģÐ¿ÐµÑĢÐ¸Ð¼ ÐµÐ½ÑĤ
Ð± ÐµÑĢÑĤ
Ð°Ð»ÐµÐºÑģ Ð°Ð½Ð´
ĠÐ¿ÑĢÐµÐ·Ð¸Ð´ÐµÐ½ÑĤ Ð¾Ð¼
Â» :
Ð»Ð¸ÑĪ ÐºÐ¾Ð¼
ĠÐ¸Ð· Ð¼ÐµÐ½Ð¸
ĠÐ·Ð°Ð² Ð¾Ð´Ðµ
ĠÐºÐ¾Ð½ Ðº
Ð¾Ñģ Ð½Ð¾Ð²Ð°Ð½
ĠÑģ Ð»Ð¸ÑĪÐºÐ¾Ð¼
ĠÐ³ Ð°Ð±
ĠÑĪ ÐºÐ¾Ð»ÑĮ
ĠÐ¿Ð¾ÐºÐ¸Ð½ ÑĥÐ»
Ñħ Ð¸Ð¼
ĠÐ¿ÑĢÐµ Ð²ÑĭÑĪ
ĠÐ²Ð¾Ð·Ð´ ÐµÐ¹ÑģÑĤÐ²
Ð¿ÑĢÐµÐ´ ÑģÑĤÐ°Ð²
ĠÐ½Ð¸ÐºÐ¾Ð» Ð°ÐµÐ²
Ð¾ÑĤ ÐµÑĨ
ÐµÑī ÐµÐ½Ð¸Ñı
ĠÐ¾Ð± ÑĢÐ°Ð±Ð¾ÑĤ
Ñģ Ð¾Ð½Ð°
Ð¾Ð» Ð³Ð¾
ĠÐ´Ðµ ÑıÑĤ
ĠÐ¿ÑĮ ÐµÑģ
Ð¾ÑĢ Ð´Ð¸Ð½
Ð°Ð» ÐµÐ¹
6 9
v er
Ð» ÑĭÑħ
ĠÐ´ ÐµÑģ
ĠÐ¸Ð¼ ÐµÑĤÑĮ
ĠÐ³Ð¾ÑĢÐ¾Ð´ Ð°Ñħ
ĠÐ½Ð°Ð¹ ÑĤÐ¸
ĠÑĤ ÑĢÐ°ÐºÑĤ
ĠÐ¿ÑĢÐ¸Ð½Ð°Ð´Ð»ÐµÐ¶ Ð¸ÑĤ
Ð½Ð¾Ð¼ Ð¾ÑĢ
ĠÐ¼Ð°ÑĪ Ð¸Ð½Ñĭ
Ġ190 5
ĠÐ¿Ð¾ÑĢÑĤ ÑĢÐµÑĤ
Ī Ĵ
ĠÐ±Ð¾Ð»ÑĮÑĪ Ð¸Ðµ
Ġ% ).
ĠÐ¼Ð°ÑĤ ÐµÑĢ
ĠÐ°ÑĢÐµÑģÑĤ Ð¾Ð²Ð°Ð½
ĠÑĩÑĥÐ² ÑģÑĤÐ²
Ð¸Ñĩ Ð¸
ĠÐ¿Ð¾Ð»ÑĮÐ· Ñĥ
ĠÐ¶ Ð¸Ð´
Ð² Ð¸Ð´Ð°
ĠÑģ Ð°ÑĢ
ĠÑĢÐµÐ¶Ð¸ÑģÑģ ÑĳÑĢÐ°
Ð°Ð½ÑĤ Ñĭ
ĠÐ¼ÐµÑģÑĤ Ð½Ð¾Ð³Ð¾
Ðº Ð¾Ñģ
ĠÐº Ð¾Ð·
ĠÑģÑĢÐ°Ð²Ð½ ÐµÐ½Ð¸Ñİ
ĠÐ°Ð²ÑĤÐ¾Ð¼Ð¾Ð± Ð¸Ð»
ĠÐ¼ÐµÑĢ Ð¾Ð¿ÑĢÐ¸ÑıÑĤ
ĠÑģÐ¾Ñĩ ÐµÑĤ
ĠÐ¿Ð¾Ðº ÑĢÑĭÑĤ
Ð°Ð¹ ÑĤ
Ð»Ð¸ Ð½Ñĭ
ĠÐ½ ÐµÐ½
ĠÐ¼ÐµÑģÑĤ Ð°Ñħ
ĠÐ¿Ð¾Ñħ Ð¾Ð¶
Ð½Ð°Ñĩ Ð¸Ð½
ĠÐ¸Ð½Ð´ Ð¸Ð¸
7 7
ĠÐ¾ÑģÑĤ Ð°ÑĤ
ĠÐ± Ð°ÑĤÐ°
Ð¿ Ð°Ð¼
ÑĨÐ¸Ð¾Ð½ Ð½ÑĭÐµ
ĠÑĥ Ð´Ð°
ĠÑģÐ¿ÐµÑĨÐ¸ Ð°Ð»Ð¸Ð·
c k
Ð¿ ÑĥÑĤ
ĠÐ°Ð½Ð´ ÑĢÐµÐ¹
ĠÐ³Ðµ Ð¾Ð³ÑĢÐ°ÑĦ
Ð¾Ñĩ Ð½Ð°Ñı
ĠÐ¾ÑĢÐ³Ð°Ð½Ð¸Ð·Ð° ÑĨÐ¸Ð¹
ĠÐºÐ¾Ð½Ð³ ÑĢÐµÑģÑģ
Ð² Ð°Ð½
ĠÑĥÐ¿ Ð¾Ð¼
ĠÐ° ÑĥÐ´
Ð½ ÑĳÐ¼
Ð¾ÑıÐ·Ñĭ Ñĩ
ÐµÑĤ ÑĢÐ¾Ð²
Ġ5 5
Ð¿Ð¾Ð» ÐºÐ¾Ð²
ĠÑģÑĤÑĥÐ´ Ð¸Ð¸
ĠÑģ ÑĩÐµÑĤ
ĠÐ½Ð¾Ñģ Ð¸ÑĤÐµÐ»Ð¸
ĠÑģÐº Ð»Ð°Ð´
Ð¾Ð± ÑĢ
Ð¾Ð± Ð¸Ð»
ĠÑĨ ÐµÑĢÐµÐ¼Ð¾Ð½
ĠÑģÐ²ÑıÐ· Ð°Ð½Ð¾
ĠÐ·Ð¾Ð»Ð¾ÑĤ Ð¾Ð¹
ĠÐ·Ð° Ð´ÐµÑĢÐ¶
Ð¸Ð· Ð¸Ð¾Ð½
Ð½Ðµ Ð·
" Â».
ĠÐ¾ÑĢÐ¸Ð³Ð¸Ð½ Ð°Ð»ÑĮÐ½Ð¾Ð¹
Ð¿ÑĢÐ¾Ð¸Ð·Ð² Ð¾Ð´
ĠÐ²Ð¾ ÑĪÐ»Ð°
ĠÐ¼Ð°ÑĢ Ð¸Ð¸
ĠÐ¾ÑĢÐ³Ð°Ð½Ð¸Ð· Ð¾Ð²Ð°Ð½
ĠÑĦÐ¸Ð»ÑĮÐ¼ Ð¾Ð²
Ð¾ÑĢÐ° Ð¼Ð¸
Ð»Ð¾Ð² Ð°
ĠÐ´Ð¸ÑĢÐµÐº ÑĤÐ¾ÑĢÐ¾Ð¼
ÑĦ ÑĤ
Ð¸ÑĢÐ¾Ð²Ð°Ð½ Ð¸Ð¸
ĠÑģÐº Ð¾Ð½ÑĩÐ°Ð»ÑģÑı
ĠÑĢÐµÐ¶ Ð¸Ð¼
ĠÑĢÐ°ÑģÐ¿Ð¾ÑĢ ÑıÐ¶
ĠÐ·Ð°Ð½ ÑıÐ»Ð°
ĠÐ´Ð°Ð½ Ð½ÑĭÐ¹
Ð»Ð¸ ÑĢ
ĠÐ½Ð°Ð¿ÑĢ ÑıÐ¶
Ð½Ð°Ð± Ð¶
ĠÐ¿Ð¾ ÑĩÐ¸ÑĤ
ÑĭÐ² Ð°Ð»ÑģÑı
ÑĥÐ¼ Ð±
6 6
Ð½ Ð°Ð½Ð¸Ñı
ĠÐ¾ÑĤÐ¿ÑĢÐ°Ð² Ð¸Ð»ÑģÑı
ÐµÑĢ Ð¸Ð¹
ĠÑģ ÐºÐ°
Ġ he
Ġ4 9
Ðº ÑĢÐµÑģÑĤ
Ñģ ÐµÐ¹
ĠÐ¿Ñĭ ÑĤÐ°
ĠÐºÐ¾Ð¼Ð°Ð½Ð´Ð¸ÑĢ Ð¾Ð¼
ÑĤ ÐµÐ·
Ð¸Ð¼ ÐµÐ½Ð½Ð¾
ĠÐ¿Ð¾Ð»ÑĥÑĩ ÐµÐ½Ð¸Ñı
Ð¼ÐµÑĢ ÑĤ
ĠÐ°Ð´Ð¼Ð¸Ð½Ð¸ÑģÑĤ ÑĢÐ°ÑĨÐ¸Ð¸
ĠÐ±Ð¾Ð»ÑĮÑĪ ÐµÐ¹
ĠÐ¿ÑĢÐ¸Ð²Ð¾Ð´ Ð¸ÑĤ
Ð½Ð¾Ð² ÐµÐ½Ð¸Ñı
ĠÐ±Ð¸ÑĤ Ð²Ðµ
Ð¾Ð´ Ð½Ð°
ĠÐ¾ÑĤÐ² ÐµÑĩ
" Â»
ĠÑĦÑĢÐ¾Ð½ ÑĤÐµ
ĠÐ¾ÑĤÐ²ÐµÑĤ ÑģÑĤÐ²ÐµÐ½
) Â«
ÑĮ ÐµÑĤ
Ð²Ð¾ÑģÑĤ Ð¾ÐºÑĥ
Ð¸Ð·Ð²ÐµÑģÑĤ Ð½ÑĭÐµ
ĠÐ¾Ð±ÑĥÑĩ ÐµÐ½Ð¸Ñı
ĠÐ¼Ð°ÑĤÑĩ Ð°Ñħ
7 9
ĠÐ¿Ð¾Ð»Ð¸ÑĤ Ð¸ÑĩÐµÑģÐºÐ¾Ð¹
ĠÑĢÑĥ ÐºÐ¸
Ñģ ÐµÐº
ĠÑģÐ¾Ð±ÑĭÑĤ Ð¸Ñı
ĠÐ¿ÐµÑĤÐµÑĢ Ð±ÑĥÑĢÐ³
Ð¿Ð° Ð´Ð°ÑİÑī
s h
ĠÐ±Ð¾Ð³ Ð¾ÑģÐ»Ð¾Ð²
Ð°Ð³ Ð°
Ð¸Ð· Ð´
ĠÐ±ÑĢÐ¸Ð³ Ð°Ð´
ĠÑģÐ¾Ð¿ÑĢÐ¾Ð² Ð¾Ð¶Ð´
Ġ1 000
ÑĪ ÐµÐ´
Ð°ÑĤÐµÐ»ÑĮ Ð½ÑĭÐ¹
ÐµÐ½ ÑĨÐ¸Ð¸
Ð°ÑİÑī Ð¸Ð¼
Ġv i
ĠÐºÐ°Ð»Ð¸ ÑĦÐ¾ÑĢ
ĠÐ¸Ð½ÑĤÐµÑĢÐ² ÑĮÑİ
Ð°ÑĤÐµÐ»ÑĮ Ð½Ð¾Ð³Ð¾
Ð¾ÑģÑĤ ÐµÐ¹
Ð³ Ð¸Ð½
Ð½ ÑĮÑİ
ÐµÐ½ Ð¾Ð²
Ð³ Ð°Ð·
ĠÐº ÐµÐ¼
ÑıÐ½ ÑĥÑĤ
Ð³ Ð°Ð»
ĠÐ¼Ð¾Ð³ Ð¸Ð»
ĠÐ¿ÑĢÐ¾ÑĨÐµÑģÑģ Ðµ
ĠÑħÐ¾Ð» Ð¾Ð´
ĠÑģÐ²ÑıÐ· ÑĮ
Ñĩ ÑĤ
ĠÑĥÐ· Ð±ÐµÐº
ĠÑģ ÐµÑĢÐµÐ´
ĠÐ¿Ð¾Ð»ÑĮÑĪ Ð¸
ĠÐºÐ¾Ð¼Ð¼ÑĥÐ½ Ð¸ÑģÑĤ
Ð°Ð½ ÑĩÐ¸Ð²
Ð¾Ð± Ð°
ĠÑĩ ÐµÑĩ
ĠÐ» Ð¸Ð¿
ĠÐ±Ð¾Ð»ÑĮÑĪ Ð¸Ñħ
Ð¾Ð±Ñī Ðµ
ĠÐ¼ÑĥÐ½Ð¸ÑĨÐ¸Ð¿Ð°Ð» Ð¸ÑĤÐµÑĤÐ°
Ð» Ð¾Ð³
ĠÑĩ Ð°ÑīÐµ
Ð¸Ð¼ Ð¾Ð¹
ĠÑģÐ¾ÑģÑĤÐ°Ð² Ð¸Ð»
ĠÑĢÑĥÑģ ÑģÐºÐ¾Ð¼
ĠÐ²ÑĭÑģÐ¾Ðº Ð¾Ð¹
ĠÑĦÑĳÐ´ Ð¾ÑĢÐ¾Ð²
ĠÐ²Ð¸Ð´Ðµ Ð¾
ĠÐ¾ÑģÑĤ Ð°Ð»ÑģÑı
Ð½Ð°Ð´ ÑĨÐ°ÑĤ
ÑĢÑıÐ´ Ñĥ
ĠÐ¿ÑĢÐ¸ÑģÑĤ ÑĥÐ¿
Ð¾Ð² Ðµ
ÑĨÐ¸Ñı Ð¼Ð¸
ÑģÑı ÑĤ
Ġa m
ĠÑģÑĤ ÑĢÐµÐ»ÑĮ
ĠÐºÐ°Ð» Ð¸Ð½
Ð±Ð¾Ð»ÑĮÑĪ Ð¸Ð½ÑģÑĤÐ²Ð¾
ĠÐº Ð°Ð¹
ÑĨ ÐºÐ¾Ð¹
Ð¸ÑĤÐµÐ»ÑĮ ÑģÑĤÐ²Ð¾
ĠÐ½Ð°ÑĩÐ°Ð»ÑĮ Ð½Ð¸ÐºÐ¾Ð¼
ĠÐ¿ÑĢÐµÐ´ Ð¿Ð¾Ñĩ
Ġ le
Ð½ ÐµÐ´
ĠÐ¾ÑĤ ÑĢÑıÐ´Ð°
ĠÐ¸ÑģÑĤÐ¾ÑĢ Ð¸Ñı
Ð¾ ÑħÐ¾Ð´
ÑĢÐµ Ð»Ð¸
ĠÑı Ñģ
Ð´Ð¸Ð½Ð°Ð¼ Ð¾
ĠÐ¸Ð½Ð´Ð¸Ð² Ð¸Ð´Ñĥ
Ð°Ð½ÑĤ Ð¾Ð²
ÐµÐ³ Ð°
ĠÑĤÑĢÐµ Ñħ
ĠÑģÑĤ Ð°Ð±
Ð° ÑĢÐµÐ²
Ġrec ord
Ġ us
ÑĥÐ¼ Ðµ
Ð°ÑĢ Ð¸Ð¹
ĠÐ° ÐºÑĥ
ĠÑĢÐ¾Ð¼ Ð°Ð½Ð°
ĠÐ¿Ð¾ÑģÑĤÑĢÐ¾ ÐµÐ½Ð°
ĠÐ¿Ð°ÑģÑģÐ°Ð¶ Ð¸ÑĢ
ĠÐºÐ°Ð½Ð´Ð¸Ð´ Ð°ÑĤ
ĠÐ·Ð²ÐµÐ·Ð´ Ñĭ
ÐµÐ· Ð¶
ĠÐ¿ÐµÑĢÐµÐ´Ð°Ñĩ Ð¸
ĠÐ½Ð°ÑĩÐ¸Ð½ Ð°Ñı
Ð·ÐµÐ¼ Ð¿
Ð³ ÑĢÐ°Ð½
ĠÑħÐ°ÑĢÐ°ÐºÑĤÐµÑĢ Ð¸Ð·
ĠÐºÐ¿ ÑģÑģ
ĠÑĢÐ¾ÑģÑģÐ¸Ð¹ ÑģÐºÐ¾Ð³Ð¾
ĠÐ± ÑĥÐ»
Ð·Ð°Ð¿Ð°Ð´ Ñĥ
7 1
ĠÑĤÐ¾Ð¿ Ð»Ð¸Ð²
ĠÑħ ÑĢÐ¾Ð½
ĠÐ¸Ð¼Ðµ ÑİÑī
ĠÐºÐ¾Ð½ÑĤ Ð¸Ð½
ĠÐ·Ð° ÑģÐ»
ĠÐ± Ð»Ð¸Ð¶Ð°Ð¹
ĠÑĩÐ¸Ñģ Ð»
ÑĢÐµÐ³ Ð¸ÑģÑĤÑĢ
ĠÐ´Ð¾Ð³ Ð¾Ð²
Ñħ Ð¸
ĠÑĩ Ð¸Ð½Ð¾Ð²
ĠÑĤÑĢÐ°Ð´ Ð¸ÑĨÐ¸Ð¸
Ð¸Ð²ÑĪ ÐµÐ³Ð¾
ĠÐ¿Ð¾ÑģÐ»ÐµÐ´ Ð½ÐµÐ³Ð¾
ĠÐ³ ÑĥÑģ
ĠÐ¾ÑĤÑģÑĤÐ°Ð² ÐºÑĥ
ĠÑĢÐµÐ¶Ð¸ÑģÑģ ÑĳÑĢ
Ð· Ñĥ
ĠÐ² Ð¸Ð»
ĠÐ¿ÑĢ Ð¾Ð·Ð²
ĠÐ²Ð¾ÑģÑģÑĤ Ð°Ð½Ð¸Ñı
ĠÑģÐ¾ÑģÑĤÐ°Ð² Ð¸Ð»Ð°
ĠÐ¾ÑĢÐ³ Ð°Ð½Ð¾Ð²
Ð°Ð²ÑĪ Ð¸ÑħÑģÑı
ĠÑģÐ»Ð°Ð² ÑıÐ½
ÑĭÑĪ Ðµ
ĠÐ³ Ð°ÑģÑĤ
Ð¾Ñģ Ð²
ÐµÐ½Ð¸ ÑĢÐ¾Ð²
ĠÐ¼Ð°ÑĤÐµÑĢÐ¸ Ð°Ð»
s c
ĠÐ¿ÑĢÐµ Ð²ÑĢÐ°Ñī
ĠÑģÐ¾Ð» Ð½ÐµÑĩ
ĠÐ¿ÑĢÐµÑģÑĤ Ð¾Ð»
Ð¼Ð¸ ÑĢÑĥ
0 1
4 2
ĠÐ¸ÑģÐºÐ»ÑİÑĩ ÐµÐ½Ð¸ÐµÐ¼
ĠÑģ Ð¾Ð»ÑĮ
ĠÐ¿ÐµÑĢÐµ Ð¿ÑĢÐ°Ð²
ĠÐ´Ð¸Ð¿Ð»Ð¾Ð¼ Ð°ÑĤ
ĠÑĢ Ð¾Ð²
Ð¸Ð· Ð¾Ð²Ð°Ð½
ĠÑģÑĤÑĥÐ´ Ð¸Ð¹
ÑģÐ¾ ÑİÐ·
ĠÑĢÐ¾ÑģÑģÐ¸Ð¹ ÑģÐºÐ¸Ñħ
ĠÐ¿Ð¾Ð» ÑĳÑĤ
ĠÐ¿Ð¾Ð´Ð³Ð¾ÑĤÐ¾Ð² ÐºÐ¸
ÑģÐµÐ² ÐµÑĢ
ÑĢ Ð¸Ð¼
ĠÐ³ ÐµÑĤ
ĠÐ±ÑĥÐ´ ÑĥÑĩÐ¸
ĠÐ¿ÑĢÐ¸Ð±Ð»Ð¸Ð· Ð¸ÑĤÐµÐ»ÑĮÐ½Ð¾
ĠÐºÐ½ÑıÐ· ÑĮ
ĠÑģÐ¸Ð» Ð°Ð¼Ð¸
Ð³ Ð¾Ð½
5 6
Ġ4 00
ÑĪ Ð»Ð¾
ĠÑĢÐ¾Ð´ ÑģÑĤÐ²ÐµÐ½
ĠÑģÐµÐ¼ Ð¸Ð½
ĠÐ»Ð¾Ð½Ð´ Ð¾Ð½Ðµ
ĠÑģÐ¾Ð·Ð² ÐµÐ·Ð´
ĠÐ´Ð¸Ð°Ð» ÐµÐºÑĤ
8 6
ĠÐ¿ÑĢÐ¸Ð¾Ð± ÑĢÐµÑĤ
ÐµÐ½Ð¸ Ð»
ÐºÐ° Ñģ
Ð²Ñĭ ÑĩÐ°Ð¹
ĠÑĥÐ´ ÐµÑĢÐ¶
ĠÑħÑĥÐ´Ð¾Ð¶ Ð½Ð¸ÐºÐ°
ĠÑĥÐ³ Ð¾Ð»Ð¾Ð²
ÐµÑĦ Ð°
ĠÑı ÐºÐ¾Ð²
ĠÐ»ÐµÐ³ ÐºÐ¾
ĠÐ¿ÑĢÐ¾Ð² ÐµÑĢ
ĠÐ¿Ð» Ð¾Ð´
ĠÑĦÐ¸Ð»Ð¸ Ð¿Ð¿
ĠÑģÑĢÐµÐ´ Ð½ÐµÐ²ÐµÐº
ĠÐºÐ¾ÑĢÐ°Ð± Ð»ÑĮ
o ur
ĠÐ¾ÑĤ ÑĤ
ĠÑįÐ»ÐµÐ¼ ÐµÐ½ÑĤÐ¾Ð²
ĠÑģÐµÑĢ Ð¸Ð¹
ĠÐ¾Ñħ Ð¾ÑĤ
ĠÐ¿ÑĢÐµÐ¼ Ð¸Ñİ
ĠÐ¾ÑĦÐ¸ÑĨ ÐµÑĢÐ¾Ð²
Ġ un
Ð» Ð¸Ð½Ð³
ÐµÐ½ Ð´Ð°
ĠÑĪ ÐµÑģÑĤÐ¸
ĠÐ± Ð°Ñģ
ĠÐ½ÐµÑĦ ÑĤ
Ð¾Ð± Ð»Ð°
ĠÐ²ÐµÐº Ð¾Ð²
Ð¸Ð½ ÐºÐ¸
ĠÑı Ð´ÐµÑĢ
ĠÐ´Ð¸ÑĢÐµÐº ÑĤÐ¾ÑĢÐ°
1 00
Ñı Ð½Ð°
Ð°ÑĢ ÑģÐºÐ¾Ð³Ð¾
ÑĮ ÑĪÐµ
s s
ÑģÐ¾Ð² ÐµÑĢÑĪ
c om
Ð½ ÐµÑģÐº
Ð¸Ð³ Ð°
ĠÑģÑĤÑĢÐµÐ»ÐºÐ¾Ð² Ð¾Ð³Ð¾
ĠÑĢÐµÐºÐ¾ÑĢ Ð´
Ð¸Ð²ÑĪ Ð¸ÑħÑģÑı
Ð°Ð»ÑĮ Ð½Ð¾ÑģÑĤÑĮ
ĠÐ´Ð² Ð¾Ð¹
ÐµÐ» ÐµÐ¼
ĠÑĨ Ð°ÑĢÑı
ĠÑĨÐµÐ½ÑĤÑĢÐ°Ð»ÑĮ Ð½Ð¾Ð³Ð¾
Ð¾Ð¶ Ð¸Ð´
ĠÑģÐ¾Ð±ÑĢÐ°Ð½ Ð¸Ñı
ĠÑĩÐ°ÑģÑĤ Ð¸ÑĩÐ½Ð¾
ĠÐ¾Ñĩ ÐºÐ¾Ð²
ÑĤ ÑĢÐ°Ð½
Ð°Ð»ÑĮ Ð½Ð¾Ð¼Ñĥ
Ð¿ÐµÑĢÐ² ÑĭÐ¼
Ð»ÐµÐ½ Ð´
ĠÑĢÐµ Ð³Ð¸Ð¾Ð½Ð°
ĠÐ½Ð°ÑģÑĤÑĥÐ¿ Ð»ÐµÐ½Ð¸Ðµ
Ġ1 20
ĠÑĦÐµÑģÑĤ Ð¸Ð²
Ð°Ð² ÑĢ
ÐµÐ² ÑĢÐ¾Ð¿
ĠÐ¿ÑĢÐ¾ÑĦÐµÑģÑģ Ð¾ÑĢÐ°
Ð½ Ð°ÑĢÐ¾Ð´
ĠÐ¶ÐµÐ½Ð¸ Ð»ÑģÑı
ĠÐ¿Ð°ÑĢÑĤ Ð½
ĠÑģ Ð¾ÑĢ
Ð½ Ð¾ÑĢ
ĠÐº Ð°ÑģÑĤ
ĠÐ´Ð¾Ð¼ Ð¸Ð½
en s
Ð´ Ð¾Ð»
ĠÑģÐµÐ¹ ÑĩÐ°Ñģ
ĠÑģÑĤÐ°ÑĢ ÑĪÐµ
ĠÐ±Ð¾Ð¼Ð±Ð°ÑĢÐ´ Ð¸ÑĢÐ¾Ð²
ÐµÐ½ ÑģÑĤÐ²
Ġ19 12
ĠÐ°Ð½ÑĤ Ð¾Ð½
ĠÑĥ Ð½Ð¸Ðº
ĠÐ°Ð½ Ð°Ð»Ð¸Ð·
ĠÑįÐº ÑĢÐ°Ð½
ĠÐ¿ÑĢÐ¾ÑĪ Ð»Ð¸
ÑĢÐ°Ð¶ ÐµÑģÐº
ĠÐ¿ÑĢÐ¾ Ñħ
ĠÐ°Ð»ÐµÐºÑģ ÐµÐ¹
ÑıÐ» ÑģÑı
ĠÐ¿ÑĢÐ¸Ð» Ð¾Ð¶
Ð² Ð¾Ðº
4 7
Ð¾Ñģ Ð¿Ð¾ÑģÐ¾Ð±
ĠÐ·Ð°Ð¼ ÐµÑĩ
ĠÐ¿ÐµÑĢÑģ Ð¾Ð½
Ð¿ Ð°Ð½
ĠÐ» Ð¾Ñģ
ĠÑģÐ¾Ð·Ð´ Ð°ÑĤÑĮ
ĠÐ±Ð¸Ð· Ð½ÐµÑģ
Ð¸Ñī Ð°
ĠÐ²Ð¾Ð¾ÑĢÑĥÐ¶ ÑĳÐ½Ð½ÑĭÑħ
Ġ $
Ð¼ Ð¾Ð¼
ĠÐ³ÐµÑĢ Ð±
ĠÐ²ÐµÐ´ Ð¾Ð¼
Ð» Ð¾Ð¹
ÐµÐ² ÑĭÐ¼
ĠÐ´ ÑĢÐ°
ĠÐ¸Ð³ÑĢÐ¾Ðº Ð¾Ð²
ĠÐº Ð°Ð»ÑĮ
ĠÐ» Ð¾ÑĪ
ĠÑĦ Ð°ÑĢ
ÑĥÐºÐ°Ð· Ð¾Ð¼
ĠÐ¾ÑĤ Ð¼ÐµÐ½
Ð½ÐµÐ¹ ÑĪÐ¸Ñħ
ĠÐ¾ÑĤÐºÐ°Ð· Ð°Ð»ÑģÑı
ÑĢ Ð¸ÑħÐ°
6 3
Ð¿Ð» Ð°Ð½
ĠÐ°ÑĤ Ð¼Ð¾Ñģ
ĠÑĪÐ°Ñħ Ð¼Ð°ÑĤ
ĠÐ²ÑģÑĤÑĢÐµÑĩ Ð°ÑİÑĤÑģÑı
ĠÐºÐ°Ð·Ð°ÑħÑģÑĤ Ð°Ð½Ð°
Ð± Ð¾Ð³
ĠÐ°Ñį ÑĢÐ¾Ð´
Ð½Ð¾ÑģÑĤ ÑıÐ¼Ð¸
ĠÐ½Ð°ÑĨÐ¸Ð¾Ð½ Ð°Ð»ÑĮÐ½ÑĭÐ¹
ÐµÐ½ ÑĩÐµÑģÐº
Ð¸Ð²ÑĪ Ð¸Ðµ
ĠÑĢÐ¾Ð´ Ð¸Ð»Ð°ÑģÑĮ
ĠÑģÐ² ÑĭÑĪÐµ
Ð» Ð°Ð½ÑĤ
ÑĩÐ¸ÑģÐ»ÐµÐ½ Ð½ÑĭÑħ
Ð¸Ð½ÑĤ ÐµÑĢÐµ
Ġp ro
ÑĤÐ¸ ÐµÐ¼
ĠÐ²Ð¾ÑģÑĤ Ð¾Ðº
Ð¿ÐµÑĤÐµÑĢ Ð±ÑĥÑĢÐ³Ðµ
4 9
Ð°Ð² ÐºÐ°Ð·
ĠÐºÐ¸Ð»Ð¾Ð¼ÐµÑĤ ÑĢÐ¾Ð²
Ð¸ÑģÑĤ Ð°Ð½Ð°
Ð²Ð¾ÑģÑĤ Ð¾ÐºÐµ
ÑĢÐµ ÑģÐ¿
Ð¿ÑĢÐµ ÑģÑģ
ĠÐ°Ð¿ Ð¾ÑģÑĤ
Ð°Ð½Ð³ ÐµÐ»ÑĮ
ĠÐ¿Ð¾ÑĤ ÐµÐ½ÑĨÐ¸
ÐºÐ¾Ð² Ð¾Ð¹
Ð¾Ñĩ ÐºÐ°
ĠÐ¿Ð¾Ð» Ð°Ð³
ĠÐºÑĢÐµÐ¿ Ð¾ÑģÑĤÐ¸
ĠÐ² Ð»
ĠÐ¾Ð± Ð¾
ĠÐ±Ð°ÑĤÐ°Ð»ÑĮ Ð¾Ð½Ð°
Ð°Ð²ÑĪÐ¸Ð¹ ÑģÑı
ĠÑĥÑģÑĤÐ°Ð½Ð¾Ð² Ð»ÐµÐ½Ñĭ
ĠÐ¿Ð¾Ð»ÑĥÑĩ Ð°ÐµÑĤ
Ñı Ñı
ĠÐ³Ð°Ð· ÐµÑĤ
ĠÑĥÐ³ ÑĢÐ¾Ð·
Ð¼ ÐµÐ»
ĠÑįÐ¿Ð¾Ñħ Ð¸
ĠÐ¸Ð² Ð°Ð½Ð°
ĠÑĦÐ¸Ð½ Ð°Ð»Ðµ
ĠÑĢÐ¸Ñģ ÑĥÐ½
ĠÐ·Ð°Ð¼ÐµÑģÑĤ Ð¸ÑĤÐµÐ»ÐµÐ¼
ĠÐ²ÐµÑĢÐ¾ÑıÑĤ Ð½Ð¾
ĠÐ± ÑĥÑĤ
ÐµÑĢÐ° Ð¿
ĠÐ½ÐµÐ¼ÐµÑĨ ÐºÐ¸Ñħ
ĠÐ²Ð»Ð°Ð´ Ð¸Ð¼Ð¸ÑĢÐ°
ĠÐºÐ¾Ð¼Ð°Ð½Ð´ Ð¾Ð²Ð°Ð»
Ð¾ÑģÐ½Ð¾Ð² Ð½ÑĭÐµ
ĠÐºÐ°ÑĢÑĮ ÐµÑĢÑĭ
ĠÐ¼ ÑĥÐ»ÑĮÑĤ
ĠÐ¾Ð»Ð¸Ð¼Ð¿ Ð¸
ĠÐ²ÑĤÐ¾ÑĢ Ð¾Ðµ
ĠÐ±ÑĥÐº Ð²
ĠÐ¿Ñģ ÐµÐ²
ĠÐ¼Ð°ÑĤÐµÑĢÐ¸ Ð°Ð»Ð¾Ð²
ÑĤ ÑĥÑĢ
ĠÐ¿ÑĢÐ¾Ð´Ð¾Ð»Ð¶ Ð°Ð»
Ġ ÑīÐ¸ÑĤ
ĠÐ¸Ð½ÑĤÐµÑĢÐ½ ÐµÑĤ
ĠÐ¾Ð±ÐµÑģÐ¿ÐµÑĩ ÐµÐ½Ð¸Ñı
ĠÐ¿Ð¸ÑĪ ÐµÑĤ
ĠÐ² Ð¸ÑĢ
Ð¾Ð»Ð¾Ð³ Ð¸ÑĩÐµÑģÐºÐ¾Ð³Ð¾
ĠÑĢÐµÐ·ÑĥÐ»ÑĮÑĤ Ð°ÑĤÑĭ
ÐµÑĨ ÐºÐ¸Ð¹
ĠÐ¿ÑĢ Ð¾ÑģÑĮ
4 3
ĠÐ¿ Ð°Ð»ÑĮ
Ð»Ñı ÑİÑĤ
ĠÑĦÑĢÐ°Ð½ÑĨÑĥÐ· ÑģÐºÐ¾Ð¹
ĠÐ» Ð¾ÑĢ
r y
ĠÑĢÐµ ÐºÑĥ
ĠÑĢÐµÐ»Ð¸ Ð³
r u
Ð¾Ð½ ÐµÑĩ
Ð¸ÑĤÐµÐ» ÑıÐ¼
ĠÑģÐ°Ð¼Ð¾Ð»ÑĳÑĤ Ð¾Ð²
Ð¾Ð»Ð¾Ð³ Ð¸ÑĩÐµÑģÐºÐ¾Ð¹
ĠÐ¿ÑĢÐµÐ´ÑģÑĤÐ°Ð²Ð»Ñı ÑİÑĤ
ĠÑħÑĥÐ´Ð¾Ð¶ Ð½Ð¸ÐºÐ¾Ð²
7 3
ĠÐ°ÑĢÑħ Ð¸Ð²
ĠÑĤ ÐºÐ°Ð½
ĠÑģÐ²ÑıÐ· Ð°Ð½
ĠÐ´Ð°Ð» ÐµÐµ
ĠÑįÐº Ð·ÐµÐ¼Ð¿
ĠÑģÑĤÐ¾Ð» ÐµÑĤ
ĠÐ¿Ð¾ ÑıÐ²Ð»ÑıÐµÑĤÑģÑı
0 5
ĠÐºÐ¾Ð¼ ÐµÐ´
ĠÑĢÐµÑģÐ¿ÑĥÐ±Ð» Ð¸ÐºÐ°Ð½
Ð¸ÑĢÐ¾Ð²Ð°Ð½ Ð½Ð¾Ð³Ð¾
Ð²Ñĭ ÑģÑĤÑĥÐ¿
ÐµÐ» Ð»Ð¸
ĠÐ± Ð¾Ð½
ĠÐ¶ ÐµÐ½Ð°
Ð¸Ð²ÑĪÐ¸Ð¹ ÑģÑı
ĠÐ·ÐµÐ¼ Ð»Ñİ
4 1
ÑĥÐ± ÐµÐ¶
ĠÑĥÑĤ Ð²ÐµÑĢÐ¶
ĠÐ¾Ð±ÑĬÑıÐ² Ð¸Ð»
Ð² Ð·
ĠÐ¿Ð¾ÑģÐ»ÐµÐ´ Ð½Ð¸Ñħ
ĠÐ³Ð¾ÑģÑĥÐ´Ð°ÑĢÑģÑĤÐ²ÐµÐ½ Ð½ÑĭÑħ
Ð¶ ÐµÐ¼
ÑĦÐ¾ÑĢ Ð´
8 9
Ð¿ Ð¸
ĠÐ°Ð»ÑĮ ÑĤ
Ðº ÑĢÑĭ
ĠÐºÐ² Ð°Ð´
ĠÑĢÐµÑĩ Ð¸
ĠÑĦÐ°ÐºÑĥÐ»ÑĮÑĤ ÐµÑĤÐ°
ÑĭÐ² Ð°Ð»Ð°
ĠÐ¼Ð°Ð³ Ð½Ð¸ÑĤ
Ð¾Ð² ÑĭÐ¼Ð¸
ĠÐ¿ÑĢÐ¸ÑħÐ¾Ð´ Ð¸ÑĤÑģÑı
ĠÐ¾ÑĤÐ½Ð¾ÑĪ ÐµÐ½Ð¸Ð¹
ĠÐ·Ð² ÐµÐ·Ð´Ð°
ĠÑģÑĤ ÐµÐº
ĠÐ´Ð¸ Ð°Ð³
ĠÑĢÑĥÐ± ÐµÐ¶
ĠÐ¾Ñģ Ð½Ð°
ĠÐµÐ²ÑĢÐµ ÐµÐ²
ĠÐ¿ÑĢÐ¾ ÑĨ
ÑĩÐµÐ»Ð¾Ð² ÐµÐº
e g
ĠÐ²Ð¾Ð· Ð¾Ð±Ð½Ð¾Ð²
ĠÑģÐ¸Ð½Ð³ Ð»
ĠÐ¿ÑĢÐ¸Ñĩ Ð¸Ð½
ÐµÑĢÐ° Ñħ
ÑģÑĤ Ð°Ð»
ÑĩÐµÐ¼Ð¿Ð¸Ð¾Ð½ Ð°ÑĤ
Ðº Ð¾ÑģÑĤÐ¸
ÑĢÐ° ÑĨÐ¸Ñı
ÐµÑĢÑģ Ð¾Ð½
Ð¾ÑĦ ÑĦ
ĠÑĢÑĥÐºÐ¾Ð²Ð¾Ð´ ÑģÑĤÐ²Ð¾
ĠÐ½Ð¾Ð² Ð¾Ð¼
ĠÐ¾Ð¿ ÐµÑĢ
ÐµÑħ Ð°Ð»
Ð·Ð° ÑīÐ¸ÑĤ
Ð»Ðµ Ñģ
ĠÐ¿Ð¾Ð´ Ð½Ñı
ĠÐºÐ¾Ð» Ð»ÐµÐ³
ĠÐºÐ°Ðº Ð¾Ð¹
Ð»Ð° Ð¼Ð¸
ĠÑĦÐ¾ÑĢ Ð¼Ð°
ĠÐ¿ÑĢÐµÐ´Ð¿ÑĢÐ¸ÑıÑĤ Ð¸Ð¹
ĠÐ²ÑħÐ¾Ð´ Ð¸Ð»Ð¸
Ð³ ÑĢÐ°ÑĦ
ĠÐ± Ð¾Ðµ
Ð° ÑĳÑĤÑģÑı
ĠÑĢÐµÐ³ Ð¸ÑģÑĤ
Ð°Ð² Ð°
ĠÐ°Ð± ÑģÐ¾Ð»ÑİÑĤ
ĠÐºÐ¾Ð½ÑĨ ÐµÐ½ÑĤ
ĠÑĢÐµ ÐºÐ¾Ð½ÑģÑĤÑĢÑĥÐº
ĠÑĢÐ°Ð·Ð³ ÑĢÐ¾Ð¼
Ð°Ð½ÑĤ Ð¾Ð¼
ĠÐ¾ÑģÐ½Ð¾Ð² Ð½ÑĭÐµ
ĠÐ³ Ð¾ÑĤ
Ð½Ð¾Ð² Ð¾Ð³Ð¾
ĠÐ²Ñĭ ÑħÐ¾Ð´Ð¸ÑĤ
Ġs h
ĠÐ¿Ð¾Ð»ÑĮÐ· Ð¾Ð²
ÑģÐ² ÑıÑĤ
Ð¼Ð¸ ÑĢÐ°Ð»
ÑıÑī Ð¸Ðµ
ĠÐ¿Ð¾Ð»Ñĥ ÑĦÐ¸Ð½
ĠÑĤÐ¾Ð» ÑģÑĤ
ĠÐ¿Ð°Ð¼ ÑıÑĤÑĮ
ĠÑįÑĤÐ° Ð¿
ĠÐ·Ð° Ñģ
ĠÐ¸ÑģÐ¿Ð¾Ð»ÑĮÐ· ÑĥÑİÑĤ
ĠÑģÐºÑĥÐ»ÑĮ Ð¿ÑĤ
ĠÑģÐµÑĢÐµÐ´ Ð¸Ð½Ñĭ
ĠÐ± Ñĥ
ĠÑĤÑĢÐ° ÑģÑģ
Ġ19 13
ĠÐ¼Ð¸Ð½Ð¸ÑģÑĤ ÑĢÐ¾Ð²
9 9
ÑģÐ¿ Ð¸ÑģÐ¾Ðº
ÑĭÐ² Ð°Ð»Ð¸ÑģÑĮ
ĠÐ´Ð¾Ðº ÑĤÐ¾ÑĢÐ°
ĠÐ»Ð¸Ñĩ Ð½Ð¾
ĠÑĦÐ¾ÑĤ Ð¾Ð³ÑĢÐ°ÑĦ
ĠÐ²Ð¾ÑĢÐ¾Ð½ ÐµÐ¶
ĠÐ² Ð²Ñģ
ĠÐ¾Ð± Ð½Ð¾Ð²
Ð°ÑĤÐµÐ»ÑĮ Ð½ÑĭÐµ
ĠÐ¿ÑĢÐ¸Ð· Ð½Ð°Ðº
ĠÐºÐ°ÑĢ Ð»Ð°
ÑĢ Ñİ
ĠÐºÑĢÐµÐ¹ Ñģ
Ð°Ð½Ð¸Ñı Ñħ
ĠÑĥÐºÑĢÐ° Ð¸Ð½Ðµ
Ñģ Ð²Ð¾
Ð¿ÑĢ Ð¾ÑĦ
ĠÑģÐµÐ²ÐµÑĢ Ñĥ
ĠÐ¸Ð· Ð´ÐµÐ»
Ð°Ð²ÑĪ Ð¸ÐµÑģÑı
Ð½Ð¸ÑĨ Ñĥ
ĠÐµÐ´Ð¸Ð½ÑģÑĤÐ²ÐµÐ½ Ð½ÑĭÐ¹
ĠÐ´ ÐµÑĢ
ĠÐ¼Ð¸ÑħÐ° Ð¸Ð»Ð°
ĠÐ¾Ñģ Ð¼Ð°Ð½
ĠÐ°Ð½ ÑĤÐ¸
Ġt e
ĠÐ¾ÐºÐ¾Ð½Ñĩ Ð°ÑĤÐµÐ»ÑĮÐ½Ð¾
ĠÐ½Ð°Ð·Ð² Ð°Ð»
Ð¸ÑĤÐµÐ»ÑĮ Ð½ÑĥÑİ
Ð¶ ÐµÐ²
ĠÐ·Ð°Ðº ÑĢÑĭ
ĠÐ¿Ð¾ÑĢÐ°Ð¶ ÐµÐ½Ð¸Ðµ
Ġ &
Ġt h
ĠÐ±Ñİ ÑĢÐ¾
Ð¾Ð» Ð¸
ĠÐ½Ð°Ñĩ Ð¸Ð½Ð°
ÐºÐ¾Ð½ ÐµÑĨ
Ð¸ÑĢÑĥ ÐµÐ¼
ĠÑģÐ¾Ñģ ÑĢÐµÐ´
6 1
ĠÑĤÑĢÐµÑĤÑĮ ÐµÐ³Ð¾
ĠÐ² Ð¾Ð²
Ñİ Ð´Ð°
ĠÐ°Ð¼ÐµÑĢ Ð¸ÐºÐµ
ĠÑĥ Ð´Ð°Ñĩ
Ð¾Ñĩ ÐµÑĤ
ĠÐ²Ð°Ñģ Ð¸Ð»Ð¸Ð¹
ĠÐ¾Ð± Ð°
Ð°Ð· Ð°
ĠÑĪ Ð°Ð³
Ð»ÐµÐ½ Ð½Ð¾Ð¹
ĠÐ°Ð² ÑĤÐ¾ÑĢÐ°
ÑĳÐ½ Ð½Ð¾Ð¼
ĠÐ½ÐµÐ¼ Ð½Ð¾Ð³Ð¾
ĠÐ¿Ð¾Ð»Ð½Ð¾Ð¼ Ð¾Ñĩ
ÐºÐ° Ð´
ĠÐ²ÐµÐ½ Ðµ
ĠÐ´Ð¸Ð½Ð°ÑģÑĤ Ð¸Ð¸
ĠÐ°ÑĢ Ð¸ÑģÑĤ
ĠÐ°ÑĢÑĤ Ð¸ÑģÑĤ
ĠÑĢÐ°Ð·Ð² Ð¸Ð²
ĠÐ·Ð° ÑĢÐµÐ³Ð¸ÑģÑĤÑĢ
Ġ19 16
ĠÐ¸Ð·Ð´ Ð°Ð½Ð¸Ðµ
0 9
ĠÐ´ Ð¾Ð±ÑĭÑĩ
ĠÐ¾Ð¿ Ð¿Ð¾Ð·
ĠÐºÐ° Ð±Ð¸Ð½
s k
ĠÐ·Ð°Ð² Ð¸Ñģ
ĠÑįÐºÑģÐ¿ ÐµÑĢÑĤ
ĠÐ¿ÐµÑĢÐµ ÑĥÐ»
ĠÐ¾Ð´ Ð½
ĠÐ³Ð¾Ð» Ð»Ð°Ð½Ð´
Ð¿ÑĢ Ð¾ÑĤÐ¸Ð²
Ð»ÐµÑĤ Ð²Ð¾ÑĢ
ĠÐº Ð¾ÑĪ
ĠÐ³Ð¾ÑĢÐ¾Ð´ Ð¾Ð¼
Ð½Ð¾Ñģ Ð»ÑĥÐ¶
Ð»ÐµÐ½ Ð½Ð¾
ĠÐ¸ÑģÐºÐ»ÑİÑĩ Ð¸ÑĤÐµÐ»ÑĮÐ½Ð¾
ĠÐ¾Ð³ Ð¾Ð½ÑĮ
ĠÑĢÐ°Ð· Ð½ÑĭÐµ
ĠÑıÐ·Ñĭ ÐºÐ°Ñħ
ĠÐ·Ð°Ðº ÑĢÐµÐ¿
Ñĩ Ð¶
ĠÐ´ Ð¸ÑĢ
ĠÐ²Ð¾Ñģ ÐµÐ¼
Ðº Ð»Ð°ÑģÑģ
ĠÐºÐ° ÑģÑģ
Ġ19 10
Ð¾Ð² Ð»ÐµÑĤÐ²Ð¾ÑĢ
ĠÐ¾Ð± Ð»
ĠÐºÑĢÐ°Ð¹ Ð½Ðµ
ĠÑģÑĭ Ð½Ð¾Ð¼
ĠÐ³Ð¾Ñģ Ð¿Ð¸ÑĤ
ĠÐ°ÑĢÐ¼Ð¸ ÐµÐ¹
ĠÑĢÐ°Ð±Ð¾ÑĤ Ð°Ð»Ð°
ĠÑįÐ½ÐµÑĢÐ³ Ð¸Ð¸
Ð´ÐµÑĢÐµÐ² Ð½Ñı
Ð°Ð½ Ñĥ
ĠÑĢ Ð¾ÑĤ
ĠÐ¼Ð°ÑĢ Ð¾Ðº
Ð» Ð¾Ð´
ĠÑĤÐµÐ¾ ÑĢÐµÑĤ
ĠÐºÐ»ÑĥÐ± Ðµ
ĠÑįÐ² Ð°ÐºÑĥ
ĠÐºÐ¾Ð¼Ð¿Ð»ÐµÐºÑģ Ð°
5 8
ĠÐ² Ð²Ð¾Ð´
ĠÑįÐ»ÐµÐ¼ ÐµÐ½ÑĤÑĭ
ÑģÑĤÐ¾ ÑıÑĤÐµÐ»ÑĮ
ĠÐ² ÑĢÐ°Ð¶ÐµÑģÐº
Ñĳ Ð¼Ð°
ÑģÑĭ Ð½
Ð¸Ð¼ ÑĭÑħ
ÐµÑĢÐ° ÑĨÐ¸Ñı
ĠÐºÐ» Ð¸Ð¼
Ð°Ð² ÑĤ
Ð¾ÑĢ Ñĥ
Ð¿Ð¾ ÑģÐºÐ¾Ð»ÑĮÐºÑĥ
Ġrecord s
ĠÑħ Ð²Ð¾ÑģÑĤ
Ð¸ÑĨ ÐºÐ¸Ð¹
ĠÐ¿Ð¾Ðº ÑĥÐ¿
ĠÐ´Ð°Ð½ Ð½Ð¾Ð¹
ĠÑģÐ¾ÑģÑĤÐ°Ð²Ð»Ñı ÑİÑĤ
ĠÐ¿ÑĢÐ¾ÑĤ ÐµÐºÐ°ÐµÑĤ
ĠÑģÑĥÑīÐµÑģÑĤÐ² Ð¾Ð²Ð°Ð½Ð¸Ñı
ĠÐ»Ð¸Ð½ Ð¸Ñı
ĠÐºÑĢÑĥÐ¿ Ð½ÑĭÐµ
ĠÑĤ ÐµÑģÑĤ
ĠÐ¾Ð±ÑĬ ÑıÑģÐ½
ĠÐ¿ÑĢÐ¸ Ð¿Ð¸Ñģ
Ð»Ñı ÐµÐ¼
ĠÐ²Ñģ ÐµÐ¼Ñĥ
ĠÐ°Ð»ÐµÐºÑģ Ðµ
ĠÐ¿Ð¾Ð»Ð¾Ð² Ð¸Ð½Ñĭ
ÑĢÐ° ÑĪ
Ð¾Ñģ Ð¸ÑĦ
0 8
ĠÐ¾ÑĤ Ð·
Ð·Ð°Ð¿Ð°Ð´ Ðµ
ĠÑĢÐ¾Ð± ÐµÑĢÑĤ
ĠÑįÐºÑģÐ¿ÐµÐ´ Ð¸ÑĨÐ¸Ð¸
ĠÑĩÑĢÐµÐ· Ð²ÑĭÑĩÐ°Ð¹
Ġb e
Ð°ÑĤÑĥ Ñĥ
ĠÑģÐ¾Ð·Ð²ÐµÐ·Ð´ Ð¸Ð¸
ĠÐºÐ¾ Ð°ÑĤÑĥÑĥ
ĠÑĤ ÑĢÐ¾Ð¿
ĠÐºÑĢ Ð¸Ð·
ÑįÑĤÐ° Ð¶
ĠÐºÑĢÑĥÐ¿Ð½ÐµÐ¹ ÑĪÐ¸Ñħ
ĠÐ´ Ð¶Ðµ
ic a
Ð¸Ð½ ÐºÐ°
ÑĥÐ» Ñĥ
Ð¾Ð± ÑĬ
ĠÐ¾ÑģÐ² Ð¾Ð±Ð¾Ð´
ĠÐ¿Ð¾Ð· Ð½Ð°ÐºÐ¾Ð¼
Ð¾Ñĩ ÑĮ
ĠÐ¿ÑĢÐµ Ð²ÑĢÐ°ÑĤ
ĠÐ±ÑĢÐ¸ÑĤ Ð°Ð½ÑģÐºÐ¾Ð¹
ĠÐµÐ¶ÐµÐ³Ð¾Ð´ Ð½Ð¾
Ð°ÑĤ Ð¸
ĠÐ±Ð° ÑģÐºÐµÑĤ
ĠÐ¾ÑģÐ½Ð¾Ð² Ð½ÑĭÐ¼
ĠÐ»ÑĥÑĩ ÑĪÐ¸Ð¼
ĠÑĨ Ð·
ĠÐ°Ð½Ð³Ð» Ð¸Ð¹ÑģÐºÐ¸Ð¹
ĠÐ¿ÑĢÐµÐ´ÑģÑĤÐ°Ð² Ð»ÐµÐ½Ñĭ
ĠÑĤÑĢÐ°Ð½ ÑģÐ¿Ð¾ÑĢÑĤÐ°
ĠÐ¿Ð¸ÑģÑĮ Ð¼ÐµÐ½
ĠÐ± ÑĥÐ¼Ð°
ĠÐ´Ð¾Ð»Ð¶ Ð½Ð¾
ĠÐ² ÑĥÐ»
ĠÐ²Ð¸Ð»ÑĮ Ð³ÐµÐ»ÑĮ
ĠÐ¸Ñģ Ð»Ð°Ð¼
ĠÐ´Ð¼Ð¸ÑĤ ÑĢÐ¸Ð¹
ĠÐ¾ÑģÑĤ Ð°Ð»ÑĮÐ½ÑĭÐµ
Ð¿ÐµÑĢÐ² Ð¾Ðµ
ĠÐ¾Ð· ÐµÑĢÐ¾
ĠÐ¿ÑĢÐ¾Ð¸Ð·Ð²ÐµÐ´ ÑĳÐ½
ĠÐ±Ñİ Ð´Ð¶
ĠÐ¾ÑĢÑĥÐ´ Ð¸Ð¹
Ñĩ Ð¸ÐºÐ¸
Ð°ÑĢ ÑĥÑģ
Ð² Ð´
ĠÑģÑĤ ÑĥÐ¿
ĠÐ³Ð¾ÑģÑĥÐ´Ð°ÑĢ ÑģÑĤÐ²Ð¾
ĠÑĢÐµÑĦÐ¾ÑĢÐ¼ Ñĭ
ĠÐ°ÑģÑģÐ¾ÑĨÐ¸ Ð°ÑĨÐ¸Ð¸
ĠÐºÐ¾Ð½Ðº ÑĢÐµÑĤ
ĠÑĤ ÐµÑģ
ĠÐ¿ÑĢÐµ Ð²Ð¾Ñģ
ĠÐ¿ÑĢÐ¸Ð· ÑĳÑĢ
Ð¸Ñĩ Ð½ÐµÐ²
ĠÑĤÑĢÐµÐ± Ð¾Ð²Ð°Ð½Ð¸Ñı
Ð¾Ð»Ð¾Ð³ Ð¸ÑĩÐµÑģÐºÐ¸Ðµ
m an
ĠÐ´ÐµÐ½ÑĮ Ð³Ð¸
Ð³ ÑĢÐ°Ð´
ĠÐ¶ ÐµÐ½Ñĭ
ĠÑĥÐ¸Ð»ÑĮ ÑıÐ¼
ĠÑģÐ¼ ÑĭÑģ
ĠÐ±Ð¾Ð»ÐµÐ· Ð½Ð¸
ĠÐ°ÑĢÑħÐ¸ÑĤÐµÐºÑĤ ÑĥÑĢ
Ð± Ð¾Ð½
ĠÐºÐ¾Ð¼Ð¿Ð¾Ð· Ð¸ÑĨÐ¸Ð¸
ĠÑģÐºÐ¾ÑĢ Ð¾ÑģÑĤÐ¸
Ñį Ð¿
or t
ĠÐ²Ð¾ÑģÐ¿ Ð¾Ð¼Ð¸Ð½
Ġ ;
ĠÑĥ Ð²Ð¾Ð»
4 6
ĠÐ±Ð¾Ð»ÑĮÑĪ ÐµÐ²
ĠÑĢÐ°ÑģÑģ ÑĩÐ¸ÑĤ
ĠÐ¾ÑģÐ½Ð¾Ð²Ð°Ð½ Ð°
Ñħ Ð°Ð¹
ĠÐ°Ð´Ð¼Ð¸Ð½Ð¸ÑģÑĤÑĢÐ°ÑĤÐ¸Ð² Ð½Ð¾Ð¼Ñĥ
ÑĥÑĢÐµ Ð°ÑĤ
ĠÑĤÐ¾ÑĢ Ð¶
ĠÐ¿Ð°Ð² ÐµÐ»
ĠÑģÑĤ Ð¾Ð¸ÑĤ
ĠÐ¿ÑĢÐ¸ÑĢÐ¾Ð´ Ñĭ
ĠÐ¿Ð¾Ð» Ð¾ÑĤ
ĠÐ· Ð¾Ð½Ðµ
ĠÑģÐ¾ÑģÑĤÐ¾Ñı Ð½Ð¸Ðµ
ĠÐ» Ð¾Ð¶
ĠÐ½Ð°Ð¹ Ð´
Ð¸Ð¼Ð¸ ÑģÑı
Ð¾ Ð¾Ð±ÑĢÐ°Ð·
Ð¾Ð± Ð¸Ð»ÑĮ
ĠÑĥÐ´Ð¾ÑģÑĤÐ¾ ÐµÐ½
Ð´Ð° ÑĳÑĤ
ĠÑģÐ¾ÑģÑĤÐ¾Ñı Ð»Ð¾ÑģÑĮ
ĠÐ¿Ð¾ÑģÑĳÐ» ÐºÐµ
Ð³Ð¾Ñģ ÑĥÐ´Ð°ÑĢ
Ð¾Ñģ Ð¾Ð¼
Ð½Ð¾ Ñĩ
ĠÐ¾Ð±ÑĬÐµÐ´Ð¸Ð½ ÐµÐ½Ð¸Ñı
Ð¸ÑĢ Ñĭ
ĠÑģÐ¿Ð¾ÑĢÑĤ ÑģÐ¼ÐµÐ½
Ð¾Ñģ Ðµ
ĠÐ²ÑĢÐµÐ¼ ÑĳÐ½
y st
ÑĩÑĤ Ð¾Ð±Ñĭ
ĠÑĥÐºÐ°Ð· Ð¾Ð¼
ĠÐ¼Ð½Ð¾Ð³Ð¾ÑĩÐ¸ÑģÐ»ÐµÐ½ Ð½ÑĭÐµ
ĠÐºÐ¾Ð»Ð¸Ñĩ ÐµÑģÑĤÐ²Ð°
ĠÐ´ Ð½Ð¸
Ñħ Ð¾Ð»
ÑģÑĤÐ²ÐµÐ½ Ð½Ð¾Ðµ
ĠÑĤÐµÐ» ÐµÑģ
ĠÐ°ÑĢÑħÐ¸ÑĤÐµÐºÑĤ ÑĥÑĢÑĭ
ĠÐ³ Ð¸ÑĤÐ°ÑĢ
ĠÐ° ÑģÑģÑĢ
ĠÐº Ð¸ÑĪ
ĠÑĥ Ð²ÐµÑĢ
ĠÑģÐ¾Ð²ÐµÑĢÑĪ ÐµÐ½Ð½Ð¾
ĠÐºÐ°Ð¼Ð¿ Ð°Ð½Ð¸Ð¸
ÑĥÑĩÐ°ÑģÑĤÐ² Ð¾Ð²Ð°Ð»
ĠÐ¿Ð°ÑĢÐ° Ð»Ð»ÐµÐ»ÑĮ
ĠÐ½Ð¾Ð¼ ÐµÑĢ
ĠÑĪÐ²Ðµ ÑĨÐ¸Ð¸
ĠÐ³ÐµÐ½ÐµÑĢÐ°Ð»ÑĮ Ð½Ð¾Ð³Ð¾
ĠÑĢÑĥ ÐºÐ¾Ð¿
ĠÐ²ÑĭÑģÑĤÑĥÐ¿ Ð°ÐµÑĤ
ĠÑĢÐµÑĪ ÐµÐ½Ð¸ÐµÐ¼
ĠÐ¿ÑĥÐ½ÐºÑĤ Ñĭ
ĠÑģÐ¾ÑģÑĤÐ°Ð²Ð»Ñı Ð»Ð¸
ĠÑĪÐ¾ÑģÑģ Ðµ
ĠÐ²ÑĤÐ¾ÑĢ ÑĭÐ¼
ĠÐ¿ÑĢÐ¾Ð´Ð¾Ð»Ð¶ Ð¸Ð»
ĠÐ¿Ð¾Ð»Ð¸ÑĤ Ð¸ÑĩÐµÑģÐºÐ¸Ñħ
ĠÐ·Ð°Ð½Ð¸Ð¼ Ð°ÑĤÑĮÑģÑı
Ð¸ÑģÑĤ Ð¾ÑĢÐ¸Ñı
ĠÐ½Ð° Ðº
Ð¿ Ð°ÑĢÑĤ
ĠÐ°Ð²Ð¸ Ð°ÑĨÐ¸Ð¸
ĠÐ²ÑģÐ»ÐµÐ´ ÑģÑĤÐ²Ð¸Ðµ
Ð°Ð½ÑĤÐ° ÑģÑĤ
Ð² ÐºÐ»ÑİÑĩ
ĠÐ¸ÑģÑĤÐ¾ÑĢ Ð¸ÑĩÐµÑģÐºÐ¸Ñħ
ĠÐ¼ Ð¸ÑĢÑĥ
ĠÐºÐ¾Ð¼Ð¿ Ð¾Ð½
ĠÐ²Ð»Ð° Ð´ÐµÐ»
0 3
ĠÐ²Ð¾ Ð¾Ð±ÑīÐµ
ĠÑĥ Ñħ
Ð¿ÑĢ Ð¾Ñĩ
Ð°Ð½ Ð½
ĠÐ´ÐµÐ¹ÑģÑĤÐ² Ð¸Ðµ
ĠÐ¶ ÐµÑĢÑĤÐ²
ĠÐ³Ð»Ð°Ð² Ñĭ
5 2
Ð»Ñı ÑİÑĤÑģÑı
ĠÐ¾ÑģÐ¾Ð± ÐµÐ½Ð½Ð¾ÑģÑĤÐ¸
ĠÐ´ÐµÐ² ÑıÑĤ
ĠÐ½ÐµÐ°ÐºÑĤÐ¸Ð² Ð½ÑĭÐ¼Ð¸
ĠÐ·Ð°Ð¿ ÑĢÐµÑĤ
ĠÐ°Ð²ÑĤ Ð¾Ð´
Ġb o
) )
ĠÐ¾ÑĤ ÑĢÐ°Ñģ
ĠÐ¿Ð¾ÑĤ ÐµÑĢÐ¸
Ð³ Ð¾Ð¼
ĠÐ³ ÑĢÐµÐ±
Ð¾Ð¿ ÑĢÐµÐ´ÐµÐ»
ĠÐ²Ð¾ÐµÐ½ Ð½ÑĥÑİ
ĠÐ¿ÐµÑĢÐµ ÑĩÐ¸ÑģÐ»ÐµÐ½Ð½ÑĭÑħ
Ð´ÐµÐ¼ Ð¾ÐºÑĢÐ°ÑĤ
ĠÑĦÐµÑģÑĤ Ð¸Ð²Ð°Ð»
ĠÑģÐµÐ²ÐµÑĢ Ð½Ð¾Ð³Ð¾
Ð¿ Ð°Ð»
Ð°Ðº Ð¾Ð½
ĠÐ°ÐºÐ°Ð´ÐµÐ¼ Ð¸Ñİ
ĠÐ¸Ð¼ ÑĥÑīÐµÑģÑĤÐ²
ĠÐ¼Ð¾Ð´ ÐµÑĢÐ½
ĠÑģÑĥÐ¿ ÐµÑĢ
ĠÐ²Ñĭ ÑĩÐ¸Ñģ
Ñĥ ÑģÐ¿
ĠÐ»ÑİÐ± Ð¾Ð¹
ĠÑģÐº Ð°Ð½Ð´
e p
ĠÐ¼Ð¾ÑĢ ÑģÐºÐ¾Ð¹
ĠÑģ ÐºÐ¾
ÑĢÐ°ÑĤÑĮ ÑģÑı
ĠÐ´ÐµÑģÑıÑĤ Ð¸Ð»ÐµÑĤ
ĠÐ´ Ð¾Ñģ
Ð°ÑĢ Ð¸Ñı
Ñģ Ð¸ÑģÑĤÐµÐ¼
Ð¶ Ð¸Ð»
ĠÑĥÐºÑĢÐ° Ð¸Ð½ÑģÐºÐ¾Ð¹
ĠÐºÑĥÐ± Ð¾Ðº
ĠÐºÐ°ÑĢÑĤ Ð¸Ð½Ñĭ
ĠÐ¿ Ð°ÑģÑĤ
ĠÐ¼ÐµÑģÑĤ Ð¾ÑĢ
ĠÑĤÐµÐ» Ð¾
ĠÐ°Ð¼ÐµÑĢÐ¸ÐºÐ°Ð½ ÑģÐºÐ¾Ð³Ð¾
Ð¸ÑģÐ¿ Ð¾Ð»ÑĮÐ·
ĠÐ½ÑĭÐ½Ðµ ÑĪ
ĠÐ½Ð¸ÐºÐ¾Ð»Ð° ÐµÐ²Ð¸Ñĩ
8 2
Ð¿ÑĢ Ð¾Ð¿
Ðº Ð¾Ð³
ĠÑįÑĤÐ° Ð¿Ðµ
ac k
ĠÑģÐ¿ ÐµÑĨ
ĠÐ²Ð¾ÑģÐº ÑĢÐµÑģ
ĠÐºÐ°ÑĤÐ°Ð»Ð¾Ð³ Ð°
c o
ĠÐ²ÐµÐ½ Ð³ÐµÑĢ
ÐµÑģÐ¾ ÑİÐ·
ĠÑı Ð¹
ĠÐ³ Ð²
ĠÐ¼ Ð¸Ð³
ĠÐ¿ ÐµÐ½
ĠÑģ Ð¾Ð¶
Ðº ÑĥÐ±
Ð¿ÑĢ Ð¾ÑĤ
ÐºÑĥ Ð´Ð°
ĠÑİ Ð½Ð¾ÑĪ
ĠÐ¾ÑģÐ½Ð° Ñī
ĠÐ²Ñģ ÐµÐ»
Ð¼ÐµÐ¶Ð´ Ñĥ
ĠÑħ ÑĢÐµÐ±
ĠÑģ ÑĥÑĢ
ĠÐ»Ð¸ÑĤÐµÑĢÐ°ÑĤ ÑĥÑĢÐµ
20 10
Ð¾ ÑĨ
ĠÐ±Ð°Ð½ Ðº
ĠÐ³ Ð»Ð°Ñģ
ÑĥÑģ Ð¾Ð²
ÑĥÑĩÐ°ÑģÑĤ Ð½Ð¸Ðº
ĠÐ²Ð¾Ð¿ÑĢÐ¾Ñģ Ð°Ð¼
ĠÐµÐ²ÑĢÐ¾Ð¿ÐµÐ¹ ÑģÐºÐ¸Ñħ
ĠÑĦÑĢÐ°Ð½ÑĨÑĥÐ· ÑģÐºÐ¾Ð³Ð¾
ĠÑģÐµÑĢÐ¸ Ð°Ð»Ð°
Ð°Ð²ÑĪ ÐµÐ¹
ĠÑģÑĤÐ°ÑĤÑĮ Ð¸
ĠÑģÐ¾ÑģÑĢÐµÐ´ Ð¾ÑĤÐ¾Ñĩ
ĠÐ½ÑĥÐ¶ Ð½Ð¾
ĠÐ· Ð°ÑĢÑı
Ġt r
ĠÑģÐ¸Ð³ Ð½
ĠÐ°ÐºÑĤ ÑĢÐ¸ÑģÐ°
ĠÐ¸Ð³ÑĢÐ¾Ðº Ð°
ĠÑĨ ÐµÐ»Ð¸
ĠÐº Ð¾Ðº
ĠÐ¼ÐµÐ· Ð¾ÑĢÐµ
ĠÐ± Ð°Ð½Ð´
ĠÐºÐ°ÑĢÑĤ Ðµ
Ð°Ð²ÑĪ Ð°Ñı
ĠÐ²ÐµÑĢÑħ Ð½ÐµÐ¹
ĠÐºÐ°Ð½ Ð°Ð»
ĠÑģÑĨÐµÐ½ Ðµ
Ð¾Ð´ Ð¾Ð»
ÑģÐ°Ð¼ Ð±
0 7
Ð¸ÑĤÐµÐ»ÑĮ Ð½Ð¾Ð¼
Ð°ÑİÑī ÐµÐµ
ĠÑģÐ¾ÑģÑĤÐ°Ð²Ð»Ñı Ð»
ĠÑĥÑģÐ»Ð¾Ð² Ð¸Ñı
Ð´Ð° ÑİÑĤÑģÑı
ĠÐ¶ÑĥÑĢÐ½ Ð°Ð»Ðµ
ÐµÐ»ÑĮ Ð½ÑĭÑħ
ĠÐ¿ÑĢÐ¾ÐµÐºÑĤ Ñĥ
ĠÐ¿ÑĢÐµÐ´ÐµÐ» Ð°Ñħ
Ðº ÐµÑĢ
ÑĪ Ð°Ñħ
ĠÐ°Ð»ÐµÐºÑģÐ°Ð½Ð´ÑĢÐ¾Ð² Ð¸Ñĩ
ĠÑģ Ð°Ð¿
ĠÐ²ÑĭÑĪ Ð»Ð¸
ĠÐ± Ð°Ð³
ĠÐ¼Ð¾Ð½ Ð°ÑĢÑħ
ĠÐ³Ð¾Ð»Ð¾Ñģ Ð¾Ð²
ĠÐ²Ð· ÑıÐ»
ĠÐ²Ð¾Ð·Ð´ÑĥÑħ Ð°
Ð¸Ð² Ð°Ð½Ð¸Ðµ
ĠÑĦÐ¸Ð½ Ð°Ð½Ñģ
ĠÐ¿ÑĢÐ¸Ð·Ð² Ð°Ð½
Ġ5 9
ĠÐºÐ¸ÑĤ Ð°Ñı
ĠÐ·Ð°ÑĢ ÑĥÐ±ÐµÐ¶
ĠÐ¿ ÑĳÑĤÑĢ
ĠÑĢÐ° ÑģÑģÐ»ÐµÐ´
ĠÐºÐ¾Ð½ÑĦÐµÑĢÐµÐ½ ÑĨÐ¸Ð¸
ĠÐ¾ÑģÐ¾Ð± ÐµÐ½
Ð°Ð»ÑĮ Ð´
ĠÐ¿Ð°ÑĢ ÐºÐ°
ĠÐ¿ÑĥÐ± Ð»Ð¸Ñĩ
ĠÐ¸Ð¼Ðµ ÑİÑĤÑģÑı
ĠÐ´ÐµÑĤ Ð¸
ĠÐ³ÑĢÐµ ÑĨÐ¸Ð¸
ĠÐºÐ°Ð· Ð°Ñĩ
ĠÑģ Ð°ÑĤ
ĠÐ³Ð¾ÑĢ Ð¸Ð·
ĠÑħ Ð°Ð¹
ĠÐ²Ñĭ ÑĢÐ¾Ñģ
Ñı Ð½Ðµ
ĠÑĨ Ð¸ÑĤ
ĠÑĢÑĥÑģ ÑģÐºÐ¸Ðµ
Ðº Ð°ÑĢÑĤ
ĠÑĤ ÐµÐ½Ð½
ÑĤ Ð¾Ð»ÑĮÐºÐ¾
ĠÐ¸Ð» Ð»Ñİ
ĠÐ¿ÑĢÐ¸Ð½ ÑıÑĤÑĮ
ĠÐ¸ÑģÐ¿Ð¾Ð»ÑĮÐ· ÑĥÐµÐ¼
0 4
ĠÐ¼Ð°ÑĢ Ð¸
ĠÑĢ ÑıÐ·
Ð»Ñı ÑİÑī
ĠÐ¿ÑĢÐ¸ Ð±ÑĭÐ»
Ġ at
ĠÐ´Ð¸ÑģÑģÐµÑĢÑĤÐ° ÑĨÐ¸Ñİ
Ġm c
ÐµÐ²ÑĢÐ¾Ð¿ ÐµÐ¹
ĠÐ»ÐµÐ³ ÐµÐ½Ð´
ĠÐ°Ð² ÑĤÐ¾ÑĢÐ¾Ð¼
ĠÑĢÐ°Ð¹Ð¾Ð½ Ð°Ñħ
ĠÐ¿Ð¾Ð´Ð´ÐµÑĢÐ¶ ÐºÐµ
ĠÐºÐ¾Ð¼Ð°Ð½Ð´ Ð¾Ð¹
ĠÑģÑĤ ÑĢÐ¾Ð¹
Ð½Ðµ ÑĢÐ°
Ð¿Ð¾Ð´ Ð¾Ð±
ĠÐ´ÐµÐ» Ð°ÐµÑĤ
ĠÐ½Ð°Ð± Ð»Ñİ
ĠÑĤÐµÑħÐ½ Ð¾Ð»Ð¾Ð³Ð¸Ð¸
ĠÑģÑĤ ÐµÑĦ
ĠÐ¸Ð³ Ð¾ÑĢ
Ð³ Ð¸Ð´
ĠÐ· Ð¾
ĠÐ·Ð°Ð» Ð¸Ð²
ĠÐµÐ´Ð¸Ð½ÑģÑĤÐ²ÐµÐ½ Ð½ÑĭÐ¼
Ð¾Ð»Ð¾Ð³ Ð¸ÑĩÐµÑģÐºÐ¸Ð¹
Ð¸ÑģÑĤ ÑģÐºÐ¾Ð¹
ĠÐ¾Ð±ÑĬ ÑıÑģÐ½Ñı
ĠÐ¿ÑĢÐ¸Ñĩ Ð¸Ð½Ð°Ð¼
Ð¸Ð½ Ð¾Ð³Ð´Ð°
ĠÐ» Ð¸Ð¼
ĠÐ´Ð¶ Ð¾Ð½Ð°
ĠÑģÑĩÐ¸ÑĤ Ð°ÐµÑĤ
0 2
ĠÑģÐ¾Ð¿ ÐµÑĢ
Ð»Ðµ Ð¿
ĠÑģ Ð¸
ĠÐ¾Ð¿ ÐµÑĢÐ°ÑĤÐ¸Ð²
ĠÐ´Ð°Ð½ Ð½Ð¾Ð³Ð¾
ĠÑģÐ² ÐµÑĤÐ°
ĠÑĢÐ°Ð¹Ð¾Ð½ Ð½Ð¾Ð³Ð¾
ĠÐ´ Ð¸Ð½Ð°Ð¼
ĠÑĪ ÐµÑĢ
5 9
Ð¾Ð»ÑĮ ÑĦ
Ð²ÑĤÐ¾ÑĢ Ð¾Ð¹
ĠÐ±Ð»Ð° Ð³Ð¾
Ð´ Ð¸Ðº
Ð¾Ð» ÑĳÑĤ
ĠÐ¼ Ð½Ðµ
ĠÑĤÑĢÐµÐ½ ÐµÑĢÐ¾Ð¼
ĠÑģÑĥÐ´ Ð¾Ð²
ĠÐ½Ð°Ð·Ð½Ð°Ñĩ ÐµÐ½Ð¸Ñı
Ġ19 00
ĠÑĤÑĭÑģÑıÑĩ Ð¸
ĠÐº Ð¸ÑĤÐ°
ĠÑģ ÐµÑĤÑĮ
ĠÑĤÑĢ ÐµÐ½Ð¸ÑĢÐ¾Ð²
Ġ4 2
Ñĭ ÑģÐ»
ĠÐ¶ ÑĳÐ»ÑĤ
ĠÑĢÐ°Ð½ ÑĮÑĪÐµ
ĠÑĤÐµÑĢ ÑĢÐ¾ÑĢ
: "
ĠÐ²Ð¾Ð· ÑĢ
ĠÐ½ÐµÐ¼ÐµÑĨ ÐºÐ¾Ð¹
ĠÑĦÐ¾Ð½ Ð´Ð°
i es
ĠÐ¸Ð´Ðµ Ð¸
ÑĢÐ°Ð¹ Ð¾Ð½
ĠÐ¿ Ð¸Ðº
ĠÑĢÐ¾ÑģÑģÐ¸Ð¹ ÑģÐºÐ°Ñı
ÐµÐ½ Ñĥ
Ð¸Ð¼ Ð¸ÑĢÐ¾Ð²
ĠÐºÐ°Ð½ Ð°Ð»Ð°
Ð¾Ð¿ ÑĢÐ¾
ĠÐ·Ð´ Ð°Ð½Ð¸Ð¸
ĠÐ·Ð°Ð²Ð¾ÐµÐ² Ð°Ð»
ĠÐºÐ¾Ð¼ Ð±Ð¸Ð½
ĠÐ¼ÐµÐ¶Ð´ÑĥÐ½Ð°ÑĢÐ¾Ð´ Ð½ÑĭÐ¹
ĠÐ² ÐµÑģÑĤÐ¸
Ð¾Ð¼ Ð°ÑĤ
ĠÐºÐ¸Ð½ Ð¾ÑĦ
Ð³ ÑĥÐ±
ĠÐ¿ÑĢÐ¾Ð´ ÑİÑģ
ĠÐ±Ð¾ÐµÐ² Ð¾Ð¹
ĠÐ¾Ð±ÑıÐ·Ð°Ð½ Ð½Ð¾ÑģÑĤÐ¸
Ð´Ð² Ð¸Ð³
ĠÐ»ÐµÐ½ Ð¸Ð½Ð³
ĠÑģ Ðµ
ĠÐ²ÑĭÑĪ ÐµÐ´
ĠÐ¼ Ð¸
Ð¸Ñĩ Ð½Ð¾Ð³Ð¾
ĠÐ¿ÑĢ Ð¾Ð½Ð¸Ðº
ÑĢÑı Ð½
ĠÐ²Ð°ÑģÐ¸Ð»ÑĮ ÐµÐ²Ð¸Ñĩ
Ñģ Ð¾Ð·Ð´
ĠÐ¸Ð·Ð´ Ð°Ð²
Ð¾Ð´ Ð½Ð¾Ð²ÑĢÐµÐ¼ÐµÐ½Ð½Ð¾
ĠÐºÐ°ÑĢ Ð´Ð¸Ð½
Ð¸Ð· Ð±
ĠÑģÑĤÐ¸Ñħ Ð¾ÑĤÐ²Ð¾ÑĢ
ĠÐ¸ÑĢ Ð»Ð°Ð½Ð´
ĠÐ´ ÐµÐ´
ĠÐ¿ÐµÑĢÐµ Ð¼ÐµÐ½
ĠÑĪÐ¾ÑĤ Ð»Ð°Ð½Ð´
ĠÐ· Ð½Ð°
ĠÐ¸Ð¼ ÐµÐ²
ĠÐº Ð»Ð°Ð²
ĠÐ²Ð¾Ð·Ð³Ð»Ð°Ð² Ð»ÑıÐ»
Ñĥ Ð¸
ĠÐ¸ ÑĢÐ°Ð½
ĠÑģÐµÑĢÐ¶ Ð°Ð½ÑĤ
Ġ190 6
ĠÐ¿Ð°ÑĢÑĤÐ¸Ð· Ð°Ð½
ĠÐ· Ð¾Ð½Ñĭ
ĠÑģÐ° ÑĢÐ°ÑĤ
Ð¸Ð» Ð»Ð°
Ð½Ð¾Ð² Ð¸Ñĩ
ĠÐ¾ÑĤÐ»Ð¸Ñĩ Ð°ÐµÑĤÑģÑı
ÑģÑĢÐµÐ´ Ð½Ð¸Ð¹
Ð¾Ð² ÑģÐºÐ°Ñı
ĠÐºÐ¾ÑĤÐ¾ÑĢ ÑĭÐ¼Ð¸
ĠÑĤÐµÐ»ÐµÐ² Ð¸Ð·Ð¸Ð¾Ð½
ĠÐ½Ð° ÑĢÑıÐ´Ñĥ
ĠÐµÐºÐ°ÑĤ ÐµÑĢÐ¸Ð½
ĠÐ½Ðµ Ð¿ÑĢÐµ
ĠÐ¾Ð±ÑĥÑĩ ÐµÐ½Ð¸Ðµ
ĠÐ¾ÑģÐ²Ð¾Ð± Ð¾Ð¶Ð´ÐµÐ½Ð¸Ñı
ĠÐ¿Ð¾Ñħ Ð¾ÑĢÐ¾Ð½ÐµÐ½
Ð°Ð» Ð¸ÑĤ
Ð¸ÑĢÐ¾Ð² Ð°Ð»Ð¸ÑģÑĮ
Ð¸ÑĤ Ð¾ÑĢ
ĠÐ¿Ð¾Ð¼ ÐµÑģÑĤ
ĠÑĦÐ¸Ð½Ð»ÑıÐ½Ð´ Ð¸Ð¸
ÑĢÐµÑģÐ¿ Ð¾Ð½Ð´
ĠÐºÐ° ÑĢÐ°
ÐµÑĢÐ½ Ð°ÑĤÐ¸Ð²
5 1
w e
ĠÐ½Ð°ÑĢÐ¾Ð´ Ð½Ð¾Ð¹
ĠÐ¿Ð¾Ð» Ð¸ÑĨÐ¸Ð¸
ĠÐ¿Ð¾Ð»Ð¾Ð¶ ÐµÐ½Ð¸Ñı
ĠÐ¸Ð·Ð¾Ð± ÑĢÐµÑĤ
ÐºÐ° Ð·Ð°
Ð²ÐµÐ» Ð¸Ðº
Ð¿Ð¾ÐºÑĢÐ¾Ð² Ð¸ÑĤÐµÐ»ÐµÐ¼
ĠÑĦ Ð°Ñģ
ĠÑĢÐµÑģÐ¿ÑĥÐ±Ð» Ð¸ÐºÐµ
ĠÐ¼ÑĥÐ· ÐµÐµ
ĠÐ´ÑĥÐ¼ Ñĭ
ĠÑģÐ°Ð¼Ð¾Ð» ÑĳÑĤÐ°
ĠÑģÐ² Ð¾Ð´
ĠÐ±ÐµÑĢÐµ Ð³Ð¾Ð²
ĠÐºÐ°Ð½ÑĤ Ð¾Ð½Ð°
ĠÐ» Ð°Ð´
ĠÐ·Ð² ÑĥÐº
ĠÐºÐ¸Ð»Ð¾Ð¼ÐµÑĤ ÑĢÐ°Ñħ
ĠÐ¼Ð¸ÐºÑĢÐ¾ ÑĢÐµÐ³Ð¸Ð¾Ð½
ĠÐ·Ð°Ðº Ð°Ð½ÑĩÐ¸Ð²
Ðº Ð¾ÑģÑĤÑĮ
ÑģÑĤÐ² Ð°Ñħ
ĠÐ»ÐµÑģ Ð°
ĠÐ¸ÑĢ ÐºÑĥÑĤ
ĠÐ¿ÐµÑĢÑģÐ¾Ð½Ð° Ð¶ÐµÐ¹
ĠÐ¼ÐµÐ·Ð¾ÑĢÐµ Ð³Ð¸Ð¾Ð½Ð°
ĠÐ¾ÑĤÐ´ ÑĭÑħ
ÐºÐ» Ð¸Ð¼Ð°ÑĤ
ĠÐ¿ÑĢÐµÐ´ Ð²Ð°ÑĢ
ĠÐ²Ð¾Ð· Ð²ÑĭÑĪ
ĠÐ°ÐºÑĤÐ¸Ð² Ð½Ð¾ÑģÑĤÐ¸
l d
ÑĥÑİ ÑģÑı
Ġ4 3
ÑĤ ÐµÐ¿
ĠÐ¸Ð³ÑĢÐ¾Ðº Ð¾Ð¼
ĠÐ²Ð¾ÑĢ Ð¾ÑĤÐ°
ĠÐ¾ÑģÐ½Ð¾Ð² Ð°Ð»
ÐµÐ´ Ð»Ð¸Ð²
ĠÑİ ÑĢÐ¸Ð¹
ĠÐ± ÑĢÐ°ÑĤÑĮ
ĠÐ¸Ð´ ÐµÐ½ÑĤ
Ġ190 7
ĠÐ¼ÑĥÐ·Ñĭ ÐºÑĥ
Ñħ Ð¾ÑĢ
Ð¾ Ð¾
ĠÐ´ Ð»Ð¸Ð½Ð°
ĠÐ¾Ð± Ð¼ÐµÐ½
ĠÐ¼Ð¾Ð½ Ð°Ñħ
ÑįÐ½ ÐµÑĢÐ³
Ð¿Ð°Ð¼ ÑıÑĤ
ĠÐ²Ð¾Ð·ÑĢÐ°ÑģÑĤ Ð°
ÑĤÐ¾ Ðµ
ĠÑį Ð´Ñĥ
ĠÑĤ Ð²ÐµÑĢ
ĠÐ³Ð¾ÑĢ ÑĮ
ĠÐºÑĢÐ¾Ð² Ð¸
ĠÑħ Ð¸ÑĤ
ĠÐ·Ð°Ðº Ð¾Ð½Ð°
ĠÑģ Ð°Ð±
ĠÑĩÐµÑħ Ð¾ÑģÐ»Ð¾Ð²
ĠÐ³Ð»ÑĥÐ± Ð¾Ðº
Ðº ÑĢÐ°ÑĤ
ĠÑĢÐ¾ÑģÑģ Ð¸Ñİ
ĠÐ³ÑĢÐ°Ð½ Ð¸ÑĨÐµ
Ð¼ Ð°Ð´
Ð¸Ñģ Ðµ
ĠÐ¿Ð¾ÑĢÐ°Ð¶ ÐµÐ½Ð¸Ñı
ĠÐ¿ÑĢÐ°Ð² Ð»ÐµÐ½Ð¸Ðµ
8 4
ĠÐ²Ð¾ÑģÑĤ Ð¾ÐºÑĥ
ĠÐ¿Ð¾ ÐµÐ´Ð¸Ð½
Ð°Ð»Ð¸Ð· Ð¼Ð°
ÑģÑĥ Ð¶Ð´
ĠÐ¸Ð¼ Ð¸
l y
5 3
Ñĩ ÐµÑģÑĤ
ĠÐ¾ÑģÑĥÑīÐµÑģÑĤÐ²Ð»Ñı ÐµÑĤÑģÑı
Ð¼Ð¸ ÑĢÐ°
ÐµÑĨ ÐºÐ¾Ð¹
ĠÑģÐ»ÐµÐ´ÑĥÑİÑī Ð¸Ð¼
ÑĤÐ° ÑĨÐ¸Ð¸
ĠÐ¿ÐµÑĢÐ² Ð¾Ð½Ð°ÑĩÐ°Ð»ÑĮÐ½Ð¾
ĠÐ¿ÑĢÐ¸Ð³ Ð¾ÑĢÐ¾Ð´
ĠÑįÐºÐ·ÐµÐ¼Ð¿ Ð»Ñı
Ð°ÑĤÐµÐ»ÑĮ ÑģÑĤÐ²Ð°
Ðº ÐµÐ¹
ÐµÐ² Ð¾Ð³Ð¾
ÑģÐ¿ ÐµÐºÑĤÐ¸Ð²
0 6
Ð¿ ÐµÐ»
ĠÑĤ ÑĢÑĥÐ¿
ĠÐ¾Ð± ÑģÑĤÐ¾ÑıÑĤÐµÐ»ÑĮ
Ð°Ð» ÐµÐºÐ¾
ĠÐ¼ ÑıÐ³
ĠÐ½Ð°ÑĥÑĩ Ð½Ð¾Ð¹
ĠÐ¿Ð¾Ð±ÐµÑĢÐµÐ¶ ÑĮÐµ
ĠÑĢÐµ Ð¿
ĠÐ´ ÐµÐ»ÑĮ
ĠÐºÐ°Ð·Ð°Ñħ ÑģÑĤÐ°Ð½
ĠÐ´ Ð¸ÑĦ
Ð¸ÑģÑģÐ»ÐµÐ´ Ð¾Ð²Ð°ÑĤÐµÐ»ÑĮ
ĠÐ²Ð¾ÑģÑĤ Ð¾ÐºÐ°
ĠÐ¼Ð°ÑģÑģ Ð¸Ð²
Ð± Ð°Ð¹
Ð¸ÑĨ ÐºÐ¾Ð³Ð¾
Ð²Ð¾ÑģÑĤ Ð¾ÑĩÐ½Ð¾Ð¹
ĠÐ° Ñģ
Ð¾Ð±ÑĭÑĩ Ð½Ð¾
Ð´ ÐµÐ²
Ð¿ Ð¸Ð¾Ð½Ð°
ĠÑĢÐµÐ´ ÐºÐ¾
ĠÐ¿Ð¾Ð¼ Ð¸Ð¼Ð¾
Â» ",
ÑĥÑĩ ÐµÐ½Ð¸
ĠÑĥÑģ Ð°Ð´ÑĮ
ĠÐ¸Ð½ÑĤ ÐµÐ³
Ñī Ð¸ÐºÐ°
ĠÐ²Ð¾ÐµÐ½ Ð½ÑĭÐµ
ĠÑĥÑĩÐ¸Ð»Ð¸Ñī Ð°
ĠÐ¾ÑĢÐ¸ ÐµÐ½ÑĤ
Ð± ÐµÑģ
Ð°ÑģÑĤ ÑĢÐ¾ÑĦ
Ð°ÐµÐ¼ ÑĭÐµ
ĠÐ·Ð°Ñħ Ð²Ð°Ñĩ
ĠÐ² ÑĢÐ°Ñī
ĠÐ¾ÐºÐ°Ð· Ð°Ð»Ð¸ÑģÑĮ
ĠÐ±Ð°ÑģÑģÐµÐ¹ Ð½Ð°
ĠÐ¿ÑĢÐ¾Ð´ Ð°Ð²
ĠÐ±Ð°ÑĤÐ° ÑĢÐµ
ĠÑģÐ¼ Ð¾ÑĤ
ĠÐ²Ð¾ÑĢ Ð¾ÑĤ
ÑģÐ¾ÑģÑĤÐ°Ð² Ð½Ð°Ñı
ĠÐ¼ÐµÑģÑı ÑĨ
ĠÐ± Ð¾ÑĤÐ°Ð½
ĠÑĥÑĩÐ°ÑģÑĤ Ð¸ÐµÐ¼
ĠÑģÑĤÑĢÑĥÐºÑĤ ÑĥÑĢ
ĠÐ³ ÑĢÐ¾Ð¼
ĠÐ¾ÑĨÐµÐ½Ð¸ Ð²
ÑĢ Ð¸ÐµÐ²
ĠÑģÐº Ð¾ÑĤ
ĠÑģÐµÐ¼ Ð¸
ĠÐ¿ÐµÑĢÐµÐ½ ÐµÑģ
Ñĭ Ð¿
Ð°Ð½Ð´ Ð¶ÐµÐ»
ĠÐ¾ÑĤÑģÑĥÑĤÑģÑĤÐ² Ð¸Ðµ
ĠÑģÑĥÑīÐµÑģÑĤÐ² Ð¾Ð²Ð°Ð½Ð¸Ðµ
Ġ190 4
Ð± Ð°ÑģÑģ
ÐµÐ² ÑĭÐµ
ÑĳÐ½ Ð½ÑĥÑİ
ĠÐ¸Ð³ÑĢÐ° ÐµÑĤ
ĠÐ²Ñģ ÐµÑģÐ¾ÑİÐ·
â Ħĸ
ÑĢÑĥ ÐµÑĤ
ac e
Ð· Ð°Ð»
ĠÐ³ ÑĢÐ°Ð´
ĠÐ¼ÐµÐ´ Ð²ÐµÐ´
Ð°Ð½Ð³ ÐµÐ»
ĠÐ¿Ð¾Ð» Ð°
ĠÐ½Ð° Ð²
ĠÐ¾ÑģÐ½Ð¾Ð² Ñĥ
ĠÐ°Ð½ Ð°ÑĤÐ¾Ð»
ĠÐ¿ÑĢÐ¾ÑĤÐ¸Ð² Ð¾ÑĢÐµ
ĠÑĥÑģÐ¿ÐµÑħ Ð°
ÐµÐ½ Ð¾Ñģ
ĠÑģÐµÑĢ Ð¸Ñı
8 7
Ġ190 8
ĠÐ¾ÑĢÑĥÐ´ Ð¸Ñı
5 7
ĠÐ¼Ð¸ÑħÐ°Ð¹Ð»Ð¾Ð² Ð¸Ñĩ
ĠÐ³ÑĢ Ð¾Ð·
ĠÐ¿ÑĢÐ¸ ÑĪÑĳÐ»
ĠÐ´Ð¸Ñģ ÑĨÐ¸Ð¿
ĠÐ´ Ð°Ð³
ĠÐ½ÐµÐ¼ÐµÑĨ ÐºÐ¾Ð³Ð¾
ĠÐ¼Ð¾Ð» ÐµÐº
ĠÐ¿ÑĢÐ¸Ð¼ÐµÐ½ ÐµÐ½Ð¸Ñı
ĠÐ±Ð°ÑĤÐ°Ð»ÑĮ Ð¾Ð½
ĠÐ¸Ð·Ð²ÐµÑģÑĤ Ð½Ñĭ
ĠÐ½ÐµÐ·Ð°Ð²Ð¸ÑģÐ¸Ð¼ Ð¾ÑģÑĤÐ¸
8 3
ÑģÑĤÐ²ÐµÐ½ Ð½Ð°Ñı
Ġc o
Ġm ar
ĠÐºÑĥÐ± ÐºÐµ
Ñģ ÑĩÐ¸ÑĤ
ĠÐ¾Ñģ ÑĥÐ¶Ð´
ĠÐ¼Ð¾Ð³ Ð»Ð°
ĠÐ¼Ð¾Ð»Ð¾Ð´ ÑĭÑħ
ĠÐ¿ÑĢÐ¾ÑĪ Ð»Ð°
Ġc on
ĠÑĢÑĥÐºÐ¾Ð²Ð¾Ð´ Ð¸Ð»
ĠÐ¿ÑĢÐ¾ÑĨÐµÑģÑģ Ð°
ĠÐ¶ÐµÐ»ÐµÐ·Ð½Ð¾Ð´Ð¾ÑĢÐ¾Ð¶ Ð½Ð¾Ð¹
ĠÐ¿Ð¾Ð¿ Ð°Ð´
ĠÐ¿Ð¾Ð·Ð²Ð¾Ð» Ð¸Ð»Ð¾
Ð±Ñĭ Ð»Ð¸
ĠÑģÑĤ Ð°ÑĢÐ°
ĠÐ¶Ð¸Ð²Ð¾Ð¿Ð¸Ñģ Ð¸
Ġ19 11
ĠÐ± Ð¾Ñģ
ÑĥÐ½Ð´ Ð°Ð¼
ÑĩÐ¸Ðº Ð¾Ð¼
ĠÐ¼Ð°Ðº ÐµÐ´
Ñħ Ñĥ
Ð»Ð°Ð¼ ÐµÐ½ÑĤÐ°
Ð´Ð² Ð¸Ð¶
ĠÐ¶ÐµÐ½ Ð°ÑĤ
ÑĢÐ° ÑģÑģ
ĠÑģÑĤÐ°ÑĤ ÐµÐ¹
Ð´ Ð°Ð»ÑĮ
ÑĥÑĪ ÐºÐ°
ĠÐ¾Ñħ Ð²Ð°ÑĤ
ĠÑģÐ¿Ð¸ÑģÐº Ðµ
ĠÐ¿ÑĢÐ¾ÑĤÐ¸Ð² Ð¾Ð¿Ð¾Ð»Ð¾Ð¶
ĠÐ¿ÑĢÐ¾Ð¿ Ð°Ð³
ĠÐ¿Ð¾Ð´Ð´ÐµÑĢÐ¶ ÐºÐ¸
ĠÐºÐ¾Ð½ ÐµÑĨ
ĠÐ¼Ð¾ÑģÐºÐ¾Ð² ÑģÐºÐ¸Ð¹
ĠÐ²Ñĭ ÑĢÐ°Ð·
ĠÐ´ Ð¾Ð¶Ð´
ĠÐ´ Ð¾Ð²
it y
ÑĮÐµÑĤ Ð½Ð°Ð¼
ĠÑģÑĤÑĥÐ´ ÐµÐ½ÑĤÐ¾Ð²
ĠÐºÐ²Ð°Ð´ ÑĢÐ°ÑĤ
ĠÐºÑĢÑĭ Ð»ÑĮ
ĠÐ¿Ð°ÑĢÐ° Ð¼ÐµÑĤ
ĠÐ¿ÐµÑĢÐµ Ðº
ĠÐ¿ÑĢÐ¾Ð³ÑĢÐ°Ð¼ Ð¼Ðµ
ĠÑįÐ»ÐµÐ¼ ÐµÐ½ÑĤ
ĠÐ±Ð¸Ð±Ð»Ð¸Ð¾ÑĤ ÐµÐºÐ°
Ð» ÑĭÐµ
ÑĤÑĮ ÑģÑı
l o
Ð°Ð½ Ð½ÑĭÐ¼
ĠÐºÐ»ÑĥÐ± Ð¾Ð¼
Ð¸Ð» Ð¸Ð½Ð´
ĠÐ» Ð¾Ð²
ĠÐ±ÐµÐ» Ð°ÑĢÑĥÑģ
ĠÐ½Ð°ÑĢÐ¾Ð´ Ð½ÑĭÑħ
ĠÐºÐ¾ÑĢ Ð¾Ð½
ĠÐ² Ð¿ÐµÑĩÐ°ÑĤ
ĠÐºÐ¾Ð¼Ð°Ð½Ð´ Ð¾Ð²Ð°Ð½Ð¸Ðµ
ĠÐºÐ»Ð°ÑģÑģ Ð¾Ð²
i z
ĠÑĢÐµ Ð»ÑĮ
Ġp r
ĠÐºÑĥÑĢ ÑģÑĭ
ĠÐ¼Ð°ÑĢ ÐºÐ¸
ĠÑģÑĩÐ¸ÑĤ Ð°Ð»
ĠÐ¿Ð° ÑĨÐ¸
ĠÐ¼ÐµÐ¼ Ð¾ÑĢÐ¸
ĠÑĥ ÑĢÐ°Ð²Ð½
ĠÐ¸Ð·Ð²ÐµÑģÑĤ Ð½Ð°
Ã Ĺ
ĠÐ¼ Ð°Ð¼
ĠÐ¿Ð¾ÑģÐ»ÐµÐ´ Ð½ÐµÐ¹
ĠÐ½ ÐµÐ»
ĠÐ¾ÑĢÑĥÐ¶ Ð¸Ðµ
Ñĭ ÑģÐº
ĠÐ°Ð½ ÑģÐ°Ð¼Ð±
Ð¸ÑĢÐ¾Ð² Ð°Ð»Ð°ÑģÑĮ
Ð¿ÑĢ Ð¸Ñĩ
ĠÐ³ Ð¸Ð³
ĠÐ¾ Ð°Ð¾
ĠÐ½Ð¾Ð¼ ÐµÑĢÐ¾Ð¼
ĠÑĢÐ°Ð·ÑĢÐ°Ð±Ð¾ÑĤ ÐºÐ¸
Ð» Ð¾Ðº
ĠÑģÑĢÐµÐ´ Ð½ÐµÐ³Ð¾
ÑĢÐµ ÐºÐ°
ĠÐ½ÐµÐ¾Ð±ÑħÐ¾Ð´Ð¸Ð¼ Ð¾ÑģÑĤÐ¸
ĠÑģÑĩÐ¸ÑĤ Ð°ÑİÑĤ
ĠÑģ ÑĨ
ÐµÐ½ ÑģÐºÐ¾Ð¼
ĠÐ¾Ð± ÑĪÐ¸ÑĢ
Ð°Ð²ÑĪ Ð¸Ð¼
ĠÐ¾Ð¶ Ð¸Ð´
ĠÐ¿ÑĢÐ¾Ð´ÑĥÐº ÑĨÐ¸Ð¸
ĠÐ½ ÐµÐ»ÑĮ
ĠÑĪ ÑĥÐ¼
ĠÐ¶ÐµÐ½ Ð¾Ð¹
ĠÐ² ÑĤÐ¾ÑĢÐ°Ñı
ÑĩÐ¸ÑģÐ»ÐµÐ½ Ð½Ð¾ÑģÑĤÑĮ
ĠÐ³Ð°Ð» ÐµÑĢÐµ
ĠÐ¸Ð´ ÑĳÑĤ
ÑĤ ÑĢÐµÑĤ
Ð¾Ñħ Ð¾Ð·ÑıÐ¹
ĠÑĤÐµÑĢ Ð¼
ĠÐºÐ¾Ð½ÑģÑĤÐ¸ÑĤÑĥ ÑĨÐ¸Ð¸
ÑĦ Ð¸Ð¼
ĠÑģ Ð¾Ð½
ĠÐ¿Ð¾Ð¿ÑĭÑĤ ÐºÐ¸
ĠÐ¿Ð¾Ð´ ÑĢÐ¾Ð±
ĠÐ±ÑĥÐ´ Ð´
ĠÐ´Ð° ÑĳÑĤ
ĠÐ¸ÑģÑĤÐ¾Ñĩ Ð½Ð¸ÐºÐ¾Ð²
ĠÐ¿ÑĢÐµÐ²Ð¾Ñģ ÑħÐ¾Ð´
Ð½Ð¾Ð² ÑĭÐ¹
ĠÐ¸Ð·Ð²ÐµÑģÑĤ Ð½Ð¾Ð³Ð¾
ĠÐ» Ð¾Ð¿
ÐµÐ´ Ð¶
ĠÐ²Ð¾ÐµÐ² Ð¾Ð´
Ð¿ÐµÑģ Ð½Ñı
ĠÐ¿Ð¸Ñģ Ð°ÑĤÐµÐ»ÐµÐ¹
ĠÐºÐ¾Ð¼Ð¿ Ð°Ð½Ð¸Ð¹
Ð°ÑİÑī Ð¸ÑħÑģÑı
ĠÐ³ÐµÑĢ Ð±Ð°
Ð¾ÑĢ ÑıÐ´
ĠÐ³ ÑĢÐ°Ð²
ĠÑģÐ» ÑĥÑĪ
ĠÑĢÐ°Ð¹Ð¾Ð½ Ñĭ
ĠÐµÐ² ÑĢÐ¾
ĠÐ²Ð¾Ð» Ð¾ÑģÑĤÑĮ
ĠÐ¿ÑĢÐ¸Ð½Ð¸Ð¼ Ð°ÐµÑĤ
ĠÐ¾ÑĦÐ¸ÑĨ ÐµÑĢ
Ð¸ÑĢÐ¾Ð² Ð°Ð»Ð¾ÑģÑĮ
ĠÐ¿ÑĢÐµÐ¿Ð¾Ð´Ð°Ð² Ð°Ð»
ĠÐ¿Ð¾Ð´ÑĤ Ð²ÐµÑĢÐ¶Ð´
ĠÐ¾ÑĤ Ñĩ
ÑģÑĥÑīÐµÑģÑĤÐ² ÑĥÐµÑĤ
ÑįÐº ÑģÐ¿
Ð°Ð½ Ð³Ð»
ÑĢÐ°ÑģÐ¿Ð¾Ð»Ð¾Ð¶ ÐµÐ½Ð°
ĠÐ²Ð»Ð¸Ñı Ð½Ð¸ÐµÐ¼
Ð° ÑĨÐ¸Ñİ
Ð´Ð¾ Ñħ
ĠÐ»ÐµÐ² Ð¾Ð¼
ĠÑĢÐ°Ñģ ÑģÑĤÑĢÐµ
ĠÐ¿Ð¾Ñģ Ð»ÑĥÐ¶
ÐµÐ½Ñģ Ð¸Ð²
ÐµÑĨ ÐºÐ¾Ð³Ð¾
ĠÐ¸ÑģÐ¿Ð¾Ð»ÑĮÐ·Ð¾Ð²Ð°Ð» Ð¸ÑģÑĮ
Ðº ÑĢÑĥÐ¿
ĠÑģÑĤ Ð¸Ð²
ĠÐ½Ðµ Ð¿Ð¾Ð´
Ð¾Ð» Ðµ
ĠÑħ Ð°Ð»
ĠÑħÐ¾ÑĤ ÐµÐ»
ĠÑĤÐ°Ðº Ð¾Ðµ
ĠÑĢÐµÐ· ÐºÐ¾
ÑĨ Ð·
ĠÐ²ÐµÑĢÐ½ÑĥÑĤÑĮ ÑģÑı
ĠÐ¿Ð¾Ð´ ÑĢÑıÐ´
oc k
ĠÑģÐ¿ÐµÑĨÐ¸ Ð°Ð»ÑĮÐ½Ð¾
ĠÐ±Ð¾Ð»ÑĮÑĪÐ¸Ð½ ÑģÑĤÐ²Ð°
ĠÐ¿Ð¾Ð»ÑĥÑĩ Ð¸Ð²
ĠÐ¸Ð·Ð²ÐµÑģÑĤ Ð½ÑĭÐµ
Ð°Ð½Ð´ Ð¸Ð¸
Ġâ ĪĴ
ĠÐ´Ð² Ð¾ÑĢÐµÑĨ
ĠÑģÐ¾ÑĢÐµÐ²Ð½Ð¾Ð²Ð°Ð½Ð¸Ñı Ñħ
Ð¾Ð» Ð¾Ð¼
200 0
ĠÐ²ÑģÐµÐ¼ Ð¸
ĠÐ²Ðº Ð¿
ĠÑĤÑĢÐ° Ð³
ĠÐ¾Ð¿ÑĥÐ±Ð»Ð¸Ðº Ð¾Ð²Ð°Ð»
Ð² ÐµÑĢÑģ
Ð¾Ð²Ð¸Ñĩ Ð°
ĠÐ·Ð´ Ð°Ð½Ð¸Ð¹
8 1
ĠÐºÐ¾Ð¼Ð°Ð½Ð´ Ð¾Ð²Ð°Ð½Ð¸Ñı
ÑĥÐ½ ÑĮ
Ð¿ÑĢ Ð¸Ðº
ĠÐ´Ð¶ ÐµÐ¹
ĠÐ¿Ð¾Ñħ Ð¾ÑĢÐ¾Ð½
ĠÐ¿ÑĢÐ¾Ð³ÑĢÐ°Ð¼ Ð¼Ð°
Ġ ÑģÑĤÐ²
Ð°Ðº Ð¾Ð²Ð°
ĠÐµÐ³Ð¸Ð¿ ÐµÑĤ
ĠÐ·Ð°Ð¿Ð°Ð´ Ñĥ
Ð¸Ð½ Ð°Ð¼Ð¸
ĠÐ¼Ð¸Ð½Ð¸ÑģÑĤ ÑĢ
9 5
ĠÐ¸ÑģÑģÐ»ÐµÐ´ Ð¾Ð²Ð°ÑĤÐµÐ»ÑĮ
ÑĤÐ¾ ÑĢÐµ
Ð»Ñı Ð»Ð¸
Ð¸Ð²ÑĪ Ð¸ÐµÑģÑı
ĠÐ¾ÑģÑĤÐ°Ð² Ð°Ð»ÑģÑı
ÑģÑĤÐ² Ð°Ð¼Ð¸
ĠÑģÐ±Ð¾ÑĢ Ð½Ð°Ñı
ĠÐ¸Ð·Ð²ÐµÑģÑĤ Ð½Ð¾ÑģÑĤÑĮ
ĠÐ¾Ð´ ÐµÑģÑģ
ĠÐ½Ð°ÑĩÐ°Ð» Ð¸ÑģÑĮ
ĠÐ¾ÑĢÐ´ÐµÐ½ Ð°Ð¼Ð¸
ÑĢÐµÑģÑģ Ð¸Ð²
Ð±Ñĭ Ð»Ð¾
ĠÐ¾Ð± ÑģÑĥÐ¶Ð´
ĠÐ³Ð°Ð· Ð°
ĠÐ¿ÑĢÐ¸Ð² Ð»ÐµÑĩ
p r
âĢ ĵ
ĠÐ¿ÑĢÐ¸Ñĩ Ð¸Ð½Ð¾Ð¹
ĠÐ¿ÑĢÐ¸Ðµ Ñħ
ĠÐ´ÐµÐ» ÐµÐ³
ĠÐ°Ð²ÑĤÐ¾Ð´ Ð¾ÑĢÐ¾Ð³
Ð°Ð½Ð¸Ñı Ð¼
ĠÐ¿Ð¾Ðº Ð»Ð¾Ð½
ĠÐ³Ð°ÑĢ Ð½Ð¸Ð·
a z
ĠÐ½Ð°ÑĩÐ°Ð» Ñĥ
ĠÑģÐµÐºÑĢÐµÑĤ Ð°ÑĢÑĮ
ĠÑĥ Ñī
ĠÐ¿Ð¸Ñģ Ð°ÑĤÐµÐ»Ñı
ĠÐ³Ð²Ð°ÑĢÐ´ÐµÐ¹ ÑģÐºÐ¾Ð¹
Ð¾Ð»ÑĮ ÑģÐºÐ¸Ð¹
ĠÐ·Ð°Ð¿ ÑĥÑģÐº
ĠÐ¸ÑģÐ¿Ð¾Ð»ÑĮÐ· Ð¾Ð²Ð°Ð½Ð¸ÐµÐ¼
Ð¸ÑĢÐ¾Ð²Ð°Ð½ Ð½Ð°Ñı
Ð¸Ð½ ÐµÐ¹
ĠÐ° Ð½Ð°
194 5
ÑģÐº Ñĥ
ĠÐ¶ Ð°Ð»
in t
ĠÐºÐ¾Ð½ÑģÑĤÑĢÑĥÐº ÑĨÐ¸Ð¸
Ð½Ð°ÑĩÐ¸Ð½ Ð°Ñı
ÑĪ Ñĥ
Ð¾Ð´ Ð½Ð¸Ð¼
ĠÐ³Ð¾ÑģÑĥÐ´Ð°ÑĢÑģÑĤÐ²ÐµÐ½ Ð½Ð¾Ð¼
ÐµÐ½ Ð³
ĠÐ¿ÑĢÐ¸Ñĩ Ð¸Ð½Ðµ
ĠÐ´Ð¸ÑĢ Ð¸Ð¶
ĠÐ¾ÐºÐ°Ð· Ð°Ð»Ð°ÑģÑĮ
Ñģ Ð°Ð»
ĠÑĦ Ð°Ð½
ÑĥÐ¼ ÐµÐ½ÑĤ
ĠÑĦÐ¾ÑĢÐ¼ Ð¸ÑĢÐ¾Ð²Ð°Ð½Ð¸Ñı
ĠÐ½Ð° Ð¸Ð±Ð¾Ð»ÑĮÑĪ
ĠÐ¿Ð¾Ð´ Ð°ÑĢ
ÑģÑĤÐ²ÐµÐ½ Ð½ÑĭÐ¼
ĠÐ¾ÑģÑĤ Ð°ÑĳÑĤÑģÑı
ĠÐ³ÐµÑĢÑĨÐ¾Ð³ Ð°
ĠÐ´ÑĢÑĥÐ³ Ð¾Ð³Ð¾
ĠÐº ÑĢÐ¸Ð²
ĠÐ¿Ð¾Ð² ÐµÐ´
Ð±Ñĭ Ð»Ð°
ĠÑĤÐµÑħ Ð½Ð¸Ðº
Ð° Ñį
ĠÐº Ð½Ð¸Ð¶
ÑĥÑĩ Ð¸Ð»ÑģÑı
ÐµÑģ Ð»Ð°Ð²
ĠÑĤÑıÐ¶ ÐµÐ»
ĠÐºÐ¾Ð¼ Ð½
ĠÑģÐµÐ²ÐµÑĢ Ð½ÑĭÐ¹
ĠÑģÐ°Ð¹ ÑĤÐµ
Ð±Ð»Ð¸Ð· Ð¸
200 6
ĠÐ¿Ð¾ÑĢÑıÐ´ ÐºÐµ
ĠÐµÑī Ðµ
h o
Ð¾Ð³ÑĢÐ°ÑĦ Ð¸Ñı
ĠÐ¿Ð¾Ð» Ð¸ÑĨÐµÐ¹
ĠÐ²ÑĭÐ¿ÑĥÑģÐº Ð°
ĠÐ±Ð¾Ð³ Ð°
Ð¾Ð½ Ð¾
ĠÐ»Ð¸ÑĨ ÐµÐ½Ð·
ÑĤ Ð°ÑĢ
ĠÑĦÑĢÐ°Ð½ Ðº
ĠÐµÐ¿Ð¸ÑģÐºÐ¾Ð¿ Ð°
ĠÐ°Ð²ÑģÑĤÑĢ Ð¸Ð¸
ÑģÐº Ð¾Ð½ÑĩÐ°Ð»ÑģÑı
ĠÐ³Ð¸Ð¿ Ð¾ÑĤ
ÑĢÐµ Ðµ
Ð°Ñģ Ð¾Ð²
ĠÑĦ ÑĢÐ°Ðº
ĠÑģÐ¸Ð½ ÑĤÐµÐ·
ĠÑģÑĤÐ¾Ð» Ð¸ÑĨÑĭ
id e
ĠÐº ÑĥÑģÑĤ
ĠÐ²Ð· Ð²Ð¾Ð´
ÑģÑĤ ÑĢÐ°Ð½
Ð¸Ð²ÑĪ ÐµÐ¹
ĠÐ¿Ð¾Ð³ ÑĢÐ°Ð½Ð¸Ñĩ
ĠÑĤÑĢÐµÑĤÑĮ ÐµÐ¹
ĠÐ± ÐµÑĢÐ½
ÑĢÐ¸ ÑĦ
ĠÐ´ÐµÐ¿ÑĥÑĤ Ð°ÑĤ
ĠÐº Ð»Ð°
ĠÐ¿Ð¾Ð³ Ð¸Ð±Ð»Ð¸
ĠÐ²Ð¾Ð» Ð¾Ñģ
ĠÑıÐ·Ñĭ ÐºÐ¸
ĠÐ¾ÑĤÐ½Ð¾ÑĪ ÐµÐ½Ð¸Ñİ
ĠÐ½Ð¸Ð¶ Ð½ÐµÐ¹
ĠÐµÐ´Ð¸Ð½ Ð¸ÑĨ
Ġm us
Ð¸Ñģ Ð¿Ð¾Ð»
ĠÐ¾Ð±ÑĢÐ°ÑĤ Ð½Ð¾
Ð½Ð°Ð³ ÑĢÐ°Ð¶Ð´
u e
Ð¼ ÐµÐ½Ð°
ĠÐ¿ÐµÑĢÐ² Ð¾Ð½Ð°Ñĩ
ĠÐ¸Ð·Ð¾Ð±ÑĢÐ°Ð¶ ÐµÐ½Ð¸Ñı
ĠÐ³Ð¾Ð¼ ÐµÐ»ÑĮ
ĠÑģÑĤ Ð¾Ð»ÑĮ
ĠÑģÐ»ÐµÐ´ÑĥÑİÑī Ð¸Ñħ
Ð¿Ð¾ÑģÐ»ÐµÐ´ Ð½Ð¸Ð¹
ĠÐ¼Ð¾Ð½ Ð³Ð¾Ð»
ĠÐºÐ¸ÑĢ Ð¿
ÑĢÐ°Ð±Ð°ÑĤ ÑĭÐ²
ĠÐ¸Ð· Ð½Ð°ÑĩÐ°Ð»ÑĮÐ½Ð¾
ĠÐ¾ Ð¾Ð½
" ;
ĠÐ¿ÑĢÐµ ÑĤ
ĠÐ¸ÑģÐ¿Ð¾Ð»ÑĮÐ· ÑĥÐµÑĤ
ĠÐ¼Ð°ÑĢÑĪ ÑĢÑĥÑĤ
Ñģ ÑĥÐ»
Ġ4 7
ĠÑįÑģÑĤ Ð¾Ð½
ĠÐ±Ð¾Ð³ Ð¾ÑĢÐ¾Ð´
ÑģÑĤ Ð¾Ð½
ĠÑģÑĥÐ± ÑĬ
ĠÐ½Ð° Ð¼ÐµÑĢ
ĠÐ¿Ð¾ÑģÑĤ ÑĢÐ°Ð´
ĠÐ°ÑĢÐ¼ ÐµÐ½Ð¸Ð¸
ĠÐ½Ð° Ð´ÐµÐ»
ĠÐµ Ð»Ð¸Ð·
Ð± Ñİ
ĠÑĢÐ° ÑģÑĤÐ²Ð¾ÑĢ
ĠÐ¿ÐµÑĢ Ð¼
Ð³Ð»Ð°Ð² Ð½ÑĭÐ¹
ĠÑĩÐ¸ÑģÐ»ÐµÐ½ Ð½Ð¾ÑģÑĤÐ¸
ĠÐ²Ð»Ð°Ð´ Ð¸Ð¼Ð¸ÑĢÐ¾Ð²
ĠÐ·Ð°Ð´Ð°Ñĩ Ð¸
ĠÐ¼Ð¾Ð½ ÑĤ
Ð°Ð»ÑĮ ÑĤ
Ð°ÐµÐ¼ ÑĭÐ¹
ÐµÑħ Ð°Ð½
ĠÑįÐº ÑģÑĤ
ĠÐ¸Ð½Ð´ ÐµÐ¹
Ñģ ÐµÐ·
Ð´Ð¸Ð½Ð°Ð¼ Ð¸ÐºÐ°
ĠÐ¿ÑĢÐµ Ð±ÑĭÐ²
ĠÐ¾ÑĤÐºÑĢÑĭ ÑĤÐ°
ĠÐ¿Ð¾Ð´ Ð½Ð¸Ð¼
ĠÑģÐ±Ð¾ÑĢ Ð½Ð¸Ðº
ow s
Ñģ ÐµÐ³
ĠÑģÐ¾ÑģÑĤÐ¾Ñı Ð½Ð¸Ñı
Ġ190 9
i re
Ð»Ñı ÑĨÐ¸Ð¸
ĠÑģÐµÐ² ÐµÑĢÐ°
ĠÐ¿Ð¾Ð² Ð¾Ð´Ñĥ
ĠÐºÐ¾ÑĢÐ¾Ð» ÑĳÐ¼
Ð¸Ð·Ð¼ Ð¾Ð¼
ĠÐº ÐµÑĢ
ĠÑĥ Ð´ÐµÐ»
ĠÐ½Ðµ Ð¾Ð¶Ð¸Ð´
ÑĢÑı Ñģ
ĠÑĤ ÑĥÑĢÐ°
ĠÐ¸Ð½ Ð²ÐµÑģÑĤ
ĠÑģÐ¸ÑĤÑĥ Ð°ÑĨÐ¸Ð¸
Ð¿Ð¾Ð» Ð½Ðµ
Ð° Ñİ
Ð°Ð½ Ð½Ð¾Ðµ
Ð¸ÑĢÑĥ ÑĢÐ³
ĠÑĢÑĥÐºÐ¾Ð²Ð¾Ð´ Ð¸ÑĤÐµÐ»ÑĮ
ĠÐ¾ÑģÑĤÐ°Ð² Ð¸Ð»
ĠÐ²Ð¾Ð¿ÑĢÐ¾Ñģ Ñĭ
ĠÐ¿Ð¸ÑģÑĮ Ð¼Ð¾
Ġxi v
ĠÐºÐ°ÑĦÐµÐ´ ÑĢÑĭ
ÐµÐº ÑĤÐ¾ÑĢ
ĠÐ±ÐµÑĢÐµ Ð³Ð°
ĠÑģÑĤÐ°ÑĤÑĮ Ðµ
ĠÐ²Ñĭ ÑıÐ²
ĠÐ²Ñĭ Ð»ÐµÑĤ
ĠÑĥÐ´ Ð¾Ð²Ð»ÐµÑĤÐ²Ð¾ÑĢ
ĠÐ²ÑĭÑģÐ¾Ðº Ð¾Ð³Ð¾
ÑĨÐ¸Ðº Ð»Ð¾Ð¿
Ð°Ðº Ð¸Ð¸
ĠÑĤÐ°Ðº ÑĤ
ĠÐ´ÐµÐ½ ÐµÐ¶
ĠÐ¿Ð¾Ð±ÐµÑĢÐµÐ¶ ÑĮÑı
Ð¸Ñĩ Ð½ÑĭÐ¼
ĠÐ²Ð¾Ð· Ð»Ðµ
ĠÑĤ ÑĢÐµÐ¼Ñı
ĠÐ²Ð¾Ð´ Ñĥ
ĠÑĤ ÐµÐº
ĠÑĥÐºÑĢÐ° Ð¸Ð½ÑģÐºÐ¾Ð³Ð¾
ĠÐ¿Ð¾ÑĢÑĤÑĥÐ³ Ð°Ð»ÑĮ
ÑĥÑģ Ð°Ð»
ĠÑĤÑĢ Ð¸Ð±
Ð½Ð¸ÐºÐ¾Ð² Ð°
Ð»ÐµÑĤ Ð½Ð¸Ð¹
ĠÑĢÐ¾Ð¼ Ð°Ð½Ð¾Ð²
ĠÐ½Ð° ÑģÑĤÑĢÐ¾
ĠÐ±ÑĢÐ¸Ð³ Ð°Ð´Ð°
ĠÐ½Ðµ Ð¿
ĠÑĤÐ¾ÑĢÐ³Ð¾Ð² Ð»Ð¸
ĠÐ³Ð»Ð°Ð² Ð°
Ġ189 7
ĠÐ±Ð¾Ð»ÑĮÑĪÐ¸Ð½ ÑģÑĤÐ²Ðµ
ĠÑģ ÑĥÑĪ
ĠÐ´ÐµÐ¹ÑģÑĤÐ² ÑĥÐµÑĤ
ĠÑĩ Ð°Ð¹
Ð°Ð» Ñı
ĠÐ¾ÑĤÐºÑĢÑĭÑĤ Ð¸Ñı
ĠÐ¼ Ð¾ÑĤÐ¾ÑĢ
ĠÑĤÐµÑĢÑĢÐ¸ÑĤ Ð¾ÑĢÐ¸
Ð»Ð° Ð·Ð°
Ð½Ð¾Ð² Ð¸Ð´
ĠÐº ÑĢÐµÐ´
ĠÑĤ Ð¸Ð±
ĠÑįÐ½ÐµÑĢÐ³ ÐµÑĤ
Ð¾ÑĤ Ð²ÐµÑĤ
ĠÐºÐ¾ Ð¾ÑĢÐ´Ð¸Ð½
ĠÐ±Ð¸ÑĤ Ð²Ñĭ
ĠÑħÐ¾Ðº ÐºÐµ
ĠÐ¸ Ð¾ÑģÐ¸ÑĦ
ĠÑĦÐ¸Ð½ Ð°Ð»
ĠÑģÐ¾Ð´ÐµÑĢÐ¶ Ð°Ñī
Ñħ Ð°ÑĢ
ĠÑĥÑģÑĤ Ð¾Ð¹ÑĩÐ¸Ð²
ÑĢÐµ ÐºÑĤ
Ð» ÑĳÐ½
ĠÐ¾ÑĤ ÐºÑĥÐ´Ð°
Ð²Ð¾ÑģÑĤ Ð¾Ðº
ĠÑģÑħ ÐµÐ¼
ÑģÐ¿ ÐµÑĨÐ¸
on g
ĠÑĢÐ°ÑģÐ¿ÑĢÐ¾ÑģÑĤÑĢÐ°Ð½ ÐµÐ½Ð¸Ðµ
Ðº Ð¸Ð½Ð¾
ĠÑĥ ÑģÑĤÐ°Ð²
ĠÐ²ÑĭÑģÐ¾Ðº Ð¾
Ð»Ð° Ð³Ð°
ĠÑģÐµÐ¼ Ñĳ
ĠÑģÐ»Ð¾Ð¶ Ð½Ð¾ÑģÑĤÐ¸
ÑģÑĤÐ°Ð½ ÑĨÐ¸Ñı
Ð¿ÑĢÐµÐ´ Ð¿Ð¾Ð»
Ġv ii
ĠÐ¾ÑĤÐ´ÐµÐ»ÑĮ Ð½ÑĭÐµ
ÑĤ Ð¾Ð½Ð°
ĠÑģÐ°Ð¼ Ð°
ĠÐ½Ð¾Ð²Ð¾Ñģ Ð¸Ð±Ð¸ÑĢ
ĠÐ¿ÑĥÐ»ÐµÐ¼ ÑĳÑĤ
ĠÑģÑĤ ÐµÐ½Ñĭ
ĠÑĢÑı Ð´Ðµ
ĠÐ¿ÑĥÐ±Ð» Ð¸ÐºÐ°
Ð¸ÑģÑĤ Ð°Ð¼Ð¸
ÑĥÑī Ð¸Ð¹
ĠÐ²ÑĭÑģ Ð¾ÑĤÐ¾Ð¹
ĠÐºÐ¾Ð½ÐºÑĥÑĢ ÑģÐ°
ĠÐ¿Ð¾Ð» ÐµÐ·
ĠÐ°Ð²ÑĤÐ¾ÑĢ Ð¾Ð²
ĠÐ´Ð¾ÑģÑĤÐ¸Ð¶ ÐµÐ½Ð¸Ñı
ĠÐ½Ð° Ð±Ð¾ÑĢ
ĠÑģÑĥÐ¼ ÐµÐ»
ĠÑĢÐ°Ð· Ð´
ĠÐ¾Ð´ Ð½Ð¾Ð¼Ñĥ
ĠÑĥÑģÐ» ÑĥÐ³
ĠÐºÐ¸Ð½ ÐµÐ¼Ð°ÑĤ
Ġ5 6
ĠÐ²Ð¾Ð´ Ðµ
ĠÑĤ ÑĥÑĤ
ĠÑĢ Ð¸ÑģÐº
ĠÐ± Ð¸Ð±
ĠÐ¿ÑĢÐ¾ÑħÐ¾Ð´ ÑıÑĤ
Ġs o
Ñı ÑĤÐ°
Ñĭ ÑĢ
ĠÑĩÐµÐ»Ð¾Ð²ÐµÐº Ð¾Ð¼
ĠÑĦÐ¸Ð½ Ð°Ð»Ð°
Ð¸Ð½ ÑģÐºÐ¸Ðµ
Ðº Ð°Ð»ÑĮ
Ð± ÑĢÑĮ
ĠÐ¿ÑĢÐ°Ð² Ð¸Ð»ÑĮ
ĠÐ½ÐµÐ¹ ÑĤ
Ð½ ÐµÐ½Ð¸Ðµ
ĠÐ¸Ð·ÑĢÐ° Ð¸Ð»Ñı
ĠÑģÑĥÑīÐµÑģÑĤÐ² ÑĥÑİÑĤ
ĠÐ·Ð°Ð¼ Ð¾Ðº
Ð¼Ð¾ÑģÐº Ð²Ð°
Ġ25 0
Ġ an
Ð¾Ð±Ñī Ð°Ñı
ĠÑĥÑģÑĤÑĢÐ¾Ð¹ ÑģÑĤÐ²Ð°
Ð¾Ñĩ ÐµÐº
ĠÐ´Ð² Ð¾ÑĢÐ°
ĠÑģÐ»ÑĥÑĩ Ð°ÐµÐ²
ĠÐ¿ ÐµÐ»
Ð°Ð´ ÑĨÐ°ÑĤÑĮ
ĠÑģÐ¾Ð¾Ð±Ñī ÐµÐ½Ð¸Ñı
ĠÐ¿ÑĢÐ¾Ð¼ ÐµÐ¶
l es
ĠÐº ÑĥÐº
Ð¿Ð¾Ðº Ð°Ð·
ar e
Ġx ii
ĠÐ¸Ð· Ð²
Ð´Ðµ Ð±
Ġo p
Ð·ÐµÐ» Ñĳ
ĠÐ¸Ð· Ð»ÑĥÑĩ
Ð¸ÑĤ Ð¼
b er
ĠÐºÐ¾Ð¼ Ð¼ÐµÐ½ÑĤ
ÑĢÐ° Ð´Ð¸
ÐºÐ» ÑĥÐ±
Ð°Ð¿ Ð°Ð·
ĠÐ»ÑĥÑĩ ÑĪÐµ
ĠÑĤÑĥÑĢ ÑĨÐ¸Ð¸
ĠÐ¸ÑģÑĤÐ¾ÑĢ Ð¸Ðº
ĠÐ²Ð°Ð» ÐµÐ½ÑĤ
Ð°Ð²ÑĪ Ð¸ÑģÑĮ
ĠÑģÑĤÐ°ÑĤÑĥÑģ Ð¾Ð¼
Ð¿Ð°ÑĢÐ° ÑĤÐ°
ĠÑĥÑĩ ÑĢÐµÐ´
Ð¼ ÑįÑĢ
Ð»Ñı Ñħ
Ð¸ÑĦ Ð¸ÑĨ
ĠÐ²ÐµÑĢÑĤ Ð¸Ðº
ĠÐ¿ÑģÐº Ð¾Ð²ÑģÐºÐ¾Ð¹
ÑĢÑĥ Ð³Ð¾Ðµ
ĠÐ°ÑĢÐ¼ ÐµÐ¹
ĠÐºÐ¾Ð¼Ð¿Ð¾Ð·Ð¸ÑĤ Ð¾ÑĢ
ĠÑģÐ²Ð¾ ÐµÐ¼
ĠÐ» Ð°Ð½Ð´
ĠÑĤÐµÐ½Ð½ Ð¸Ñģ
ĠÑĦ ÑĥÐ½Ð´Ð°Ð¼
Ġa ir
ĠÑĥÑĩÐ°ÑģÑĤÐ² Ð¾Ð²Ð°Ð»Ð¸
ĠÐ»ÑİÐ± Ð²Ð¸
ĠÐ± ÐµÑģÐº
ĠÑģÑĢÐµÐ´ Ð½ÑıÑı
ĠÐ·Ð°Ð½ ÑıÐ²
Ð¼Ð° Ð³
ÑĨÐµÐ½ÑĤ ÑĢÐ°Ð»ÑĮ
ÑĢ Ð¾Ð¶
Ð¸ÑĢ Ð¾Ð¼
ĠÑģ Ð°Ð½ÑĤ
ĠÑĤÑĢÐµÐ½ ÐµÑĢÐ°
ĠÐ¼Ð»Ð°Ð´ ÑĪÐ¸Ð¹
ÑĢÐ°Ð· Ð´Ð¾
ĠÐ¿ÑĭÑĤÐ° ÐµÑĤÑģÑı
Ð±Ð¾Ð»ÑĮÑĪ Ð°Ñı
Ð» Ð¾Ð³Ð¾
ÑĥÐ½ Ð³
ĠÐ» Ð¾Ð¼
Ġ6 00
ĠÐ°ÐºÑĤÐ¸Ð² Ð½ÑĭÑħ
ĠÐ¿Ð¾Ð±ÐµÐ´ Ð¸Ð»
ĠÑģ ÑĥÑīÐµÑģÑĤÐ²ÐµÐ½
ĠÑģÑĤÑĢÐ° Ñħ
ĠÐ¸Ð·Ð²ÐµÑģÑĤ Ð½ÑĭÐ¼
ĠÑģÑĭÐ½Ð¾Ð² ÐµÐ¹
ĠÐ´Ð¾ÑĢ Ð¾Ð¶
200 7
ĠÐ´Ð¸ÑģÑĤÐ°Ð½ ÑĨÐ¸Ð¸
ĠÐ± ÐµÑĤ
ÑĢÐ¾Ð¿Ð¾Ð» Ð¸ÑĤ
ĠÐ¾ÑĤ ÑħÐ¾Ð´
ĠÐ½Ð°Ð»Ð¸Ñĩ Ð¸Ðµ
Ð°Ð½ ÑģÐºÐ°Ñı
ĠÐ¿ÑĢÐµ Ð¾Ð´Ð¾Ð»
ĠÑħ Ð¾Ð·Ñı
ĠÐ½Ð°ÑĨÐ¸Ð¾Ð½ Ð°Ð»ÑĮÐ½ÑĭÑħ
ĠÐ¿ÐµÑĢ ÑģÐ¿ÐµÐºÑĤÐ¸Ð²
Ð³ ÐµÑĢÐ±
Ð¸Ð¼ Ð¾Ð¼
ĠÑĢÐº ÐºÐ°
Ñİ ÑĪ
ĠÐ½Ð° ÑĨ
Ġe x
ĠÐ¿ÑĢÐ¾Ð¿Ð°Ð³ Ð°Ð½Ð´
ĠÐ¾Ð±Ñī Ðµ
Ġin ter
Ð°ÑĢÐ°ÐºÑĤ ÐµÑĢ
ĠÐºÐ¾ÑĢ Ð¼
Ġ4 6
ĠÐ½Ð° ÐºÐ¾Ð½ÐµÑĨ
ĠÐ¾ÑĤÐ´ Ð°Ð»
ĠÐ¼Ð¾ÑģÑĤ Ð°
Ð¸Ð½ Ñı
ĠÐ´ÐµÐ» Ð°Ð¼
Ð½Ñĥ Ð»Ð°ÑģÑĮ
ĠÐºÐ°ÑĢÑĮ ÐµÑĢÐµ
ÑĨÐ¸ÐºÐ»Ð¾Ð¿ ÐµÐ´
ĠÐ²Ð¾ÑģÐµÐ¼ ÑĮ
ĠÐ¾Ð±Ð¾ Ð¸Ñħ
ĠÐ¸Ð·Ð± ÐµÐ¶
ĠÐºÐ°Ñĩ ÐµÑģÑĤÐ²Ð°
Ġ Î
ĠÑģÐµÐº ÑĥÐ½Ð´
ĠÐ¸ÑĢ Ð»Ð°Ð½Ð´Ð¸Ð¸
ĠÐ½Ð° Ð¿Ð°Ð´Ð°ÑİÑī
ĠÑģ Ð°Ð¼Ð¸
Ñħ Ð¾Ð·Ð°
Ð¿ ÑĥÑģÑĤ
Ðº Ð¸ÑĤ
ĠÑĤ ÑİÑĢ
ĠÐ° Ð´Ð°
Ð¸ÑĤ Ð¸Ð²
ĠÐ¾ ÑģÐº
ĠÐ² ÑĳÐ»
Ð¾Ð³ Ð°
ÐµÐ· Ð¸Ñı
ĠÑģÐ¾ÑĢÐµÐ² Ð½Ð¾Ð²Ð°Ð½
ĠÐ±ÐµÐ· ÑĢÐ°Ð±Ð¾ÑĤ
ĠÐ² Ð¾ÑĤ
Ð¸ÑĢÐ¾Ð² ÐºÐ°
ĠÐ¿Ð¾Ð´ Ð·ÐµÐ¼
ÑĩÐ°ÑģÑĤ ÑĮ
ĠÐ´Ð¾Ð³Ð¾Ð² Ð¾ÑĢÐ°
ĠÐ¾ÑĤÐ· ÑĭÐ²
ĠÐ· Ð¾Ð½
Ġm a
ĠÐ¿ÑĢÐ¾ÑħÐ¾Ð´ Ð¸Ð»Ð¸
ĠÐ½Ð¾ÑĢÐ² ÐµÐ³
ĠÐºÑĢÐ°Ñģ Ð½ÑĥÑİ
Ġ189 0
ĠÐ² ÑĮÐµÑĤÐ½Ð°Ð¼
ÑģÐµÐ¹ ÑĩÐ°Ñģ
ĠÐµÐ»Ð¸Ð· Ð°Ð²
b c
Ð¸ ÑĢÐ°Ð½
ĠÐ¿ÑĢÐ¸Ð± Ð»Ð¸Ð¶
ĠÐ¿ÑĢÐµÐº ÑĢÐ°Ñģ
ĠÑģÐ¼Ð¾Ð³ Ð»Ð¸
ĠÐ¿Ð¾Ð´ Ð¾Ð·
ĠÐ¿Ð¾Ð¶ Ð°ÑĢ
ĠÐ³ ÐµÐ¹
ĠÐ¾Ð±Ñī Ð¸Ð½Ñĥ
ĠÐ¿ÐµÐ½Ñģ Ð¸Ð¾Ð½
Ð¾ÑĤ Ð¾
ÑİÑī Ð¸Ð¼
20 12
ÑĢÐµ Ð²Ð¾Ð»Ñİ
Ð°Ð· Ñĭ
ĠÐ½Ð°Ð´ Ð¿Ð¸ÑģÑĮ
Ð°ÑĤÐ¾ÑĢ Ñĭ
ĠÑĢÐ¸Ð¼ ÑģÐºÐ¾Ð¹
ĠÑĤÐµ Ð¾ÑĢ
ĠÑĤÐ°Ð± Ð»Ð¸
Ð² Ð¸Ðº
ĠÐ¿ ÐµÐ¹
ÐµÐ² Ð°Ñı
Ð¾ÑĢÐ° ÑĩÐ¸Ð²
ĠÐ¶ ÑĳÑģÑĤ
Ð¾Ð²Ð°Ð» Ð°ÑģÑĮ
ĠÑĢÐ°ÑĥÐ½ Ð´Ðµ
x v
ÐµÐ´ ÑĢ
ĠÐ¾Ð± ÐµÑī
ĠÑĢÐµÐ· Ð¸Ð´
ĠÐ¿ÑĢÐµÐ´ÑģÑĤÐ°Ð² Ð»ÐµÐ½Ð°
ĠÐ°ÑĢÑĤÐ¸Ð»Ð» ÐµÑĢÐ¸Ð¸
Ġg am
ĠÐ·Ð°Ð²Ð¸Ñģ Ð¸ÑĤ
Ð¾ÐºÐ¾Ð¼ Ð¾ÑĤÐ¸Ð²
ĠÐºÑĢÐ°ÑģÐ½Ð¾ ÑıÑĢ
ĠÑģÑĢÐµÐ´ Ñĭ
Ð¸Ð½ÑĤÐµÑĢÐµ Ñģ
ĠÐ¼ ÑİÐ½
Ð¾Ðº Ð¾Ð»ÑĮ
ĠÑģ Ð¿ÑĢ
Ñĩ ÐµÐ¹
ĠÐ´ÐµÐ» ÐµÐ½Ð¸Ñİ
ĠÐ²Ñĭ Ð´ÐµÑĢÐ¶
ĠÐ¿Ð¾Ð»ÑĮ ÑģÐºÐ¾Ð³Ð¾
ĠÑģÑĤÐ°ÑĢ ÑĪÐµÐ³Ð¾
ĠÐµÐ´Ð¸Ð½ Ð¸ÑĨÐ°
ÑĢÐ°ÑģÐ¿Ð¾Ð»Ð¾Ð¶ ÐµÐ½
ĠÐ°ÑĤÐ°Ðº Ð¸
ÑĥÑĪ ÐºÐ¸
ĠÐ¿ÑĢÐ¾ÑĦÐµÑģÑģ Ð¾ÑĢÐ¾Ð¼
Ð°Ð´Ð° ÐµÑĤ
Ð¼ÐµÐ»ÑĮ Ð½Ð¸ÑĨ
or k
ĠÐ¿ÑĢÐ¾Ð²Ð¸Ð½ ÑĨÐ¸Ñİ
ĠÑĥÑģÑĤÐ°Ð½Ð¾Ð² ÐºÐ¸
ĠÐ± Ð°Ñħ
ĠÑģÑĦ ÐµÑĢÐµ
ÑĪ ÐµÑĢ
ĠÐ¼ÑĥÐ½Ð¸ÑĨÐ¸Ð¿ Ð°Ð»ÑĮÐ½ÑĭÑħ
ĠÑĢÐ¸Ð¼ Ðµ
ĠÐ¿Ð¾Ð´ Ð²
ĠÐ¿ÑĢÐµ ÐµÐ¼
ĠÐ²ÐµÑī ÐµÑģÑĤÐ²
ĠÑĨÐ¸ÑĦ ÑĢÐ¾Ð²
ÑĦ ÐµÐºÑĤ
ÑĥÑī ÐµÐ½
ĠÐ¿ÐµÑĢÐµÑģ ÐµÑĩ
Ð¾ÑĤ Ð»Ð¸Ñĩ
ĠÐ¾ÑĢ Ð±Ð¸ÑĤ
ĠÐ²ÑģÐ¿ Ð¾Ð¼
ĠÑĢ Ð¾ÑĤÑĭ
ĠÐ½ ÑĢÐ°Ð²
Ð°Ð½ Ð½Ð°
ĠÐ¾Ðº Ñģ
ĠÐ¿ÑĢÐµÐ´ÑģÑĤÐ°Ð² Ð»ÐµÐ½Ð¸Ñı
Ð¾Ð³ ÐµÐ½
Ð¿ÑĢÐµÐ·Ð¸Ð´ ÐµÐ½ÑĤ
Ð°ÑĢÑĤ Ðµ
ĠÐ¾Ð±ÑĬ ÐµÐºÑĤÐ°
u g
ĠÐºÑĢÐµÐ¿ Ð¾ÑģÑĤÑĮ
ĠÐ·Ð´ ÑĢÐ°Ð²
ĠÐ¿ÑĢÐ¾Ð³ÑĢÐ°Ð¼ Ð¼Ñĥ
ĠÐ°Ð»ÑĮÑĤ ÐµÑĢÐ½Ð°ÑĤÐ¸Ð²
ĠÐ¿ÑĢÐ¸Ð½Ñı Ð»Ð°
ĠÐ·Ð°Ð¿ Ð¸ÑģÑĮ
ÑĤ Ð¸Ð½
Ð°ÑĤÐµÐ»ÑĮ Ð½ÑĭÐ¼
Ð¸Ð· Ñĥ
ĠÐºÐ¾ÑĢÐ¾Ð»ÐµÐ² ÑģÑĤÐ²Ð°
Ġp la
ĠÑģÐ¾ÑĨÐ¸ Ð°Ð»ÑĮÐ½Ð¾Ð¹
ĠÐ¿Ð» ÐµÐ¹
Ġw ind
Ð°ÑĢ ÑĳÐ¼
ĠÐ¸Ð½Ð¸ÑĨÐ¸Ð°ÑĤÐ¸Ð² Ðµ
ĠÐ°Ð¼ÐµÑĢÐ¸ÐºÐ°Ð½ ÑģÐºÐ¸Ñħ
ĠÐº ÑĢÐ¸
Ð° ÑĨ
Ñī Ðµ
Ð¸Ð½ ÑģÑĤ
ĠÑĥÐ´ Ð¾Ð±
ĠÐ²ÐºÐ»ÑİÑĩ ÑĳÐ½
ĠÐ´ÐµÑģÑı ÑĤÐ¸
ĠÑģÑģÑĭ Ð»
ÐºÐ² Ð´
ĠÐ»Ð¸Ðº Ð²Ð¸Ð´
ĠÑĥ ÑģÐºÐ¾ÑĢ
ĠÐ¿ÑĢÐ¾ÐµÐºÑĤ Ð¾Ð²
ĠÐ»Ð°Ð³ ÐµÑĢ
ĠÐ¿Ð¾Ðº Ð¸Ð½Ñĥ
ĠÐ¿ÑĢÐµÐ´Ð»Ð¾Ð¶ ÐµÐ½Ð¸Ðµ
ĠÐ°Ð²ÑĤÐ¾Ð¼Ð¾Ð±Ð¸Ð» ÐµÐ¹
ĠÐ½Ðµ ÑģÑĤ
ĠÐ·Ð°ÑīÐ¸ÑĤ Ð¸Ð»
ÐºÐ¾Ð² ÑĭÐµ
ÑĩÐ¸Ðº Ð°Ð¼Ð¸
ĠÐ¿Ð¾Ð»ÐºÐ¾Ð² Ð½Ð¸Ðº
ĠÐ¿ÑĢÐµÐ¸Ð¼ ÑĥÑīÐµÑģÑĤÐ²
ĠÐ°ÑĤ Ð»Ð°Ð½ÑĤ
ĠÐ¾ÑĢ Ð»Ð¾Ð²
ĠÑģÐº Ð¾Ð¿
ĠÐ´Ð¾ÑģÑĤ Ð¾
h er
ĠÑĨÐµÐ½ÑĤÑĢÐ°Ð»ÑĮ Ð½ÑĭÐ¹
ÑĢÐ° Ð½Ð¾
ÐµÐ² ÑģÐºÐ¾Ð¹
ĠÑģ Ð½Ð°Ð±Ð¶
Ñħ Ð²Ð°ÑĤ
ĠÑĤÐ°Ðº Ð¸Ð¼Ð¸
ĠÐ±Ð°Ð½ ÐºÐ°
ĠÐ¿Ð°ÑĢÐ¸Ð¶ Ð°
ĠÐ¿ÑĢÐ¾ÑģÐ¿ ÐµÐºÑĤ
ĠÑģ Ð¶
Ð¾Ð½ Ð³
ĠÐ½Ð°Ñĩ Ð°Ð»ÑģÑı
Ġ5 2
ÐµÐ¹ Ð½Ð°
Ð¾Ñĩ Ð½Ð¾Ðµ
ĠÐ»ÐµÑĤ Ð½Ð¸Ñħ
ĠÐº Ð¸
ĠÐ±ÑĢÐ° ÐºÐ°
ĠÐ¸Ð½ÑĤ ÐµÐ½ÑģÐ¸Ð²
ĠÐºÐ¾ÑĢÐ°Ð± Ð»Ð¸
Ð¸Ñĩ ÐµÑģÑĤÐ²Ð¾
ĠÐºÐ¾Ð» ÑĥÐ¼Ð±
ĠÐ²ÑĭÑģ ÑĪÐµÐ³Ð¾
ĠÐ³ Ð¸Ð»ÑĮ
Ð¸ÑĢÐ¾Ð² Ð°ÑĤÑĮÑģÑı
on d
ĠÑģÑĩÐ¸ÑĤ Ð°ÑĤÑĮ
ĠÑĢÐ°ÑģÐ¿Ð¾Ð»Ð¾Ð¶ ÐµÐ½Ð½ÑĭÐ¹
ĠÐ¼Ð¾ÑģÐºÐ¾Ð² ÑģÐºÐ¾Ð¼
Ġ4 1
ĠÐ¿Ð»ÐµÐ¼ ÑıÐ½
ĠÐ¾Ð±Ð»Ð° Ð´Ð°ÐµÑĤ
m ent
Ð¸Ñģ Ð¾Ð²
ĠÐ¿Ð¾Ð´ÑĤ Ð²ÐµÑĢÐ´
ĠÐ¾Ð´ Ðµ
Ð¸Ð»Ð¸ Ñİ
ĠÐ½ ÐµÑĢÐ²
ĠÐºÐ¾Ð» ÐµÐ±
Ð°Ð² Ð°Ð»
ĠÑģ Ð¼Ð¸
Ñı Ð½Ð¾Ð²
or ld
Ġx iii
e x
ĠÐ¿Ð°ÑĢ Ð»Ð°Ð¼ÐµÐ½ÑĤÐ°
200 9
ĠÑģÐºÐ¾ ÑĢÐµÐµ
ĠÑĤ Ð²ÑĳÑĢ
ĠÑĦ ÑĢÐ°Ð³
Ð»Ð¸ Ð·Ð°
ĠÐ½ÐµÐ´ ÐµÐ»Ð¸
Ð°ÐµÐ¼ Ð¾Ð¹
ĠÐ¿Ð°ÑĢ Ñĭ
ĠÐ¾Ñĩ ÐµÐ²Ð¸Ð´
ÑĢÐµ Ñħ
Ð¾ÑĢ Ð¾ÑĤ
ĠÐ¿Ð°ÑĢÑĤ Ð¸Ñİ
9 6
ĠÑģ ÑĥÑīÐµÑģÑĤÐ²ÐµÐ½Ð½Ð¾
ĠÐ²Ñĭ Ð³Ð»Ñı
Ð»ÐµÐ² Ð¾
ĠÐ¿Ð¸Ð» Ð¾ÑĤ
ĠÐ¿ Ð¾Ð¹
ĠÑİÐ¶ Ð½Ð¾Ð³Ð¾
ĠÐºÐ¸Ðµ Ð²Ðµ
ĠÑĨ Ð¸ÑĢ
ĠÑģÐ¿ÐµÑĨÐ¸ ÑĦ
ÑĢÑĥ ÐµÑĤÑģÑı
ĠÐ½ÐµÐ´ ÐµÐ»Ñİ
ĠÐ³Ð°Ð· ÐµÑĤÐµ
ĠÐ´Ð²Ð¾ÑĢ ÑĨÐ°
ĠÑĢÑĥÑģ ÑģÐºÐ¾
. ).
ĠÐºÑĢÐ¸ÑģÑĤ Ð°Ð»
Ñĥ ÑĤÐ¾Ñĩ
ĠÐ³ÑĢÑĥÐ· Ð¸Ð¸
Ñģ Ð±
Ð¾Ð» Ðº
ĠÐ°ÐºÑĤ ÑĢÐ¸Ñģ
id ae
ĠÑĥÐº ÑĢÐµÐ¿Ð»
ĠÐºÐ¾Ð½ÑĤÐ¸Ð½ ÐµÐ½ÑĤ
ĠÑĤÐµÐ»ÐµÑģ ÐµÑĢÐ¸
ĠÑħ Ð°Ð¼
ĠÐ±ÐµÐ» Ð¾Ð³Ð¾
9 8
Ð¾Ð²Ð°Ð½ Ð½ÑĭÑħ
ĠÐ³ÐµÑĢ Ð¾ÐµÐ²
ĠÐ½Ð°Ð¿Ð¾Ð» Ðµ
Ð¾ÑħÑĢÐ°Ð½ Ð¸Ð»Ð¸Ñī
ĠÐ¿Ð»Ð°Ð½ ÐµÑĤ
ĠÐ¼Ð¾Ð½ ÐµÑĤ
ĠÐ¼Ð½ ÐµÐ½Ð¸Ðµ
ĠÐ½ÐµÐ´ Ð°Ð»ÐµÐºÐ¾
ĠÐºÑĢÑĭ Ð¼Ð°
ĠÐ³Ð°Ð»Ð°ÐºÑĤ Ð¸ÐºÐ°
Ð¾Ð· Ð½
Ð¾Ð»ÑĮ ÑģÐºÐ¾Ð³Ð¾
ĠÐ°ÑĦ Ð³Ð°Ð½
Ð°Ð½ Ð½Ð¾
ĠÐ³ ÑĥÐ¼Ð°Ð½
ĠÐ· Ð¾Ð»
ÑģÑĤ ÑĢÐµÑĩ
ĠÐ¾ÑģÑĤ Ð°Ð»ÑĮÐ½ÑĭÑħ
ĠÑĢÐ°Ð·Ð²Ð¸ÑĤ Ð¸Ñİ
Ð¸Ð²ÑĪ Ð°Ñı
ĠÐºÐ°Ð¿Ð¸ÑĤ Ð°Ð½Ð°
ĠÐ¼ Ð°Ð·
ĠÑģÐ¾Ð±ÑĢÐ°Ð½ Ð¸Ðµ
ĠÐ¿ ÐµÑĪ
ĠÐ² Ð¿Ð¾Ð»Ð½Ðµ
ĠÐ¸Ð·ÑĥÑĩ ÐµÐ½Ð¸Ñı
ÑĢÑĥ ÐºÐ¾Ð²Ð¾Ð´
ĠÐ¾ÑĨÐµÐ½ ÐºÐ¸
ĠÐ½ÐµÐ´ ÐµÐ»ÑĮ
ĠÐ´Ð² Ð¾ÑĢÐµ
ÑĥÐ± Ð¸Ð¹
ĠÐ½Ð°Ñģ ÐµÐºÐ¾Ð¼
Ð¼Ð¾Ð» Ð¾Ð´
ĠÐ» ÐµÐ±
ĠÑĨÐµÐ» ÑıÑħ
Ñİ Ðº
ĠÑģÐ»ÑĥÐ¶ Ð±Ðµ
ĠÑĦÐ¾ÑĢ Ñģ
ĠÑģÑĤÑĢÑĥÐºÑĤ ÑĥÑĢÑĭ
ĠÐ¿Ð»Ð° ÑĨ
ĠÑĥÑĩ Ð¸ÑĤ
ĠÐ¿ÑĢÐµÐ´Ð¿ÑĢÐ¸ÑıÑĤ Ð¸Ðµ
ÑģÐ¿ Ð¾ÑģÐ¾Ð±
ĠÑĥÐ± ÐµÐ´
ĠÑĢÐµÐ¼Ð¾Ð½ ÑĤ
Ð¸Ð· ÐµÐ¼
ĠÐºÐ°ÑĤÐµÐ³ Ð¾ÑĢ
ÑıÑī ÐµÐ¹
ĠÑģÐ¿ÐµÑĨÐ¸Ð°Ð»Ð¸ÑģÑĤ Ð¾Ð²
Ð¾Ð· Ð°Ð²
u re
ĠÐ¿ÐµÑĢÑģÐ¾Ð½Ð° Ð¶
Ð¿ÑĢÐ¾ÑĦ ÐµÑģÑģ
Ñħ ÑĢÐ¾Ð½
ĠÐ½Ð°Ð·ÑĭÐ² Ð°Ð»Ð¸
Ð¿ÑĢ Ð¸ÑıÑĤ
ÑģÐº Ð¾Ð¿
Ð°Ð² ÑĤÐ¾Ð¼
ĠÑģÑĤ Ð¸Ð»ÑĮ
ĠÐ°Ð½Ð³Ð» Ð¸Ð¹ÑģÐºÐ¾Ð³Ð¾
ĠÐ³Ð¾ ÑĢÐ°Ð·Ð´Ð¾
ÑıÑī ÐµÐ³Ð¾
ĠÑĦ Ð°Ð¹
ĠÐ¿ÑĢÐ¸Ð½ ÑĨÐµÑģÑģ
Ð´Ð°Ð» ÐµÐµ
ĠÐ¼Ðµ ÑĪ
ĠÐ¸Ð½ÑĦÐ¾ÑĢÐ¼Ð° ÑĨÐ¸Ñİ
Ñģ Ð»Ð¾Ð²
Ð¸Ñģ Ð¾Ð¼
ĠÐ²ÑĭÑģ Ð¾ÑĤÐ°
ĠÑį Ð²Ð¾Ð»Ñİ
ĠÐ¾ Ñī
ÑĨÐµÑĢ ÐºÐ¾Ð²
ĠÐºÐ¾Ð½ÑĨ Ð¾Ð²
ĠÑģÐ¾Ð³Ð»Ð°ÑĪ ÐµÐ½Ð¸Ðµ
Ġs c
ĠÑģÐ¼ÐµÑĢ ÑĤÑĮ
ĠÑĤÑĢÑĥÐ´ Ð¾ÑģÐ¿Ð¾ÑģÐ¾Ð±
ĠÐ±ÑĥÐ´ÑĥÑī ÐµÐ³Ð¾
9 2
ÑĪ Ð¸Ð½Ð°
ĠÐ² Ð¸
Ð°Ð½ ÐºÐ°
ĠÐ¿ Ð°Ñģ
ĠÐº Ð¾Ñĩ
ĠÑģÑĢÐµÐ´ Ð½Ð¸Ð¹
ĠÑĢÐ°Ð±Ð¾ÑĤ Ð¾Ð¹
ĠÐ¾Ñħ ÑĢÐ°Ð½Ñĭ
a w
ĠÑģÑĤÐ°Ð´ Ð¸Ð¸
Ñī Ð¸ÐºÐ¸
ĠÐ» Ð°Ð¿
200 5
ĠÑģ Ð°ÑĢÐ°
ĠÑĢÐ¾Ð´ Ð¾Ð²
ĠÑģÑĤÐ¸Ñħ Ð¸
ĠÐ¿ ÐµÐº
Ð¾Ð¿ ÑĢÐ¾Ð²
ĠÐ¾ÑĤÐº Ð»Ð¾Ð½
ĠÐ¿ÑĭÑĤ Ð°Ð»ÑģÑı
ĠÑĥÑĩ ÐµÐ½
ĠÐºÐ°Ð¼ ÐµÑĢ
ĠÐ¸ÐµÑĢ ÑĥÑģÐ°Ð»
Ð¸ÑĤÐµÐ»ÑĮ Ð½ÑĭÐ¼Ð¸
ÑĦ ÑĥÑĤ
Ð¾ÑĪ ÑĳÐ»
ĠÐ¿ÑĢÐ¾Ð²Ð¾Ð·Ð³ Ð»Ð°ÑĪ
ÐµÐ»ÑĮ Ð½ÑĭÐ¹
ĠÐ²Ñĭ Ð²ÐµÐ´
ĠÐ¿ÐµÑĢÐµÐ¼ ÐµÑī
ĠÐ¾Ð±ÑīÐµÑģÑĤÐ²ÐµÐ½ Ð½Ð¾Ð³Ð¾
ĠÐ³ Ð°Ð¹
ĠÐ³Ð¾Ð´ Ð¾Ð¼
ĠÐ¸ÑģÐ¿ ÑĢÐ°Ð²
Ñī Ð¸ÐºÐ¾Ð¼
Ð¼ ÐµÐ½ÑĤÐ°
ĠÐ¼Ð°ÑĤÐµÑĢÐ¸ Ð°Ð»Ñĭ
ĠÑģ Ñĳ
Ñī Ð¸Ð½Ð°
ĠÑģÐ» ÑĥÑħ
ĠÐ¾ÑģÑĤ Ð°Ð½
ĠÐ½Ð°ÑģÐµÐ» ÑĳÐ½Ð½ÑĭÐ¹
ĠÐ°Ð·ÐµÑĢÐ±Ð°Ð¹Ð´Ð¶ Ð°Ð½Ð°
ÑĥÑĢ Ð¸
ĠÑħ Ð°Ð±
ĠÐ²ÑĭÑģ Ð°Ð´
ĠÐ¾ÑĤÐ½Ð¾ÑĪ ÐµÐ½Ð¸Ðµ
Ð¸Ð¹ ÑģÐºÐ¾Ðµ
ĠÑģÑĤÑĢÐ¾Ð¸ÑĤÐµÐ»ÑĮ ÑģÑĤÐ²Ðµ
ĠÐµ ÑĢ
Ð¿ÑĢ Ð¾Ð³ÑĢÐ°Ð¼
ĠÐ¼ÑĥÐ¶ ÐµÑģÑĤÐ²Ð¾
Ð¹Ð¾ÑĢ ÐºÐµ
ĠÑĪÑĤÑĥÑĢ Ð¼
ĠÐ¿ÑĢÐµÑĤ ÐµÐ½Ð´
ÑĢÐµ Ð»Ð°
ÐµÑĢÐ°ÑĤ ÑĢ
200 4
ĠÐºÐ°Ð¶Ð´ Ð¾Ð¼
ĠÐ¿ÑģÐµÐ² Ð´Ð¾Ð½
ĠÐºÐ°Ð½ Ð°Ð´Ñĭ
Ð² Ð°Ñģ
Ð¿ÑĢ Ð¸Ð·
ĠÐ¶ÐµÐ½Ñī Ð¸Ð½Ð°
ĠÐ¿Ð¾ÑģÐ»ÐµÐ´ Ð½ÐµÐµ
ĠÐ²ÐµÐ½Ð³ ÑĢÐ¸Ð¸
s on
ÑİÑī ÐµÐ¹
ĠÑģÐ¾Ð»Ð½ ÑĨÐ°
Ð¿ Ð¾Ð³
ĠÑģÐ¸Ð¼ ÑĦÐ¾Ð½
Ð¸Ð² Ð°Ð½
ÑİÑī ÐµÐ³Ð¾
Ð¾Ð² ÑģÐºÐ¾Ð¼
ĠÐ½Ð°Ð½ ÐµÑģ
ĠÐ¼Ð½Ð¾Ð³Ð¾ÑĩÐ¸ÑģÐ»ÐµÐ½ Ð½ÑĭÑħ
ĠÐºÐ¸ÑĤÐ° Ðµ
ÑĢÐ° ÑĤÐ°
ĠÑģÐµÑĢ Ð¸Ñİ
ÐºÐ² Ð°ÑĢÑĤ
ĠÐ°ÑĦÑĢ Ð¸ÐºÐ¸
Ð¼ Ð°ÑĤÑĮ
Ð¸Ð½ ÑģÐºÐ¸Ð¼
ĠÑģÑĢÐ°Ð¶ ÐµÐ½Ð¸Ð¸
ĠÐ²Ð»Ð°Ð´ ÐµÐ½Ð¸Ñı
Ð² Ð°Ð´
ĠÐ²ÐµÐ»Ð¸Ðº Ð¸Ð¹
ĠÐ³Ð¸Ð± ÐµÐ»Ð¸
ĠÐ» ÑĥÐº
ĠÐ¿ÑĢÐ¸Ðµ Ð·
ĠÐ¾Ð± ÑĥÑģÐ»Ð¾Ð²
ĠÐ¿Ð¾Ð· Ð¸ÑĨÐ¸Ñİ
ĠÐ¸Ð± Ð½
ÑĦ Ð°Ð²
ĠÐ¾Ñģ Ð²Ð¾
Ð»ÐµÐ¹ ÑĤÐµÐ½Ð°Ð½ÑĤ
Ð°Ð»ÐµÐºÑģÐ°Ð½Ð´ ÑĢ
ĠÑįÐ¿Ð¾Ñħ Ñĥ
Ð½ ÑıÑĤ
ĠÑģÐ¸Ð±Ð¸ÑĢ Ð¸
Ð°Ð½Ð´Ð¶ÐµÐ» ÐµÑģ
ĠÑıÐ·Ñĭ ÐºÐ¾Ð¼
ĠÑĥÑĢ Ð¾Ð¶
ĠÑĦ Ð¾Ð»ÑĮ
Ñİ ÑģÑĤ
ĠÑģÑĤ ÑĢÐ¾Ðº
Ð±ÐµÑĢ Ð³Ð°
ĠÐ» ÑİÑĤ
Ð³Ð¾ÑĢÐ¾Ð´ ÑģÐºÐ¾Ð¹
ĠÐºÐ¾Ð½ÐºÑĥÑĢ Ñģ
Ñĥ ÑĤÐ°
ĠÐº ÑĢÐ¾Ð½
ĠÑģÐ¾Ð¾Ð±Ñī ÐµÐ½Ð¸Ðµ
Ð¿ÐµÑĤÐµÑĢ Ð±ÑĥÑĢÐ³Ð°
ĠÑģ Ð½Ðµ
ĠÑĥ ÑĪÑĳÐ»
ÑĥÑī Ð¸Ñħ
ĠÑģÑĥÑīÐµÑģÑĤÐ² Ð¾Ð²Ð°Ð²ÑĪ
ÐµÐ· Ð°
ĠÐ±Ð»Ð°Ð³ Ð¾ÑĤÐ²Ð¾ÑĢ
ĠÐ¿Ð»Ð°Ð½ Ðµ
ĠÐ¼ÑĥÐ·ÑĭÐº Ð°Ð»ÑĮÐ½ÑĭÑħ
Ðµ Ð¸
ÑģÐµÐ¼ ÐµÐ¹
ĠÐ¿ÑĢÐ°Ð²Ð¸ÑĤÐµÐ»ÑĮ ÑģÑĤÐ²Ð¾Ð¼
ĠÑĥÑĩÑĳ Ð½ÑĭÐ¹
ĠÐ¿ÑĢÐ¸ Ð±Ð¾ÑĢ
ĠÑħ Ð»ÐµÐ±
ÑĢ Ð¸Ñĩ
ĠÐ¿ÐµÑĤ ÑĢÐ¾Ð³
ĠÐ³ÑĢÐ°Ð½ Ð¸Ñĩ
ĠÑįÐ»ÐµÐºÑĤ ÑĢÐ¾
Ð²Ð¾Ð· Ð¼Ð¾Ð¶Ð½Ð¾
ĠÐ¿ÐµÑĢÐµÐ²ÐµÐ´ ÑĳÐ½
ĠÐ¼ÐµÑĤ ÑĢÐ¾
ĠÐ±Ð¾ Ð¸
ĠÐ¼ Ð¾ÑĢÐ°
Ð¿ ÐµÐ²
ĠÑĩ Ð¸Ð½
ĠÐ³ Ð¾ÑĢÐ°
ĠÑģÐ°Ð¼ ÑĭÐµ
Ð³ Ð´Ðµ
Ð´Ðµ Ð¿
ĠÐ¾Ð±Ð»Ð°ÑģÑĤ Ð½Ð¾Ð³Ð¾
ĠÑĪÑĤ Ð°ÑĤÐµ
ĠÑĤÑĥÑĢÐµ ÑĨ
i um
ĠÐ± ÑĢÐ¾Ð´
ÑĤÐµÐ½ Ð°Ð½ÑĤÐ°
ĠÑįÐº Ð·
Ð½ Ð¾ÐºÐ¾Ð¼
ÐµÐ½ ÑģÐºÐ°Ñı
ĠÐ¾Ð±Ñī ÐµÐ¼
ĠÐ²ÑĭÑģÑĤÑĥÐ¿ Ð°ÑĤÑĮ
ĠÐ´ÐµÐ¿Ð°ÑĢÑĤÐ°Ð¼ ÐµÐ½ÑĤÐ°
Ð¸Ð² Ð¸Ð»
ĠÑģÐ¾Ð·Ð´ Ð°Ð½Ñĭ
ĠÐ±Ð¸Ð±Ð»Ð¸Ð¾ÑĤÐµÐº Ð¸
or e
ĠÐ° Ð»Ð¸
ĠÐ³Ð¸Ð¼Ð½Ð° Ð·Ð¸Ð¸
f f
Ð°ÑĢ Ð¾Ð¼
ĠÐ³Ð» Ð¾Ð±
Ð¾ÑģÐ¾Ð± ÐµÐ½Ð½Ð¾
ĠÐ³ÑĢ Ð¸Ð±
Ð³ÑĥÐ± ÐµÑĢÐ½
Ð² ÑĪÐ¸Ð¹
ĠÑĢÐ°Ð² Ð½
ĠÐ´ÐµÑıÑĤÐµÐ»ÑĮ Ð½Ð¾ÑģÑĤÑĮÑİ
ĠÑĢÑĥ ÐºÐ°Ñħ
ĠÑĤÐ¸Ð¿ Ð¾Ð²
ÑĭÐ² Ð°Ð½Ð¸Ñı
ÑĢ Ð¸Ð±
ĠÐ¿ ÐµÑī
ĠÐ¼ÐµÑģÑĤ Ð¾Ð¼
n a
Ġi t
ĠÑĢÐµÐºÐ¾Ð¼ ÐµÐ½Ð´
ĠÑĤÐ²Ð¾ÑĢÑĩ ÐµÑģÑĤÐ²Ð°
ĠÐ²Ñĭ Ð¹ÑĤÐ¸
ĠÑĥÑģÑĤÐ°Ð½Ð¾Ð² Ð»ÐµÐ½Ð°
ĠÐ»ÐµÑĩ ÐµÐ½Ð¸Ñı
Ñģ Ð¸Ð»
ĠÑĤ Ð°Ð²ÑĢ
ĠÐ¼ÑĥÑħ Ð°Ð¼
Ð¸Ð½Ð³ Ð²
ĠÐ¿Ð¾Ð´Ð´ÐµÑĢÐ¶ Ð¸Ð²
ĠÑģÐ¾ÐµÐ´Ð¸Ð½ ÐµÐ½Ð¸Ñı
Ġ '
ĠÑĦÐ¾ÑĢ Ð¼Ð¸ÑĢÑĥ
ĠÐºÐ¾Ð½ÑĤÑĢÐ¾Ð» Ñı
ĠÑģÐ¾Ð± Ð¾ÑĢÐµ
ĠÐ¾ÑĤÐºÑĢÑĭ Ð»
ĠÐ¿ÑĢÐµÐ´ÑĥÑģ Ð¼Ð°ÑĤÑĢÐ¸Ð²
ĠÐ» Ð¾Ð±
ĠÑģ ÑĩÐ°ÑģÑĤ
ĠÐ± ÑĢÑıÐ½
ÑĥÑİÑī Ð°Ñı
ĠÑģÐ¾Ð¾ÑĤÐ²ÐµÑĤÑģÑĤÐ² ÑĥÐµÑĤ
ĠÐ² Ð±Ð»Ð¸Ð·Ð¸
ĠÐ²ÑĭÑģ Ð¾ÑĤÑĭ
9 7
ĠÐ¼ ÑıÑĤ
ĠÑĩ ÐµÑĢÐ²
ĠÑģÑĬ ÐµÐ·Ð´
ĠÐ¾ÑĤÐ¼ÐµÑĤ Ð¸ÑĤÑĮ
ÐºÐ°Ð¶Ð´ ÑĭÐ¹
ÑĮ ÑĳÐ²
Ð»Ð° Ñı
ĠÐºÐ¾Ð¼ ÑģÐ¾Ð¼
ĠÑģÐ¾ÑĤÑĢÑĥÐ´ Ð½Ð¸ÐºÐ¾Ð²
ĠÑĤÐµÐ¿ Ð»Ð¾Ð²
ĠÐ¾ÐºÐ°Ð· ÑĭÐ²Ð°ÐµÑĤÑģÑı
Ð¼Ð°Ðº ÑģÐ¸Ð¼
Ð¾Ñĩ ÐºÑĥ
ÑİÑī Ð°Ñı
ĠÐ½Ð°Ð¿ Ð¾Ð¼Ð¸Ð½
Ñħ Ð°Ð·
Ð°Ð½ ÑģÐºÐ¾Ð¼
ĠÐ¿ÐµÑĤÑĢÐ¾Ð² Ð¸Ñĩ
Ġm e
Ð¾Ð²Ð°Ð» Ð¾ÑģÑĮ
Ð¿ÑĢÐ¾Ñĩ ÐµÐ¼
ĠÐ²ÐµÑī ÐµÑģÑĤÐ²Ð°
ĠÐ½ÐµÐ·Ð°Ð²Ð¸ÑģÐ¸Ð¼ Ð¾ÑģÑĤÑĮ
ĠÐ¾Ð¿ÐµÑĢÐ° ÑĨÐ¸Ð¹
ĠÑħÐ¾Ð·ÑıÐ¹ ÑģÑĤÐ²Ð¾
ĠÐ¿ÑĢÐ¸Ð·Ð½ Ð°Ð½
20 11
Ð¼ ÑĥÐ¶
ÑĦ ÐµÐ¹
ĠÑĢÐµÐ³ÑĥÐ»ÑıÑĢ Ð½Ð¾
ĠÑģÐ¿ÐµÑĨÐ¸ Ð°Ð»ÑĮÐ½Ð¾ÑģÑĤÐ¸
ĠÐµÐºÐ°ÑĤ ÐµÑĢ
ĠÑĢ Ð¾Ð¶
ĠÐ²Ð¼ ÐµÑĪ
ĠÐ³Ð¾ÑĢÐ¸Ð· Ð¾Ð½ÑĤ
ĠÐ¸Ð·Ð± Ð¸ÑĢÐ°
ÑĪ Ð½Ð¸Ð¹
ĠÐ½Ð° ÑĪÐµÐ¹
ĠÐ²ÑĭÐ¿Ð¾Ð»Ð½ ÐµÐ½Ð¸Ðµ
ĠÐµÐ²ÑĢÐ¾Ð¿ÐµÐ¹ ÑģÐºÐ¾Ð¹
Ð¸Ð¼ ÑĭÐµ
ĠÐ¿Ð¾ÑģÑĤÑĢÐ¾Ð¹ ÐºÐ¸
ĠÑĢÐµ Ð°Ð»Ð¸Ð·Ð°ÑĨÐ¸Ð¸
ÑģÑģ Ð°
Ð± Ð°ÑĪ
ĠÐ²ÑģÑĤÑĢÐµÑĩ Ð¸
Ð°ÑĢ ÑģÐºÐ¸Ð¹
ĠÐ»ÑİÐ±Ð¾Ð² ÑĮ
ĠÑĦÐµÐ´ÐµÑĢÐ°Ð»ÑĮ Ð½Ð¾Ð³Ð¾
ĠÐ¼Ð½Ð¾Ð³ Ð¾Ð¼
ÑĢÐµÐ´ ÐºÐ¾
ĠÑģÑĤÐ°ÑĢ Ð¾Ð¼Ñĥ
Ð¸Ð· Ð½Ð°ÑĩÐ°Ð»ÑĮÐ½Ð¾
Ð° Ð¸
Ñı Ð»Ð°ÑģÑĮ
Ðº Ð¾Ð¼Ñĥ
ĠÐ» Ð°Ð¼
ĠÑĥÑĩÐ°ÑģÑĤ Ð¸Ð¸
ĠÐ¼Ð°Ñģ ÑĪÑĤÐ°Ð±
ĠÐ¼ Ð¸ÑĪ
ÑĨÐ¸Ð¾Ð½ Ð½Ð°Ñı
ĠÑĥÐºÑĢÐ° Ð¸Ð½ÑģÐºÐ¸Ð¹
ĠÐ±Ð°Ð· Ñĭ
ĠÐ¿ÑĢÐ¾ ÑıÐ²Ð»Ñı
ĠÐ³ Ð¾Ð²
ĠÑĥÑĩ ÑĳÑĤ
ĠÐ² ÑĢÐµÐ´
ÑĮ ÐµÐ²Ð¸Ñĩ
ĠÑĪ Ð°ÑĤ
ĠÑĦ ÑĢÐµÐ´
ĠÐ¿Ð¾Ð³ ÑĢÐµÐ±
ĠÐ²Ð¾ÑģÑģÑĤ Ð°Ð½Ð¸Ðµ
ÐµÐ½ ÐµÐ¹
ĠÑģÐºÑĥÐ»ÑĮ Ð¿
ÑĢÑı Ð´Ðµ
ĠÐ±ÑĢÐ°ÑĤÑĮ ÐµÐ²
ĠÐº ÐµÐ¹
Ð³ÑĢÑĥÐ¿ Ð¿Ñĭ
ĠÐ³ ÐµÑĢÐ°
ĠÑĥÑĩÐ°ÑģÑĤ ÐºÐµ
ĠÐ½Ð°Ð¿ÑĢÐ°Ð² Ð»ÐµÐ½Ð¸Ðµ
ÑĥÑĢ Ð¾Ð¹
ĠÐ·Ð° ÑĢÐ°Ð±Ð¾ÑĤ
ÑĳÐ½ Ð½Ð¾ÑģÑĤÑĮ
Ð¸ÑĢÑĥ ÑİÑĤÑģÑı
Ð¸Ð½ ÑĤÐµÑĢ
ĠÐ¶ ÐµÑĢÑĤ
ĠÑģÐ¾Ð¾Ð±Ñī Ð¸Ð»
ation al
ĠÐ½Ð° Ð¼ÐµÑģÑĤ
ĠÐ½ÐµÐ³ Ð°ÑĤÐ¸Ð²
Ð» Ð¾Ð±
Ð»ÐµÐ¹ Ð±
ĠÐ²Ð¾ÐµÐ½ Ð½Ð¾ÑģÐ»ÑĥÐ¶
Ð´ Ð·
ĠÐ² Ð¾ÑģÑģ
ĠÑģÐ¾Ð± ÑĢÐ°Ð»
ĠÐ·Ð°Ð½Ð¸Ð¼ Ð°ÐµÑĤÑģÑı
ĠÐ²Ð¾Ð¹ Ð½
ĠÑģÐ¾Ð´ ÐµÐ¹ÑģÑĤÐ²
ec t
ĠÑĪÐ²ÐµÐ¹ÑĨÐ°ÑĢ Ð¸Ð¸
ĠÐ³ Ð»Ð°Ð´
ĠÐ¼ Ð°Ð½Ð´
Ġ5 1
ĠÑĢÐ°Ð² Ð½Ð¾
ĠÑĥÑģÐ»Ð¾Ð² Ð¸Ð¹
ĠÑģÐ¸Ð¼Ð²Ð¾Ð» Ð¸Ð·
ĠÐ½Ð°ÑģÑĤ Ð¾Ð»ÑĮÐºÐ¾
ĠÐ²ÑĭÐ±Ð¾ÑĢ Ñĭ
Ġ5 3
ĠÑĩÐµÑĢÑĤ Ñĭ
s a
ĠÑĤ Ð°ÑĪ
ĠÑģÐµÐ² Ð°ÑģÑĤ
ĠÐ³ Ð°Ð½
ĠÐ¿ÑĢÐµÐ´ Ð¾ÑĤ
ĠÐ¿Ð°Ð» ÐµÑģÑĤ
ĠÐ¿Ð¾Ð² ÑģÑĤÐ°Ð½
ĠÐ¿ÑĢÐ¸Ð³ Ð»Ð°Ñģ
Ñģ ÐµÑĢÐ¸
ÑĨ Ð°Ñħ
ĠÐ²ÑĭÐ¿ÑĥÑģÑĤ Ð¸Ð»
ĠÑģÐ°Ð¼Ð¾ÑģÑĤÐ¾ÑıÑĤÐµÐ»ÑĮ Ð½Ð¾
Ñģ Ð¾ÑĤ
Ð¿ ÐµÑĪ
ÑĢÑĭÐ² Ð°ÐµÑĤ
Ð°Ð½Ð¾Ð² Ð¾
ĠÑĢÑĥÑģ ÑģÐºÐ°Ñı
ĠÐ´ Ð½ÐµÐ²
ĠÐ½ÐµÐ¿ÑĢ Ð¸ÑıÑĤ
ĠÑģ Ñģ
ĠÐ¸ÑģÐ¿Ð¾Ð»ÑĮÐ· Ð¾Ð²Ð°Ð»ÑģÑı
ÑģÐ¾ ÑĨÐ¸
Ð°ÑİÑī Ð¸ÐµÑģÑı
Ð¾Ð· ÐµÑĦ
Ġ on
at e
ĠÐ¿Ð¾Ð»Ð¸ÑĤ Ð¸ÑĩÐµÑģÐºÐ¸Ð¹
ĠÐ¸Ð·Ð¾Ð±ÑĢÐ°Ð¶ ÐµÐ½Ð¸Ðµ
ĠÐºÑĢÐ¸ÑĤ Ð¸ÐºÐ¾Ð²
ĠÑİÐ³Ð¾ÑģÐ»Ð°Ð² Ð¸Ð¸
Ð°ÑĪ Ð¸ÑģÑĤ
ĠÐ¶ Ð¸Ð»Ð¸
ĠÑģÐ°Ð¼ Ð¾Ðµ
ĠÐ¿Ð¾Ð» Ð½Ð¾Ð¹
Ð¼Ð°Ð¹ Ð¾ÑĢ
ĠÑĦÐ¸Ð»ÑĮÐ¼ Ð°Ñħ
ĠÐ±Ð°ÑĪ Ð½Ð¸
ĠÑĢÐµ ÑģÑĤÐ°Ð²
ĠÑĢÐ¾ÑģÑĤ Ð°
ĠÑĢÐ°Ð´ Ð¸Ðº
ĠÐ¿Ð¾Ð»Ñĥ Ð·Ð°ÑīÐ¸ÑĤ
Ð¸Ð¼ ÑģÑĤÐ²
ÐµÑĢÐ° Ð»
ĠÐ»ÑİÐ´ ÑĮÐ¼Ð¸
ĠÑģÐ¾Ð±ÑģÑĤÐ²ÐµÐ½ Ð½Ð¾Ð¹
ĠÐ±ÑĢÐ°ÑĤ Ð¾Ð¼
ĠÐ´ Ð¾Ð²ÐµÑĢ
Ð¾ Ð¾ÑħÑĢÐ°Ð½
ĠÐº ÑĥÐ»
Ð½Ð¾ÐºÐ¾Ð¼ Ð°Ð½Ð´
Ð½Ð° ÑģÐ»ÐµÐ´
ĠÐ¾Ð± ÑĭÐ³
ĠÑĢÐµÐ¶ Ð¸Ð¼Ð°
Ð½ Ð¸ÑģÑĤ
Ġ190 2
ĠÐ±ÑĢÐ° Ðº
Ñī Ð¸Ð½Ñĭ
ÑĪ ÐµÑģÑĤÐ²ÐµÐ½
ĠÐ±Ð°ÑĪ ÐºÐ¸ÑĢ
ĠÐ·ÑĢ Ð¸ÑĤÐµÐ»ÐµÐ¹
Ġne w
ĠÐ¾Ð¿ ÑĢÐ°Ð²
Â ³
Ð½Ð¸ Ð¶Ðµ
ĠÐ» Ð°ÑĢ
ĠÐºÐ°ÑĤ Ð°ÑģÑĤÑĢÐ¾ÑĦ
ĠÐ½Ð° Ñħ
ĠÐ³Ð¾ÑĢÐ¾Ð´ ÑģÐºÐ¸Ñħ
ĠÐ¿ÑĢÐ¾Ð¶Ð¸Ð² Ð°ÐµÑĤ
Ð¾ÑĢÐµ Ð²
ĠÐ² Ð°ÑĤ
Ð°ÑİÑī Ð¸Ð¼Ð¸
ĠÐ¾Ð¿ÑĢÐµÐ´ÐµÐ» ÐµÐ½Ð¸Ñı
ĠÑĤÐµÐ¼Ð¿ÐµÑĢÐ°ÑĤ ÑĥÑĢÑĭ
ĠÐ»Ð¸Ðº Ð²Ð¸Ð´Ð°
ĠÐ¼ Ð¸ÑģÑĤ
ĠÐ¾Ð±Ð¾ÑĢÑĥÐ´ Ð¾Ð²Ð°Ð½Ð¸Ñı
ĠÐ½ÐµÐ¿ÑĢÐµ ÑĢÑĭÐ²
Ġp gc
ĠÐ¿Ð¾Ð´ÑĢÐ°Ð·Ð´ÐµÐ» ÐµÐ½Ð¸Ñı
ĠÐ¿ÑĢÐ¸Ð¼ Ð¾ÑĢ
ĠÐ°ÑįÑĢÐ¾Ð´ ÑĢÐ¾Ð¼
ĠÑĤ Ð²
Ð¿ÑĢÐ¾Ð² Ð¾Ð´
Ð³ Ð¸Ð·
Ñĳ ÑĢÑĭ
ĠÐ³Ð°Ð· ÐµÑĤÐ°
ĠÐ¿Ð¾ÑģÑĤÑĢÐ¾ ÐµÐ½Ñĭ
ĠÐºÐ¼ ÐµÑĤ
ĠÐ¶ Ð°ÑĢ
ĠÐ´Ð¼Ð¸ÑĤ ÑĢÐ¸ÐµÐ²
ĠÐ¿ÐµÑĢÐµÐ³Ð¾Ð² Ð¾ÑĢÑĭ
Ġ190 3
ĠÑģÐ² ÐµÑĢÐ´
ĠÐ²Ð°ÑĪ Ð¸Ð½Ð³
Ñĩ Ð¸Ð½Ð°
ĠÐµ Ð¶
194 4
ĠÐ´ Ð¸Ð¼
ĠÐ±Ñĭ ÑģÑĤÑĢ
ÑĢÐ°Ñģ ÑģÑĤÐ¾Ñı
ĠÑģÐ¾Ð· ÑĭÐ²Ð°
ĠÐ¾ÑģÑĤ Ð°Ð»Ð¸ÑģÑĮ
ĠÐ½ Ð¾Ð¶
ĠÑĤÐµÐ¼ Ñĥ
ĠÐ²Ð¾Ð·Ð²ÑĢÐ°Ñī ÐµÐ½Ð¸Ñı
ĠÐ³Ð¾Ð´ Ð°Ð¼
ĠÑģÐ²ÐµÐ´ÐµÐ½Ð¸Ñı Ð¼
ÑĨÐ¸ Ð´
ĠÑģÐ¸ÑģÑĤÐµÐ¼ Ð¾Ð¹
ĠÑĢÐµÑģÐ¿ÑĥÐ±Ð» Ð¸ÐºÐ°
ĠÑģ Ð¾ÐºÑĢÐ°ÑĤ
ĠÐ³Ð¾Ð»Ð¾Ð² Ñĭ
Ð½ Ð¾Ð²Ð°Ð½Ð¸Ðµ
Ð»Ñı ÑĤ
ĠÑĪ Ð¿
Ð½ Ð´
ĠÐ´Ð² Ð¾Ðµ
ĠÐ¾Ð±ÑĢÐ°Ð· ÑĥÐµÑĤ
ĠÑįÐ½ ÑĤ
ĠÐ¼ ÑıÑģ
ĠÐ·Ð°Ð½ ÑıÐ»Ð¸
Ð± Ð°Ñģ
Ð¾Ñģ ÐµÐ½ÑĮÑİ
ĠÐ¾Ð±ÑīÐµÑģÑĤÐ²ÐµÐ½ Ð½ÑĭÑħ
ĠÐ½ Ð¾ÑĢ
ul t
ĠÐ¸Ð½ ÑģÐ¿
Ñģ ÐµÐ½ÑĤ
ĠÑĢÐµÐ·ÑĥÐ»ÑĮÑĤ Ð°ÑĤÐ¾Ð¼
ĠÑĥÑĩÐµÐ½Ð¸ ÐºÐ¾Ð²
ĠÐ¿Ð° Ð¿Ð°
ĠÑĤ Ð°Ð´Ð¶
ĠÑĪ Ð°Ð½
ĠÐ°Ð± Ð´
ĠÐ²ÑĤÐ¾ÑĢ Ð¶
ĠÐºÐ°Ð½ Ð¾Ð½
ĠÑģÐ¾Ð´ÐµÑĢÐ¶ Ð°Ð½Ð¸Ðµ
ĠÑĢÐ°ÑģÑģÐºÐ°Ð· ÑĭÐ²Ð°ÐµÑĤ
ĠÑįÑģÐºÐ°Ð´ ÑĢ
ĠÐ¾ÐºÐ°Ð· Ð°Ð»Ð¾ÑģÑĮ
ĠÐ¿ÑĢÐ¸Ð¼ÐµÐ½ ÐµÐ½Ð¸Ðµ
ÑĮ Ð¼
ĠÑıÐ²Ð»Ñı Ð»Ð°ÑģÑĮ
ĠÑģÑĤÐ°Ð½ Ð¸ÑģÐ»Ð°Ð²
ĠÐ¾Ð¿ ÐµÑĢÑĭ
Ð¾ÑĤ Ð½Ð¾Ñģ
ĠÑĩ ÑĥÑĤÑĮ
ĠÑħ Ð¼ÐµÐ»ÑĮÐ½Ð¸ÑĨ
ĠÐ¼ÐµÑĤÐ¾Ð´ Ñĭ
ĠÐ¿Ð¾Ð» Ð½Ð¾
Ñĥ ÑĦ
ĠÑĢÐ°Ñģ ÑĩÑĳÑĤ
ĠÐ¾ÑĤÐ¿ÑĢÐ°Ð² Ð»ÐµÐ½
ĠÐ»ÐµÐ½Ð¸Ð½Ð³ÑĢÐ°Ð´ ÑģÐºÐ¾Ð¹
Ð½ ÑģÐºÐ¸Ð¹
! Â»
ĠÐ¼ÐµÑģÑĤ Ð½Ð¾Ð¼
ĠÑģ Ð°Ð½Ð´
ĠÐ½ÐµÐ´ Ð°Ð²
ĠÐ³Ð¾ÑģÑĤ Ð¸Ð½
ÑĢÑĭ ÑĪ
ĠÐ²Ð¾Ð´ Ð¾ÑħÑĢÐ°Ð½Ð¸Ð»Ð¸Ñī
ic ro
ĠÑĥ Ð¾Ð»
ĠÐ¿Ð¾ ÑįÑĤÐ°
ĠÑĤ Ð°Ð³
ĠÐ¸Ð½Ð´ ÑĥÑģÑĤ
ĠÐ¼Ð°ÑĤÐµÑĢÐ¸ Ð°Ð»Ð°
Ð¾Ð´ Ð°ÑĢ
Ð½Ð¾Ð² Ð°Ñı
ĠÐ¾ÑģÐ½Ð¾Ð² Ð½Ð¾Ð³Ð¾
ĠÐ²Ð¾Ð´ Ð¾Ð¹
ĠÐ½Ð¸ÐºÐ°Ðº Ð¸Ñħ
ĠÐ¿Ð¾ÑģÑĤ Ñĥ
ĠÐ¼ÑĥÐ·ÑĭÐº Ð°Ð»ÑĮÐ½Ð¾Ð¹
Ð·Ð°Ð¿Ð°Ð´ Ð½Ð¾Ð¹
ĠÑģ ÐµÐºÑģÑĥ
ĠÐ¿Ð°Ð² Ð»Ð°
ĠÐ½Ð¾Ð² Ð¾
ĠÐ° ÑĢÐµ
ÐµÐ² Ð¾Ð´
ÑĥÑĤ ÑģÑĤÐ²Ð¸Ð¸
ĠÐ¾Ð´ ÐµÑģ
Ð´ÐµÐ± ÑİÑĤ
ĠÐ¼ÐµÐ´Ð°Ð»ÑĮ Ñİ
ĠÑģÑĤ ÑĢÐ¾Ð³
ĠÑĥÑģ Ð¸Ð»Ð¸Ñı
ĠÐ¼Ð°Ð» Ð¾Ð¹
ĠÑģÐ²ÑıÑĤ ÑĭÑħ
ĠÑĢÐ°Ð·ÑĢÐ°Ð±Ð¾ÑĤ ÐºÐµ
ÑĤ Ñģ
ĠÑģÑĢÐµÐ´ Ð¸Ð·ÐµÐ¼
ÑĦ Ð¸Ð·
Ġwind ows
ĠÑĤÐµÑħÐ½Ð¾Ð»Ð¾Ð³ Ð¸Ð¹
ĠÐ·Ð°ÑģÐ» ÑĥÐ³Ð¸
. Â»
Ð¿ÑĢÐµÐ´ ÑģÐµÐ´
ĠÐ¾ÑĤ Ð±Ð¾ÑĢ
ÑĮÑı Ñħ
Ð²Ð¸Ð´ Ñĥ
ĠÐ·Ð°Ð¿Ð°Ð´ Ð½Ð¾Ð¼
ĠÐ±ÐµÑĢÐ»Ð¸Ð½ Ðµ
ĠÐ±Ð¾ÐµÐ² ÑĭÐµ
un g
ĠÐ·Ð°Ð¿ Ð¾Ð²ÐµÐ´
ĠÐ¼ÐµÑħÐ°Ð½ Ð¸Ð·Ð¼
Ðº Ð¼ÐµÑĤ
ĠÐ´ ÐµÐ½Ð¸
ĠÐ´Ð°Ð½ Ð¸
ĠÑģÐ²ÑıÐ· Ð°Ð½Ñĭ
ĠÐ¿Ð¾ÑģÑĤÑĢÐ¾ ÐµÐ½Ð¾
Ð¾ ÑĢÐ°ÑĤÐ¸Ð²
ĠÑģÐ¾Ð²ÐµÑĤ Ð¾Ð²
ÑĤÐ¾ÑĢÐ° Ð¼Ð¸
ĠÐ¸Ð¼ ÐµÐ½Ð°
Ġa p
ĠÑĢÑĥÐºÐ¾Ð²Ð¾Ð´ Ð¸ÑĤÐµÐ»ÐµÐ¼
ĠÐ°Ð´Ð¼Ð¸Ð½Ð¸ÑģÑĤÑĢÐ°ÑĤÐ¸Ð² Ð½Ð¾Ð³Ð¾
ĠÐ¾ÑĤÐ¼ÐµÑĤ Ð¸Ð»
ĠÑĪ Ð»ÐµÐ¼
ĠÐ¿Ð¾ÑĢÑıÐ´ Ð¾Ðº
ĠÐ¿ÑĢÐ¸Ð½ ÐµÑģ
Ð¾Ð´ Ð½Ð¾Ð¹
ÐµÐ»ÑĮ Ð½Ð¾Ð¹
ĠÑĥÑĩÐ°ÑģÑĤÐ² Ð¾Ð²Ð°Ð»Ð°
Ð¾Ð± Ð»Ð°Ð´
Ð¸Ð² Ð°Ð»Ð¸ÑģÑĮ
ÑĦ Ð»Ð°Ð³
ĠÐºÑĢÑĥÐ¿ Ð½ÑĭÐ¹
ĠÐºÐ°Ð½ ÑĨ
l in
ĠÑģÐ¿ Ð¸ÑĢ
ĠÑİÐ¶ Ð½ÐµÐµ
ĠÑĤÐ°Ð» Ð°Ð½ÑĤ
ÐºÐ¾Ð² Ð¸Ñĩ
ĠÑģÐ¾ÑģÑĤÐ°Ð² Ð½Ð¾Ð¹
ĠÐ¼ÐµÑģÑĤ Ð½Ð¾Ð¹
ĠÐ°ÑĢÑħ Ð°Ð½Ð³ÐµÐ»ÑĮ
Ð¼Ð°ÑĢ Ðº
ĠÐ´Ð¸ Ð°Ð¿Ð°Ð·
ĠÐ¸Ð·Ð³ Ð½
ÑĦ ÑĢÐµÐ´
Ġ186 0
ĠÐ¿Ð¾ÐºÐ¾Ð» ÐµÐ½Ð¸Ñı
ĠÐ¼Ð¾ÑĢ ÑģÐºÐ¸Ñħ
ĠÐ¼ÐµÐ» Ð¾Ð´
ĠÑĢÐµ ÐµÑģÑĤ
ĠÐ·Ð° ÑģÑĤÑĢÐ¾Ð¹
ĠÐ¼ÐµÑģÑĤ Ð½ÑĭÐµ
ĠÐ¸ÑģÐ¿Ð¾Ð»ÑĮÐ· Ð¾Ð²Ð°Ð»Ð¸
Ð¼Ð¾ ÑģÐºÐ¾Ð²
ÑģÐµÐ· Ð¾Ð½
9 4
ĠÐ¾ÑĤ ÑĨÐ¾Ð¼
ĠÐ¾Ð±ÑĢÐ°Ð· ÑĨÐ¾Ð²
Ð¼ Ð°ÑģÑĤ
Ð¾Ð²Ð°Ð½ Ð½ÑĭÐ¹
Ġ" "
ĠÑĩÐµÐ¼Ð¿Ð¸Ð¾Ð½ Ð¾Ð²
Ð¾ÑģÐ½Ð¾Ð² Ð½Ð¾Ð¹
ĠÐ´ÐµÐ½ ÐµÐ³
ĠÐ½ ÐºÐ²Ð´
Ð¸Ð´ Ð½ÑĭÐµ
ĠÐ¿Ð¾ÐºÐ°Ð· Ð°Ð»
ĠÑĦÐ¾ÑĢÑĤ ÐµÐ¿
ĠÐ·ÐµÐ¼ Ð»ÐµÐ´
ĠÐ½Ð°ÑģÐµÐ» ÑĳÐ½Ð½ÑĭÐµ
ĠÐ¿ÑĢÐµÑģÑĤÑĥÐ¿ Ð»ÐµÐ½Ð¸Ñı
ĠÑģÐ¾ÑĨÐ¸Ð°Ð»Ð¸ÑģÑĤ Ð¸ÑĩÐµÑģÐºÐ¾Ð³Ð¾
Ð¿ÑĢ Ð¸Ð¿
Ð½Ñı Ð¼Ð¸
Ð¸Ð»ÑĮ Ñı
ÑĢÐ°ÑģÑģÑĤÐ¾Ñı Ð½Ð¸Ðµ
ĠÐ» ÐµÐ¿
" "
ĠÑĤ ÐµÐ½Ð´
ĠÑħ ÑĢÐ¾Ð¼
ĠÐ²ÑĭÐ± ÑĢÐ°Ð½
ÑĨ Ð¸Ð½
Ð² Ð¾Ð½
ĠÐ¶ Ð¸ÑĤÑĮ
Ð¾Ñĩ Ð½ÑĭÐ¼
ĠÑĦÐ¸Ð½ Ð¸ÑĪ
ĠÑĢÐ°ÑģÑĤ ÐµÐ½Ð¸Ñı
ĠÐ¿ÐµÑĢÐµÐ²Ð¾Ð´ Ðµ
ĠÐ¿Ð¸ÑģÑĮ Ð¼Ð°
ĠÐºÑĥÐ· Ð½Ðµ
ĠÐ½Ð°ÑģÐ»ÐµÐ´ Ð¸Ñı
ĠÐ¿ÑĢÐ¾Ð² ÐµÑģÑĤÐ¸
Ġa w
ĠÐ¾Ñģ ÐµÐ½ÑĮÑİ
ic h
ĠÑĩÐµÐ¼ Ð¿Ð¸Ð¾Ð½Ð°
ĠÑĦÑĢÐ°Ð³ Ð¼ÐµÐ½ÑĤ
ĠÐº Ñį
ĠÐ¿ÑĢÐµÐ´ÐµÐ» Ð°Ð¼Ð¸
ĠÑĩÐµÑĢÐ½ Ð¸Ð³
ĠÐ¼Ð¾Ð»Ð¾Ð´ Ð¾Ð¹
ĠÐ³ÑĢÑĥ Ð½
ĠÐ²ÑĭÐ¿ÑĥÑī ÐµÐ½Ð°
ĠÐ»Ð¸Ð´ ÐµÑĢ
ĠÐ¿Ð¾Ñģ Ð¾Ð»ÑĮ
Ð´ Ð°Ð¼
Ð¶ ÑĥÑĢÐ½
ĠÑĪ Ð°Ð¼
ĠÐ¼ÐµÑĤ ÑĢÐ°
ĠÐ²Ð»Ð¸Ñı Ð½Ð¸Ñı
Ñģ Ð±Ð¾ÑĢ
ĠÐ´Ð¾ÑģÑĤÐ¸Ð³ Ð°ÐµÑĤ
ĠÐ°Ð´ ÑĢÐµÑģ
Ð¸Ð¼ ÑĭÐ¹
Ġ5 8
ĠÐ´ÐµÐ¼Ð¾Ð½ ÑģÑĤ
ĠÐ´Ð¸Ð²Ð¸Ð· Ð¸Ð¾Ð½Ð°
m s
Ð» ÑĥÑĪ
ĠÐ» ÐµÑģÑĤ
Ġ6 8
ÐµÐ»ÑĮ Ð½Ð¾Ð³Ð¾
Ð°ÑĤÐµÐ» Ñİ
ĠÐ¿ÑĢÐ¾ÑĪ Ð»Ð¾Ð¼
ĠÐºÑĢÑĭÐ¼ ÑģÐºÐ¾Ð¹
ĠÐ¿ÐµÑĢÐµÐ½ Ð¾Ñģ
Ð´Ð° Ñħ
ĠÐ¿ÑĢÐµ Ð¿ÑıÑĤ
ĠÐ°Ð» Ð³Ð¾ÑĢ
ÑģÐµÐ³ Ð¾Ð´Ð½Ñı
ĠÑĤ ÑĢÐ¾ÑĦ
ĠÐ°Ð½ Ð½Ð°
ĠÑĢÐ°Ñģ ÑĦÐ¾ÑĢÐ¼
ĠÐ¸Ð¼Ð¿ ÐµÑĢÐ°ÑĤÑĢ
ĠÐ¸Ð½ÑĤÐµÑĢÐµ ÑģÐ¾Ð²
Ð°Ð´ Ñĥ
ĠÐ¸Ð½ Ð³
Ð°ÐºÐ¾Ð¼ Ð¿
ĠÐ½Ð¾Ñģ Ð¸ÑĤ
ĠÑĥÑĩÐµÐ± Ð½ÑĭÑħ
ĠÐ¿ÑĢÐ¾Ð²Ð¾Ð´ Ð¸Ð»Ð¸ÑģÑĮ
ĠÐºÐ¾ÑĢÐ¿ Ð¾ÑĢÐ°
ĠÑĩ ÑĳÑĤ
Ð¸Ñģ Ð¸
ĠÐ¾ÑģÐ² ÐµÑī
Ð» ÑĳÑĤ
Ñĩ ÐµÐ²
ĠÑĢÑĥÑģ Ð¸
ĠÑģÐ¾ÐµÐ´Ð¸Ð½ ÐµÐ½Ð¸Ðµ
ĠÐ² Ð¾Ð»Ð¾Ð³
ĠÐ·Ð° Ð¹
ĠÐ¼ Ð°Ð²
ĠÑģÑĤÑĢ Ð¾Ñı
ĠÑĩÐµÑĤÐ²ÐµÑĢ ÑĤÑĮ
ĠÐºÐ°Ð¼ ÐµÐ½
ĠÑģÐ²ÑıÐ· Ð°Ð½Ð½ÑĭÑħ
Ð½Ð¾Ð² Ð¾Ð´
ĠÐ°Ð½Ð³ Ð»Ð¸Ñĩ
Ġ5 7
Ð°ÑĢ ÑĤÐ°
ĠÑĦ Ð°Ð½ÑĤÐ°ÑģÑĤ
ĠÑĤÐ¸ ÑĢÐ°Ð¶
ĠÑĥ Ð²Ð°Ð¶
ÐµÐ´ Ð°
ĠÐ¿Ð¾Ð¿ ÑĥÐ»Ñı
ĠÐ¿ÑĢÐ¾Ð´Ð¾Ð»Ð¶ Ð°ÐµÑĤ
ĠÐ¿Ð¾Ð¿ÑĥÐ»ÑıÑĢ Ð½Ð¾ÑģÑĤÑĮ
ĠÐ´ÑĢÐµÐ² Ð½ÐµÐ¹
ĠÐ½ Ñĥ
ÑĢ Ð²
ĠÑģÐ¾Ð²ÑĢÐµÐ¼ ÐµÐ½
ĠÐºÐ¾ÑģÑĤ Ñİ
Ðº Ð¾ÑģÑĤ
ĠÐ¼ Ð³Ñĥ
y s
ĠÐ³ÑĥÐ±ÐµÑĢÐ½ Ð°ÑĤÐ¾ÑĢÐ°
ĠÐ°ÑĦÑĢ Ð¸ÐºÐ°Ð½
ĠÐ¿ Ð¸
ÑĢÐµÐ· ÑĥÐ»ÑĮÑĤ
ĠÐ¿Ð»Ð¾ÑīÐ°Ð´ ÑĮÑİ
Ð°Ð½Ð¾Ð² Ð¸Ñĩ
Ð¿Ð¸ÑĤ Ð°Ð½
ĠÑĤÐ°Ð½ Ðº
ĠÑģÐ¾ÑģÑĤÐ°Ð² Ð¸Ð»Ð¸
Ð²ÐµÑģ Ð½Ð¾Ð¹
ĠÐ·Ð°ÑģÐ»ÑĥÐ¶ ÐµÐ½Ð½ÑĭÐ¹
Ġ5 4
9 3
ÐµÐ» Ð»Ð°
Ð¶ ÐµÐ½Ð°
Ð¾Ð´ Ð¾Ð¼
ĠÑĥÑĩÑĳ Ð½ÑĭÑħ
ol d
Ð¸Ð· Ð¼ÐµÐ½
Ð»Ð° Ð´Ðµ
ĠÐ¾Ð³ Ð½ÑĳÐ¼
ĠÐ¸Ð¼Ð¿ ÐµÑĢÐ¸Ñı
ÑĦ Ð¸ÐºÑģ
ĠÐ¿ÐµÑĩÐ°ÑĤ Ð¸
ÑĢÐµÑĤ ÑĮ
ĠÑĥÐ±Ð¸Ð¹ ÑģÑĤÐ²Ð°
l l
ĠÑİÐ¶ Ð½Ð¾Ð¼
Ð¾Ð¿ Ð°
is h
ÑĤ ÐµÐº
Ð¼ Ñı
Ð¾Ð´ ÐµÑĢÐ¶
Ġ% ),
ĠÐ¿ÑĥÑĤ ÐµÐ¹
Ñĩ ÐµÐ½
ĠÐ·Ð°ÐºÐ»ÑİÑĩ ÐµÐ½Ð¸Ñı
ÐµÐ³ Ð¾Ð²
ĠÐ²ÑĭÐ¸Ð³ ÑĢÐ°Ð»Ð°
ĠÑĤÐµÐ» ÐµÑĦÐ¾Ð½
ĠÑĢÑĥÐºÐ¾Ð²Ð¾Ð´ ÑģÑĤÐ²Ð°
ĠÐ¿ÑĢÐ¾Ð²Ð¾Ð´ Ð¸ÑĤÑģÑı
ĠÐ´Ð¾Ñĩ ÐµÑĢ
Ð½ÐµÑģÐº Ð¾Ð»ÑĮÐºÐ¾
Ð½ Ð¸Ð»
ĠÑĢÐ°Ð·Ð»Ð¸Ñĩ Ð½ÑĭÐ¼Ð¸
Ðº Ð»Ð¸
ĠÐ¾Ð±ÑĬÑıÐ² Ð»ÐµÐ½Ð¾
ĠÐ½ Ð¸Ð³
ĠÐ¿ÑĢÐ¸ÑģÐ¾ÐµÐ´Ð¸Ð½ Ð¸Ð»ÑģÑı
ĠÐ²Ð¾ÐµÐ½ Ð½ÑĭÐ¼
ĠÐ¿Ð¾ ÑıÑģ
ĠÑĢÐ°Ð½ Ð½Ð¸Ñħ
ÑĢÐ° ÑĢ
ĠÑģÐµÑģÑĤ ÑĢÐ°
ĠÐ° ÑĪ
Ð¸Ðº Ð°Ð¼
Ġv iii
Ġ8 00
ĠÑĤÐµÐ¼ Ð°ÑĤ
ĠÑģÑĤÐ°ÑĢ ÑĪÐ¸Ð¼
ĠÐ²ÐµÐ´ ÑĳÑĤ
ĠÑĢÐµÐ´Ð°Ðº ÑĤÐ¾ÑĢ
ĠÐ¿ÑĢÐ¸ÐºÐ°Ð· Ð°Ð»
ĠÑĨÐ¸Ðº Ð»
Ð°ÑĤÐµÐ»ÑĮ ÑģÑĤÐ²Ð¾
ĠÑģÐ¾Ð· Ð½
Ð±ÑĥÐ´ ÑĥÑĩÐ¸
ĠÐ¾Ð±ÑĢÐ°Ð· Ð¾Ð²Ð°ÑĤÐµÐ»ÑĮ
ĠÑģÐ¾Ð·Ð´ Ð°Ð½Ð¸Ñİ
Ð¾Ñĩ Ð½ÑĥÑİ
ĠÑĢÐ°Ð·Ð²Ð¸ÑĤ Ð¸Ð¸
ĠÐ½ÐµÐ»ÑĮ Ð·Ñı
u x
Ð¼ ÑĥÑĤ
ĠÑĢÐ°Ð² ÐµÐ½
ĠÐ´Ð²Ð¸Ð³ Ð°ÑĤÐµÐ»Ñı
ĠÐ¸Ð¾Ð°Ð½ Ð½Ð°
ĠÐ´Ð°Ð³ ÐµÑģÑĤ
ĠÐ¾Ð±Ñī Ð¸Ð¼
ĠÐ½Ð°ÑħÐ¾Ð´ Ð¸Ð»Ð¾ÑģÑĮ
ĠÐ³Ð»Ð°Ð² Ð½Ð¾ÐºÐ¾Ð¼Ð°Ð½Ð´
ĠÐ³ÑĢÐ°Ð½ Ð¸ÑĨÑĥ
ĠÐ·Ð°Ð²ÐµÑĢÑĪ ÐµÐ½Ð¸Ñı
ĠÐ» Ð¾ÑĤ
ĠÑģÐ¾ÑģÑĤ Ð¾ÑıÑĤ
Ð°ÑİÑī ÑĥÑİ
ĠÑĨÐµÐ» ÐµÐ¹
ĠÐ²Ð¾ÑģÑĮ Ð¼
ĠÑĥÑģÑĤ ÑĢÐ°
ĠÑĢÐ¾Ð· ÑĭÐ³
ĠÐ¿Ð¾ ÐµÐ·Ð´Ð°
ĠÐ³Ð²Ð°ÑĢÐ´ÐµÐ¹ ÑģÐºÐ¾Ð³Ð¾
ĠÐºÐ¸Ð½ÐµÐ¼Ð°ÑĤ Ð¾Ð³ÑĢÐ°ÑĦ
ĠÐ¿Ð¾Ð´ Ð¿Ð¾Ð»ÐºÐ¾Ð²
Ð» ÑĭÐ¹
ÐºÑĢÐµÑģÑĤ ÑĮÑıÐ½
ĠÑĦ Ð¾Ð½Ðµ
ÑģÐ¿ ÑĥÑģÑĤÑı
ĠÐ¸Ð·Ð¼ÐµÐ½ ÐµÐ½Ð¸Ð¹
20 13
ĠÐ² Ð¸ÑĪ
ĠÐ²Ñĭ ÑıÑģÐ½
ent er
ĠÐ¿ÑĢÐ¾ÑıÐ² Ð»ÐµÐ½Ð½ÑĭÐµ
ĠÑĪ ÐµÐ²
ĠÑĦÑĢÐ°Ð½ ÑĨÐ¸Ñı
ĠÐ½Ðµ ÑĢÐµÐ´ÐºÐ¾
ÑģÐ¼ Ð¸Ð½
ĠÐ²Ð¾Ð·Ð²ÑĢÐ°Ñī Ð°ÐµÑĤÑģÑı
ĠÑĤ ÐµÑĤ
ĠÐ²ÑĭÐ¿ÑĥÑģÑĤ Ð¸Ð»Ð°
ĠÐ¼ÑİÐ½ Ñħ
ĠÐ¶ Ñİ
ĠÑįÐºÐ¸Ð¿Ð° Ð¶Ð°
ĠÑĥÑĩÐ°ÑģÑĤ Ð½Ð¸ÐºÐ¸
ÑĪÑĤ Ð°ÑĤ
ĠÑĢÐ°Ð±Ð¾ÑĤ Ð°ÑİÑĤ
for mula
ĠÑĢÐ°ÑģÑģ Ð¼Ð¾ÑĤÑĢ
ĠÐ´ÐµÑģÑı ÑĤÑĮ
Ð°ÑĢ ÐºÑĤ
ĠÐ°Ð´Ð¼Ð¸Ð½Ð¸ÑģÑĤÑĢÐ°ÑĤÐ¸Ð² Ð½ÑĭÐ¹
Ð± ÑĢÐ°ÑĤ
ĠÐ± Ð¾Ð¼
ĠÑĤ ÑĥÐ»
ĠÐ¾ÑģÐ¾Ð± Ð¾
Ð± Ð¾Ð²
ĠÑģÐµÐ²ÐµÑĢ Ð½Ð¾Ð¼
ĠÑĤÐ²ÑĳÑĢ Ð´
Ð»Ñı Ñı
Ð² Ð¾Ð·Ð´
ĠÐºÐ¾ÑĢ Ð¾Ð±
ĠÐ½Ð°Ð·Ð² Ð°Ð½Ð°
ĠÐ½ÐµÐ· Ð½Ð°Ñĩ
ÑĢÐ°Ð½ Ð¾Ð²
ĠÐ¼ÑĥÐ¶ Ð°
Ð± ÐµÑĤ
ĠÐ¿Ð°Ð¼ÑıÑĤ Ð½Ð¸ÐºÐ°
ĠÐ¿Ð°ÑģÑģÐ°Ð¶ Ð¸ÑĢÐ¾Ð²
ĠÐ±ÐµÑģÐ¿ Ð»Ð°ÑĤ
ĠÑģÐ¼ÑĭÑģ Ð»Ðµ
Ð»ÐµÐ½ Ð½Ð¾Ð³Ð¾
ĠÐ²Ð¾Ð» Ð¾ÑģÑĤ
ÐµÐ½ Ð±ÑĥÑĢÐ³
ĠÐ²ÑģÐ¿ Ð¾Ð¼Ð¸Ð½
ĠÐ²Ð½ÑĥÑĤÑĢÐµÐ½ Ð½ÐµÐ¹
ĠÑģÐ°Ð¼Ð¾ ÑĥÐ¿ÑĢÐ°Ð²
is s
ĠÐ»Ð°ÑĤÐ² Ð¸Ð¸
ĠÐ¿Ð¾ÑģÐ² ÑıÑĤ
ĠÐ²ÐµÐ´ÑĥÑī Ð¸Ñħ
ĠÐ¾Ð±Ñī ÐµÑģÑĤÐ²ÐµÐ½Ð½Ð¾Ð¹
ĠÐ²ÐºÐ»ÑİÑĩ ÐµÐ½Ñĭ
Ð¸ÑĢÐ¾Ð²Ð°Ð½ Ð¸Ñİ
ĠÐ´Ð¾Ðº Ð»Ð°Ð´
ĠÐº Ð¸Ð¿
Ġ188 0
Ð°Ð» Ð°Ñħ
ĠÐ± Ð¾ÐºÑģ
ĠÐ¸ÑģÑĤÐ¾Ñĩ Ð½Ð¸ÐºÐ°Ñħ
ĠÑĥ ÑģÑģÑĢ
ĠÐµÐ²Ð³ ÐµÐ½Ð¸Ð¹
ĠÑĢÐ¸Ñĩ Ð°ÑĢÐ´
ĠÑĤÐµÑĩ ÐµÐ½Ð¸Ñİ
ĠÐ½ÐµÐ²Ð¾Ð· Ð¼Ð¾Ð¶Ð½Ð¾
Ð¿ÑĢÐµ Ð¶
m e
Ð½Ð¸Ðº Ð¾Ð»
ĠÐ±Ð¾ÑĢÑĮ Ð±Ñĥ
ÑįÑĦÑĦ Ð¸ÑĨÐ¸
ĠÐ¾Ð±Ð»Ð°ÑģÑĤ ÐµÐ¹
Ġa d
ĠÑĪÐ¸ÑĢ Ð¸Ð½Ð¾Ð¹
ĠÐ´Ð¾Ð¼ Ð¾Ð¹
ĠÐ³ÑĥÐ±ÐµÑĢÐ½ Ð¸Ñı
ĠÑıÐ²Ð»Ñı ÑİÑī
r an
Ð°ÑĤÐµÐ»ÑĮ Ð½Ð¾Ðµ
ĠÐ¿Ð°ÑĢ Ð¾Ð²
ĠÐ±ÑĢÐ° Ð¹
ĠÐ¿ÑĢÐ¸Ð¼ÐµÐ½ ÑıÐµÑĤÑģÑı
ĠÐ¼Ñĭ Ñģ
ĠÑĦÐ°Ð¼ Ð¸Ð»Ð¸Ð¸
ĠÐ¿ÐµÑĢÐµÐµÑħ Ð°Ð»Ð°
ÑĦ Ð»
Ð°Ð² Ð¸
Ð¿ Ð¸Ð½
ĠÑĨ ÐµÑħ
ĠÑģÑĤÐ°Ð± Ð¸Ð»ÑĮ
ĠÑģÐ¾ÑĢÐµÐ²Ð½Ð¾Ð²Ð°Ð½ Ð¸Ð¹
p er
Ð»Ñİ Ð·
ĠÐ´Ð¾Ð¿ ÑĥÑģÐº
i er
ÑĥÐ»ÑĮ ÑĦ
ĠÐ¸ÑģÑĤ Ð¸Ð½
ĠÑģÑĢÐµÐ´ Ðµ
ĠÐ±ÑĭÐ² ÑĪÐµÐ¹
ic k
ĠÐ¸ÑģÐ¿Ð¾Ð»Ð½Ñı ÐµÑĤ
ĠÑģÐ¾Ð´ÐµÑĢÐ¶ Ð°ÑĤ
ÑįÐ½ Ð´
ĠÑĦÑĢÐ¾Ð½ ÑĤÐ°Ñħ
ÑĮ ÐµÐ¼
ĠÑĢÐµÑĩ ÑĮ
ĠÐºÑĢÐ°Ñģ Ð½Ð¾Ð´
ĠÑĤÐ¾Ñĩ Ð½Ð¾
ÐºÐ¾Ð² Ð¾Ð³Ð¾
ĠÐ¿ÑĢÐ¸ÑĤ Ð¾Ðº
Ð´ Ð¾Ð±
Ð¾ÑĢÐ¾Ð´ Ð°
Ð¾Ð¶Ð´ ÐµÐ½Ð¸Ð¸
Ð¾Ð´ Ð½Ð¾
Ð¾Ð¼ Ð°
ĠÐ² ÐµÐ±
ĠÐ² Ð²ÐµÑĢÑħ
Ð¾Ð³ Ð¸
ĠÐ²Ð¾Ð¾ÑĢÑĥÐ¶ ÐµÐ½Ð¸Ðµ
Ð°Ð» ÑĤ
ĠÐ² Ð¸Ñģ
ĠÐ°Ð¼ÐµÑĢÐ¸ÐºÐ°Ð½ ÑģÐºÐ°Ñı
ĠÑģÑĤÑĢÐ°Ð½ Ñĥ
Ð± Ð°Ñħ
ĠÑĥÐ²Ð¾Ð» ÐµÐ½
ĠÐ² Ð¿Ð°Ð´
ĠÐ²Ñĭ ÑĢÐ°Ñī
ĠÐ¾Ð¿Ð¸Ñģ Ð°Ð½Ð¸Ðµ
200 3
ĠÐ¿ÑĢÐ¾ÑģÑĤÑĢÐ°Ð½ ÑģÑĤÐ²Ð°
Ġ en
ĠÑĤ ÑĥÐ´Ð°
ĠÐ´ÐµÐ¹ÑģÑĤÐ² Ð¸ÑĤÐµÐ»ÑĮÐ½Ð¾
ĠÐ¾ÑģÐ°Ð´ ÐºÐ¾Ð²
ĠÐ² ÑĢÐ°ÑĤ
ĠÑĩÐ°Ñģ Ð°
Ð¾ÑĤ Ð½Ð¾ÑĪ
ĠÐ¼ÑıÑĤ ÐµÐ¶
ĠÐ¾ÑĤÐºÑĢÑĭ ÑĤÐ¾
ĠÐ¾ÐºÐµ Ð°Ð½Ð°
Ð°ÑĢ ÑģÐºÐ¾Ð¹
ĠÐ¼Ð¾Ð½Ð°ÑģÑĤÑĭ ÑĢÐµ
ĠÐ²Ñĭ ÐºÑĥÐ¿
ĠÐ½ÐµÐ±Ð¾Ð»ÑĮÑĪ Ð¸Ñħ
ÐµÐ´ Ð½ÐµÐ²
ĠÑĥÑĤÐ²ÐµÑĢÐ¶Ð´ ÑĳÐ½
Ñħ Ð»
ĠÐ³Ð¾ÑĢÐ¾Ð´ Ñĥ
ĠÐ¼Ð°ÑģÑģ Ñĭ
ĠÑĢÐµ Ð¿ÑĢÐµÑģÑģ
ĠÐ½Ð°ÑģÑĩÐ¸ÑĤ ÑĭÐ²Ð°Ð»Ð¾ÑģÑĮ
ÑĢÐ°Ð· ÑĥÐ¼
Ñħ ÑĥÐ´Ð¾Ð¶
ĠÐ¶Ð¸Ð² ÑĳÑĤ
ĠÑģÐ¾ÑĨÐ¸ Ð°Ð»ÑĮÐ½ÑĭÑħ
ĠÐ´Ð¾ÐºÑĥÐ¼ ÐµÐ½ÑĤÐ¾Ð²
ĠÐ¼ÐµÑĤ ÑĢÐ¾Ð¿Ð¾Ð»Ð¸ÑĤ
ĠÐ·Ð½Ð°Ð¼ ÐµÐ½Ð¸
ĠÐ¾Ð±ÐµÑģÐ¿ÐµÑĩ Ð¸Ð²
ĠÐ·Ð°ÐºÐ¾Ð½Ñĩ Ð¸Ð»
Ñģ Ð°Ð¹
Ġ Ġ
ĠÑĢÐµÑĪ Ð¸Ð»Ð¸
ĠÐ¾Ð¿ÑĢÐµÐ´ÐµÐ» ÑıÐµÑĤÑģÑı
ĠÑģÐµÑĢÐµ Ð±
ĠÑĥÑĩÐ°ÑģÑĤ ÐºÐ°
ĠÐ½ÐµÐ¼ ÑĨÐµÐ²
ĠÐ¾ÑĤ Ð»Ð¾Ð¶
ĠÐ²ÑĢÐµÐ¼ ÐµÐ½
Ð·Ð°Ñģ Ð»ÑĥÐ¶
ÑįÐ½ ÑĮ
ÐµÐ½ ÑģÐ°
ĠÐ½Ð¾ÑĢÐ² ÐµÐ¶
ĠÑĤ Ð¸ÑĤÑĥ
9 1
ĠÐ´ Ð°ÑĤÑĮ
ĠÐ±ÐµÐ»ÑĮÐ³ Ð¸Ð¸
ĠÐ¿ Ð°Ð»Ðµ
ÐµÐ» ÐµÑĤ
ÑĥÐ· Ñĭ
ĠÐ½ÐµÐ¼ ÐµÐ´
Ð³Ð» Ð¾Ð¼
ĠÐ»Ð¸Ð½ Ð¸Ñİ
ĠÐ°Ð½Ð³Ð» Ð¸Ð¹ÑģÐºÐ¾Ð¼
ĠÐ°Ð» ÑĦÐ°Ð²
ĠÐ²Ð¾ÑģÑĤÐ¾Ñĩ Ð½Ð¾
ĠÐ½Ð°ÑģÐµÐ» ÐµÐ½Ð¸ÐµÐ¼
ĠÐ¿ÐµÑĢÐµ ÑĪÐ»Ð°
ĠÐ¿ÐµÑĢÑģ Ð¸Ð´
Ð¸ÑĢ Ð¾
ÑĤ ÑĢÑĥÐ´
Ð¾Ð¶ Ð°Ð½
Ð´Ð° ÑĳÑĤÑģÑı
Ð´ Ð¾Ð¿
ĠÐº Ð¾Ð±
ĠÐ´ Ð»Ð¸Ð½Ñĭ
ĠÐ½Ð°Ð³ÑĢÐ°Ð´ Ñĭ
200 2
o st
ĠÑģ Ð»Ð°
ĠÐ¿Ð¾Ð² ÐµÑģÑĤÐ²
Ð¾ÑĤÐº ÑĢÑĭÑĤ
Ð¸Ð²ÑĪ ÐµÐ¹ÑģÑı
ĠÐ³ÐµÐ½ ÑĢÐ¸Ñħ
ĠÐ²ÑĢÐµÐ¼ ÐµÐ½Ð½Ð¾
Ð¼Ð°ÑĢ ÑĪ
Ġcom p
ĠÑģÐ²ÑıÐ· Ð°Ð½Ð°
Ð· Ð¾ÑĢ
ĠÐ¾ ÑĢÐ°Ð½
ĠÑģÑĤÑĥÐ´ ÐµÐ½ÑĩÐµÑģÐº
ĠÑģÐºÐ¾ÑĢ Ð¾ÑģÑĤ
ĠÐ¼ÐµÑħÐ°Ð½ Ð¸Ð·
Ð´Ð° ÐµÐ¼
Ð± Ð»Ð¸Ð¶Ð°Ð¹
ÑĩÐµÑģÐº Ð¸Ð¹
ĠÐ³Ð¾Ð´ Ð°Ð¼Ð¸
Ð¸Ð¼ ÑĭÐ¼
ĠÐ´Ð°Ð½ Ð½Ð¾Ð¼
ĠÐ´Ð»Ð¸Ð½ Ñĥ
Ð³Ð¾Ð» Ð¾Ð²
ĠÐºÐ½ÑıÐ¶ ÐµÑģÑĤÐ²Ð°
ÐºÐ¾Ð¼Ð¿ Ð°Ð½Ð¸Ñı
ĠÐ´Ð¸ÑģÑĨÐ¸Ð¿ Ð»Ð¸Ð½
ĠÑĦ Ð°
ĠÐ¾Ð± ÑģÑĤÐ°Ð½Ð¾Ð²
ĠÐµ Ð»ÑĮ
Ġ190 1
Ġmc g
ĠÑĥÑĤ Ð²ÐµÑĢÐ´
ĠÐ³Ð»Ð°Ð² Ð¾Ð¹
Ð¼ ÑĥÑĢ
Ð¿Ð¾Ñģ ÑĳÐ»
ĠÑĤÑĢ Ð¾Ð»
ÑĢÐµ Ð³Ñĥ
Ð¾Ð½ Ð°Ñħ
ÑıÐ½ ÑĮ
ĠÑĥÑģÐ¿ÐµÑħ Ð¾Ð¼
ĠÑĤ Ð¾ÑĢÐ¼
ĠÐ» ÑĥÐ½
ÑĬ ÐµÐ·Ð´
ĠÐº ÑĢÑĥÐ¶
Ð¾ÑĢ Ð¾ÑģÑģ
Ð»Ð° Ðº
Ð¾Ð³ Ð¾Ð½
ÐºÐ° Ð¹
ĠÑĤ ÑĢÐ¾Ð½
ĠÐ¿Ð»Ð°Ð½ ÐµÑĤÑĭ
ĠÐ»Ð¸ÑĨ Ð¾
ĠÑħÐ°ÑĢÐ°ÐºÑĤ ÐµÑĢÐ°
Ð² Ð½ÑĥÑĤ
ĠÐ»ÑİÐ´ Ð¾Ð²
ĠÑģÐ¾ÑħÑĢÐ°Ð½ Ð¸Ð»Ð¸ÑģÑĮ
ĠÐ± Ð»Ð¸Ð¶
ĠÐ»Ð¸Ñĩ Ð½Ð¾ÑģÑĤÐ¸
ĠÐ± ÐµÐº
ĠÐ¿Ð°Ð¼ÑıÑĤ Ð½Ð¸ÐºÐ¾Ð²
Ð¼ Ð¸Ð»
ĠÐ¾ÑĢÐ³Ð°Ð½Ð¸Ð· Ð¾Ð²Ð°Ð»
ĠÐ´ÑĥÑħÐ¾Ð² Ð½Ð¾Ð¹
ĠÐ¿ÐµÑħ Ð¾ÑĤÑĭ
ĠÐ¿ÑĢÐ¸Ð· Ð½Ð°
ĠÐ¿ÐµÑĢÐ²ÐµÐ½ ÑģÑĤÐ²Ðµ
ĠÐ´ Ð°Ð¼
Ñİ Ð¹
ĠÐ³Ð¾Ð²Ð¾ÑĢ Ð¸Ð»
ĠÑĪÐ¾ÑĤ Ð»Ð°Ð½Ð´Ð¸Ð¸
Ð½ÑĥÐ² ÑĪÐ¸ÑģÑĮ
ĠÐºÐ° ÑĪ
ĠÑģÐ¿ÐµÑĨÐ¸ Ð°Ð»ÑĮÐ½ÑĭÐ¹
ÐµÑĢÐ° ÑĤÐ¾ÑĢ
ĠÐ¿ÑĢÐ¾Ð¿ Ð¾Ð²ÐµÐ´
ĠÐ¿ÑĢÐµ Ñģ
ĠÐºÐ¾Ð½ÑĦÐ»Ð¸Ðº ÑĤ
ĠÑģÐµÑĢÐ³Ðµ Ñı
ĠÐ²Ð»Ð°ÑģÑĤ ÐµÐ¹
ĠÐ´ÑĢÐµÐ² Ð½Ð¸Ñħ
ĠÑħÐ¾Ð» Ð¼
ĠÑĤÐ¾Ð¿ Ð¾Ð½Ð¸Ð¼
ĠÐ² Ð°Ð»ÑĮ
ĠÐºÐ» Ð¸Ð¼Ð°ÑĤ
ĠÐ¸Ð½ÑģÑĤ ÑĢÑĥÐº
Ð·Ð¾Ð»Ð¾ÑĤ Ð°Ñı
ÑĤ Ð¸Ñı
ĠÐ³ Ð»Ð°Ð·Ð°
ĠÐ´ÐµÐ¿ÑĥÑĤ Ð°ÑĤÐ¾Ð¼
Ã ¡
Ð¸Ð² Ð°ÑĤÑĮÑģÑı
Ð°Ð± Ð¸Ð»
Ñı Ð¿Ð¾Ð½
ĠÐ¼Ð¸Ð½ Ð¸
Ñħ Ð°Ð¼
Ð¿Ð¾ÑģÑĤ Ð°Ð½Ð¾Ð²
ĠÑĥÐ¿ÑĢÐ°Ð² Ð»ÐµÐ½Ð¸ÐµÐ¼
Ð± ÑĢÐ¾Ð½
ĠÐ¿Ð¾Ð±ÐµÐ´ Ð¸ÑĤÐµÐ»ÑĮ
ĠÐ¿ÑĢÐ¸Ð½Ð¸Ð¼ Ð°Ð»Ð¸
ĠÐ²Ð· ÑıÑĤÑĮ
ĠÐºÐ¾Ð½ÐºÑĥÑĢ ÑģÐµ
ÑĦ Ñĥ
ĠÑģÐ¾Ð²ÐµÑĤ ÑģÐºÐ°Ñı
ar k
Ð¸Ð´ Ð¶
ĠÐ¿Ð¾Ð½ÑıÑĤ Ð¸Ðµ
Ð¿ Ð¾Ñı
ÐµÑĢ ÑģÐºÐ¸Ð¹
ÐµÐ¼ Ð¾Ð½
ÑĥÐ»Ð¸ ÑĨÐ°
ĠÑĤÐµÑĢÑĢÐ¸ÑĤÐ¾ÑĢ Ð¸Ð¹
ĠÐ± Ð°Ð²
ÑĥÑģ Ð¾Ð¼
ĠÐºÐ¾ÑĢÐ¾Ð»ÐµÐ² ÑģÐºÐ¾Ð¹
Ð¸Ð¹ ÑģÐºÑĥÑİ
ĠÑİ ÑģÑĤ
ĠÑħ Ð¸ÑĢÑĥÑĢÐ³
ĠÑĢÐ°ÑģÐ¿ Ð°Ð´Ð°
200 1
Ð°ÑĢ Ñĥ
Ð¸Ð²ÑĪ Ð¸Ð¼
Ð½ Ð°ÑĤÑĮ
Ð°ÑĢÐ° Ð±
ĠÐ·Ð°Ñı Ð²Ð»Ñı
ĠÐ²Ð½ÐµÑĪ Ð½ÐµÐ¹
ĠÑĤÐ¾Ð¼ Ð°Ñģ
ÐµÑĤ Ð¾Ð¼
ĠÐ¼Ð¾Ð» Ð¸ÑĤ
ĠÑıÐº Ð¾Ð±Ñĭ
ĠÐ²ÐµÑģ Ð½Ð¾Ð¹
Ġc od
Ð¾Ð±Ð¾ÑĢ Ð¾ÑĤ
i al
ĠÑģÐ¿Ð¾ÑģÐ¾Ð± Ð½Ð¾ÑģÑĤÐ¸
ĠÐ¿ÑĢÐ¾Ð¸ÑģÑħ Ð¾Ð¶Ð´ÐµÐ½Ð¸Ðµ
ĠÐºÐ°Ð¶Ð´ ÑĭÐµ
ĠÐ¿ ÑĥÐ±Ð»Ð¸Ðº
ĠÑĢÐµÐ·ÑĥÐ»ÑĮÑĤ Ð°ÑĤÐ¾Ð²
ĠÐ¼ÑĥÐ·Ñĭ ÐºÐ°
ĠÑĢÐµÑĪ Ð°ÐµÑĤ
ĠÐ½ÐµÐºÐ¾ÑĤÐ¾ÑĢ ÑĭÐ¼
Ð¾Ñĩ Ð°Ð¹
ĠÑģÐ¾Ð² ÑģÐµÐ¼
ĠÐ¿ÑĢÐµ Ð¿Ð°ÑĢÐ°ÑĤ
Ð°ÑĤÐµÐ» ÑıÐ¼
ĠÐ³ÐµÐ½ ÑĢÐ¸
ĠÐ³ Ð¾ÑĢÐµ
ĠÐ¿Ð¾Ð¶ Ð°Ð»
ĠÐ¼Ð¸Ð»Ð»Ð¸ Ð¾Ð½Ð°
ĠÐ´Ð¾Ð» Ð³Ð¾Ðµ
ĠÑĥÑĩÐµÐ½Ð¸ ÐºÐ°Ð¼Ð¸
Ġm an
ĠÐ¾Ð±ÑĢÐ°Ð·Ð¾Ð²Ð°Ð½ Ð¸Ð¹
Ġ187 0
ĠÑĢÐ°Ð· Ð½Ð¾Ð²Ð¸Ð´
ĠÑħÑĢÐ°Ð¼ Ðµ
ĠÐ± ÑĢÐ°Ð½
ĠÑİ Ð½Ð¸
Ð°ÐµÐ¼ Ð¾Ð³Ð¾
ĠÐ±ÑĢÐ°Ð· Ð¸Ð»ÑĮ
ĠÑĢÐ°Ð· Ð²ÐµÑĢ
ĠÐ½Ð°ÑģÐµÐ» ÑĳÐ½Ð½Ð¾Ð³Ð¾
ĠÐ¶ÐµÐ»ÐµÐ·Ð½Ð¾Ð´Ð¾ÑĢÐ¾Ð¶ Ð½Ð°Ñı
ĠÐ²Ñģ ÐµÐ²
ĠÐ¿ÐµÑĢÐµ ÑĪÐ»Ð¸
ĠÐ°Ð½ Ð°Ð»Ð¸Ð·Ð°
ĠÐ³Ð¾Ð²Ð¾ÑĢ ÑıÑĤ
ĠÐ¾Ð± ÑģÐµÑĢÐ²
ĠÑĦÐ¸ÑĢ Ð¼Ñĭ
ĠÐ¾ÐºÑĢÐµÑģÑĤ Ð½Ð¾ÑģÑĤÑıÑħ
Ð°Ð´ Ð¾Ð»Ð³Ð¾
ĠÑĥÑĩÑĢÐµÐ¶Ð´ ÐµÐ½Ð¸Ñı
ĠÐ·Ð´Ð¾ÑĢÐ¾Ð² ÑĮÑı
ÐµÑĢ Ð¿
Ð»Ð° Ð´ÐµÐ»
ĠÑİÐ¶ Ð½Ð¾
ĠÐ¿Ð»Ð¾ ÑģÐº
Ðº Ð¾ÑĤÐ¾ÑĢ
ĠÑĢ Ð¸Ð³
ĠÐ¿Ð¾ÑģÐ»ÐµÐ´ ÑĥÑİÑīÐ¸Ðµ
ĠÐ¿Ð¾Ð»ÐºÐ¾Ð² Ð½Ð¸ÐºÐ°
Ð¿ ÑĢÐ°Ð·Ð´
ĠÐ¿ÑĢ Ð¾Ð·
ĠÑĤÑĢÐ° Ðº
ĠÐ¾Ð±Ðµ Ð¸Ñħ
ĠÑĢÐµÐ±ÑĳÐ½ ÐºÐ°
ĠÐ¾ÐºÐºÑĥÐ¿ Ð°ÑĨÐ¸Ð¸
ĠÑģÐ¾ÑģÑĤÐ¾Ñı Ð»Ð°
ĠÐ½ÐµÑģÐºÐ¾Ð»ÑĮ ÐºÐ¸Ð¼Ð¸
ĠÐ³ÑĢÑĥÐ· Ð¾Ð²
Ð²ÐµÑĢ ÑģÑĤ
ĠÐ½Ð°Ð´ Ð¾
ĠÑĦÐ¾ÑĤ Ð¾
ĠÐ¼Ñĥ ÑĢÐ°Ð²
ĠÐ½Ð° ÑĪÐ¸Ñħ
ĠÐ¼Ð°ÑĢ ÐºÐ°
at h
ĠÐ¸Ð½ÑĦÐ¾ÑĢÐ¼Ð° ÑĨÐ¸Ñı
ĠÐ¸ÑģÐ¿Ð¾Ð»ÑĮÐ· Ð¾Ð²Ð°ÑĤÑĮÑģÑı
Ð² ÐµÑĩ
ĠÐ¿Ð¾Ð´ Ð¿Ð¾Ð»ÑĮ
Ð¸ÑĨÐ¸ ÐµÐ¹
ĠÐ»Ð¸Ð´ ÐµÑĢÐ¾Ð²
ĠÑĦÑĢÐ¸Ð´ ÑĢÐ¸Ñħ
ÑĢÐ°Ð· ÑĢÐ°Ð±Ð¾ÑĤ
ĠÐºÑĥÑĢ Ð³Ð°Ð½
Ð¾Ñģ ÑĦ
Ġ1 10
ĠÐ¶ Ð´
ĠÑģÐ²ÐµÑĢÐ´ Ð»Ð¾Ð²
Ð¶ Ð½ÑĭÑħ
Ð°ÑĢ Ð½ÑĭÐ¹
b r
ĠÑģÐ¾Ð¿ÑĢÐ¾ÑĤÐ¸Ð² Ð»ÐµÐ½Ð¸Ðµ
ĠÐ¾Ð± Ð¾Ð»
ĠÐ³Ð¸Ð¼Ð½Ð° Ð·
ÑģÐ¿ Ð°ÑĢÑĤ
ĠÐºÑĢÐ°Ñģ Ð½ÑĭÐ¹
Ð¾Ð½ Ð¸Ñı
ÑĢÑıÐ´ Ð¾Ð¼
ĠÑĢÐ°Ð·ÑĢÐ°Ð±Ð¾ÑĤ Ð°Ð½
ĠÐ¼ ÑĥÐ´
ÑĥÑĤ Ð¾ÑĢ
ĠÑĦÐ¸Ð· Ð¸ÐºÐ¸
ĠÐ¿ÑĢÐµÐ´ Ð¼
ĠÑĪ ÐµÐ»
ĠÑĩÐ°ÑģÑĤ Ð½ÑĭÑħ
ĠÐ¾Ð±Ñī ÐµÑģÑĤÐ²Ðµ
in a
ĠÐ½ÐµÑĦ ÑĤÐ¸
ĠÑĢÑĥÐº Ð¾Ð¿Ð¸Ñģ
ĠÑģÐ¾Ð·Ð´ Ð°Ð½Ð¾
ĠÐ°Ð»ÑĮÐ±Ð¾Ð¼ Ð¾Ð²
ĠÐ¿ÐµÑĢ Ñĥ
ÑĦ Ð°Ðº
ĠÐºÐ¼ ÐµÑĤÐ°
ĠÑĢÐµÐ²Ð¾Ð»Ñİ ÑĨÐ¸Ð¾Ð½
ĠÐ¿ÑĢÑıÐ¼ Ð¾Ð¹
Ð± ÑĥÐ»
ĠÐ¿ÐµÑĢÐµÐ´ Ð°Ð²
ÑĨÐµÐ½ Ð·
ĠÐ¿ÑĢÐ°ÐºÑĤ Ð¸ÐºÐµ
ĠÑįÑģÑĤ Ð¾Ð½Ð¸Ð¸
ĠÐºÐ¾Ð½ÑģÐµÑĢÐ² Ð°ÑĤÐ¾ÑĢÐ¸Ð¸
ÑĢÐ¾ÑģÑģ Ð¸Ñı
ĠÑı Ð¼
ĠÑģÐ¿ ÑĥÑģÐº
ĠÐºÐ»ÑĥÐ± Ð¾Ð²
Ð² Ð°Ñı
ĠÐ½Ð°ÑģÑĤÑĥÐ¿ Ð»ÐµÐ½Ð¸Ñı
ĠÐ·Ð°Ð¼ÐµÑģÑĤ Ð¸ÑĤÐµÐ»Ñı
Ñİ ÑģÐµÑĢ
ĠÐ¼ ÐµÑĢÑĭ
ÐµÐ· Ð¸Ð¸
ĠÐ± Ð°ÐºÑĥ
ĠÐ²ÑĤÐ¾ÑĢ ÑĥÑİ
ĠÑĥ Ð¿ÑĢ
ĠÑįÐºÐ¾Ð½Ð¾Ð¼ Ð¸ÑĩÐµÑģÐºÐ¸
ĠÐ¿ÑĢÐµÐ´ ÑĥÐ¿
ÑĪÑĤ Ð°Ð´
ĠÑģÐ¿ÑĢÐ°Ð² ÐµÐ´Ð»Ð¸Ð²
ĠÑĥ ÑįÐ»ÑĮ
ĠÑĥÐ± ÐµÐ¶Ð´
ĠÑģÑĤ ÑĢÐµ
ĠÐ½Ðµ Ð¾Ð±ÑĭÑĩ
ĠÑĢÐ¾Ð´ Ð¸Ð½Ñĥ
ĠÐ½Ð° Ñĥ
ĠÑģÑĤÐ¾Ð» Ð¸ÑĨÐµ
ĠÑģÐ¾ÑĨÐ¸ Ð°Ð»ÑĮÐ½Ð¾
ĠÑĥÐºÐ°Ð· ÑĭÐ²Ð°ÐµÑĤ
ĠÐ² Ð´Ð¾Ñħ
ÑĥÐ½ ÑĤÐ¾Ð²
ĠÐ¿Ð¾Ð¼Ð¾Ñī Ð½Ð¸ÐºÐ¾Ð¼
199 0
ÐµÑĤ Ð¸
ĠÑĩÐ¸ÑģÐ» Ð¸Ð»Ð¾ÑģÑĮ
ÐµÐ½ ÑĨÐ¸Ñı
ĠÐ¼ ÐµÑĤÐ°
Ð¾Ð· Ð¾Ð²
Ñı Ð»Ð¾
ĠÑĥÑĩ Ð¸ÑĤÐµÐ»ÑĮ
Ġi s
ĠÐ¸Ð·ÑĥÑĩ Ð°Ð»
Ġus d
Ð¸ÑĤÐµÐ» Ñİ
âĢľ ,
Ð¸ÑĢÑĥ Ñı
ĠÐ¿Ð¾Ð´Ð³Ð¾ÑĤÐ¾Ð² ÐºÐµ
ĠÑĢÐµÐ¹ Ð½
ĠÐºÐ¸ÐµÐ² ÑģÐºÐ¾Ð³Ð¾
ĠÐ¼ ÐµÐ¹
ĠÐ´ÐµÐ» Ñĥ
ĠÐ°Ð´ Ð°Ð¼
ĠÐ¼Ð°ÑĤÑĩ Ð¸
ĠÐ»ÑĥÑĩ ÑĪÐ¸Ð¹
Ð¾Ð½ ÑģÐºÐ¸Ð¹
199 1
ĠÐ¿Ð¾Ð»ÑĮÑĪ Ðµ
ÑģÐ²ÑıÑĤ Ð¾Ð¹
ĠÐ¿Ð¾Ð» ÐºÑĥ
ĠÐ¿ÑĢÐ¸Ð² ÐµÐ»Ð¸
ĠÐ¾ÑģÐ² ÑıÑī
Ð°Ð²ÑĪ ÐµÐ¹ÑģÑı
ÑĤ ÐµÐ´
ĠÐ¾Ð± ÐµÐ·
Ð¾Ð¿ Ð¸ÑģÑĮ
ĠÐ¿ÑĢÐ¾ÑĨÐµÑģÑģ Ð¾Ð²
ĠÐ°ÐºÑĤÐ¸Ð² Ð½Ð¾Ðµ
ĠÑĢÐ°Ð´Ð¸ Ð¾ÑģÑĤÐ°Ð½
ĠÐº ÑĥÐ½
ĠÐ¼ Ð¸Ð´
ĠÐ²ÑĭÑģ ÑĪÐ¸Ñħ
ĠÐ¿ÑĢÐ¾Ð¶Ð¸Ð² Ð°ÑİÑĤ
ĠÐ°ÑĢÑħÐ¸ÑĤÐµÐº ÑĤÐ¾ÑĢ
ĠÑĩÐ°ÑĢ Ð»ÑĮ
Ñģ ÑĥÐ¿
ĠÐ¿Ð¾ÑģÐ»ÐµÐ´ Ð½Ð¸Ð¼
ĠÐ½Ð¸Ðº ÑĤÐ¾
. "
ĠÑģÐ¾Ð¿ÑĢÐ¾ÑĤÐ¸Ð² Ð»ÐµÐ½Ð¸Ñı
ĠÐ¿ÐµÑĢÐµ ÑĢÑĭÐ²
ĠÑģÑĤÑĥÐ´ ÐµÐ½ÑĤÐ°Ð¼Ð¸
ĠÑĤÐµ Ð¾ÑĢÐ¸Ñı
ÑĩÐ°ÑģÑĤ ÑĥÑİ
Ð¿Ð¾ÑģÑĳÐ» Ð¾Ðº
ĠÐºÐ¾ÑĢÐµ Ð¹
Ð¸ÑĢÐ¾Ð²Ð°Ð½ Ð¸ÐµÐ¼
Ð¸Ð½ Ð¾Ðº
ĠÑģ Ð°Ð»ÑĮ
ĠÐºÐ¾Ð»Ð¾Ð½ Ð¸Ð¸
ĠÑģÑĤÐ° ÑĢÐµÐ¹
ĠÑĤ ÑĥÐ½
ĠÑĢ Ð¸
Ð¸ÑģÐº Ð¸
ĠÑįÐ½ ÑĨÐ¸ÐºÐ»Ð¾Ð¿ÐµÐ´
ĠÐ¿ÑĢÐ¸Ð½Ð¸Ð¼ Ð°ÑĤÑĮ
ĠÑĤ Ñı
ĠÑĤ Ñĳ
ĠÑĩ ÑĳÐ¼
ÑģÐ¾Ð² Ð¼ÐµÑģÑĤ
ĠÐ¸Ð´ ÐµÐ¹
ĠÑģÐ²ÑıÐ· Ð°Ð½Ð½ÑĭÐµ
ĠÐ½Ð°ÑĥÑĩ Ð½Ð¾Ð³Ð¾
ĠÐ½ÐµÐ±Ð¾Ð»ÑĮÑĪ Ð¸Ðµ
ĠÐ¿ÑĢÐ¸ÐºÐ°Ð· Ñĥ
ĠÐ´ÐµÐ» Ð°ÑĤÑĮ
Ġi x
ĠÐ¸ÑģÐ¿Ð¾Ð»ÑĮÐ· ÑĥÑı
ĠÐ¸Ð·Ð²ÐµÑģÑĤ Ð½Ð¾Ð¹
ÐµÑĤ ÑĤ
ĠÐ¸Ð·Ð´ Ð°Ð»
) "
ĠÑİ Ð³Ð°
ĠÐºÐ°Ð´ ÑĢÐ¾Ð²
b a
p e
ĠÐ¿Ð¾ÑıÐ² Ð»ÐµÐ½Ð¸Ñı
ÑĢ ÑĳÐ»
ĠÐ¿ÑĢÐµÐ´ ÑĪÐµÑģÑĤÐ²ÐµÐ½
p s
ÑĳÑĢ ÑĤ
Ð¼ Ð°ÑĢÑĤ
ĠÑĢÐ°Ð· Ð±Ð¸ÑĤ
ÐºÐ¾Ð² ÑģÐºÐ¾Ð¹
ĠÑĢÐµÐ¶ Ð¸Ð¼Ðµ
ĠÑĤÐ¾ÑĢ Ð¿ÐµÐ´
ĠÑĢÐµÑģÑĥÑĢ ÑģÐ¾Ð²
Ð½ Ð°ÑĢÑı
ĠÐ·Ð° ÑģÐµÐ»
Ð´ ÐµÐ½ÑĮ
Ð°Ð½Ð¸Ñı Ð¼Ð¸
ĠÐ±ÑĭÐ² ÑĪÐ¸Ñħ
ĠÐ±ÑĢÐ¸ÑĤÐ°Ð½ ÑģÐºÐ¸Ð¹
Ð½ Ð°Ð¼Ð¸
ĠÐ· ÐµÐ½Ð¸ÑĤ
ÑĢÐ°ÑģÑĤ ÑĢÑĥÐºÑĤ
ĠÐ¿ÑĢÐ¾Ð¶Ð¸Ð² Ð°Ð»Ð¸
ĠÐ·Ð°Ð¿Ð°Ð´ Ð½Ð¾Ð³Ð¾
ĠÑĢÑĭÐ½ ÐºÐµ
ÐºÐ¾Ð² ÑĭÐ¹
ĠÐ°Ð²ÑĤÐ¾Ð¼Ð¾Ð± Ð¸Ð»Ñı
ĠÑĦÑĥÐ½Ðº ÑĨÐ¸Ð¹
ĠÐ¿Ð¾ÐºÐ¸Ð½ ÑĥÑĤÑĮ
Ð¾Ð²Ð°Ð½ Ð½ÑĭÐµ
Ð¾Ð»Ð¾Ð³ Ð¸Ñİ
ĠÑģÐµÐ¼ ÑĮÑİ
ĠÐºÐ¾Ð½ÑĦÐ»Ð¸Ðº ÑĤÐ°
ĠÑĤÑĢÐµÐ± ÑĥÐµÑĤ
ĠÐ¾Ð» ÐµÐ³
ĠÐ³Ð°ÑģÑĤ ÑĢÐ¾Ð»
ĠÐ¾ÑģÑĤ Ð°Ð»Ð¾ÑģÑĮ
ĠÐ¾Ð³ Ð½Ñı
ĠÑĤÐ¾ÑĢÐ¶ ÐµÑģÑĤÐ²ÐµÐ½
Ð² Ð¸Ñĩ
ĠÐ²ÑĢÐ° Ð³Ð°
ÐµÐ¼ ÑģÑı
ĠÐºÐ°Ð½Ð´Ð¸Ð´ Ð°ÑĤÐ°
ĠÑĨ Ð°ÑĢÑĮ
l and
ĠÐ¾Ð± Ð»Ð¾Ð¶
ÐµÐ² ÐºÐ°
ĠÐ¿ÑĢÐ°Ð² Ð¸Ð»Ð°
ĠÐ¿ ÑĢÐ°Ð·Ð´Ð½
Ð¼ Ð»Ð°Ð´
ÐµÐ»Ð» ÐµÐºÑĤ
20 14
ĠÐ¸Ð½ÑĤ ÐµÐ»Ð»ÐµÐºÑĤ
Ð³ Ð¾ÑĤ
ĠÑĤÐ°Ð½ ÐºÐ°
Ð¸Ð² Ð°Ð»ÑģÑı
Ð¾Ð± Ð¾Ð´Ð°
ĠÐ°ÑĢÑħÐ¸ÑĤÐµÐº ÑĤÐ¾ÑĢÐ°
Ġ189 9
se e
ĠÐ²Ð¾Ð· Ð²ÑĢÐ°ÑĤ
ĠÐ¸Ð´Ðµ Ñı
ĠÐ³Ð¾Ð»Ð¾Ð² Ñĥ
ĠÐ³ÐµÐ¾ÑĢÐ³ Ð¸ÐµÐ²
bo ard
ĠÐ´Ñį Ð²Ð¸Ð´
ĠÐºÑĢÐ°Ñģ Ð¸Ð²
ĠÐ·Ð°Ñħ Ð¾ÑĢÐ¾Ð½
ĠÑĢÐµÐ´Ð°Ðº ÑĤÐ¾ÑĢÐ¾Ð¼
Ðµ Ð¾
Ð¿ÑĢ Ð¸Ð²
ĠÐ±ÐµÐ» ÑĭÐµ
ĠÐ¼ÐµÑĤÐ¾Ð´ Ð¾Ð²
ĠÐ¾Ð¿ÑĤ Ð¸Ð¼
ĠÐ¼Ð°ÑģÑĤ ÐµÑĢÐ°
ÐµÑĢÐ¸ Ð½Ñĭ
ĠÐºÐ¾Ð»Ð¸Ñĩ ÐµÑģÑĤÐ²Ðµ
ĠÑĦÐµÑģÑĤÐ¸Ð²Ð°Ð» Ñı
ĠÐ¼Ð¾Ð³ Ð»Ð¾
ĠÑĤ Ð°ÑĢÐ°
ĠÐ¿ÑĢÐ¸Ð¼ ÐµÑĢÑĥ
ĠÑĢÐµÑĪ ÐµÐ½Ð¾
Ð¿ÑĢÐ¾Ð´ Ð¾Ð»Ð¶
ĠÐ¿ÑĢÐµÐ´ÑģÑĤÐ°Ð²Ð»Ñı Ð»
ĠÐ³ÐµÑĢÐ¼ Ð°Ð½Ð¸Ñı
Ð¼ ÐµÑī
ĠÐ² ÑıÐ·
Ð± ÐµÐ»ÑĮ
ĠÐ¿Ð¾Ð» Ð½ÑĭÐ¹
ĠÐ´Ð¾Ð» Ð³Ð¾
ĠÑĢÐ°ÑģÐ¿ÑĢÐ¾ÑģÑĤÑĢÐ°Ð½ ÐµÐ½Ð¸Ñı
ĠÑĥÐ½Ð¸ÑĩÑĤÐ¾Ð¶ Ð¸Ð»
ĠÐ²Ð½Ð¸Ð¼ Ð°Ð½Ð¸Ñı
ĠÐ¿ÑĢÐ¾Ð´ÑĥÐºÑĤ Ð¾Ð²
Ð°ÑĢ Ð½ÑĭÑħ
ĠÑĩ Ð¶
ĠÑĢÐµ Ð¾ÑĢÐ³Ð°Ð½
Ð´ÐµÐ¿ Ð°ÑĢÑĤÐ°Ð¼
ĠÐ¸Ð· Ð»Ð¾Ð¶
ĠÐ¿Ð¾ÑģÑĤÐ°Ð² Ð¸Ð»
Ð²Ñģ Ñĳ
Ġt im
ĠÐ²Ð¾Ð´ Ð°
ĠÐ¾ÑģÑĤÑĢÐ¾Ð² Ð°Ñħ
ĠÑģÐ¾Ð¾ÑĤ Ð½Ð¾ÑĪ
ĠÐºÐ»ÐµÑĤ Ð¾Ðº
u c
ĠÐ²ÑĭÑģ Ð¾ÑĤ
Ð»ÐµÐ½ Ð½Ð°Ñı
Ġ or
ÐµÑĢ ÑģÐºÐ¾Ð¹
ĠÐ¼ÐµÐ¶Ð´ÑĥÐ½Ð°ÑĢÐ¾Ð´ Ð½Ð¾Ð¼
ĠÐ°Ðº ÑĨÐ¸Ð¹
Ð» ÐµÑĢÐ¾Ð²
Ð¼ Ð°Ð·
ĠÐ¿ÑĢÐ°Ð² Ð°Ñħ
Ġ189 6
ĠÐ°Ð²Ð¸ Ð°ÐºÐ¾Ð¼Ð¿
ĠÐ¼Ð¸Ð½Ð¸Ð¼ ÑĥÐ¼
ĠÐ¿Ð¸ÑĤ Ð°Ð½Ð¸Ñı
ĠÐ²Ð¾ÑģÑĮ Ð¼Ð¸
ĠÑĢÐ°Ðº ÐµÑĤÑĭ
ĠÑĤÐ°Ð´Ð¶ Ð¸Ðº
Ð¾Ðº ÑĥÐ¿
Ð¼Ð¸Ð½Ð¸ÑģÑĤ ÑĢ
Ñĩ ÐµÑĢÐº
Ð½Ð¾Ð² ÐµÐ½Ð¸Ðµ
Ġ6 3
ĠÐ°ÑĦÑĢ Ð¸ÐºÐµ
ĠÑĢÑĥÐ¼Ñĭ Ð½Ð¸Ð¸
ĠÑģÑĥÐ± ÑĢÐµÐ³Ð¸Ð¾Ð½
ĠÐ´ÐµÐ¿Ð°ÑĢÑĤÐ°Ð¼ ÐµÐ½ÑĤ
ÑĢÐ°Ð» ÑģÑı
ĠÑĢÐµÐº Ð»Ð°Ð¼
ĠÑįÐºÐ¾Ð½Ð¾Ð¼ Ð¸ÑĩÐµÑģÐºÐ¾Ð¹
ĠÐ¼Ð¾Ñī Ð½Ð¾ÑģÑĤÑĮÑİ
ÑĤ Ð°ÑĤ
ĠÐ¿ÑģÐ¸Ñħ Ð¸Ð°ÑĤ
ĠÐ¾ÑĤÑģÑĥÑĤÑģÑĤÐ² ÑĥÐµÑĤ
ĠÐ¿Ð¾ÑģÑĢÐµÐ´ ÑģÑĤÐ²Ð¾Ð¼
Ð¸Ñĩ Ð½Ð°Ñı
Ġw orld
Ð¼ÑĥÐ· ÑĭÐº
ĠÐ¿ÑĢÐ¸ÐµÐ· Ð¶
ĠÐ¿Ð¾Ð´ Ðº
ĠÐ¿ÑĢÐ¸Ð½ Ð¾Ñģ
ĠÑģÐ¿ Ð¾ÑĢ
k e
ĠÑĢÐ°Ð±Ð¾ÑĤ Ð½Ð¸ÐºÐ¾Ð²
Ð¸Ð·Ð° ÑĨÐ¸Ñİ
Ġ189 8
ĠÐ±ÑĢÐ¸ÑĤÐ°Ð½ ÑģÐºÐ¾Ð³Ð¾
ĠÐ°Ð½Ð´ÑĢÐµ Ñı
ĠÐº ÑĥÐ¼
ĠÐ¸ÑĤÐ°Ð»ÑĮÑıÐ½ ÑģÐºÐ¸Ð¹
ĠÐ¶ Ð¸ÑĤÐµÐ»Ñı
Ð´Ð¾Ðº ÑĤÐ¾ÑĢ
Ġ189 2
ĠÑĤÑĢÐµÑĤ ÑĮÐµ
ĠÐ·Ð°Ð» Ð¸Ð²Ð°
Ñģ Ð»Ð°Ð²
ĠÐ¾ÑĤÐµÑĩ ÐµÑģÑĤÐ²ÐµÐ½
ĠÐ·Ð°Ñī Ð¸ÑĤÑĥ
Ð± ÐµÐ½
Ð¸Ð·Ð²ÐµÑģÑĤ Ð½Ð¾
Ð°ÑģÑĤ ÑĮ
ĠÐ°Ð» ÐºÐ¾Ð³
ĠÐ´Ð°Ð»ÑĮ ÑĪÐµ
ÑĤÐµÑĢÑĢÐ¸ÑĤ Ð¾ÑĢÐ¸Ñı
ĠÑĢÐ°Ð±Ð¾Ñĩ ÐµÐ³Ð¾
ĠÐ½Ð°Ñĩ Ð°ÑĤÑĮ
Ġs e
ĠÐ¿Ð¾Ð»ÑĥÑĩ Ð¸Ð»Ð¾
ĠÐ°Ð´ Ð²Ð¾Ðº
ĠÐ³ÐµÐ½ ÐµÑĤ
ĠÐºÑĢÐµÐ¿ Ð¾ÑģÑĤ
ĠÐ¿ Ð¸ÑģÑĤ
ĠÑįÐºÐ·ÐµÐ¼Ð¿Ð»Ñı ÑĢÐ¾Ð²
b e
Ñģ Ð¸Ð½Ð³
Ñı ÑģÐ°
ĠÐ°Ð» ÑĤÐ°Ð¹
ĠÑĤÐµÐ»ÐµÐ²Ð¸Ð´ ÐµÐ½Ð¸Ñı
ĠÐ³ ÑĥÑĢ
ĠÑıÐ²Ð»Ñı Ð»Ð¸ÑģÑĮ
ĠÐ²Ð¸Ð´ Ñĥ
ĠÑģÐµÐ»ÑĮ ÑģÐºÐ¸Ñħ
r on
ĠÑģÐ² ÐµÐ´
ÑĢÑĥÑģ ÑģÐºÐ¸Ð¹
Ð¾Ð½ ÑģÐºÐ¾Ð³Ð¾
ĠÐ¿ÑĢÐ¾Ð²Ð¾Ð´ Ð¸ÑĤ
ÑĢ Ð¸ÐºÐ°
Ð² Ð°ÑĤÐ°
ĠÑģÐ»ÑĥÐ¶ Ð¸ÑĤ
ĠÐ°ÑĢÑħ Ð¸Ð¿
ĠÑģÐµÑĢÐ¸ Ð°Ð»Ðµ
ÑıÑī Ð°Ñı
ĠÐ²ÐµÐº Ð°Ñħ
ĠÐµÐ¿Ð¸ÑģÐºÐ¾Ð¿ Ð¾Ð¼
Ð¸Ð¼Ðµ ÐµÑĤ
ĠÐ²ÑĭÑģÐ¾Ðº Ð¸Ñħ
Ð¾ Ð¾Ð±
ÑĦÑĢÐ°Ð½ ÑĨÑĥÐ·
ĠÐ¶ÐµÑģÑĤ Ð¾Ðº
ĠÐ¿Ð¾ÑģÐµÑĤ Ð¸Ð»
Ð°Ð½ ÑģÐºÐ¸Ñħ
ĠÐ¾ÑĤ Ð²ÐµÑĢÐ³
ĠÑĨÐµÐ½ÑĤ ÑĢÐ¾Ð²
ĠÑĢÐ°Ð· ÑĢÐ°Ð±Ð°ÑĤ
ĠÐºÑĢÐ¸ÑĤ Ð¸Ðº
Ð°Ð»Ð¸Ð· Ð¼
ĠÐ»ÐµÐº Ð°ÑĢ
Ð¼ Ð¾Ð³
ĠÐ·Ð² ÑĥÐºÐ¾Ð²
Ð¸Ð»Ð» ÐµÑĢ
ĠÑģ ÐµÑģÑģ
ĠÐ½Ðµ Ð¶
ĠÑĤÑĢ Ð¾Ð¹
ĠÐ¿ÑĢÐ¾Ð¸Ð³ ÑĢÐ°Ð»
ĠÐ·Ð´ÑĢÐ°Ð² Ð¾Ð¾ÑħÑĢÐ°Ð½
Ñģ Ð²ÐµÑĤ
ĠÐ¿ÐµÑĢÐµÐ´ Ð°Ð½
ĠÐ´Ð² ÐµÐ½
ĠÑĤÐµÐ» Ðµ
ĠÑĥÑĩÑĢÐµÐ¶Ð´ ÐµÐ½Ð¸Ð¹
ĠÑĢÐ°Ð±Ð¾ÑĤ Ð°Ñħ
ĠÐ²ÑģÐµ Ð¾Ð±Ñī
ĠÐ´Ð¸Ð· Ð°Ð¹
ĠÐ²ÑģÐµÑĢÐ¾ÑģÑģ Ð¸Ð¹ÑģÐºÐ¾Ð¹
ĠÐ·Ð² Ð°Ð½Ð¸Ð¸
ĠÑĦÑĥÐ½Ð´Ð°Ð¼ ÐµÐ½ÑĤ
Ñĥ Ð³Ð°
ĠÐºÑĥÐ»ÑĮÑĤ ÑĥÑĢÐµ
ĠÐ½ÐµÐ²Ð¾Ð· Ð¼Ð¾Ð¶
Ð¸Ð¹ ÑģÐºÐ¾Ð¼Ñĥ
ĠÐ¿ÑĢÐ¾ÑĪ ÐµÐ´
ĠÐ° ÐºÐ²
ÑģÑĤÐ² Ð¸ÐµÐ¼
Ð¾Ð¼ÐµÑĤ ÑĢ
ĠÑĥÐ· Ð½Ð°
ĠÐ¿Ð°Ð» Ð°ÑĤÑĭ
ĠÑĩÐµÐ¼Ð¿Ð¸Ð¾Ð½ Ð°ÑĤÐ¾Ð²
ÐµÐ½ Ñĩ
ĠÐ¼ÐµÐ» ÐºÐ¸Ñħ
ov e
ĠÑį ÑģÐ¼Ð¸Ð½
ÑĮ ÐµÐ¹
Ð¾ÑģÑĤ Ñĭ
ĠÐ½Ð°Ð·Ð½Ð°Ñĩ Ð¸Ð»
ÐµÑĢ Ð½Ð°
Ð¶ÐµÐ» ÐµÐ·
ĠÐ´ÑĢÑĥÐ· ÐµÐ¹
Ðº Ð¾Ð±
ĠÑģÑĤÐ°ÑĢ Ð¸Ð½
ÐµÑĢÐµ Ñĩ
ĠÑį Ð¼Ð¾
Ġg ro
Ð²ÐµÐ´ Ð¾Ð¼
ĠÑĨ Ð¸Ð»Ð¸Ð½Ð´
Ð°Ð³ Ñĥ
Ð¾Ð»ÑĮ ÑģÐºÐ¾Ð¹
ĠÐºÑĥÐ»ÑĮÑĤ ÑĥÑĢÐ°
ĠÐ¼Ð°ÑĢÑĤ Ð¸Ð½
ĠÐ´Ð²Ð¸Ð³ Ð°ÑĤÐµÐ»ÑĮ
194 3
ĠÑģÐ¼ ÐµÐ½Ð¸
ĠÐ¾Ð±ÑĬÐµÐºÑĤ Ñĭ
Ġb l
Ð¾ÑģÐ½Ð¾Ð² Ð½Ð°Ñı
ĠÑĨÐµÑĢÐµÐ¼Ð¾Ð½ Ð¸Ð¸
ĠÑĢÐ¾Ð´ Ð¸ÑĤÐµÐ»ÐµÐ¹
ĠÐ¿ÑĢÐ¾Ð´ Ð²Ð¸Ð¶
ĠÐ´ÐµÑĢÐµÐ² Ð½Ñİ
ĠÐ¿Ð¾Ð» ÑĤÐ°Ð²
ĠÑĤÑıÐ¶ ÐµÐ»Ð¾
ĠÑģÐ¼Ð¾Ð³ Ð»Ð°
ĠÑģÑĤ Ð¾Ðº
ĠÑħ ÑĮÑİ
ĠÐ¿Ð¾Ñģ Ð»Ð°Ð½
Ð°Ð´ÑĨÐ°ÑĤ Ð¸
ĠÑħ Ð¾ÑĩÐµÑĤ
ĠÑĢÐµÐ»Ð¸Ð³ Ð¸Ð¸
ĠÐ½ÐµÐ´ Ð¾Ð²Ð¾Ð»ÑĮ
ĠÐ´ÐµÑĢÐ¶ Ð°Ð²
ĠÐ¿ÑĢÐ¾ÑĦÐµÑģÑģÐ¸Ð¾Ð½ Ð°Ð»ÑĮÐ½ÑĭÐ¹
ĠÐ¿ÑĢÐ¾Ñĩ Ð¸Ñħ
ĠÑĢÐµÐ°Ðº ÑĨÐ¸Ð¸
ĠÐ¿Ð¾Ð´ Ð²Ð¸Ð¶
ĠÐ¾Ñģ Ð»Ð°Ð±
ĠÐ¾ÑĢÐ³Ð°Ð½ Ñĭ
ĠÐ¸Ð³Ð¾ÑĢ ÑĮ
Ð°Ð»ÑĮ Ð½Ð¸Ðº
ÑĥÑİÑī ÐµÐµ
ÑĨÐ¸Ð¾Ð½ Ð½Ð¾
ĠÐ´ÐµÐ¹ÑģÑĤÐ² Ð¸ÑıÑħ
ĠÐ±ÑĢÐ°ÑĤ ÑĮÑı
Ð¿ ÐµÑĢÐµÐ²
ÑĨ Ð¾Ð²Ð°
ĠÐ¼ÐµÐ´ Ð¸
Ð°ÑĢ Ð½Ð¾Ð¹
ĠÐ¿Ð¾Ð» ÑıÑĢ
ĠÑģÑĤÑĥÐ´Ð¸Ð¹ Ð½ÑĭÐ¹
ĠÑĤ ÐµÑĢÐ°Ð¿
ĠÐ·Ð°Ð¿ Ð°Ð´Ð°
ĠÐºÐ°Ð½ Ð°Ð»Ðµ
ĠÐ¸ Ð¾Ð³
ĠÐ¿Ð¾ÑĤÐµÑĢ ÑıÐ»
Ð´ Ð¸ÑĤ
Ð¾ÑģÑĤ ÑĢ
ĠÑĢÐ°Ð· ÑĢÑĭÐ²
ÑıÑī Ð¸ÑħÑģÑı
Ð¸Ð²ÑĪ ÐµÐ³Ð¾ÑģÑı
ĠÐ¼ÑĥÐ·ÑĭÐº Ð°Ð»ÑĮÐ½ÑĭÐ¹
Ð¼ÐµÐ¶Ð´ ÑĥÐ½Ð°ÑĢÐ¾Ð´
Ð°ÑĢ Ð½Ð¾Ð³Ð¾
Ð´Ð¶ Ð¾Ð½
ĠÐºÐ»Ð°ÑģÑģ Ð¸ÑĦÐ¸ÐºÐ°ÑĨÐ¸Ð¸
ĠÑįÑĤÐ° Ð¿Ð°
Ð²ÑĭÑģ Ð¾ÑĤÐ°
ĠÐ¾ÑĤÐºÑĢÑĭÑĤ Ð¸Ðµ
ĠÐ» Ð¸Ð½Ð³Ð²
ĠÂ« Â»
Ð½Ð°Ð´ ÑĨÐ°ÑĤÑĮ
Ð½Ð° ÑĥÑĩ
ĠÑģÐ¿ÐµÑĨÐ¸ Ð°Ð»ÑĮÐ½ÑĭÑħ
ĠÐ¿ÑĢÐ¸ÑħÐ¾Ð´ Ð¸Ð»Ð¾ÑģÑĮ
ĠÐ¸Ð½ÑĦ ÑĢÐ°ÑģÑĤÑĢÑĥÐºÑĤ
ĠÐ½Ð°ÑĥÑĩ Ð½ÑĭÐ¹
ĠÐ¿ÐµÑĢÐµ Ð²Ð¾ÑĢ
ĠÐ¼Ð°ÑĪÐ¸Ð½ Ð¾ÑģÑĤÑĢÐ¾
ĠÑģÑĨ ÐµÐ½Ñĭ
Ð²Ñĭ Ð±Ð¾ÑĢ
ĠÐ²ÑĭÑģÑĤÑĥÐ¿ Ð°Ð»Ð°
ÑĩÐ°ÑģÑĤ Ð¾
ĠÑĢ Ð¾
ĠÐ¾Ð±ÑĬÐµÐ´Ð¸Ð½ ÐµÐ½Ð¸Ðµ
ĠÐ²Ð½ ÐµÐ´ÑĢ
ĠÐ¾ÐºÑĤÑıÐ±ÑĢÑĮ ÑģÐºÐ¾Ð¹
ĠÐ·Ð°Ð¿Ð°Ð´ Ð½Ð¾
ĠÐ±Ð¾Ðµ Ð¿ÑĢÐ¸Ð¿
Ð¸ Ð°Ð½Ð¾
ĠÐ¿Ð»Ð°ÑĤÑĦÐ¾ÑĢÐ¼ Ñĭ
ÐµÑĢÐ°Ð»ÑĮ Ð´
ĠÐ¾Ð±Ñī ÐµÐµ
ĠÐºÐ°ÑĢÑĤ Ð¸Ð½
ĠÐ°ÑģÑĤ ÐµÑĢÐ¾
Ġ20 20
ĠÐºÐ¾Ð½ÐµÑĩ Ð½Ð¾Ð¼
ĠÐ¿ÑĢÐ¾Ð² ÐµÐ»
ĠÐ¿ÐµÑĢÐµ ÑĢÐ°Ð±Ð¾ÑĤ
Ġg o
ĠÑĥÑģÑĤ ÑĮÑı
ĠÐ¸Ð½Ð´ Ð¾Ð½
199 8
ĠÐ·Ð¸Ð¼ Ð¾Ð¹
ÑĥÑħ Ð¾Ð²
ĠÐ¿ÑĢÐµÐ¿Ð¾Ð´Ð°Ð² Ð°ÑĤÐµÐ»ÑĮ
ĠÑģÑĤ Ð¸Ð»Ñı
ÐµÐ¶ Ð¸
Ð² Ð½Ðµ
Ð¸ÑĢÐ¾Ð²Ð°Ð½ Ð½ÑĭÐ¼
ĠÑģÐ¾Ð±ÑģÑĤÐ²ÐµÐ½ Ð½ÑĭÐµ
ĠÑĦÐ¸Ð»Ð¸ Ð¿
ĠÑĦÑĢ ÑįÐ½
ĠÑħ Ð²Ð°ÑĤ
ĠÐºÑĢÐµÑģÑĤ Ð°
ÑĩÐµÑģÐº Ð¾Ð¹
ĠÑĥÑĩÐ°ÑģÑĤÐ² Ð¾Ð²Ð°ÑĤÑĮ
Ñģ ÑĥÐ¼
Ð°Ð²ÑĪ ÐµÐ³Ð¾ÑģÑı
ĠÐ°Ð´Ð¼Ð¸Ð½Ð¸ÑģÑĤÑĢÐ°ÑĤÐ¸Ð² Ð½ÑĭÐ¼
ĠÑįÐºÑģÐ¿Ð»ÑĥÐ°ÑĤÐ° ÑĨÐ¸Ð¸
ĠÑģÐ¸Ð» Ð¾Ð¹
Ġ189 5
Ñĩ ÑĳÐ²
ĠÐ¼ Ð¾Ð±Ð¸Ð»ÑĮ
Ð½Ð¾Ð² Ð¾
Ð±Ð¾Ð»ÑĮÑĪ Ð¾Ð¹
ĠÑĦÑĥÑĤÐ±Ð¾Ð»ÑĮ Ð½ÑĭÐ¹
ĠÐ» Ð¾
ĠÐ·Ð½Ð°ÑĩÐ¸ÑĤÐµÐ»ÑĮ Ð½Ð¾Ð¹
Ð°Ð½ÑĤ Ðµ
ĠÐ°Ð´ ÑĢÐµ
ÑĥÐ»Ð¸ ÑĢÐ¾Ð²
Ð¸Ñģ Ñĭ
ĠÐ»Ð°Ð±Ð¾ÑĢÐ°ÑĤÐ¾ÑĢ Ð¸Ð¸
Ð¾Ð» Ñĩ
Ð¿Ð» Ð°ÑĤ
ÑĤ Ð¾Ð¿
ĠÑģÑĤ ÑĢÐ°Ð´
ĠÐ³ ÑĢÑĥÐ´
ÐµÐ² Ð½Ð°
Ð¾ÑģÑĤ Ð°Ð½Ð¾Ð²
Ð½ÑĥÐ» ÑģÑı
ĠÐ¿Ð¾Ð» ÑĳÑĤÐ°
ĠÐ± ÑĥÐ»ÑĮ
ĠÐ¸ Ðº
ĠÐ¾ÑģÐ¾Ð± Ð¾Ð³Ð¾
Ġmus ic
ĠÐ·Ð° Ð¸Ð¼ÑģÑĤÐ²
ĠÐ²Ð¸ÑĤ ÐµÐ±
ĠÑĢÐ°Ð· Ð½
ĠÐ¿Ð» Ð°Ð½Ð°
ĠÐº ÑĥÑĤ
ĠÑĥÑģÑĤÐ°Ð½Ð¾Ð² Ð»ÐµÐ½Ð¾
Ð»Ñı Ð»Ð¸ÑģÑĮ
ĠÑģÐ» Ð¾
ĠÑĤÐ°Ð½ ÑĨÐµÐ²
ĠÑĤÐµÑħÐ½ Ð¸ÑĩÐµÑģÐºÐ¸Ñħ
g r
Ñģ ÐµÑĢÐµ
ĠÐ¿ Ð¸Ð½
Ġ qu
Ð» Ñĳ
ĠÑģÐ» Ð¸Ñı
as s
ĠÐ½Ð°Ð³ ÑĢÑĥÐ·
ĠÑĢÐ°ÑģÑģÑĤÐ¾Ñı Ð½Ð¸Ðµ
Ð»Ð¸ Ð¶Ðµ
ĠÐ¾Ð±Ñī Ð°Ñı
Ð·Ð°ÑģÐ»ÑĥÐ¶ ÐµÐ½Ð½ÑĭÐ¹
Ð¼Ð°Ð½ Ð¾Ð¼
ĠÐ³Ð¾ÑĢ ÑıÑĩ
ĠÐ¾Ð¿ Ð¾ÑĢ
ĠÐ°Ð½ Ð½Ñĭ
ĠÐ´Ð¾ÐºÑĥÐ¼ ÐµÐ½ÑĤÑĭ
Ð°Ðº Ð°Ð´
ÑĥÐ½ ÑĤ
ĠÐ¿Ð¾Ðº ÑĢÑĭ
ĠÐ¿ÑĢÐ¸Ð·Ð½ Ð°Ð²
ĠÐ¿ÑĢÐ¾ÑĨ ÐµÐ´
Ð¼Ð°ÑĤ ÐµÐ¼Ð°ÑĤ
ĠÐ¼Ð¾Ð· Ð³Ð°
Ġm icro
ÑģÑĢÐµÐ´ Ð½ÑıÑı
ĠÑģÑĢÐµÐ´ Ð½ÑİÑİ
ĠÑĥÐ´ Ð¸Ð²
ĠÑĥÐºÑĢÐ° Ð¸Ð½Ð°
ĠÐ´Ð¶ÐµÐ¹Ð¼ Ñģ
ĠÐ±Ð°ÑģÐºÐµÑĤ Ð±Ð¾Ð»
ĠÐ´ÑĢÐµÐ² ÐµÑģ
ĠÐ¿ÑĢÐ¾Ð´ Ð¾Ð²Ð¾Ð»ÑĮ
ĠÐ¿Ð¾ÑıÐ²Ð»Ñı ÑİÑĤÑģÑı
ĠÐ½Ð° ÑħÐ¾Ð´Ð¸ÑĤ
ĠÑĪ Ð°Ð¹
ĠÐ¿Ð¾Ð´ ÑĢÐ¾ÑģÑĤ
ĠÑįÐº ÑģÐº
ĠÐº Ñģ
ĠÑģÑĭÐ³ ÑĢÐ°Ð»Ð°
Ð´ÐµÐ¿Ð°ÑĢÑĤÐ°Ð¼ ÐµÐ½ÑĤ
Ð¸Ð¼ Ð¾Ð¼Ñĥ
ĠÑĢÐµÐ³Ñĥ Ð»Ð¸
ĠÑįÐºÑģÐ¿Ð»ÑĥÐ°ÑĤÐ° ÑĨÐ¸Ñİ
ĠÐ½ÐµÐ·Ð°Ð²Ð¸ÑģÐ¸Ð¼ Ð¾
ĠÐ½Ð°Ð¿ÑĢ Ð¾ÑĤÐ¸Ð²
ĠÐ¿ÑĢÐ¾Ð²Ð¾Ð´ ÑıÑĤÑģÑı
Ġ188 9
ĠÑĥÐ¼ÐµÑĢ Ð»Ð°
ĠÐ»ÐµÐ½Ð¸Ð½Ð³ÑĢÐ°Ð´ ÑģÐºÐ¾Ð³Ð¾
Ã ¤
Ð° Ð¿Ð¾Ð»
ĠÐ´Ð¾Ð¿ ÑĥÑģÑĤ
ĠÐ½Ð¾Ð¼ Ð¸Ð½Ð°ÑĨÐ¸Ð¸
ĠÐ¾Ð¿ÐµÑĢÐ° ÑĨÐ¸Ñı
ĠÑģÑĤÐ°Ð½Ð¾Ð² ÑıÑĤÑģÑı
Ð» Ð°ÑĢ
ĠÑĦ Ð°Ð·
Ġaw ard
Ð¾Ð»ÑĮ Ð´
ĠÐºÐ¾Ð¼ Ð±
ĠÐ¾Ð±Ð¾ÑĢÐ¾Ð½ Ñĥ
ĠÑĤ ÐµÐ±
ĠÐ½Ð°ÑĨÐ¸Ð¾Ð½ Ð°Ð»ÑĮÐ½ÑĭÐ¼
ĠÐ½Ð°ÑĢÐ¾Ð´ Ð½ÑĭÐ¹
ĠÐ¿ÑĢÐµÐ±ÑĭÐ² Ð°Ð½Ð¸Ñı
ĠÐ´ÐµÑĢÐµÐ² ÑĮÐµÐ²
ĠÑĪ ÐµÐ¹
ĠÑģÐ²Ð¾Ðµ Ð¾Ð±ÑĢÐ°Ð·
ĠÐ²Ð°Ñģ Ð¸Ð»Ð¸Ñı
ĠÑģÑĤÑĢÑĥÐºÑĤ ÑĥÑĢÐ°
ĠÑĢÐ¸Ð¼ ÑģÐºÐ¸Ð¹
v d
Ð¸Ð¹ ÑģÑı
ĠÐºÐ¸ÑģÐ» Ð¾ÑĤÑĭ
ĠÑĪ Ð°
Ġ188 5
ĠÐ¿ÑĢÐ¸Ð±Ñĭ Ð»Ð¸
ĠÑįÐºÐ¸Ð¿Ð° Ð¶
Ġ7 00
ĠÐ½Ð¾Ð¼ ÐµÑĢÐ°
ĠÐ°Ð´ Ð¼Ð¸ÑĢÐ°Ð»
ĠÐºÑĥÑĢ ÑģÐ°
ĠÐ¿ÐµÑĢÐµÑħÐ¾Ð´ Ð°
ĠÑĢÑĭÐ½ ÐºÐ°
Ð¾Ðº ÑĤ
it h
ĠÑĥÑģÑĤ ÑĢÐ°Ð½
ĠÐ°ÐºÑĤÐ¸Ð² Ð½ÑĭÐ¼Ð¸
Ġ187 7
ĠÐ²Ð¾Ðº Ð·
Ð°Ð» ÑıÐ¼Ð¸
ĠÐ¾ÑĤÐ´ÑĭÑħ Ð°
Ñĥ Ð½Ðµ
ill board
ĠÐ½Ð° Ð²Ð¾Ð´
Ð°ÑģÑĤ Ð¸
ĠÑģÐ¾Ð¿ÑĢÐ¾Ð² Ð¾Ð¶
ĠÐ³ ÑĢÐ°Ð±
ÐµÐºÑģ Ð°
ÑĤÐ°Ðº Ð¸Ðµ
Ġ15 00
Ð»Ð¸ Ð¿
ĠÑĤÑĢÐ¾Ð» Ð»ÐµÐ¹Ð±
Ð¸Ð¼ Ð¾Ð³Ð¾
ĠÐ¾ÑĤ ÑĩÑĳÑĤ
ĠÐ¿ÐµÑĢÐµÐ´ Ð°Ð»
ĠÑĦÐ¸Ð· Ð¸ÑĩÐµÑģÐºÐ¾Ð¹
Ð¾Ð»ÑĮ Ð½ÑĭÑħ
ĠÐ¸ÑģÑĤÐ¾ÑĢ Ð¸ÐºÐ¾
ĠÐ¿Ð¾Ð»ÑĮ ÑģÐºÐ¾Ð¹
ĠÐ²ÑĭÐ´ Ð²Ð¸Ð½
ĠÑĤ ÐµÑĢÐµ
ĠÐ° Ð³Ð»Ð¾Ð¼
ĠÐ¿Ð¾Ð»Ð¸ÑĤ Ð¸ÐºÑĥ
ĠÐ½Ð¾ÑĢÐ²ÐµÐ³ Ð¸Ð¸
Ð· ÑĢ
ĠÐ¿Ð¾Ð·Ð½Ð°ÐºÐ¾Ð¼ Ð¸Ð»ÑģÑı
ÑĤ Ð¾ÑĤ
ĠÑĥÑģÑĤÑĢÐ¾Ð¹ ÑģÑĤÐ²Ð¾
ĠÐ¾Ð±Ñī Ð¸Ð½
ĠÐ² Ð°Ðº
ĠÑĢÐ°Ð· Ð¼ÐµÑģÑĤ
ĠÐ±ÐµÐ»Ð°ÑĢÑĥÑģ ÑĮ
ĠÐ¸ÑģÐ¿Ð¾Ð»Ð½ ÐµÐ½Ð¸Ñı
ĠÐ±Ð¾ ÑĳÐ²
Ðº ÑĢ
ĠÑģÐµÐ²ÐµÑĢ Ð½Ð°Ñı
Ð½Ðµ ÑģÐ°
Ð³ÐµÑĢ Ð¼Ð°Ð½
Ġ18 12
ĠÐ½Ð°Ð¸Ð¼ÐµÐ½ Ð¾Ð²Ð°Ð½Ð¸Ðµ
ĠÐºÐ¾Ð¼Ð¿Ð» ÐµÐºÑĤ
ÑĤÐ¸ Ð¿
ĠÐ¿ ÑĥÑģÐº
ĠÐ¾Ð´ Ð¾Ð±ÑĢ
Ð¾ÑĤ Ñģ
ĠÑĢÑĥÑģ ÑģÐºÐ¸Ð¼
ĠÑĦÐ¸Ð· Ð¸ÐºÐ¾
ÑĦ ÑĢÐµÐ³
ĠÑĩÐ¸Ñģ Ð»Ñĥ
ĠÐ²ÑĭÐ¿Ð¾Ð»Ð½ ÐµÐ½Ð¸Ñı
ĠÐ¼Ð½Ð¾Ð¶ ÐµÑģÑĤÐ²Ð°
ĠÐ°ÑĢÑħÐµ Ð¾Ð»Ð¾Ð³
ĠÑĤÐµÐ» ÐµÐ³
ĠÐ°Ð²ÑĤÐ¾ÑĢ Ð¸ÑĤÐµÑĤ
ĠÐ¾Ð±Ñī Ð¸Ð¹
ĠÐ²Ð¾ÐµÐ½ Ð½Ð¾Ðµ
ĠÐ¼Ð¸Ð½ÑĥÑĤ Ðµ
ĠÐ³ ÑĥÑģÑĤ
ĠÐ²Ð¾Ð» ÐµÐ¹
ÑĥÑī Ð¸Ðµ
ĠÐ¾Ð±Ð½Ð°ÑĢÑĥÐ¶ ÐµÐ½Ñĭ
ĠÐº ÑĢÑĥÑĤ
ĠÑĢÐµÐ³Ð¸Ð¾Ð½ Ð¾Ð²
ĠÑģÑĤÐ°Ð´Ð¸Ð¾Ð½ Ðµ
Ġ6 9
ĠÐ½Ð°ÑĩÐ¸Ð½Ð° ÑİÑĤ
Ñı Ð½Ð¾Ð¹
Ð¾Ð¿ Ð¾ÑģÑĤÐ°Ð²
ĠÐ·Ð° ÑĦÐ¸ÐºÑģ
Ð² Ð¸Ð»ÑĮ
Ð¾Ð² Ñĭ
ĠÐ¾ÑĤÐ¼ÐµÑĩ Ð°ÐµÑĤ
Ġy ou
ĠÐ½Ð¸Ð´ÐµÑĢÐ»Ð°Ð½Ð´ Ð¾Ð²
Ġ8 5
ĠÐ¼Ð°ÑģÑģ Ð°
ĠÑģÑĬ ÐµÐ·Ð´Ð°
Ð³ ÑĢÑĥÐ·
Ð°ÑĢ Ð¾Ð²Ð°
Ð¸ÑĢÐ° ÐµÑĤÑģÑı
Ð±Ñĭ ÑĤ
ĠÑģÐ¾ÑĨÐ¸ Ð°Ð»
ĠÑģÐ¿Ð¾ÑģÐ¾Ð± Ð½Ð¾ÑģÑĤÑĮ
ĠÑģÑĢÐ°Ð¶ ÐµÐ½Ð¸Ñı
Ð°ÑĤ ÑĢ
Ð¾Ð²Ð°Ð½ Ð½Ð¾Ð¹
ĠÑĤÐ°Ðº Ð¾Ð¼
Ð·Ð°Ðº Ð¾Ð½
ĠÐ¿ÑĢÐ¸Ñħ Ð¾Ð´Ð°
Ð¾Ð¿ ÑĥÑĤ
ĠÐ¿ÑĢÐ¾Ñģ Ð²
ĠÑĤÑĢÐµÑĤÑĮ ÐµÐ¼
ÑĪ ÐµÐ±
ĠÐ¾ÑĢÐ³Ð°Ð½Ð¸Ð·Ð° ÑĨÐ¸Ñİ
ĠÐ½Ðµ Ð¿ÑĢÐ°Ð²
199 2
" Â»,
o x
Ġ" (
ag e
ĠÐ´ÐµÐº Ð¾ÑĢÐ°ÑĤÐ¸Ð²
ĠÐ±Ð¾Ð»ÑĮÑĪ Ð¾Ð¼
ĠÑģÐ¾ÑģÑĤÐ¾Ñı Ð²
Ġp h
Ð¾ÑıÑĤ Ð½Ð¾
ĠÐ¿Ð¾Ð¼ Ð¾ÑĩÑĮ
ĠÐ¿ÐµÑĢÑģÐ¾Ð½Ð° Ð¶Ð°
Ð¾Ð² Ñĥ
ĠÐ¿ÐµÑĢÐµ Ð¿
ĠÑĩÐ°ÑģÑĤ ÑıÑħ
Ġ7 2
ĠÐ²ÐºÐ»ÑİÑĩ Ð°ÑİÑĤ
ĠÐ¿Ð¾Ð²ÐµÑĢÑħ Ð½Ð¾ÑģÑĤÑĮ
ĠÐºÐ¾Ð»Ð»ÐµÐº ÑĨÐ¸Ð¸
ĠÑħÐ¾Ðº ÐºÐµÐ¹
Ð¼ Ð¸Ðº
Ð¼ Ð¸ÑħÐ°
ĠÐ¼ Ð¾Ð½Ð°
ĠÐ¿ÑĢÐ¾ÑģÑĤÑĢÐ°Ð½ ÑģÑĤÐ²Ð¾
ÑĢÐµÐ¶ Ð¸ÑģÑģ
Ð½ Ð¸Ñģ
ĠÐ² Ð°Ð¹
Ð± Ð¸ÑĢ
ĠÑģÐ¾Ð±ÑģÑĤÐ²ÐµÐ½ Ð½ÑĭÑħ
Ñį ÑģÑĤ
ĠÐ¿ÐµÑĢÐµÐ´ Ð°Ð½Ñĭ
ĠÐ»Ð°Ð³ ÐµÑĢÑĮ
ĠÑĢÑĥÐ¼Ñĭ Ð½
Ã ¼
Ð°ÑĤÐµÐ»ÑĮ Ð½Ð°Ñı
ĠÐ³ÑĢÐ°Ð½Ð¸Ñĩ Ð¸ÑĤ
ĠÐµÐ²ÑĢÐ¾Ð¿ÐµÐ¹ ÑģÐºÐ¾Ð³Ð¾
ÑĤ ÐµÑħ
ĠÐ¸ÑģÐºÑĥÑģ ÑģÑĤÐ²Ð¾
y n
Ð¸ÑĦÐ¸ÐºÐ° ÑĨÐ¸Ñı
ĠÐ´Ð¸ÑĦ ÑĦÐµÑĢÐµÐ½
ĠÐ¿Ð¾Ð»ÑĥÐ¾ÑģÑĤÑĢÐ¾Ð² Ð°
ĠÐ¾ÑĤ Ð¾Ð±ÑĢÐ°Ð¶
ĠÐ¿ÑĢÐ¸Ð³ Ð¾ÑĤÐ¾Ð²
Ð»Ð° Ð´Ð°
ĠÑĨ Ð¸Ð²Ð¸Ð»
so ft
ĠÐ¶ ÑĥÐºÐ¾Ð²
ĠÐ¿ÑĢÐ¸ ÑĪÐ»Ð¸
ĠÑĤÐµÐºÑģÑĤ Ð°
ĠÐ¾ Ð¾Ð¾
Ð²ÐºÐ»ÑİÑĩ Ð°Ñı
ĠÑģÐ°Ð¼ Ð°Ñı
Ð¼Ð° ÑĪ
ÐºÐ¾Ð² ÑĭÐ¼
Ð° ÑĨÐ¸ÐµÐ¹
Ð¾Ð² Ð¾Ð´
ĠÐ²Ñĭ Ð²
ĠÐ¶Ð¸Ð² ÑĭÑħ
ĠÐ² ÑĥÐ·
ĠÑģ ÑĥÑī
ĠÐ¿ÑĢÐ¸Ð½ ÑĨÐ°
ÐºÐ°ÑĤ Ð¾Ð»
ĠÐ½Ð°Ð¿ ÐµÑĩÐ°ÑĤ
ĠÑĢÐ° ÑĥÐ½Ð´
ĠÐ²ÑĭÐ· ÑĭÐ²Ð°ÐµÑĤ
ĠÑģÐ¾Ð² ÐµÑī
ĠÐº Ð¸Ð¼
Ġin see
Ð¿ÐµÑĢ ÑĳÐ´
ĠÐ»ÑİÐ± Ð¸ÑĤÐµÐ»ÑĮ
ĠÐ²Ð¸Ð½ ÑĤÐ¾Ð²
ÐºÑĢÐ°Ñģ Ð½ÑĭÐ¹
ĠÐ½Ð°Ð· ÐµÐ¼
ĠÑģÐ°Ð½ ÑĤÐ°
ĠÑįÐºÐ¾Ð½Ð¾Ð¼ Ð¸ÑĩÐµÑģÐºÐ¾Ð³Ð¾
: Â«
ĠÐ°Ðº ÑĨÐ¸Ð¾Ð½
ĠÑĦÑĳÐ´Ð¾ÑĢÐ¾Ð² Ð¸Ñĩ
ĠÑħÑĢÐ¸ÑģÑĤ Ð°
Ð¸ÑģÑĤ ÐºÐ°
Ġc d
ĠÑģÑĤÐ°ÑĢ Ð¾Ð³Ð¾
Ġ9 5
ĠÑįÐ»ÐµÐºÑĤ ÑĢÐ¾Ð¿
Ð°Ñī Ð¸Ðµ
Ð¸Ñĩ Ð½Ð¾ÑģÑĤÐ¸
ÑĢÐµ Ð²Ð°
ĠÑĩÑĳÑĢ Ð½Ð¾Ð³Ð¾
ĠÑĥÑħÐ¾Ð´ Ð°
Ñģ Ð½Ð°ÑĩÐ°Ð»Ð°
ĠÑģÐ¼ Ð¸ÑĢ
ÑģÐ¾Ð²ÐµÑĢÑĪ ÐµÐ½ÑģÑĤÐ²
199 9
ĠÐ¿Ð¾Ð»Ð¾Ð¶ ÐµÐ½Ð¸Ð¸
ĠÑĤÑĢ Ð¸Ð´
ĠÐ»Ð¸Ð½ Ð¸Ð¹
ĠÐºÑĢÐ°Ð¹ Ð½ÐµÐ¹
Ñĩ ÐµÑĤÑĭ
ĠÐ²Ð¾Ñģ Ñħ
ĠÐºÑĢÑĥÐ¿ Ð½Ð¾Ð¹
ĠÑĤÐ¾Ð¿Ð»Ð¸Ð² Ð°
ÐµÐº Ð¸
ĠÑĥÐ¿ Ð¾ÑĢ
ÑįÐ» Ð»
ĠÑĢÐ¾Ð¼ Ð°Ð½ÑĤ
ĠÐ¿Ð¾Ð´ÑĩÐ¸Ð½ ÑıÐµÑĤÑģÑı
ĠÐ¼ÐµÐºÑģ Ð¸ÐºÐ°Ð½
Ð¾Ð² ÐµÑī
ĠÐ´ ÑĢÑĥÐ³Ð¾Ðµ
ĠÐºÐ¸ÑĢ Ð³Ð¸Ð·
ĠÐ¸Ð¼Ð¿ÐµÑĢÐ°ÑĤÐ¾ÑĢ ÑģÐºÐ¾Ð¹
Ð½Ð¾ÑģÑĤ ÑıÐ¼
ĠÐ°ÑĤ Ð»ÐµÑĤ
ĠÑĤÑĢÐ°Ð¼ Ð²Ð°Ð¹
ÑĨÐµÑĢÐºÐ¾Ð² ÑĮ
Ð°Ñı Ð½
199 4
ĠÐ¾Ð± Ð¾Ð·
ĠÐºÐ² Ð°Ð½ÑĤ
ĠÐ¼Ð¸ÑĢÐ¾Ð² Ð¾Ð³Ð¾
Ġ186 1
ĠÐ² Ð¸ÑĢÑĥ
ĠÐ¿Ð¾ÐºÐ°Ð· ÑĭÐ²Ð°ÐµÑĤ
ĠÐ°Ð± ÑħÐ°Ð·
ÑĤÐµÐ¿ ÐµÑĢÑĮ
Ð¸Ðµ Ð²Ð°
ĠÐ¾Ð±Ð»Ð°ÑģÑĤ ÑıÑħ
Ġ6 2
ÐºÐ¾Ð¼ Ð¼Ñĥ
ĠÐ¾Ñī ÑĥÑī
Ġb r
Ð°ÑĢ ÐºÐ°
ĠÐ²ÑĭÑģÑĤÑĥÐ¿ Ð»ÐµÐ½Ð¸Ð¹
ĠÐºÐ»ÐµÑĤ ÐºÐ¸
Ðº ÑĥÐ¼
Ð¼ Ð¸Ð³
ĠÐ³ ÑįÑģ
ĠÑģÑĢÐµÐ´ Ð½Ðµ
ĠÐ¿Ð¾ÑıÐ² Ð¸Ð»Ð¾ÑģÑĮ
ĠÐ²Ð¾Ð¹ÑģÐº Ð¾
ĠÐ²Ñĭ Ð¶
ĠÐ¼ÑĥÐ·ÑĭÐº Ð°Ð»ÑĮÐ½Ð¾Ð³Ð¾
ÐµÐº ÑĨÐ¸Ð¸
. -
ĠÐ»ÑİÐ´ ÑıÐ¼
ĠÑĥÑĤÐ²ÐµÑĢÐ¶ Ð´Ð°ÐµÑĤ
ÑĨ ÐµÐ»ÑĮ
Ð¸Ð¼ Ñĭ
c a
ĠÐ´ Ð°Ð»Ð¸
ĠÑĤ Ñī
ĠÐ¸ ÑĢÐ°
Ð¸Ð· Ñĭ
ĠÐ¼ÐµÑĤÐ°Ð»Ð» ÑĥÑĢÐ³
Ð² ÑģÑĤÑĢÐµÑĩ
ĠÐ°Ð¿ Ð¿Ð°ÑĢÐ°ÑĤÐ°
ĠÐ²ÑģÐ¿Ð¾Ð¼ Ð¾Ð³
Ñģ Ð¸Ð´
ĠÑģÐ¾Ð²ÐµÑĤ ÑģÐºÐ¸Ðµ
ĠÐ¸ÑģÐ¿ÑĭÑĤ Ð°Ð½Ð¸Ñı
Ð² ÑĤÐ¾ÑĢÐ°Ñı
ĠÑĥ ÑĢÐ°Ð»ÑĮ
ÑĥÐ´ ÑĪ
Ġg r
ĠÑĤÐµÐ¼ Ñĭ
ĠÐ¾Ð´Ð¸Ð½ Ð°Ðº
ĠÑģ ÑĢ
ĠÐ¾ÑĤÐ»Ð¸Ñĩ Ð°ÑİÑĤÑģÑı
Ġ7 6
ĠÑĢÐµÐºÐ¾Ð½ÑģÑĤÑĢÑĥÐº ÑĨÐ¸Ð¸
Ġ186 4
ĠÑĢÐ°ÑģÐº Ð¾Ð¿
ĠÐ± ÑĥÐ´Ð°
ĠÐ¾ÑģÐ½Ð¾Ð² Ð¾Ð¹
ĠÐ¸ÑģÑĤÐ¾Ñĩ Ð½Ð¸ÐºÐ¸
ÑĤ ÐµÐ¹
Ð¿ÑĢÐ¾ Ð¸Ñģ
ĠÐºÑĢÐ°ÑģÐ½Ð¾ Ð°ÑĢÐ¼
Ð¼Ð¸ ÑĢÐ°Ð»Ð°
ÐµÐ½ÑĤÐ° ÑĨÐ¸Ð¸
ĠÐ¼ Ð°ÑĢÐ°
ĠÑĩÐ»ÐµÐ½ Ð°Ð¼Ð¸
ĠÐ¿ÑĢÐµÐ´Ð»Ð°Ð³ Ð°ÐµÑĤ
ÐºÐ¾ÑĢ Ð¾Ð»
Ð· ÐµÐ½
ÑħÐ¾Ð´ Ð¸Ð»
Ð½Ð°Ñĩ Ð°Ð»Ðµ
ĠÑģÐ¾Ð±ÑģÑĤÐ²ÐµÐ½ Ð½Ð¾ÑģÑĤÐ¸
ĠÐ±Ð¾Ð» Ð¾ÑĤ
Ð°Ð» Ð¸Ð·Ð°ÑĨÐ¸Ñı
ĠÐ± Ðµ
ĠÐ¸Ð·Ð²ÐµÑģÑĤ Ð½Ð°Ñı
ĠÐ¾Ð» Ð¸Ð²
ĠÑģÐ¾ÑİÐ· Ð½Ð¸ÐºÐ¾Ð²
ĠÐ±Ð¾Ð³ Ð¾Ñģ
ĠÑĢÐ°Ð· Ð³Ð¾Ð²
Ð±ÑĥÐ´ ÑĮ
Ðº ÑĢÐ¸ÑĤ
Ð¾ÑģÑĤ ÑĥÐ¿
ĠÑĢÐ°Ð±Ð¾Ñĩ Ðµ
ĠÐ¿ÑĢÐ¸ÑħÐ¾Ð´ Ð¸ÑĤ
ÑģÑĤÑĢÐ¾ Ð¸ÑĤÐµÐ»ÑĮÑģÑĤÐ²Ð¾
ÑĩÐ°ÑģÑĤ Ð¸
ic s
Ð¸Ñĩ ÑĮ
ĠÐ±ÑĢÐ° ÐºÐµ
Ġcod ice
ĠÐ¼ÐµÐ½ ÐµÐ´Ð¶
Ð¸ ÑģÑı
ĠÐ» Ð¸ÑĢ
ĠÑģÐ¸ÑģÑĤÐµÐ¼ Ð°ÑĤ
Ð°Ð½ ÑĨÐµÐ²
ÐµÑĤ ÑĢÐ°Ð¶
ĠÑĦÐµÑģÑĤÐ¸Ð² Ð°Ð»Ðµ
ĠÐ²ÑģÐµÐ» ÐµÐ½Ð½Ð¾Ð¹
ĠÑģÐ¸ÑĤÑĥ Ð°ÑĨÐ¸Ñı
Ð¿ ÑĢÐ°
Ð¸Ñĩ Ð½Ð¾Ðµ
ĠÐ» Ð¸Ñħ
ĠÐ²ÑĭÑģÑĤÐ°Ð² ÐºÐ¸
ĠÐµÐ¶ ÐµÐ´Ð½ÐµÐ²
ĠÐ¿Ð¾Ð»ÑĥÑĩ Ð°ÑİÑĤ
ĠÑĥÐ± Ð¸ÑĤÑĮ
ĠÐ¾Ð±ÐµÑģÐ¿ÐµÑĩ Ð¸ÑĤÑĮ
ĠÑģÐµÐºÑĢÐµÑĤ Ð°ÑĢÑı
ĠÑĤ Ð°ÑĤÑĮ
ÐºÐ¾ÑĢ Ð¸ÑĩÐ½ÐµÐ²
ĠÑĨÐµÑĢÐºÐ² ÐµÐ¹
Ð°ÑİÑīÐ¸Ð¹ ÑģÑı
Ð¸Ðº Ð°ÑĤ
Ð°Ð»Ð¸ Ñİ
ĠÐ½Ð°Ð½ Ð¾Ñģ
ĠÑħÐ¸Ð¼ Ð¸Ð¸
Ð² ÑĢÐµÐ¼Ñı
ĠÑĥ ÐµÐ·Ð´Ðµ
ÑİÑīÐ¸Ð¹ ÑģÑı
ĠÑĢÑĥÐºÐ¾Ð¿ Ð¾Ð»Ð¾Ð¶
ĠÑĢ ÐµÐ½
ĠÐ¾Ð· ÑĳÑĢ
ĠÐ¾ÑģÑĤ Ð°Ð»Ð°ÑģÑĮ
ĠÐ¿Ð¾Ð±ÐµÐ´ Ð¸ÑĤÐµÐ»ÐµÐ¼
ĠÐºÐ¾Ð¿ Ð¸Ð¹
ĠÑĪ Ð¸ÑĦ
ĠÑģÐ¾Ð¾Ð±Ñī Ð°ÐµÑĤ
ĠÐ³ÑĥÐ±ÐµÑĢÐ½ Ð°ÑĤÐ¾ÑĢ
ĠÐ¿Ð¾Ð»ÑĮ ÑģÐºÐ¸Ð¹
199 7
ĠÐº Ñĳ
ĠÐ°Ð² ÑģÑĤÑĢÐ¾
ĠÑĨÐ°ÑĢ ÑģÑĤÐ²Ð°
ĠÑĤÐ°Ð½ÐºÐ¾Ð² Ð¾Ð¹
ĠÐ¾Ð±ÑĬ ÐµÐºÑĤÐ¸Ð²
ĠÐ´Ð¾Ð» Ð¸Ð½Ðµ
ĠÐ¼Ð°Ð¹ Ðº
ĠÐ°ÑĢÐ¸ÑģÑĤ Ð¾ÐºÑĢÐ°ÑĤ
Ð± ÑĢÐ°Ð½
ÐºÐ¾Ð» Ð¸ÑĩÐµÑģÑĤÐ²Ð¾
ÑĥÐºÑĢÐ° Ð¸Ð½Ð°
ĠÐºÐ¸ÑĤÐ°Ð¹ ÑģÐºÐ¾Ð¹
ĠÐ·Ð°ÑīÐ¸ÑĤ Ð½Ð¸Ðº
ĠÐ¿ÑĢÐ¸ ÑģÑı
ĠÐ±Ð°ÑĢÐ° Ð±Ð°Ð½
ĠÐºÐ¾ÑģÑĤ ÑĢÐ¾Ð¼
Ð¾Ðº Ð¾Ð½
ĠÐ²ÑĭÑģÐ¾Ðº Ð¸Ð¹
ĠÑħÑĥÐ´Ð¾Ð¶ÐµÑģÑĤÐ²ÐµÐ½ Ð½ÑĭÐ¹
ĠÐ¿ÑĢÐ¸Ð· ÑĭÐ²
ĠÐ´ÐµÑĢÐµÐ² ÐµÐ½ÑĮ
ĠÐ¸ÑģÑĤÐ¾ÑĢ Ð¸ÑĩÐµÑģÐºÐ¾Ð¹
ĠÐºÑĢÐµÐ´ Ð¸ÑĤ
ĠÐ» ÐµÑĤÐ°
ĠÑģÐ¿ Ð¸Ð½
ĠÑģÐ¾ÑĤ Ð½Ð¸
ĠÑģÑĤÐ°ÑĢ Ð¾Ð¹
Ð² Ð¸Ñģ
ĠÐ¾ÑģÑĤÐ°ÑĤ ÐºÐ¸
ÑģÑģ Ð¸
ĠÑģÐ»ÐµÐ´ÑĥÑİÑī ÐµÐ³Ð¾
ĠÐ°ÑĤÐ¼Ð¾Ñģ ÑĦ
ĠÐ¼ Ð²Ð´
ĠÑĢÐµÑĪ ÐµÐ½Ð¸Ñİ
ĠÐ¼ÐµÐ´ Ð°Ð»ÐµÐ¹
ĠÐ²Ð¾Ñģ Ð¿ÑĢÐ¸Ð½Ð¸Ð¼
Ð½Ð°Ð³ÑĢÐ°Ð¶Ð´ ÑĳÐ½
ĠÑħ Ð°Ñģ
ĠÐ¼Ð°Ð» ÑĭÑħ
Ð¼ÐµÑĢÑĤ Ð½Ð¾
ĠÑĦ Ð»Ð°Ð³Ð°
ĠÐ°Ð½ÑĤ ÑĢÐ¾Ð¿
199 6
ĠÑģÐ¾ÑĤÑĢÑĥÐ´ Ð½Ð¸Ðº
ĠÐ´ÐµÑģ Ð°Ð½ÑĤ
ĠÑĥÑħ ÑĥÐ´ÑĪ
ĠÐ·Ð°Ð¼ ÐºÐ°
ĠÑĢÐµÐ¶Ð¸ÑģÑģ ÑĳÑĢÐ¾Ð¼
Ð¿ÑĢÐµÐ¶ Ð½ÐµÐ¼Ñĥ
ĠÑģÐ² Ð°Ð´ÑĮ
ĠÐ¿Ð°ÑĢ Ð¾ÑħÐ¾Ð´
198 9
ĠÑĪ Ð»Ð¸
ĠÐ¿ÑĢÐµ Ð¾Ð±Ð»Ð°
Ġ6 6
ĠÐ²Ð» Ð¸ÑıÑĤ
ĠÑģÐ² Ð¸Ð½
ĠÐ²ÐµÑĢÑģ Ð¸Ñİ
ĠÐ¼ÑĥÐ·ÑĭÐºÐ°Ð½ÑĤ Ð¾Ð²
Ðº ÐµÐ½ÑĤ
ĠÐ·Ð°Ð² ÐµÐ´ÐµÐ½Ð¸Ñı
ĠÑģÐµÑĢÐ± Ð¸Ð¸
Ð¿ÑĢ Ð¾Ð±
ÐµÐ»ÑĮ Ðµ
ĠÐ¿Ð¾Ð´ ÐºÐ»ÑİÑĩ
ĠÐ¿Ð¾Ð² Ð»Ð¸Ñı
ĠÑģ Ñį
ĠÐ¿Ð¾Ð» Ð½Ð¾Ðµ
ĠÑĦÐ°ÐºÑĥÐ»ÑĮÑĤ ÐµÑĤÐµ
ĠÐº Ð¾Ð³
Ð»Ð° Ð¼Ð°
ĠÐºÐ°ÑĦÐµÐ´ ÑĢÐ¾Ð¹
t o
Ð» Ð°Ð½Ð°
Ð¾Ð±ÑĢÐ°Ð· Ð¾Ð²Ð°ÑĤÐµÐ»ÑĮ
ĠÑĦ ÐµÐ»ÑĮÐ´
ĠÑĥÑĩÐ°ÑģÑĤÐ² ÑĥÐµÑĤ
Ð¿ÑĢÐ¾Ð¿ ÐµÑĤÑĢÐ¾Ð²
ÑĪÑĤ ÐµÐ¹Ð½
ĠÐ¿ÑĢÐ¾Ð¸Ð·Ð¾ÑĪ ÑĳÐ»
Ð½ ÐµÐ»
ĠÑĤÑĢ Ð¾Ðµ
Ð²ÑĭÑģÑĤÑĥÐ¿ Ð°Ð»
ĠÑģÐ²Ð¾Ð¹ ÑģÑĤÐ²Ð°
ĠÐºÑĢÐ¸ÑĤ Ð¸ÐºÐ¸
ĠÑģÐµÐºÑĢÐµÑĤ Ð°ÑĢÑĳÐ¼
Ð¿Ð¾ÐºÐ°Ð· Ð°ÑĤÐµÐ»ÑĮ
Ġ1 15
ĠÐ²ÐµÑĤ Ð²
ĠÑĨÐ¸Ðº Ð»Ð°
ĠÐ¼Ð¾Ð»Ð¾Ð´ÑĳÐ¶ Ð¸
ÐºÑĥ Ð·
ĠÐ¾Ð±ÐµÑģÐ¿ÐµÑĩ Ð¸Ð²Ð°ÐµÑĤ
ĠÐ´Ð°Ð» ÐµÐºÐ¾
Ñĩ Ð¸ÑģÑĤ
ĠÑĦÐ¾ÑĢÐ¼ Ð¸ÑĢÐ¾Ð²Ð°Ð½Ð¸Ðµ
ĠÐ¼Ð¾Ñī Ð½Ð¾ÑģÑĤÑĮ
ĠÐ²ÑĭÐ·Ð² Ð°Ð»Ð¾
ĠÐ´ Ð¾Ð·
ĠÐºÐ¸Ð½Ð¾ÑĦ ÐµÑģÑĤ
ĠÑĦ Ð¾Ðº
Ð½ÐµÐ¹ ÑĪÐ¸Ðµ
ĠÐ¾ÐºÐµ Ð°Ð½
ĠÐ¿Ð¾Ð¿ ÑĢÐ¾Ñģ
ĠÐ´Ð¾Ð± Ð¸ÑĤÑĮÑģÑı
ĠÐ²Ð¾Ðº Ð°Ð»Ð¸ÑģÑĤ
ÑıÐ» Ð¾ÑģÑĮ
ĠÐ¿ÑĤ Ð¸ÑĨÑĭ
ĠÐ» ÑĥÐ³
ÑĢÐ¾Ð½ Ð¾Ð²
ĠÐºÑĢÑĥÐ¿ Ð½ÑĭÐ¼
ĠÐ¾ÑĤÑģÑĥÑĤÑģÑĤÐ² Ð¸Ñı
Ð¾Ð¿Ð¾Ð» Ñı
Ð¶ Ð¸Ð·
ĠÑĢ Ð¸ÑĤÑĥ
ĠÐ²Ð°Ð» ÑİÑĤ
ĠÐºÐ¾ ÑįÑĦÑĦÐ¸ÑĨÐ¸
ĠÐ·Ð°ÐºÐ»ÑİÑĩ Ð°ÐµÑĤÑģÑı
ar i
ĠÐºÐ¸ÐµÐ² ÑģÐºÐ¾Ð¹
ĠÐ²Ð¾ÑģÐ¿ Ð¾Ð»ÑĮÐ·
Ð¼ Ð½Ð¾Ð³Ð¾
ĠÑĤ ÑĥÐ¿
ĠÑĥÐ²Ð¸Ð´ ÐµÑĤÑĮ
Ð¾Ð¿ ÑĭÑĤ
ĠÐ¿ÑĢÐ¸Ð½ÑıÑĤ Ð¸Ñı
ĠÑģÑĤÐ¾Ð»ÐµÑĤ Ð¸Ñı
an k
ĠÐ½Ð¾Ñĩ ÑĮÑİ
ĠÑĦÑĢÐ°Ð½ ÑĨÐ¸Ñİ
Ñħ Ð°Ð½Ð°
Ð¾Ð»ÑĮ Ð½Ð¾Ð¹
Ð°Ñī Ð¸Ð¹
ĠÐ»ÐµÐ½Ð¸Ð½Ð³ ÑĢÐ°Ð´Ðµ
ĠÑħ Ð¸ÑĢ
ĠÐ³ Ð»Ð°Ð³
ĠÐ¸Ð¼Ðµ Ñı
ĠÑģÑĥÐ¼ Ð¼Ñĥ
ÐµÑĢ ÑģÐºÐ¾Ð³Ð¾
ĠÐ· Ð»
ĠÑģÑĤ Ñİ
ĠÑįÐºÑģÐ¿ Ð¾Ð·
ĠÐ¼Ð°Ð³Ð°Ð· Ð¸Ð½
Ñģ ÐµÑĢÐ³
ĠÑģ Ð¸ÑĨ
er n
ĠÑģÐ¾Ð±ÑģÑĤÐ²ÐµÐ½ Ð½Ð¾
ĠÐºÐ° ÑģÐ¿
ĠÐ²ÐµÑĢ Ð½ÑĥÐ»Ð°ÑģÑĮ
ĠÑĩÐµÑĢ Ð½Ð¾Ð¼Ð¾ÑĢ
ĠÑĪ Ð°ÑĪ
ĠÐ¾Ð· Ð²
ĠÐ¾Ð´ÐµÑĢÐ¶ Ð°Ð»
ĠÑĢÐµ ÑĨÐµÐ¿
ĠÐ¿Ð¾Ñģ Ð»ÐµÐ²Ð¾
ÑĢÐ¸ ÑĢÑĥ
ĠÐºÐ¾Ð½ÑĤ ÑĢÐ°ÑĤ
ĠÐ³Ð¸Ð´ ÑĢÐ¾
ĠÐ°Ð´Ð¼Ð¸Ð½Ð¸ÑģÑĤ ÑĢÐ°
ĠÐ¿Ð¾ÑıÐ² Ð»ÐµÐ½Ð¸Ðµ
o h
ĠÐ±ÐµÐ» ÑĭÑħ
ĠÐ»ÐµÐ¶ Ð¸ÑĤ
Ñģ Ð¸Ð±Ð¸ÑĢ
ĠÑįÐºÑģÐ¿ Ð¾ÑĢÑĤ
ĠÑĥÑģÑĤÐ°Ð½Ð¾Ð² Ð¸ÑĤÑĮ
ĠÑģ Ð¾ÑĢÑĤ
Ð°Ð»ÑĮ Ñı
ĠÐ½ÐµÐ¾Ð±ÑħÐ¾Ð´Ð¸Ð¼ Ð¾ÑģÑĤÑĮ
ĠÐ¿ÑĢÐ¾Ð´Ð°Ð¶ Ð¸
Ð°Ð´ ÐµÐ»ÑĮ
ĠÐ¿ÑĢÐ°Ð² Ð¾Ð¹
ÐµÐ¿ ÑĤ
Ð¾Ð½ ÐµÑĨ
ĠÐ¾Ð¿ ÑıÑĤÑĮ
ĠÑģÑħ Ð²Ð°ÑĤ
ĠÐ°Ð» Ð»Ðµ
ĠÐ¿Ð»Ð¾ Ñħ
ĠÑĥÐ¿ÑĢÐ°Ð·Ð´Ð½ ÑĳÐ½
ĠÑģÑĤÐ°ÑĢ ÑĭÑħ
ĠÑĤÐ°Ð²ÑĢ Ð¸ÑĩÐµÑģÐºÐ¾Ð¹
ĠÐ² Ð°
ĠÑĤ ÐµÐ½
ĠÑĩÐµÑħ Ð¸Ð¸
ÐµÐ½ ÑģÑĤÐ²Ð°
ĠÐ²ÑĭÑģ ÑĪÐµÐµ
199 3
194 1
ĠÐ»Ñİ Ðº
ĠÐºÐ¾Ð½ÑģÑĤÐ°Ð½ÑĤÐ¸Ð½ Ð¾Ð¿Ð¾Ð»ÑĮ
ĠÐ¸Ð¼ÐµÐ» Ð¾
ÑĳÐ½ Ð½Ð¾ÑģÑĤÐ¸
ĠÑģÑĭ ÑĢ
ĠÐ·Ð½Ð°ÑĩÐ¸ÑĤÐµÐ»ÑĮ Ð½Ð¾Ðµ
ĠÐ¶Ð¸Ð» ÑĭÑħ
ĠÑĤÐ°Ðº Ð°Ñı
Ðº ÐµÐ½
Ñħ Ðµ
ĠÐºÐ¾Ð¼Ð¿ Ð°Ð½Ð¸Ñİ
ĠÐ¿ÑĢÐ°Ð·Ð´Ð½ Ð¾Ð²Ð°Ð½Ð¸Ðµ
ĠÑģÐ¾Ð´ÐµÑĢÐ¶ Ð°Ð½Ð¸Ñı
Ð¾Ð»Ñİ Ð±
ĠÐ¿ÑĢ Ð¾Ð¶
ĠÐºÐ¾Ð¼Ð¸ÑģÑģ Ð¸Ñı
ĠÐ² ÑĢÐ°Ð¶Ð´
Ñİ Ñĩ
c l
ÑĦ Ñĭ
ĠÐµÐ² Ð°Ð½Ð³ÐµÐ»
ĠÐ±ÐµÐ»Ð¾ÑĢÑĥÑģ ÑģÐºÐ¾Ð³Ð¾
ĠÐ´Ð¾ÑģÑĤÐ¾ Ð¸Ð½
ĠÐ±ÑİÐ´Ð¶ ÐµÑĤ
ÑĥÐ´ Ð¾Ð²
Ð¿ÑĢ Ð¸Ð±
ĠÐ¾ÑĦÐ¸ÑĨÐ¸ Ð°Ð»ÑĮÐ½ÑĭÐ¼
ĠÑĥ Ð½Ð°ÑģÐ»ÐµÐ´
ĠÐ¿Ð¾Ð» Ð½Ð¾Ð³Ð¾
ĠÐ±ÐµÐ» ÑĭÐ¹
ĠÐ´ÐµÑĤ ÑģÑĤÐ²Ð°
ĠÐ°Ð»ÑĮÐ±Ð¾Ð¼ Ðµ
Ġ189 3
ĠÐ¿Ð¾Ð»Ð¾Ñģ Ñĭ
ĠÐºÐ¾ÑĢÐ¾Ð»ÐµÐ² ÑģÐºÐ¾Ð³Ð¾
Ð¸Ð½ ÑģÐºÑĥÑİ
ĠÑģÐ¿ÐµÑĨÐ¸ Ð°Ð»ÑĮÐ½Ð¾Ð³Ð¾
199 5
ĠÐ»ÐµÐ² Ð¾Ð¹
Ġ188 7
ĠÑĪÑĤ Ð°ÑĤÐ¾Ð²
ĠÑįÐºÑģÐ¿ Ð¾Ð½
ĠÐ¿Ð¾Ð´Ð³Ð¾ÑĤÐ¾Ð² ÐºÑĥ
ĠÐ»Ð¸ÐºÐ²Ð¸Ð´Ð° ÑĨÐ¸Ð¸
ĠÑħ Ð°Ðº
ĠÑģÐ»ÑĥÐ¶ Ð¸ÑĤÑĮ
Ġs er
ÐµÐ² ÐµÐ´
ÑĭÐ² Ð°Ð»Ð°ÑģÑĮ
Ð±ÐµÑĢ ÑĤÐ°
ĠÐ² Ð¸Ð½Ð¾Ð²
ĠÐ´Ð°Ð² Ð»ÐµÐ½Ð¸Ñı
ĠÐ±Ð¾ÑĢÑĤ Ñĥ
Ð»ÐµÐ½ Ð½ÑĭÐ¼
ĠÑİ ÑĢ
ĠÐ¼Ð¸Ð½Ð¸ÑģÑĤ ÑĢÐ¾Ð¼
ĠÐ²ÑĭÑģ Ð¾ÑĤÑĥ
ĠÐ´Ð¶ ÐµÐºÑģ
ĠÑĦÑĢÐ°Ð½ÑĨÑĥÐ· ÑģÐºÐ¸Ñħ
ĠÑĤÐ¾Ñĩ ÐºÐ°
ÑĭÐ² Ð°ÑĤÑĮÑģÑı
ĠÐ´ Ð°Ð½Ð¸Ð¸
ĠÐ¿ÑĢ Ð¾ÑĢÐ²
ĠÐºÐ°Ð½ Ð°Ð´Ðµ
ĠÐ²Ð°Ð¶ Ð½ÑĭÐ¼
ĠÐ± Ð°ÐºÑĤ
ĠÐ» Ð¾Ð·
ĠÐ¿ÑĢÐ¸Ð¼ ÑĭÐºÐ°
ĠÐ³ÑĢ Ð¾Ð±
ĠÐ±ÑĥÐ´ÑĥÑī ÐµÐ¼
ĠÐ¶Ð°Ð½ ÑĢÐµ
ĠÐ¿ÑĢÐ¾Ð¸Ð·Ð²Ð¾Ð´ ÑģÑĤÐ²Ñĥ
ĠÐ¼Ð¾ÑĢ ÑģÐºÐ¾Ð³Ð¾
ĠÑģÐ²Ð¾Ð±Ð¾Ð´ Ñĥ
ĠÐ¿Ð¾ÑģÐ»ÐµÐ´ ÑĥÑİÑīÐ¸Ñħ
ĠÐ¾ÑĤÑĢÑıÐ´ Ñĭ
ÑĥÑģÑĤ ÑĢÐ¾Ð¹
ĠÑĪÐ¸ÑĢ Ð¸Ð½Ð°
ĠÐºÐ¾Ð½ ÑĦÐµÐ´
ĠÑģÐ¿ÐµÑĨÐ¸ Ð°Ð»ÑĮÐ½ÑĭÐµ
Ġ6 7
ĠÐ³ÑĢÐ¸Ð³Ð¾ÑĢ Ð¸Ð¹
Ð» Ð¸Ð¸
ĠÑĥ ÑģÐ¾Ð²ÐµÑĢÑĪÐµÐ½ÑģÑĤÐ²
ĠÐ¿Ð¾ÑħÐ¾Ð´ Ð°
Ġ186 2
ĠÐ¿ÑĢÐ¾Ð¸Ð·Ð²ÐµÐ´ ÐµÐ½Ð¸Ðµ
ĠÑįÐ´Ñĥ Ð°ÑĢÐ´
ĠÐ³ ÑĢÐµÐ½
ÑĦ ÑĥÐ½Ðº
ĠÑĩ Ð°ÑĪ
ĠÐ· ÐµÑĢÐº
ĠÐ²Ñĭ Ð½
Ð¾Ð¿ Ð¾Ð´
ĠÐ²Ð¾Ð» Ð³
ĠÐ²Ð¾Ð·Ð²ÑĢÐ°Ñī ÐµÐ½Ð¸Ð¸
ÑģÐ¸ÑģÑĤÐµÐ¼ Ð°
Ð¾ÑĤ ÐµÑħÐ½
Ġ6 1
ĠÐ¾ÐºÑĢÑĥÐ³ Ð¾Ð²
ĠÐ³ÐµÑĢÐ¾ Ð¸Ð·Ð¼
ĠÑĩÐµÑĢÐµ Ð¿
ĠÐ²ÑĭÐ½ÑĥÐ¶Ð´ ÐµÐ½Ñĭ
198 0
ÐµÐ½ ÐºÐ°
ÐµÑģÐº Ð¾Ð¹
Ð¾Ð¿ Ð¸ÑĤ
ÑĥÑģ Ñĭ
Ð¼Ð¸Ð½Ð¸ÑģÑĤ ÑĢÐ°
ĠÐ¾ÑĢÐºÐµÑģÑĤ ÑĢÐ°
ĠÐ¼Ð¾Ð½ Ð³Ð¾Ð»ÑĮ
ĠÐ¼Ð¸ÑģÑģ Ð¸Ð¸
ĠÐ¼Ð¸ÑĤÑĢÐ¾Ð¿Ð¾Ð» Ð¸ÑĤ
ĠÐ½Ð° Ð¿Ð¾Ð¼
ĠÐ¶Ð¸Ð² ÑĥÑĤ
Ð¸Ð½ Ð°Ð²
ĠÐ¾ÐºÑĢÑĥÐ¶ Ð°ÑİÑīÐµÐ¹
ĠÑĥ ÐµÑħÐ°Ð»
ĠÐ¿Ð¾ÑģÐµÐ» ÐµÐ½Ð¸Ð¹
ĠÐ¼ÑĥÐ·Ñĭ ÐºÐµ
ĠÐ¿Ð¾ÑģÑĤÐ°Ð½Ð¾Ð² Ð»ÐµÐ½Ð¸ÐµÐ¼
Ð½Ð°ÑĢÑı Ð´Ñĥ
Ñģ Ð´
ĠÐ¿ Ð¸Ð°Ð½
Ð¸Ð· Ð¼Ðµ
ĠÐ¿Ð¾Ñį Ð·Ð¸Ð¸
Ð¾ÑģÑĤ Ð°
ĠÐºÐ»Ð°ÑģÑģ Ðµ
it e
ĠÐº Ð»Ðµ
ĠÐ·Ð° ÑĩÐ°ÑģÑĤÑĥÑİ
ĠÑħ Ð¾ÑĢÐµ
ĠÐºÐ¾Ð» Ð¾ÐºÐ¾Ð»ÑĮ
ĠÑĦÐ¸Ð· Ð¸
ĠÐ»Ð¾ÑĪ Ð°Ð´
ĠÑģÑĢÐµÐ´ Ð½Ð¸Ñħ
ĠÑĢÐ°Ð·Ð²ÐµÐ´ ÐºÐ¸
Ð´Ð²Ð¸Ð¶ ÐµÐ½Ð¸Ðµ
ÐµÑĢÐ¸ ÐµÐ¹
ĠÐºÐ°Ðº Ð¸Ñħ
t v
ĠÐ¿Ð¾ÐºÐ°Ð· Ð°Ð»Ð¸
Ð¾ÑĢ Ð¾Ð½Ð°
c on
w g
n ational
ĠÐ¿Ð¾Ð· Ð²Ð¾Ð½
ĠÐ¿ÑĢÐ¸Ð´ ÐµÑĢÐ¶
Ð·Ð¾Ð»Ð¾ÑĤ Ð¾Ð¹
ĠÐ¸Ð·Ð´ Ð°Ð½
ĠÐ¾Ð·Ð² ÑĥÑĩ
ĠÐ´Ð½Ðµ Ð¿ÑĢ
ĠÐ³Ð¾ÑĢ Ð½ÑĭÑħ
o ut
ĠÐ·Ð°Ðº Ð¾Ð½Ð¾Ð²
Ð´Ð°Ñĩ Ð¸
ĠÐºÐ°ÑĢÑĤ Ñĭ
ĠÐ²ÑĭÑĪ Ð»Ð¾
ĠÐ»ÐµÐ¾Ð½ Ð¸Ð´
ĠÐ¿ÐµÑĢÐµ Ð¶
ĠÑģÑħ Ð¾Ð¶
Ð¸Ð¼ Ð¾Ð²
ĠÐ´ÐµÑĤ ÑģÑĤÐ²Ðµ
ĠÑĢÑĭ Ð½Ð¾Ðº
ĠÑĢÑıÐ´ Ñĭ
ĠÑģÑĤ Ð¾Ð¹
ÐµÑģÐº Ð¸Ðµ
ÑĥÑİÑī Ð¸Ð¼Ð¸
ĠÑĥÑģÑĤ ÑĮ
ĠÑģÑĤÐ¾ÑĢÐ¾Ð½ Ð½Ð¸ÐºÐ¾Ð²
ĠÐºÐ°Ð» ÐµÐ½Ð´
ĠÐ·Ð° ÑģÑĤ
ĠÐ·Ð°ÑĤ ÑĢÑĥÐ´
ĠÐ²ÑĭÑģÐ¾Ðº Ð¸Ðµ
ĠÐ¿ÑĢÐ¾Ð²Ð¾Ð´ Ð¸ÑĤÑĮ
ĠÐ¿Ð¾ÑĩÐ¸ÑĤ Ð°ÐµÑĤÑģÑı
Ð² ÐµÐ½ÑĤ
ĠÑĥÑĩÐ°ÑģÑĤ Ð½Ð¸ÐºÐ¾Ð¼
am p
Ð²Ð»Ð°Ð´ Ð¸Ð¼Ð¸ÑĢ
ĠÐ¾Ð±ÑĢÐ°Ð· Ð¾Ð²
ĠÐ¾ÑĤÐ¿ÑĢÐ°Ð² Ð¸Ð»
ĠÑģÐºÐ°Ð· Ð°ÑĤÑĮ
ĠÐ¸ÑģÐ¿Ð¾Ð»ÑĮÐ· Ð¾Ð²Ð°Ð½Ð¸Ð¸
Ġc or
ĠÐ½Ð°ÑĨÐ¸Ð¾Ð½ Ð°Ð»Ð¸ÑģÑĤ
Ġ189 4
ĠÐ¿ÑĢÐµÑģÑĤ Ð¸Ð¶
ĠÐ¿ÑĢÐ¾Ð¸Ð·Ð²Ð¾Ð´ ÑģÑĤÐ²Ðµ
ÑĥÑĤ ÑģÑı
ĠÐ·Ð°Ð¼ ÐµÐ½Ð¸
ĠÑĪÑĤ ÑĢÐ°ÑĦ
ĠÐ¸ÑģÐ¿Ð¾Ð»Ð½ ÐµÐ½Ð¸Ðµ
ĠÑĩÐµÑĤÐ²ÐµÑĢÑĤÑĮ ÑĦÐ¸Ð½
ÐµÐ½ ÑĨÑĭ
Ð¾Ñģ Ð¸Ð¿
Ð¸Ð¹ ÑĨÐµÐ²
ĠÐ½Ð°Ð³ÑĢÐ°Ð´ Ñĥ
ĠÐ¿ÑĥÑģÑĤ Ñĭ
ĠÐ·Ð° Ð±Ð¾ÑĤ
Ġ188 6
Ð¿ Ð°Ð²
ĠÑįÐº Ñģ
ĠÐ¸ÑģÑģÐ»ÐµÐ´ Ð¾Ð²Ð°Ð½Ð¸Ðµ
Ġ189 1
Ġ7 4
ĠÑįÐ»ÐµÐºÑĤ ÑĢÐ¾Ð¼
ĠÐ¸ÑģÐ¿Ð¾Ð»Ð½ ÐµÐ½Ð¸Ð¸
Ð» Ð¾Ñģ
ĠÐ²ÑĭÑģÑĤÐ°Ð² ÐºÐµ
ÑĢÐµ ÐºÐ¸
ac t
ĠÑĤ Ð¾Ð±
ĠÐ¸ÑģÑĤÐ¾ÑĢ Ð¸ÑĩÐµÑģÐºÐ¾Ð³Ð¾
Ġ et
Ð´ Ð¸Ð½Ð³
ĠÐ´ ÑĥÐ³
Ð°Ð¼ Ð¸Ð½
ĠÑħ Ð¸Ñī
ĠÑĦÑĳÐ´ Ð¾ÑĢ
n et
ĠÐ½ÐµÐ· Ð°ÐºÐ¾Ð½
ĠÐ¾Ñģ Ð¸
Ð¸ÑĨÐ¸ Ð½Ñĭ
ĠÑĢÐ¸Ð¼ ÑģÐºÐ¾Ð³Ð¾
ÐºÐ½ Ð¸Ð³Ð°
ĠÑģÐ»ÐµÐ´ÑĥÑİÑī ÐµÐµ
ĠÐ°ÑĤÐ¼Ð¾Ñģ ÑĦÐµÑĢ
ĠÐ¿ÑĢÐµÐ´ ÑĪÐµÑģÑĤÐ²
ÑĤ ÑĥÑĢÐµ
Ð¸ÑĦ Ð°
ĠÐ¾Ð±Ð¾ÑĢÑĥÐ´ Ð¾Ð²Ð°Ð½Ð¸Ðµ
ĠÐ·Ð¾Ð» Ð¾ÑĤÐ°
Ð¸Ð¼ Ð¸Ð½
ĠÑĢÐ¾Ð´ Ð¸ÑĤÐµÐ»Ð¸
ĠÐ°ÑĢÐ¼ Ð¸Ð¹
Ð¸Ð¼ Ñı
ĠÐ¾Ð± ÑĭÐº
ĠÐ¶ Ñĥ
ĠÐ½Ð°ÑĨÐ¸Ð¾Ð½ Ð°Ð»ÑĮÐ½Ð¾Ð¼
ĠÐºÑĢÑĭ Ð»Ð°
ÑĢÐ¾Ð¼ Ð°Ð½
ĠÑģÐ½ Ð¸Ð·
ĠÑĦÑĥÑĤÐ±Ð¾Ð» Ð°
b s
ĠÐº ÐµÐ»ÑĮ
ĠÐ´Ð¸Ð²Ð¸Ð·Ð¸Ð¾Ð½ Ðµ
Ġ es
ĠÐ³Ð»Ð°Ð² Ð½ÑĥÑİ
ĠÐ¿ÑĢÐµÐ´Ð¿Ð¾Ñĩ Ð¸ÑĤ
Ð²Ð¼ÐµÑģÑĤ Ð¾
ĠÐ²Ð»Ð° Ð¶
ĠÐ½Ð° ÑģÑĤÐ°Ð²
ĠÑģÐ¾Ð² Ð¾ÐºÑĥÐ¿
ĠÑģÐ¾Ð± Ð»ÑİÐ´
us t
Ð³ÐµÐ½ ÐµÑĢÐ°Ð»
ĠÑĦÐ» Ð°Ð½
ĠÐ·Ð°Ð´ Ð°Ð½Ð¸Ð¹
ÑĤ Ð¾Ð²Ð¾Ð¹
ĠÑĩÐ»ÐµÐ½ Ð°
Ð¸ÑĤÐ° ÑĨÐ¸Ð¸
ĠÐºÐ°Ð¶Ð´ Ð°Ñı
ĠÐ¸Ð¾Ð°Ð½ Ð½
ĠÐ·Ð°Ð¿ Ð¾ÑĢÐ¾Ð¶
ĠÐ¾ÑĤÐ´ÐµÐ»ÑĮ Ð½ÑĭÐ¹
ĠÑĢÐµÐ¼ ÐµÑģ
Ðº Ð½Ñı
ĠÑģÐµÑĢ Ð³
ĠÐ´ÑĢÐµÐ² Ð½ÐµÐ³Ð¾
ÐµÐ½Ð° Ñĩ
ĠÐºÐ°Ð½Ð´Ð¸Ð´ Ð°ÑĤÐ¾Ð²
ĠÐ½ÐµÐ¼ÐµÑĨ ÐºÐ¸Ðµ
ÑĢÐ¾ÑģÑĤ Ð°Ð½
ĠÐºÐ»Ð°ÑģÑģ Ð¸ÑĩÐµÑģÐºÐ¾Ð¹
ĠÐ´Ð²Ð¾ÑĢ ÑĨÐµ
Ðº Ð¾ÑĢÑĤ
ÐºÐ° Ñĩ
ĠÐ¿ÐµÑģ ÑĩÐ°Ð½
ĠÐ± Ð°Ð´
ĠÑģÐ¾Ð±ÑģÑĤÐ²ÐµÐ½ Ð½Ð¾Ð³Ð¾
ĠÐ°ÑģÑĤ ÑĢÐ°Ñħ
ĠÑģÑĥÑĤ Ð¾Ðº
Ð¼ Ð°Ñģ
ĠÐ³ Ð»Ð¸Ð½
ĠÑĥÐ±Ð¸Ð¹ ÑģÑĤÐ²Ð¾
ÑģÑĩÐ¸ÑĤ Ð°ÐµÑĤÑģÑı
Ñĭ ÑĤÐ°
ĠÐ¿ÑĢÐ¾ÑĤ ÐµÐº
ĠÑģÑĩÐ¸ÑĤ Ð°Ð»Ð¸
ĠÐ·Ð´ÑĢÐ°Ð²Ð¾Ð¾ÑħÑĢÐ°Ð½ ÐµÐ½Ð¸Ñı
ĠÐ± ÑĢÑĥ
Ñģ ÑĪÐ°
ĠÐ³ ÐµÑĢÐ°Ð»ÑĮÐ´
Ð½Ð°Ñĩ Ðµ
ĠÐ¿Ð» Ð°Ð½Ñĭ
Ġ186 3
ĠÐ¼Ð¾Ñī Ð½Ð¾ÑģÑĤÐ¸
ĠÐ³ ÑĥÐ´
ĠÐ¼ ÑįÑĢ
ĠÑĩÑĥÐ² Ð°ÑĪ
ĠÐ¿ÑĥÐ±Ð» Ð¸ÐºÐ°ÑĨÐ¸Ð¸
Ð¸ÑĢÐ¾Ð² ÐºÑĥ
ĠÑįÐº Ð·Ð°Ð¼
ĠÐ¾ÑģÐ½Ð¾Ð² Ñĭ
ĠÐ¿ÑĢÐ¸Ð´ Ð²Ð¾ÑĢ
ÑĢÐ¾Ð´ Ð¸Ð»Ð°ÑģÑĮ
ĠÐ°Ð»ÐµÐºÑģ ÐµÑı
ĠÐ¼Ð½Ð¾Ð³ Ð¾Ð»ÐµÑĤ
ĠÐ½Ð°Ð± ÐµÑĢÐµÐ¶
ĠÐ¿ÑĢÐ¸Ðº Ð»Ð°Ð´
Ñı Ð¹
ĠÑĥ ÑĢÑĥÐ³
ĠÐ²ÑĢÑĥÑĩ ÐµÐ½Ð¸ÐµÐ¼
ĠÐ¿Ð°ÑĢÐ°Ð»Ð»ÐµÐ»ÑĮ Ð½Ð¾
ÑıÑī Ð¸Ð¼
ĠÑĤÑĢÐµ ÑĥÐ³Ð¾Ð»ÑĮ
ĠÑģ Ð³Ð¾
ĠÐ¿Ð¾Ðº Ð¾ÑĢ
ĠÑĩÐ¸Ñģ ÐµÐ»
ĠÐ¼Ð°ÑģÑĤ ÐµÑĢÐ¾Ð²
ĠÑĥÑĩ Ð¸ÑĤÐµÐ»ÐµÐ¼
ÑĦÑĢÐµÐ³ ÐµÐ·Ð¸Ñı
v e
ĠÐ´Ð¾Ð± Ð¸Ð»ÑģÑı
ĠÐ³Ð¾Ð½ ÐºÐµ
Ð½Ð¸ÐºÐ¾Ð» Ð°Ð¹
ĠÐ½Ðµ Ð±ÐµÑģ
ĠÑģÐ» Ð¾Ð±Ð¾Ð´
Ð¾Ð»Ð¾Ð³ Ð¾Ð¼
ĠÐ½ÐµÐ¼ Ð½Ð¾Ð³
ĠÑĢÐ°Ð½ Ð³Ð°
ÐµÑĢÐ° ÑĢ
ĠÑĥÐ± ÐµÐ¶
ĠÑħÑĥÐ´Ð¾Ð¶ ÐµÑģÑĤÐ²ÐµÐ½Ð½Ð¾Ð¹
Ð¿ ÑĥÑĢ
ĠÑĥ Ð¸Ð»
ĠÑĢÐµ ÑģÑĤ
ĠÐ¿Ð¸Ñģ Ð°ÑĤÑĮ
Ð¾Ð± ÐµÐ»
ĠÑĨÐµÐ½ÑĤ ÑĢÑĥ
ĠÑįÑĦ Ð¸ÑĢ
ĠÐ¼Ð½Ð¾Ð³ Ð¸Ð¼Ð¸
ĠÐ¿ÑĢÐ¾Ð¸Ð·Ð²Ð¾Ð´ Ð¸ÑĤÑģÑı
ĠÐ¼Ð¾Ð»Ð´Ð°Ð² Ð¸Ð¸
ĠÐ¸ Ð¸Ñģ
ĠÐ¸Ð· Ð¾Ð±ÑĢÐ°Ð·
ĠÐ¿Ð¾Ð»Ð¸ÑĤ Ð¸ÐºÐµ
ĠÑĤÐ¾Ð² Ð°ÑĢÐ¾Ð²
Ð¾ÑĦ Ðµ
ĠÐ³Ð°ÑĢ Ð¼Ð¾Ð½
ĠÐ¼Ð¾Ð´ ÐµÐ»
ĠÐ¿ÑĢÐ¾Ð´ ÑİÑģÐµÑĢ
ÑĪÐ¸Ñħ ÑģÑı
ĠÐ²Ð¾ÑģÑĤÐ¾Ñĩ Ð½Ð¾Ð³Ð¾
ĠÑĢÐµÐ»Ð¸Ð³Ð¸Ð¾Ð· Ð½ÑĭÑħ
ĠÐ½ÐµÐ°ÐºÑĤÐ¸Ð² Ð½ÑĭÑħ
ĠÑĤ ÑĥÐ»ÑĮ
ĠÐºÐ¾Ð¼ Ñĥ
Ġw ar
ĠÐºÐ°ÑĢÑĤ Ð¸Ð½Ð°
ĠÐ¿ÑĢÐ¾Ð¿ ÑĥÑģÑĤ
ĠÐ± Ð¸Ð»
ĠÐ²Ð¾Ð» Ð½Ñĭ
ĠÐ´ÐµÐ¿ Ð¾
ĠÐ²Ð¾ÑģÑĤÐ¾Ñĩ Ð½Ð¾Ð¼
ĠÑĢÐ°Ð·Ð¼ ÐµÑĢÐ°
ĠÐ¿ÑĢÐ¸ÑĢ Ð¾Ð´Ðµ
ĠÐºÐ¾Ð½ÑĤÐ°Ðº ÑĤ
ĠÐº ÑĢÐµÑī
ÐµÐ¼ Ñĭ
Ð½Ð°Ð¹ ÑĤÐµÐ´
ĠÑĢÐ°Ð· ÑĢÑıÐ´Ðµ
ĠÐ²Ð·Ð²Ð¾Ð´ Ð°
ĠÐºÐ¾Ð½ÑģÑĤÐ°Ð½ÑĤ Ð¸Ð½Ð¾Ð²
ĠÐ¿ÑĢÐ¾Ð» Ð¸Ð²
Ð¾ÑĤ Ð´ÐµÐ»
ÑıÑĩ ÐµÑģÐ»Ð°Ð²
ĠÐ¿ÑĢÐ¾ÑĤÐ¸Ð²Ð¾ÑĢÐµ Ñĩ
ĠÐ² Ð¿ÐµÑĢÑĳÐ´
ĠÐ³ ÑĢÐ¸
ĠÐ²Ñģ ÑĳÐ¼
ĠÐ´ÐµÐ» ÐµÐ½Ð¸Ñı
ĠÑĥÐ· Ð»Ð¾Ð²
ĠÐ½Ð¾Ð² Ð¾Ð¼Ñĥ
ĠÐ²Ð½Ðµ Ð·Ð°Ð¿
Ð»Ð° Ð¶Ð´
ĠÐ²Ð¾ÐµÐ½ Ð½Ð¾Ð¼
ĠÐ³ÐµÐ½ÐµÑĢÐ°Ð»ÑĮ Ð½ÑĭÐ¹
ĠÐ» Ð°Ðº
ĠÑģÑĤÐ°Ð½ ÑĨÐ¸Ð¹
ĠÐ°Ð½Ð³ Ð»Ð¸
ĠÑģÐ¾ÑĩÐ¸Ð½ ÐµÐ½Ð¸Ð¹
ÑģÑĤÐ² Ð¸Ð¹
ĠÑģÐº ÑĢÑĭÐ²
ĠÐ»Ð¸Ð´ ÐµÑĢÐ¾Ð¼
ĠÑĤÑĢÐµÑĤÑĮ Ð¸Ð¼
Ð¿ Ð¸Ð»
Ð°ÑĤ ÑĭÐµ
ĠÐ²Ñĭ ÑĢÐ°Ð±Ð¾ÑĤ
ĠÐ²Ð°ÑĢÐ¸ Ð°Ð½ÑĤÐ°
ĠÐ¾Ð±Ð¾ÑĢ Ð¾ÑĤ
ĠÐ¿ÐµÑĢÐµÐ´ Ð°Ð½Ð°
ig n
ĠÑģÑĤÐ¾ Ð¸Ð¼Ð¾ÑģÑĤÑĮ
ĠÐ¾ÑĤ Ð½ÐµÑģ
ÐµÑģ Ð½
ĠÐºÐ°Ð· Ð°ÐºÐ¾Ð²
Ð³ ÑĢ
ĠÑĤ Ð¾ÐºÐ°
ĠÑĩ Ð°
ĠÑĩÐ°ÑģÑĤ Ð¸ÑĨ
ĠÐ¿Ð¾ÑģÑĤ Ð°
Ðº Ð¾Ðº
ĠÑģÑĤÐ°Ð» Ð¸Ð½Ð°
ĠÐ¸Ð³ÑĢÐ¾Ð² Ð¾Ð¹
ĠÐ¿ÑĢÐµÐ´Ð¼ÐµÑĤ Ð¾Ð²
ĠÐ¾Ð±ÑĢÐ°ÑĤ Ð¸Ð»ÑģÑı
ÑĢ Ð¾Ð½Ð°
ĠÐ± ÑĢÐµÑģÑĤ
Ð½Ð° ÑħÐ¾Ð´
ĠÐµ ÑĦ
ÐºÐ°Ð· Ð°Ñħ
ĠÑĢÐ°Ð±Ð¾Ñĩ ÐµÐ¹
Ð¼Ð°ÑģÑĤ ÐµÑĢ
Ðº ÑĢÐ¸ÑģÑĤ
Ð¸ÑģÑĤ ÑĭÐµ
ĠÐ¿ÐµÐ² Ð¸ÑĨÐ°
ĠÐ¿Ð¾Ð¿ Ð¾Ð»Ð½
ĠÐ½Ð°Ð·ÑĭÐ² Ð°Ð»Ð°ÑģÑĮ
Ð¼Ð¾Ð½ ÑĤ
ĠÐ¿Ð¾Ð³Ð¸Ð± ÑĪÐ¸Ñħ
ĠÐ´ÐµÑĢÐµÐ² Ð°
ĠÐ¿ÑĢÐ¾Ð²Ð¾Ð´ Ð¸Ð»
ĠÐ¸ÑģÑĤÐ¾Ñĩ Ð½Ð¸ÐºÐ¾Ð¼
ÑĮ ÑģÑı
ĠÑĪ ÑĳÐ»
d a
Ð± ÑĥÐº
Ð¾Ð± Ðµ
Ñı Ð¼Ð°
ĠÐ¾ÑĤ ÑĢÐµÐ·
ÑĳÐ² ÑģÐºÐ¾Ð¹
ow n
ĠÐ¿ÑĢÐ¸ÑģÑĥÑĤÑģÑĤÐ² ÑĥÐµÑĤ
ĠÐ²Ð»Ð°Ð´Ð¸Ð¼Ð¸ÑĢÐ¾Ð² Ð¸Ñĩ
ĠÐµ Ð·Ð´
ĠÐ¾ÑĢÐ³Ð°Ð½Ð¸Ð·Ð° ÑĨÐ¸ÐµÐ¹
ĠÐ¿ÑĢÐ¸Ð± Ð°Ð»ÑĤ
ĠÐºÐ¾Ð¼Ð¿ Ð°ÐºÑĤ
ĠÐ±ÑĢÐ¸ÑĤÐ°Ð½ ÑģÐºÐ¸Ñħ
ĠÐ¿ÑĢ ÑĭÐ¶
ĠÐµ Ð»ÐµÐ½Ð°
ĠÐ²ÐµÐ» Ð¸
Ð¿ Ð¸ÑĢ
ĠÑģÐ¿ Ð¾ÐºÐ¾Ð¹
ĠÐ½Ð°Ð¹ Ð´ÐµÐ½
ĠÑĦÐ¾ÑĤ Ð¾Ð³ÑĢÐ°ÑĦÐ¸Ð¸
ĠÐ¿ÑĢÐµÐ¾Ð±ÑĢÐ°Ð· Ð¾Ð²Ð°Ð½
ĠÑĢÐµ Ð¶Ðµ
ĠÐ¸Ð¼Ð¿ÐµÑĢÐ°ÑĤÐ¾ÑĢ ÑģÐºÐ¾Ð³Ð¾
ĠÐ¿ÑĢÐ¾ÑģÑĤÑĢÐ°Ð½ ÑģÑĤÐ²Ðµ
ĠÐ½Ð°Ð¿Ð¸Ñģ Ð°Ð½Ð°
ĠÐ¼Ð¸ÑĤÑĢÐ¾Ð¿Ð¾Ð» Ð¸ÑĤÐ°
ĠÐ¿ÐµÐ½ÑģÐ¸Ð¾Ð½ ÐµÑĢÐ°Ð¼Ð¸
Ġw e
ĠÐ¿ÑĢÐ¸Ð·Ð½ Ð°Ð»
ĠÐ¿ÐµÑĢÐ²ÐµÐ½ ÑģÑĤÐ²Ð°
Ð¸ÑĤ Ð¾
ĠÐ¾ÑģÑĤ ÑĢ
Ð²Ñĭ Ð¿ÑĥÑģÐº
ĠÐ²Ð¾Ð´ Ð¾Ñģ
ĠÐ¿ Ð»ÐµÑĩ
Ñħ Ð°ÑĢÐ°ÐºÑĤÐµÑĢ
Ġ( âĦĸ
ĠÐ¸Ð·Ð±ÐµÐ¶ Ð°ÑĤÑĮ
ĠÐ´ ÑĮÑı
ĠÐ¿Ð¾Ð» Ð¸Ð³
Ġ :
ĠÐ½ÐµÐ¼ ÑĨÑĭ
ĠÐ½Ð°ÑĢ ÐºÐ¾ÑĤ
ĠÐ¾Ð±ÑĭÐº Ð½Ð¾Ð²
ĠÑĢÐ¾Ð± ÐµÑĢÑĤÐ°
ĠÐ¿Ð¾Ð¿ Ð°Ð»Ð°
Ð¼ Ð°Ð½Ð¾Ð²
ĠÐ¾Ð±Ð»Ð°ÑģÑĤ Ð½Ð¾Ð¹
ĠÑĥÐ² Ð»ÐµÐº
ĠÐ¾ÑĩÐµÑĢÐµÐ´ Ð½Ð¾Ð¹
ĠÐ·ÐµÐ» Ð°Ð½Ð´Ð¸Ð¸
ĠÐºÐ²Ð°Ð»Ð¸ÑĦ Ð¸ÐºÐ°
ĠÐ¿ÑĢÐ¾Ð² ÐµÐ»Ð°
ĠÑĩÐµÐ¼ Ñĥ
ĠÑħÐ¾Ð´ Ñĥ
Ð°ÑĤÐµÐ»ÑĮ ÑģÑĤÐ²
ĠÐ·Ð² Ð¾Ð½
ĠÐ¾Ð¿Ð¸Ñģ Ð°Ð½
Ð¾ÑĤ Ð°Ð²Ð»Ð¸Ð²
ÑĥÐ»ÑĮ Ñģ
Ġ7 3
ĠÑĥÑĤ ÑĢÐ°ÑĤ
ĠÐ¿ÑĢÐ¸Ðº Ð»ÑİÑĩ
ĠÐ¾Ð±ÑĢÐ°Ð·Ð¾Ð²Ð°Ð½ Ð°
ÐµÐ»ÑĮ Ð½ÑĭÐµ
ĠÑģÑĤÐ°Ð½ ÐµÑĤ
ĠÐ² ÑĢÐ°Ð³
ĠÐ¼ÐµÐ´ Ð¸ÑĨÐ¸Ð½Ñĭ
ĠÐºÐ½ ÑĢ
ĠÐ¿ÑĢÐµÐ¼ ÑĮÐµÑĢÐ°
ĠÐ°ÑĢÑħÐ¸Ð¿ ÐµÐ»
ĠÐ¾ÑĤ ÑĢÐ°Ð·
ĠÑģÐ¾ÑħÑĢÐ°Ð½ Ð¸ÑĤÑĮ
ĠÑĤÑĳ Ð¿Ð»
Ð¸ÑĨ ÐºÐ¾Ð¹
ĠÐ²Ð¾ÑģÑģÑĤÐ°Ð½Ð¾Ð² Ð»ÐµÐ½Ð¸Ñı
ĠÐ±Ð¾Ð³Ð¾ÑĢÐ¾Ð´ Ð¸ÑĨÑĭ
r i
ĠÐ½Ð°Ð´ ÑĳÐ¶
ĠÐ½Ð°Ð¿Ð°Ð´ ÐµÐ½Ð¸Ñı
Ð¿ ÑĢÐ°ÐºÑĤ
ÑĢÐ¸Ð´ Ð¶
ĠÑģÑĢÐ°Ð²Ð½ Ð¸ÑĤÐµÐ»ÑĮÐ½Ð¾
ÐºÐ¾Ð¼ Ð¿Ð»
Ð·Ð°Ð² Ð¾Ð´
ĠÐ·Ð° Ð¿ÑĢÐ¾Ñģ
ĠÐ¼Ð¾Ð¼ÐµÐ½ÑĤ Ñĥ
ĠÐ¿Ð°Ð´ ÐµÐ½Ð¸Ñı
ÑĨ Ðº
ÑĥÐ½ Ð¸
Ð½Ð¸ Ð±ÑĥÐ´ÑĮ
ĠÐ³ÑĢÐ°Ð¼ Ð¾ÑĤ
ĠÑģÐ¾Ð» Ð¾Ð¼
ol og
ĠÑĦ Ñĥ
ÐµÐ· Ñĥ
ĠÐ´Ð²Ð¸Ð¶ ÐµÐ½Ð¸Ð¸
ĠÑĦÑĥÐ½Ðº ÑĨÐ¸Ñı
ĠÑĥÑĤÐ²ÐµÑĢÐ¶Ð´ Ð°Ð»
ĠÑĪ Ðº
ĠÑİÐ¶ Ð½Ð°Ñı
ĠÐ»Ð¸Ñĩ Ð½Ð¾Ð³Ð¾
ĠÐ°ÑĤÐ°Ðº Ñĥ
ĠÐ² ÐµÐ¹
ĠÐ½ Ð¸ÑĤ
ĠÐ´ ÐµÐ¹
ĠÐ¿ÑĢÐµÐ¼ Ð¸Ñı
ĠÐ´Ð¼Ð¸ÑĤ ÑĢÐ¸Ñı
ĠÐ²ÐµÐ» Ð°
ĠÐ·Ð°ÑħÐ²Ð°ÑĤ Ð¸Ð»
Ðº Ð¾Ð·
ĠÑİ ÑĢÐ¸Ñģ
ĠÐ²Ð¾Ð¿ÑĢÐ¾Ñģ Ð¾Ð²
ĠÐºÐ¾Ð»Ð»ÐµÐ´ Ð¶
ĠÐ¾Ð´Ðµ Ð¶Ð´Ñĭ
la ck
ĠÐ²Ð¾Ð·Ð½Ð¸Ðº Ð»Ð°
Ð¿ÑĢÐ°Ð·Ð´ Ð½Ð¸Ðº
ÑĥÐ¼ Ñĭ
ÑĢÐ¸ÑĤ Ð°
ĠÐ·Ð½ Ð°ÑĤ
Ð¼ÑĥÐ· ÐµÐ¹
ĠÐºÐ¾Ð¼Ð°Ð½Ð´ ÑĥÑİÑīÐµÐ³Ð¾
or y
ĠÐ³ÐµÐ½ ÑĢÐ¸ÑħÐ°
ÑģÑĤ ÐµÑĢÐ°
ĠÐº Ð¸Ð½Ð³
Ð¸Ð¼ Ð°Ð½Ð´
ĠÐ´Ð¾ÑĩÐµÑĢ ÑĮÑİ
Ð³Ð» ÑĥÐ±
ĠÐ³ÐµÐ¾ÑĢÐ³ Ð¸Ð¹
ĠÑĤÐµ Ð¾Ð´
Ð³Ðµ Ð¾ÑĢÐ³
Ð¼ÑĥÐ½ Ð¸ÑĨÐ¸Ð¿
ÐµÑģÑĤ Ð¾Ñĩ
ĠÐ¿ Ð¸Ð¾Ð½
Ġc l
ĠÐ¿Ð¾Ð»Ð¸ÑĤ Ð¸ÑĩÐµÑģÐºÐ¾Ð³Ð¾
ĠÐ²Ð¾Ð¾ÑĢÑĥÐ¶ ÐµÐ½Ð¸Ñı
Ġz wg
ĠÐ¾Ñģ ÐµÑĤ
Ð¼ ÐµÑħÐ°Ð½
ĠÑıÐ¿Ð¾Ð½ ÑģÐºÐ¾Ð¹
ĠÐºÑĥÑĢ ÑģÐºÐ¾Ð¹
ĠÐ¼ ÑĳÑĢ
ĠÐ±ÐµÐ» Ð¾Ð¹
ĠÐ¾ÑĤÐºÑĢÑĭ ÑĤÐ¾Ð¼
ĠÐ¿ÑĢÑıÐ¼Ð¾ ÑĥÐ³Ð¾Ð»ÑĮ
ĠÐ²Ð¾ Ð¸Ð½Ð¾Ð²
ĠÐ³ Ð¾ÑĢÐ°Ñħ
ĠÐ½Ð°Ð±Ð»ÑİÐ´ ÐµÐ½Ð¸Ñı
ĠÐ·Ð°Ð²ÐµÐ´ ÑĥÑİÑīÐ¸Ð¹
ĠÐºÐ¾Ð»Ð»ÐµÐºÑĤÐ¸Ð² Ð°
ÑĮ ÐµÐ³Ð¾
ĠÐ¼Ð°ÑĢÐº Ñģ
ĠÐºÑĥÑģÑĤ Ð°ÑĢ
ĠÑĢÐ° ÑĤ
ĠÐ²Ð¸Ð´ ÐµÐ»
ĠÐ³Ð¾ÑģÑĥÐ´Ð°ÑĢ ÑģÑĤÐ²Ð¾Ð¼
Ġd es
ĠÐ²Ð¸Ð´Ðµ Ð¾Ðº
ĠÐ½Ð¸Ð¶ Ð½ÐµÐ¼
ĠÐ»Ð¾Ð´ ÐºÐ¸
ĠÑģÐ¾Ð¾ÑĢÑĥÐ¶ ÐµÐ½Ð¸Ñı
ĠÐºÐ¾Ð¼ Ð¸Ðº
ĠÐ²Ð¸Ð´ Ð¾Ð¼
ĠÑģÑĥÑħ Ð¾Ð¿ÑĥÑĤ
ĠÐ´ÑĢÑĥÐ³ Ñĥ
ĠÐ½Ð°Ð·ÑĭÐ² Ð°ÐµÑĤ
ĠÐµÐºÐ°ÑĤ ÐµÑĢÐ¸Ð½Ñĭ
ĠÑģÑĥÐ» ÑĤ
ÑĤÐ¾ ÑĦ
20 15
ĠÐ·Ð°Ð´Ð°Ñĩ Ð°
ĠÐ¿ÑĢ Ð¾Ð¹ÑĤÐ¸
ĠÐ°ÑģÑģ Ð¸ÑģÑĤ
ĠÑģ ÑĥÐ½
Ð± Ð°Ð·
ĠÑĢÐ°ÑģÑĤ ÐµÐ½Ð¸Ðµ
ÐºÐ¸ÑĤ Ð°Ð¹
ÑĢÐ°Ð· Ð²ÐµÐ´
ĠÐ¿ÐµÑĢÐµ ÑħÐ¾Ð´Ð¸ÑĤ
ĠÐ¿ÑĢÐ¾Ð² ÐµÐ»Ð¸
ĠÐ¿ÑĢÐ¾ÑħÐ¾Ð´ Ð¸Ð»Ð°
ĠÑģÐ¾Ð¾ÑĢÑĥÐ¶ ÐµÐ½Ð¸Ð¹
Ñİ Ð»ÑĮ
ĠÐ²Ñĭ Ð³Ð¾Ð´
ĠÐºÐ¾ÑĢÐ¾Ð»ÐµÐ² Ñĭ
Ð°ÐºÐ°Ð´ ÐµÐ¼
ĠÐ°ÑĤ ÑĤ
ĠÐ¼Ñĭ ÑģÐ»Ð¸
ĠÐºÐ¾Ð»Ð¸Ñĩ ÐµÑģÑĤÐ²Ð¾Ð¼
ĠÐ·Ð° Ð¶
ĠÐ¼ÑĥÐ·ÑĭÐºÐ°Ð½ÑĤ Ñĭ
ĠÐ»ÐµÐº ÑĨÐ¸Ð¸
ĠÐ½ ÑĥÐ¶Ð´
ĠÐ¼Ð°ÑĤÐµÑĢ ÑĮÑİ
ĠÐ¿Ð¾Ð»Ð¸ÑĤ Ð¸ÐºÐ°
ĠÐ²Ð°Ð¶ Ð½ÑĥÑİ
ĠÐ¾Ð±ÑĬÑıÐ² Ð¸Ð»Ð°
ĠÐ¿ÑĢÐ¾Ð¸Ð·Ð¾ÑĪ Ð»Ð°
ĠÐ°ÑįÑĢÐ¾Ð¿ Ð¾ÑĢÑĤÐ°
ĠÐ¾ÐºÑĢÑĥÐ³ Ñĥ
ĠÐ»Ñĥ Ð³Ð°Ð½
ĠÑģ Ð¸Ðº
ĠÑĦÐ¸Ð»ÑĮ Ð¼Ñĭ
ĠÑģÐ¾Ð²ÑĢÐµÐ¼ ÐµÐ½Ð½ÑĭÐµ
ĠÐ¾Ð±ÑĢÐ°Ð±Ð¾ÑĤ ÐºÐ¸
ÑĪ ÐµÐ½
ĠÐ¿Ð¾Ð¿ ÑĢÐ°Ð²
ĠÐ¿ÑĢÐµÐ²ÑĭÑĪ Ð°ÐµÑĤ
Ð»ÐµÐ½ Ð½Ð¾Ðµ
ĠÐ´ÑĥÑĪ Ñĥ
Ð± Ð°Ð±
ĠÐ·Ð½Ð°ÑĩÐ¸ÑĤÐµÐ»ÑĮ Ð½ÑĭÐµ
ĠÑĤÑĳÐ¼ Ð½Ð¾
ĠÑĢÐ°Ð· ÑĥÐ¼
Ð¿Ð¾ÑĤ Ð¾Ð¼
Ð°Ð´ ÐµÐ±
ĠÐ´Ð¶ Ð°Ð·
ta in
Ð½ Ñģ
ĠÐ²Ð¾ ÐµÐ½Ð°Ñĩ
ĠÐ¿Ð¾Ð·Ð²Ð¾Ð» ÑıÑİÑĤ
ĠÐ¸ÑģÑģÐ»ÐµÐ´Ð¾Ð² Ð°ÑĤÐµÐ»Ð¸
Ð¾Ð»Ð¾Ð³ Ð¾Ð²
ĠÐ¿ Ð»Ñı
ĠÑģÐµÐ· Ð¾Ð½Ð¾Ð²
ĠÐ»Ð° ÑĥÑĢÐµÐ°ÑĤ
p l
ĠÐ¾ÑĤ Ð²ÐµÑĢÑģÑĤ
Ð¸ÑĢÐ¾Ð²Ð°Ð½ Ð½Ð¾Ðµ
Ġc ol
ĠÐ·Ð°Ð¿Ð°Ð´ Ð½ÑĭÑħ
ĠÐ¾ÑĢ ÐµÐ½Ð±ÑĥÑĢÐ³
ÑĥÐ»ÑĮ ÑĤÐ¸
ĠÐºÐ°ÑĢ Ð¾Ð»
ĠÐ¼ÐµÐ¶Ð´ÑĥÐ½Ð°ÑĢÐ¾Ð´ Ð½ÑĭÐ¼
ĠÐ°Ð½Ð³Ð»Ð¸Ñĩ Ð°Ð½
ĠÐ¿ÑĢÐ¾ ÐµÐ·Ð´
ĠÑģÐ¸Ð½Ð³ Ð»Ð°
ĠÐ¸Ð½ÑģÑĤÑĢÑĥÐ¼ÐµÐ½ÑĤ Ð¾Ð²
ĠÐ¿ÐµÐ¹ Ð·Ð°
ĠÑģÐ¾Ð±ÑģÑĤÐ²ÐµÐ½ Ð½ÑĭÐ¹
ĠÑĤÐºÐ°Ð½ Ð¸
Ð½Ð¾Ð² ÑĭÐµ
Ð»ÐµÑĤ Ð¸Ñı
Ñĥ Ð»Ðµ
ĠÐ¿ÑĢÐ¾Ð²ÐµÐ´ ÐµÐ½Ð¸Ðµ
Ġ188 8
ĠÑģÐµÑĢÐ´ ÑĨÐ°
ĠÐ¿ÑĥÐ± Ð»Ð¸ÑĨ
ĠÐ¼Ð¸Ð½Ð¸ÑģÑĤÐµÑĢ ÑģÑĤÐ²Ð¾
Ð¾Ð¶ ÐµÑĤ
Ð¸Ð´ ÐµÐ¼
ĠÐ½Ð°Ð·ÑĭÐ²Ð°ÐµÐ¼ ÑĭÐ¹
ĠÐ° Ð»Ðµ
ĠÐ°Ð½ Ð¸Ð¼Ðµ
Ġ% )
ĠÐ¾ÑĦÐ¸ÑĨÐ¸ Ð°Ð»ÑĮÐ½ÑĭÑħ
ÑģÑĤ ÑĥÐ´
Ð°Ð¼ ÐµÐ½
ĠÑģÑĤ ÐµÑĢ
ĠÐ¼Ð°ÑĤ ÑĢ
Ð´ ÐµÑģ
ĠÑĤÑĢÐ°Ð³ ÐµÐ´
Ð¾Ð² Ð°Ð²ÑĪÐ¸Ð¹
ĠÐº ÑĥÑħ
ĠÑİ ÑĢÑĮ
Ð¿ÐµÑĤÐµÑĢÐ±ÑĥÑĢÐ³ ÑģÐºÐ¾Ð¹
ĠÐ²Ð·Ð°Ð¸Ð¼Ð¾Ð´ÐµÐ¹ÑģÑĤÐ² Ð¸Ñı
ĠÐºÐ¸Ð½ Ð¾ÑĤÐµ
Ð½Ð° Ð¸Ð±Ð¾Ð»ÑĮÑĪ
ĠÐ¼Ð¸ÑģÑģ Ð¸Ð¾Ð½
Ġ188 2
ĠÐ±Ð» Ð¾ÐºÐ°
ĠÑģÐº ÑĢÐ¸Ð¿
ĠÐ¿ÑĢÐ¸Ð¼ ÐµÑĢ
ÐºÐ¾ÑĢ ÑĢÐµÑģÐ¿Ð¾Ð½Ð´
ĠÑģÐ¾Ð±ÑģÑĤÐ²ÐµÐ½ Ð½ÑĥÑİ
ÑĪ ÐºÐ¾Ð»
ĠÐºÑĥ Ð¹
ĠÑĢÐµÐ² Ð¸Ð·
ĠÐ°Ð½Ð°ÑĤÐ¾Ð» Ð¸Ð¹
ĠÐ¾Ð± Ð»ÐµÐ³
ÑģÑĤ ÐµÑĢÐ´
ĠÐ¿ÑĢ Ð¾Ð»ÐµÑĤ
ĠÐµ Ðµ
Ð¸Ð¼ ÐµÑĤ
Ð¸ÑģÑĤ Ð¸ÑĩÐµÑģÐºÐ¸Ñħ
ĠÐ¸ÑģÐ¿ Ð¾Ð²ÐµÐ´
ÑĬ ÑİÑĤ
ĠÑģÐ¼ ÑĭÑģÐ»
ĠÐ¾Ð¿ÑĢÐµÐ´ÐµÐ» Ð¸ÑĤÑĮ
ÑģÐ¾ Ð¾ÑĤÐ²ÐµÑĤ
ĠÑģÐ¼Ð¾Ð» ÐµÐ½
ĠÐ¸Ð¼Ð¿ÐµÑĢÐ° ÑĤÐ¾ÑĢÐ¾Ð¼
Ð¾Ð± ÐµÑĢÐµÐ¶
ĠÐ¿ÑĢÐ¸Ñģ Ð¿Ð¾ÑģÐ¾Ð±
ĠÐ³Ðµ Ð¾Ð³ÑĢÐ°ÑĦÐ¸Ð¸
ĠÐ½Ð¾Ð³ Ð¸
ĠÑģÑĥÐ» ÑĤÐ°Ð½
ÑĢÐ¾Ð² Ð¾Ð¹
ĠÐ± Ð»Ñİ
ĠÐ¸ÑģÐ¿Ð¾Ð»Ð½ Ð¸ÑĤÐµÐ»ÑĮ
ĠÐ·Ð°ÑīÐ¸ÑĤ Ðµ
Ñı Ðº
ĠÑĪ Ð»Ð°
ĠÑĦÐ¾Ð»ÑĮ ÐºÐ»
ÑĪ Ð¾Ñĥ
ÑĮÑı Ð½Ðµ
Ð³ÑĢÑĥÐ¿ Ð¿
Ð°ÑĢ Ð¸Ð½Ð°
ĠÐºÐ°Ð» Ð¼Ñĭ
ĠÑĤÑĢÐµÐ± ÑĥÐµÑĤÑģÑı
ĠÐ¿Ð¾Ð¶ ÐµÑĢÑĤÐ²
ĠÑģÐµÑĢÐ´ ÐµÑĩ
Ð´Ð¸ ÑģÐº
ĠÐ¿Ð°ÑĢ ÐºÐµ
ĠÐ¿ÑĢÐ¾Ð´Ð¾Ð»Ð¶ Ð°Ð»Ð¸
ĠÐ°Ð½Ð³Ð» Ð¸Ð¹ÑģÐºÐ¾Ð¹
ĠÐºÐ°Ðº Ð¸Ðµ
ĠÑĥÐ¿Ð¾Ð¼Ð¸Ð½ Ð°Ð½Ð¸Ðµ
ĠÑĥÑģÐ» ÑĥÐ³Ð¸
ĠÑĦ Ð°ÑĪ
Ð¸ÑģÑĤ Ð¾Ð¹
ĠÐºÐ¾Ð½Ñģ ÑĥÐ»ÑĮÑĤ
Ð´ ÑĥÐ±
ĠÐ³ÐµÑĢÐ¼Ð°Ð½ Ð¸Ñİ
Ð¾Ð½ Ð¾Ð²Ð°
Ð¼ÐµÑĤ Ð°Ð»
ÑĥÐ½Ð´ ÑĤ
ĠÑģÐ¾Ð·Ð´Ð°Ð½ Ð½ÑĭÐ¹
ĠÑĨ Ð¸Ð½
Ð¼Ñĭ Ñģ
Ñİ Ð³
ĠÐ½Ð° ÑĢÑĥÐ¶
ĠÑĥÐ»Ð¸ ÑĨÑĥ
ĠÐ²Ð½ Ð¸Ð·
ĠÐºÐ¾Ð¼Ð¿Ð¾Ð·Ð¸ÑĤ Ð¾ÑĢÐ°
i le
Ð»Ð° ÑĥÑĢÐµÐ°ÑĤ
ĠÐ±Ð°Ð» ÐµÑĤ
Ð»Ð°Ð¹ Ð½
ĠÑĦ Ð°Ð»ÑĮ
ĠÐ¿ÑĢÐ¸ Ð±ÑĢÐµ
ĠÐ²Ð»Ð°ÑģÑĤ ÑĮÑİ
ĠÐ²Ð¸Ð½ Ð¾Ð³ÑĢÐ°Ð´
ĠÐ½Ð°ÑĢ ÐºÐ¾Ð¼
ĠÐ¾ÑĤÐ½Ð¾ÑĪ ÐµÐ½Ð¸ÑıÑħ
ĠÑģÐ²ÑıÑīÐµÐ½ Ð½Ð¸ÐºÐ°
ÑĥÑģÐ¿ ÐµÑĪ
Ñģ Ð¾ÑĢ
ĠÐ±ÐµÐ·ÑĢÐ°Ð±Ð¾ÑĤ Ð½ÑĭÑħ
Ñį Ð±
ÑĢÐ°Ð· Ð²Ð¸ÑĤ
Ġi r
ÐµÑĢÐ°ÑĤ ÑĥÑĢ
Ð²Ð¸Ð´ Ð¸Ð¼Ð¾Ð¼Ñĥ
i en
ĠÐ¿ÑĢ Ð¸ÑĨ
ĠÑįÐºÐ¾Ð½Ð¾Ð¼ Ð¸ÑĩÐµÑģÐºÐ¸Ñħ
ĠÑħÑĢÐ°Ð½ ÐµÐ½Ð¸Ñı
ĠÐ¸ÑģÐ¿Ð¾Ð»Ð½Ñı Ð»
ĠÐ¿ÑĢÐµÐ´Ð¿Ð¾Ð»Ð¾Ð¶ Ð¸ÑĤÐµÐ»ÑĮÐ½Ð¾
Ð´Ð° Ð¹
ĠÐ²ÑħÐ¾Ð´ Ð¸Ð»Ð¾
Ġ187 8
Ð¾Ð²Ð°ÑĤÐµÐ»ÑĮ Ð½Ð¾
ĠÑĤÑĢ Ð¸Ð½
ĠÐ³Ð¾Ð» Ð°
ĠÐ± Ð°Ð½Ð³
Ð¾ÑĤ Ð¾Ð¿
ĠÑĦÐµÑģÑĤÐ¸Ð² Ð°Ð»ÑĮ
ĠÑĪ ÑĥÑĤ
ĠÑĢÐ¾ÑģÑģ Ð¸ÐµÐ¹
an ce
Ð¾Ð´ Ð¸
ĠÐ» Ð¸ÑĨÐµ
Ð¾Ð»Ð¾Ð³ Ð°
ĠÐ²Ð°Ð¶ Ð½ÑĭÑħ
ĠÐµÐ²ÑĢÐµÐ¹ ÑģÐºÐ¾Ð¹
ĠÐ¾Ð±ÑīÐµÑģÑĤÐ²ÐµÐ½ Ð½ÑĭÐ¹
Ð¸ÑģÑĤ Ð°Ð½Ðµ
ĠÐ¿ÑĢÐ¸Ð² ÐµÑģÑĤÐ¸
ĠÐ¸ÑģÑģÐ»ÐµÐ´Ð¾Ð² Ð°ÑĤÐµÐ»ÐµÐ¹
ĠÑģÐº Ð¾Ð»ÑĮÐºÐ¾
Ð°Ð²ÑĪ Ð°ÑıÑģÑı
ĠÐ·Ð¾Ð»Ð¾ÑĤ Ð¾
ĠÐ¿ÑĢÐ¸Ð½Ñı ÑĤÐ°
ĠÐ¿Ð¾Ð´ÑĤ Ð²ÐµÑĢÐ¶
ĠÑģÐ¾Ð³Ð»Ð°ÑĪ ÐµÐ½Ð¸Ñı
ĠÐ²ÐµÑĢÑĤ Ð¾Ð»ÑĳÑĤ
ĠÑĦ Ð¸ÐºÑģ
ĠÐ±Ð»Ð°Ð³ Ð¾Ð´Ð°ÑĢ
ĠÑĢÐ°Ð² Ð½Ð°
ĠÐ½Ð°Ð±Ð»Ñİ Ð´Ð°ÐµÑĤÑģÑı
ĠÐ¼Ð¾Ð½Ð° ÑĪ
g a
ĠÐºÐ°Ð· Ð½
ĠÐ¿Ð¾ÑģÑĤÐ¾ÑıÐ½ Ð½Ð¾Ð³Ð¾
197 0
ĠÐ³ÑĢÐ°Ð¼ Ð¼Ð°ÑĤ
ĠÑĤÑİÑĢ Ðº
y r
ĠÐ»Ð¸ÑĤ Ð²Ñĭ
Ð³ÐµÑĢ Ð¾Ð¹
Ð» ÐµÐ½Ð¸
ÑĨÐ¸Ð¾Ð½ Ð½ÑĭÐ¼
ĠÐºÑĢÑĥÐ¿ Ð½Ð¾Ð³Ð¾
ĠÑĢÐ°Ð·Ð²ÐµÐ´ ÑĭÐ²
Ñĩ ÑĥÐº
ĠÑĩÑĳÑĢ Ð½ÑĭÐ¹
ĠÑĥÑģÑĤÐ°Ð½Ð¾Ð² Ð¸Ð»
ĠÐºÐ¾Ð¼Ð¼Ñĥ Ð½Ð¸ÐºÐ°
ĠÑĤÑĢÐ°Ð´Ð¸ÑĨÐ¸Ð¾Ð½ Ð½Ð¾
Ð» ÐµÑģÑĤ
ĠÐ¿ ÐµÑģÐº
Ð· Ð°Ñħ
ĠÐ¼ ÑĢÐ°Ð¼
ĠÐ± ÑĥÐ³
ĠÐ²ÐµÑĢ Ñĭ
ĠÐ°Ð»ÐµÐºÑģ ÐµÐµÐ²
ĠÐ¾ÑģÐ¼Ð°Ð½ ÑģÐºÐ¾Ð¹
ÑĥÑī ÐµÐ¹
ÑĨÐµÐ² Ð°
ĠÐ¿Ð¾Ð´Ð¾Ð± Ð½ÑĭÑħ
ĠÑĦÑĥÑĤÐ±Ð¾Ð»ÑĮ Ð½Ð¾Ð¹
Ġ18 30
ĠÑĥÐ³ ÑĢÐ¾Ð¶
Ð¸ ÑĢÐ°ÑĤÑĮ
ÐµÑĩ Ð°ÑĤÐµÐ»ÑĮ
ĠÐ¼Ð¾Ð´ ÐµÐ»ÐµÐ¹
ĠÐ½Ð°Ð¿Ð°Ð´Ð°ÑİÑī Ð¸Ð¹
Ñĩ ÑĳÑĤÐ°
ĠÐ½ÐµÐ¼ÐµÑĨ ÐºÐ¸Ð¼Ð¸
ĠÑĤÐµÐ¿ Ð»Ð¾
ÑĤ Ð°Ð»
ĠÐ²Ñĭ Ð»
Ð½Ñĥ Ð»Ð¸
Ġ186 5
ĠÑĩ ÐµÑģÑĤ
a ch
ĠÐºÐ¾Ð» Ð¾Ð¼
Ġ7 1
ĠÑģÐµÐ³Ð¾Ð´Ð½Ñı ÑĪÐ½Ð¸Ð¹
ĠÐ¿Ð¾Ð´ Ð±
ÐºÐ¾Ð¼Ð¼Ñĥ Ð½Ð°
Ð´ ÑĢÐµÐ²
Ġ188 1
ÑĥÑĢ Ñģ
ĠÐ²Ð»Ð°Ð´ Ð¸ÑģÐ»Ð°Ð²
ĠÑģÐµÐ¼Ð¸Ð½ Ð°ÑĢÐ¸Ð¸
ĠÐ¸ ÑģÐ°
Ð·Ð´ Ð°Ð½Ð¸Ðµ
ĠÐ¾Ð¿Ð¸Ñģ ÑĭÐ²Ð°ÐµÑĤ
Ð¾Ð» Ð¸ÑĤ
Ð»Ñİ Ñģ
ĠÐ´Ð¶ Ð¾
ĠÑģÑĤÐ°Ð½ ÑĨÐ¸Ñİ
Ð¾Ð» Ð¸Ð¼Ð¿
ĠÑģÐ¸Ð³ Ð½Ð°Ð»
ĠÐ¾ÑĤÐ´ÐµÐ»ÑĮ Ð½Ð¾Ð¹
ĠÐºÐ°ÑĦÐµÐ´ ÑĢÐµ
ÑĥÐ¶Ðµ Ð±
ĠÐ½ ÐµÑĢ
Ð³Ð»Ð°Ð² Ð½ÑĭÐ¼
ĠÐ¾ÑĤÑģÑĥÑĤÑģÑĤÐ² ÑĥÑİÑĤ
Ð¸Ðº Ð°Ñħ
ĠÐºÐ¾Ð» Ð¾Ð½Ð¸
ĠÐ´ÐµÑĤ ÑģÐºÐ¸Ð¹
ĠÑģÐ»Ð¾Ð² Ð°Ð¼Ð¸
Ñĥ Ð·Ð°
ĠÐ¼ ÐµÐ³
ĠÑģÐ¸ÑĢ Ð¸Ð¸
ĠÑĦ ÐµÐ»
ĠÐ´ÑĢÑĥÐ³ ÑĥÑİ
Ð¸ÑĤ Ð¾Ðº
ĠÐ¿ÑĢÐ¸Ð» ÐµÐ³
ĠÑĤÐµÐ»ÐµÐ²Ð¸Ð´ ÐµÐ½Ð¸Ð¸
Ñı ÐºÐ¾Ð²
ĠÑģÐ¾ÑģÑĤ Ð¾
ĠÐ¶ÐµÐ»ÐµÐ· Ð½ÑĭÑħ
Ð¸Ð± Ð°
ĠÐ²ÑĭÑģÐ¾Ðº Ð¸Ð¼
ĠÐµÐ³Ð¸Ð¿ ÑĤÐ°
ĠÐ°Ð»ÐµÐºÑģÐµ ÐµÐ²Ð¸Ñĩ
ĠÑĢÐ°ÑģÑģ Ðµ
ĠÐ·Ð°Ð½Ð¸Ð¼ Ð°Ð»Ð¸ÑģÑĮ
ĠÐ¿ÑĢ ÑĥÑģ
ĠÑģÑĤ Ð¾ÑĢÐ¾Ð½Ð°
Ð³ Ð°Ð¼
ĠÐ²ÑĭÑģÑĤÑĥÐ¿ Ð¸Ð»Ð°
196 0
ĠÐ¿ÐµÑĤÐµÑĢ Ð±ÑĥÑĢÐ³Ðµ
ĠÐ²ÑĭÑģÑĤÑĥÐ¿ Ð»ÐµÐ½Ð¸Ðµ
ĠÑģ Ð°Ð´Ð°
ĠÐ¿Ð¾Ð»Ð¸ÑĤ Ð¸ÑĩÐµÑģÐºÐ¸Ðµ
ĠÐ´ÐµÐ² ÑıÑĤÑĮ
ĠÐº ÐµÑĢÐ°Ð¼
ÑĥÐ½ Ð¸Ð²ÐµÑĢÑģ
ĠÐ´ÐµÑıÑĤ ÐµÐ»ÐµÐ¹
ĠÐºÐ¾Ð» Ð¾Ð´
ĠÐ¿Ð°Ð¿ Ñĭ
ĠÐ¸ÐºÐ¾Ð½ Ñĭ
ĠÐ¸ Ð½Ð¾Ð¹
ĠÐ¾ÑģÐ½Ð¾Ð² Ð°ÑĤÐµÐ»ÑĮ
ĠÐ¸Ð·Ð´ÐµÐ» Ð¸Ð¹
ĠÐ½ÐµÐ¼ÐµÐ´ Ð»ÐµÐ½Ð½Ð¾
Ð°Ð³ Ð¸
ĠÑĢÐ¾Ð´ Ð½Ð¾Ð¹
ĠÐ±Ð¾ÑĢ Ð¸ÑģÐ°
ÑĢÐ°Ð± Ð¾Ñĩ
ĠÐ²Ð»Ð°ÑģÑĤ ÑıÐ¼Ð¸
Ð°Ðº Ð¾
Ð¾Ð² ÑģÐºÐ¾Ðµ
ĠÐ¾Ð±ÑĢÐ°Ð· ÑĥÑİÑĤ
ĠÐ¼ÑĥÐ¶ ÑģÐºÐ¾Ð³Ð¾
ĠÐ½Ð°ÑĥÑĩ Ð½ÑĭÐµ
ĠÐ¾ÑĢÑĥÐ¶ Ð¸ÐµÐ¼
ĠÐ¿ÑĢÐ¾Ð¼ÐµÐ¶ ÑĥÑĤÐ¾Ñĩ
Ð»Ð¾Ð² Ð¸Ñĩ
ĠÑģÐµÐ²ÐµÑĢ Ð½ÐµÐµ
ĠÐ±Ð°ÑĪ Ð½Ñı
ĠÐºÐ¾Ð»Ð¸Ñĩ ÐµÑģÑĤÐ²Ñĥ
ÑĦ ÑĥÑĢ
ĠÑĢÐ° ÑĨÐ¸Ð¾Ð½
ĠÑĦ ÑĢÐµÐ¹
ĠÐ¿ÑĢÐ¾Ð²ÐµÐ´ ÐµÐ½Ð°
ĠÐ³Ð¸Ð³ Ð°Ð½ÑĤ
ĠÐ± Ð¾ÑĢÐ¾Ð´
ĠÐ¿ÑĢÐ¸Ð· ÑĳÑĢÐ¾Ð¼
ĠÐ¾ÑģÑĤ Ð°Ð½Ð°Ð²Ð»Ð¸Ð²
ĠÐ»Ð¸Ð± ÐµÑĢÐ°Ð»ÑĮ
ÑĢ Ð¸Ð»
ĠÐ¸ Ð¾Ð½
Ð³Ð¾ ÑĢÐ°
ĠÑıÐ² Ð»ÐµÐ½Ð¸Ñı
Ð¸Ñĩ Ð½Ð¾ÑģÑĤÑĮ
ĠÐ°Ð»ÑĮ Ð±
ĠÑĢÐ¸Ð¼ Ð°
ĠÐ²Ð·ÑĢÐ¾Ñģ Ð»ÑĭÑħ
ĠÐ³ ÑĢÑıÐ·
ĠÐ± ÐµÑĢÐµÐ·
ĠÐ·Ð°Ð²ÐµÑĢÑĪ Ð¸Ð»
an s
ĠÐ°ÐºÑĤ ÑĳÑĢÐ°
ĠÐ´Ð¾Ð¿Ð¾Ð»Ð½ Ð¸ÑĤÐµÐ»ÑĮÐ½ÑĭÐµ
ĠÐ» Ð°Ð¹
ĠÐ¶ÐµÐ½ ÑģÐºÐ¾Ð³Ð¾
ĠÐ¼Ð¸Ð½ Ð¾Ð¼
ÑĥÐ² ÑģÑĤÐ²
Ġ13 0
ĠÑģÐ¾Ð» Ð¾Ð²
Ð¿ÑĢÐ¾ ÑĨÐµÑģÑģ
ĠÐ¿Ð¾Ð¿ÑĥÐ»ÑıÑĢ Ð½ÑĭÑħ
ĠÐ¸Ð½ÑĤÐµÐ»Ð»ÐµÐºÑĤ Ñĥ
ĠÐ²Ð¾Ð·Ð½Ð¸Ðº Ð°ÐµÑĤ
ĠÐ¿ÑĢ Ð¾ÑģÐ»Ð°Ð²
ĠÐ¾Ð¿ ÑĥÑģÑĤ
Ð¼Ð°Ð½ Ñĥ
Ð»ÐµÐº Ð¾Ð¿Ð¸ÑĤ
ĠÐ±ÑĥÑĢ ÑıÑĤ
Ð¸Ð· Ð¼Ñĥ
ĠÑģÐ¾ÑĩÐ¸Ð½ ÐµÐ½Ð¸Ñı
Ñģ Ð¸Ð»ÑĮ
ĠÑģ Ñİ
ÐµÐ´ Ð¸
Ð»ÑĥÑĩ ÑĪÐ¸Ð¹
ĠÑĢÐ°Ð·ÑĢÐµÑĪ ÐµÐ½Ð¸Ñı
Ð¿ÑĢÐµÐ´Ð¿Ð¾Ð» Ð°Ð³
Ð¾ÑĤ Ð¸
ĠÐ²Ð»Ð°Ð´ ÐµÐ½Ð¸Ðµ
Ð¿Ð¾ÑģÐ»ÐµÐ´ Ð½Ð¸Ðµ
Ð»Ð¸ ÑĨÐ°
ĠÐ¿ÑĢÐµÐ´ ÑĬ
ĠÑĢÐµÑĪ ÐµÐ½Ð¸Ð¹
ÑĩÐµÑģÐº Ð¸Ñħ
ĠÐ¿Ð°ÑĢÐ° Ð´
ÑĥÑħ Ð°
ÑĢ Ð¸ÐºÐ°Ð½
ÑĢÐ¾Ð² Ð°
ĠÐ°Ð½ Ð°Ð»Ð¸ÑĤ
Ġ186 7
ĠÐ°Ð²ÑĤÐ¾ÑĢ Ñĭ
ĠÐ¿ÑĢÐµÐ´ÑģÑĤÐ°Ð² Ð¸ÑĤÐµÐ»ÑıÐ¼Ð¸
Ñĥ ÑįÑĢ
ÑĪ Ð¸Ð²
ĠÐ·Ð°Ð½ ÑıÑĤÑĮ
Ð¸Ð´Ðµ ÑģÑıÑĤ
er c
ĠÐ¿Ð¾Ð»ÑĥÐ·Ð°ÑīÐ¸ÑĤ Ð½Ð¸Ðº
ĠÑģÑĤÑĢÐµÐ»ÐºÐ¾Ð² Ð°Ñı
ĠÐ¸ÑģÐ¿Ð¾Ð»ÑĮÐ·Ð¾Ð²Ð°Ð» Ð°ÑģÑĮ
Ð°ÑĤ Ð°Ð¼Ð¸
ĠÐ¼Ð¾Ð»Ð¾Ð´ Ð¾Ð³Ð¾
ĠÐ¿ÑĢÐµÐ´Ð»Ð¾Ð¶ ÐµÐ½Ð¸Ñı
Ð¿ÑĢÐµÐ¼ ÑĮÐµÑĢÐ°
Ð¸ÑĨ Ð¸ÑıÑħ
ĠÐ¿Ð¾ÑģÑĤÑĢÐ¾ Ð¸ÑĤÑĮ
ĠÐ¾Ð¿Ð¸Ñģ Ð°Ð½Ð¸Ñı
ĠÐ±Ð» ÐµÑģÑĤ
ĠÐºÐ¾Ð»ÑĮ ÑĨÐ°
ĠÐ½ÐµÐ¾Ð¶Ð¸Ð´ Ð°Ð½Ð½Ð¾
ĠÐ± ÐµÑĢÐ³
ĠÐ· Ð°Ð»Ðµ
ĠÐ±Ð¾Ð¹ ÑĨÐ¾Ð²
ĠÐ»Ð°Ð³ÐµÑĢ Ñı
Ð¾Ñĩ ÐµÐ½ÑĮ
ĠÑģÐµÐ¼ ÐµÐ¹ÑģÑĤÐ²
ĠÐ¾ÐºÐ¾Ð½Ñĩ Ð¸Ð»Ð°
ĠÑģÑĤÑĢÑĥÐºÑĤ ÑĥÑĢÑĥ
Ð½Ðµ Ð·Ð´
ÑģÐ¾ ÑħÑĢÐ°Ð½
Ð¸Ð¼ Ð°Ñı
ĠÐ¶ Ð¸Ð»Ð¸Ñī
Ð¿Ñģ Ð¸Ñħ
ĠÐ²ÑĥÐ» ÐºÐ°Ð½
ĠÐ´Ð¾Ð¼ Ð¾ÑħÐ¾Ð·ÑıÐ¹
s ch
ĠÑģÐ¾Ð²ÐµÑĤ Ð½Ð¸Ðº
ĠÑģÐ¸Ð½ Ð´
ĠÐ´Ð²Ð¸Ð³ Ð°ÑĤÐµÐ»ÐµÐ¹
ĠÐ² Ð¾Ð¶Ð´
ĠÑĥÑĩÐ°ÑģÑĤ ÐºÐ¸
Ð¸Ð²ÑĪ Ð°ÑıÑģÑı
ĠÑģÐ¿Ð¾ÑģÐ¾Ð± Ð¾Ð¼
ÑĤ Ð¾Ð»
ĠÑģÐ¿ Ð¸ÑĢÐ°
ĠÐ¿Ð¾Ð· Ð¸ÑĨÐ¸Ð¹
ĠÐ¼ÐµÐ´Ð¸ÑĨ Ð¸Ð½ÑģÐºÐ¸Ñħ
ĠÐ¸ÑģÐ¿ÑĭÑĤ Ð°Ð½Ð¸Ð¹
ĠÐ²Ð¾Ð»Ð¾Ð³ Ð¾Ð´
ĠÑĦÐµÐ² ÑĢÐ°Ð»ÑĮ
ĠÑĢÐ°Ð·Ð²Ð¸ÑĤ Ð¸ÐµÐ¼
ĠÑģÐ¸Ð¼Ð²Ð¾Ð» Ð¾Ð¼
ĠÐºÐ°ÑĤÐ¾Ð» Ð¸ÑĩÐµÑģÐºÐ¾Ð¹
ĠÐ¸Ð½ Ð´Ð¸
ĠÐ³ÑĢÐ°Ð½Ð¸ÑĨ Ð°Ñħ
Ñģ Ñħ
Ġd vd
Ð¾Ð²Ð°Ð²ÑĪ Ð¸Ñħ
ĠÐ±ÐµÑģÐº Ð¾Ð½ÐµÑĩ
ĠÑĥÐ³ Ð¾Ð»
ÑģÑĥÑīÐµÑģÑĤÐ² ÑĥÑİÑĤ
ĠÐ¸Ð·Ð´ Ð°Ð½Ð¸Ð¹
ĠÑĢÐ°ÑģÐ¿ÑĢÐ¾ÑģÑĤÑĢÐ°Ð½ ÐµÐ½Ñĭ
ĠÐ¼ÐµÐ´ Ð°Ð»ÑıÐ¼Ð¸
ĠÐ¾ÑģÑĤÐ°Ð² Ð¸ÑĤÑĮ
ĠÐ¿Ð¾ÑģÐ»ÐµÐ´ Ð½ÐµÐ¼
ĠÐ°Ð· Ð¸Ð°ÑĤ
Ġ185 9
ĠÐ½ÐµÐ¸Ð·Ð²ÐµÑģÑĤ Ð½Ð¾
Ã ³
Ð°ÑĢÐ´ Ð¾
ĠÐ½Ð°ÑĨÐ¸Ð¾Ð½ Ð°Ð»ÑĮÐ½ÑĥÑİ
ĠÑģÑĤÐ¾Ð» Ð¸ÑĨÑĥ
ĠÑģÑĤ Ð¸Ð¼
Ð¿Ð¾Ñĩ ÑĤÐ¸
e ar
ĠÐ¾ÑģÐ½Ð¾Ð² Ð°ÑĤÐµÐ»ÐµÐ¹
ÑĨ ÐµÑĤ
ĠÐ¸ÑģÑĤÐ¾ÑĢ Ð¸ÑĩÐµÑģÐºÐ¸Ð¹
ĠÑģÑĤÑĢÐ° Ð½Ð°
ĠÑģÐµÐ¼ÐµÐ¹ ÑģÑĤÐ²Ð¾
ĠÐ¸Ð³ÑĢÐ° Ð»Ð¸
Ð± ÐµÐ¹
ĠÑĢÐ°Ð·Ð¼ÐµÑĢ Ð¾Ð²
ĠÑģÐµÑģÑĤ ÑĢÑĭ
ĠÐ¾ÑĤ ÑĢÑĭÐ²
ĠÐ²Ð¾Ð¿ Ð»Ð¾Ñī
ĠÐ²Ð»Ð° Ð´Ðµ
ĠÐ´ ÑĭÑħ
ĠÐ²Ð¾Ð´ Ð½Ð¾Ð³Ð¾
Ð´Ð°Ð½ Ð½ÑĭÐµ
ĠÐºÑĢÐµÐ¹Ñģ ÐµÑĢÐ°
Ð¸ÑģÐº Ñĥ
ĠÐ¼Ð°Ð» Ð°Ð¹
ĠÐ¿ÑĢÐ¾Ð¸Ð·Ð¾ÑĪ ÐµÐ´
ĠÐ²ÐµÐ½ ÐµÑĨÐ¸
Ġgro up
ÑģÑĤ Ð¾Ð»
ĠÐ¸ÑģÐº Ð¾Ð¿
ĠÑĤÑĢÐ¸ Ð¶Ð´Ñĭ
Ð¾Ñĩ Ð½ÑĭÐ¼Ð¸
ĠÑģÐ» ÑĭÑĪ
ĠÐº Ð°Ð½Ð°
ĠÐ¸Ð½ÑģÑĤÐ¸ÑĤÑĥÑĤ Ð¾Ð¼
Ð· ÑĮ
ĠÑĩÐ°ÑģÑĤ ÑıÐ¼Ð¸
ĠÐ»ÐµÐ³ Ð¸Ð¾Ð½
a f
ĠÑģÐ¾Ð²ÐµÑĤ Ðµ
ĠÐ¾Ð±Ð¾Ð·Ð½Ð°Ñĩ ÐµÐ½Ð¸Ðµ
ĠÐ¿Ð¾ÑģÑĤÑĢÐ¾ Ð¸Ð»
ĠÐ°Ð»ÑĮ Ð¿
ĠÐ¿ÑĢÐ¸Ð·Ð½ Ð°Ð½Ð¸Ðµ
ĠÑĥÐºÑĢÐ°Ð¸Ð½ ÑģÐºÐ¸Ñħ
ÑĩÑĳÑĢ Ðº
ÑĤ ÐµÑĢÐ°
Ð¿ÑĢÐ¸Ð¼ÐµÑĢ Ð½Ð¾
ĠÐ»ÐµÐ² ÑĭÐ¹
ĠÐ³Ð° ÑĢÐ°Ð½ÑĤ
ÐµÐ» Ð¸Ñı
ĠÐºÐ¾Ð½ÑĨÐµÐ¿ ÑĨÐ¸Ð¸
ĠÐ³ÑĥÐ¼Ð°Ð½ Ð¸ÑĤÐ°ÑĢ
ĠÐ± Ð»Ð¸Ð¶Ðµ
Ð¸Ð¼ ÐµÑĤÑĢÐ¾Ð²
ĠÑħ Ð»Ð¾Ð¿
ĠÐ»Ð° ÑĥÑĢÐµ
ÐºÑĥÐ»ÑĮÑĤ ÑĥÑĢ
ÑģÐµÐº ÑĢÐµÑĤ
ĠÑıÐºÐ¾Ð² Ð»
ĠÐ¿ Ð²Ð¾
ÑĦÐ¾ÑĢÐ¼ Ð°ÑĤ
ĠÑĢÐ°Ñģ ÑģÑĤÑĢÐ¾Ð¹
ĠÐ²ÑĭÑģÑĤÑĥÐ¿ Ð°Ð»Ð¸
Ġ188 4
ĠÑģÐ°Ð¹ ÑĤÐ°
ĠÐ²Ð¼ Ñģ
ĠÐºÐ°Ð· Ð½Ð¸
Ġ ).
ĠÐ±Ñĭ ÑģÑĤ
ĠÑĢÐ°Ð·ÑĢÐµÑĪ ÐµÐ½Ð¸Ðµ
ĠÐ¿ÐµÑĢÐµÑĥÐ» Ð¾Ðº
Ð² Ð°ÑĢÐ¸
ĠÐ¾Ð´Ð½Ð¾Ð¸Ð¼ ÑĳÐ½Ð½Ð¾Ð³Ð¾
ĠÐ¿Ð¾Ñħ Ð¸Ñī
an n
ĠÐºÐ°Ð»Ð¸ÑĦÐ¾ÑĢ Ð½Ð¸Ñı
ĠÑĥÑĩ Ð¸ÑĤÐµÐ»Ñı
Ġm et
ĠÐ³Ð¾Ð²Ð¾ÑĢ Ð¸ÑĤÑĮ
ĠÐ¼Ð¾ÑĢÐ° Ð»ÑĮ
ĠÑĦÐ¾ÑĢÑĤÐµÐ¿ Ð¸Ð°Ð½Ð¾
Ð½ Ð°Ð½
Ðº ÐµÐ²Ð¸Ñĩ
ÑĥÑĤ Ð¸
Ñį ÑĪ
ÐµÑĢÐµ ÑĤ
ĠÑģÐ¾ÐµÐ´Ð¸Ð½ ÐµÐ½Ð¸Ð¹
Ð¾ÐºÑĥ ÑĢÐ°ÑĤ
Ð°Ð» Ð°Ð¼Ð¸
ĠÑģÐ¾Ð²ÐµÑĤ ÑģÐºÐ¾Ðµ
ĠÑĢÐ°ÑģÐ¿Ð¾Ð»Ð¾Ð¶ ÐµÐ½Ð½ÑĭÑħ
ĠÐ¾Ð±Ð»ÐµÐ³ Ñĩ
Ðµ Ñİ
Ġ184 8
ĠÐ¿ÑĢÐ¾Ð³ ÑĢÐµÑģÑģ
ĠÐ¿ÑĢÐ¾Ð¿ ÑĥÑģÐº
ĠÐ¿ÑĢÐµÐ´Ð¼ ÐµÑĤÑĭ
ĠÑĥ ÐµÑĦÐ°
Ġ18 50
ĠÑĤÐ²ÐµÑĢ ÑģÐºÐ¾Ð¹
ĠÑĢÐµÐ¿ ÐµÑĢÑĤ
ĠÐ²Ð´Ð¾Ñħ Ð½Ð¾Ð²
ĠÐ¸ Ð½Ð°ÑĩÐµ
Ð³ ÑĢÐ°Ð¶Ð´Ð°Ð½
ÐºÐ¾ÑĢ Ð¾Ð»ÑĮ
ĠÑģÐ½ Ð³
ĠÑģÑĤÐ°Ð² ÑĢÐ¾Ð¿
Ð¿Ð¾Ð»ÑĥÑĩ Ð¸Ð»
ĠÐ½Ðµ ÑĥÐ´
ÑĢÐ°Ð· Ð¼ÐµÑĢ
ĠÐ³Ð¾ÑģÑĥÐ´Ð°ÑĢÑģÑĤÐ²ÐµÐ½ Ð½ÑĥÑİ
ĠÐºÐ½ÑıÐ· ÐµÐ¹
ĠÑĢÐ°Ð· Ð¾Ð±
ĠÐ¿ÑĢÐ¸Ð½ ÑıÐ²
ĠÐ¾ÑĤÐ´ÐµÐ»ÑĮ Ð½Ð¾Ð³Ð¾
ĠÑĢÑĥÐ±ÐµÐ¶ Ð¾Ð¼
ĠÐ²Ñĭ Ð½ÐµÑģ
ĠÐ¿ÑĢÐ¸ ÐµÐ¼
ĠÐºÐ°Ð¼ ÐµÐ½ÑĮ
194 0
ĠÐ± Ð¾ÑĤ
ĠÐ¿ÑĢÐµ ÑĦÐµÐºÑĤ
ĠÐ±Ð°ÑĢ Ð¾Ð½
ĠÑĤÑĥÑĢÐ½Ð¸ ÑĢÐ°Ñħ
ĠÑģÐ¼ÐµÑĢÑĤ ÑĮÑİ
ĠÐ² Ð²Ð¸Ð´Ñĥ
ĠÐ» Ð°Ð½
ĠÐ¿Ð¾Ð´Ð´ÐµÑĢÐ¶ Ð¸Ð²Ð°ÐµÑĤ
ÑĮ Ð¸Ñħ
Ð¾Ð» Ð¾Ñģ
ĠÐ´ÑĢÑĥÐ³ Ð°Ñı
ĠÐºÑĢÐ° Ðµ
ĠÐ¿Ð¾Ð¼ÐµÑī ÐµÐ½Ð¸Ñı
ÐµÐ½ Ð½Ð¾Ð¼Ñĥ
ĠÐ¸Ð·Ð¼ÐµÐ½ ÐµÐ½Ð¸Ðµ
Ñģ Ð°Ð´
ÑĢÐ°Ð· Ð»Ð¸Ñĩ
ÑģÑĤÐ°ÑĤ ÑĥÑģ
ĠÐ¶ Ð¸ÑĤÐµÐ»ÑıÐ¼Ð¸
ĠÑĥÐ¿ÑĢÐ°Ð² Ð»ÐµÐ½Ð¸Ð¸
ĠÐ¿Ð¾Ð²ÑĭÑĪ ÐµÐ½Ð¸Ñı
ĠÐ¾ÑĢÐ³Ð°Ð½ Ð¸Ð·Ð¼
ĠÐ·Ð°Ð³ ÑĢÑıÐ·
ÐµÑģÑĤ Ð°
ĠÐ¿Ð¾Ð´ Ð°Ñĩ
Ð±Ð¾Ð» Ð³Ð°ÑĢ
ĠÑģÑĤÑĢÐ° ÑģÑĤ
ĠÐ±Ð¾Ð»ÑĮ Ð½ÑĭÑħ
ĠÐ²Ð¾ÑģÐ¿Ð¸ÑĤ Ð°Ð½
ĠÑĢÐ°Ð¹Ð¾Ð½ Ð¾Ð¼
Ð¾Ð½Ð¸ Ð¾
ĠÑģÐºÐ¾ÑĢ Ð¾ÑģÑĤÑĮÑİ
ĠÐºÑĢÐµÑģÑĤÑĮÑıÐ½ ÑģÐºÐ¾Ð¹
Ð¸ÑģÑĤ Ð¸ÑĩÐµÑģÐºÐ¾Ð¹
ĠÐ´Ð¾ÑĢÐ¾Ð³ Ñĥ
ÑĥÑĤ Ñĭ
ĠÑģÑĤÑĢÐ°Ð½ Ð¸ÑĨ
ĠÐºÐ° ÑĢÐ°Ð±
ĠÑģÐ´ÐµÐ» Ð°Ð»Ð¸
ĠÐ²Ð°Ð³ Ð¾Ð½Ð¾Ð²
Ñħ ÑĢÐ¸ÑģÑĤ
Ð°Ñģ Ñĭ
ĠÐ°ÑĢ ÐºÐ°Ð´
ĠÐ¿ÑĢÐ¸Ð½Ð°Ð´Ð»ÐµÐ¶ Ð°ÑĤ
ĠÐ¸Ð´Ðµ Ñİ
ĠÑİ Ð½
ĠÐ¸Ð·Ð³ Ð¾ÑĤÐ°Ð²Ð»Ð¸Ð²
Ñģ Ð¾ÑĢÐµÐ²
ĠÐ²Ñĭ ÑģÑĤÑĢÐµ
Ð°ÐµÐ¼ Ð°Ñı
ĠÐµÐ´Ð¸Ð½ Ð¸ÑĨÑĭ
ÑĢÐ¾Ñģ Ð¾Ð²
ĠÐ´ÐµÑĤ ÑĮÐ¼Ð¸
ĠÐ²ÐºÐ»ÑİÑĩ ÐµÐ½Ð°
ĠÐºÑĢÑĥÐ³ Ð°
Ð¿ÑĢÐ¾Ð¼ ÑĭÑĪÐ»ÐµÐ½
ĠÑįÑĤ Ð¸Ð¼Ð¸
ĠÐ²Ð¾ÑģÑĤÐ¾Ñĩ Ð½ÑĭÑħ
ĠÑĤÑİÑĢÑĮ Ð¼Ðµ
Ñĥ Ð½Ñĭ
Ð¿ ÑĥÑĪ
ĠÑĢ Ð¾Ð½
Ð¼ÐµÑĤ Ð°Ð»Ð»
ĠÐ¾Ð±Ð½Ð°ÑĢÑĥÐ¶ Ð¸Ð»
ĠÐ²ÑĭÑģÑĤÑĥÐ¿ Ð¸Ð»Ð¸
ĠÐ·Ð°ÑħÐ²Ð°ÑĤ Ð¸Ð»Ð¸
ĠÐ¾Ð± Ð¾Ð±Ñī
ĠÐ¾ÑĦÐ¸ÑĨÐ¸ Ð°Ð»ÑĮÐ½ÑĭÐ¹
ĠÐ¼ÐµÐ´Ð¸ÑĨ Ð¸Ð½ÑģÐºÐ¾Ð¹
ĠÐ¿Ð»ÐµÐ¼ ÐµÐ½Ð¸
ĠÐ²ÑĭÑģ Ð¾ÑĩÐ°Ð¹
ĠÐ¸Ð· ÑĬ
ÑĢÐ°Ð½ ÑĤÐ¾Ð²
Ð¾Ð³ÑĢÐ°ÑĦ Ð¸ÑĩÐµÑģÐºÐ¾Ð¹
ÑģÐ² ÑıÐ·
ÑĢÑĭ Ð¼
ĠÐ¿ÑĢÐ¸Ð¾Ð± ÑĢÑĳÐ»
Ð°Ð½ Ð°Ð»Ð¾Ð³
ÑĤ Ð¸Ð¼
ĠÐ² ÑıÑĩÐµÑģÐ»Ð°Ð²
ic t
ĠÑĤÐ¾Ð» Ñī
ĠÐ¼ Ð»ÐµÐºÐ¾Ð¿Ð¸ÑĤ
Ġmicro soft
Ð³ ÐµÐ±
ĠÐ´ Ð½Ðº
ĠÑĥÑĩ Ð°Ñī
ĠÐ°Ð»ÑĮÐ±Ð¾Ð¼ Ð¾Ð¼
ĠÐº Ð¸Ð±
ĠÑİÐ¶ Ð½ÑĭÐ¹
ĠÐ½ÐµÐ¼ÐµÑĨ ÐºÐ¾
t t
Ð¾Ðµ Ð·Ð´
ĠÐ»ÑĥÑĩ ÑĪÐ¸Ðµ
ĠÐ³Ð¾Ð½ ÐºÐ¸
ĠÐ¿ÑĢÐ¸ÑģÑĤ Ð°Ð²
ĠÐ·Ð°Ð½ÑıÑĤ Ð¸Ñı
ÑĤÐµÑĢ Ð¼Ð¸Ð½
ĠÐ±ÑĢÐ° ÑĥÐ½
ĠÐ´Ð¾ÑģÑĤÐ¸Ð³ Ð»Ð°
ĠÐ²ÑĭÐ¸Ð³ ÑĢÐ°Ð²
Ð¿ ÐµÑĢÑģ
Ð½ ÐµÐ½Ð¸Ð¹
ĠÑģ Ð¸Ð»Ð°
ÐµÑĢ Ð½ÑĭÑħ
ĠÐ¼ Ð¸Ð»ÑĮ
ĠÐ±Ð¾ÑĢÑĮ Ð±Ð°
ĠÐ²ÐµÑĤ Ð²Ð¸
ĠÐ» Ð¸Ñģ
a h
ĠÐ´ÐµÐ¹ÑģÑĤÐ² ÑĥÑİÑĤ
ĠÐ¿Ð»Ð¾ ÑħÐ¾
Ð¾ÑĦÐ¸ÑĨÐ¸ Ð°Ð»ÑĮÐ½Ð¾
Ð¸ÑĤÐµÐ»ÑĮ Ð½Ð¾ÑģÑĤÑĮÑİ
Ð°Ð¼Ð± Ð»Ðµ
ĠÐ°Ð´ ÑĢÐ¸
ĠÐ¿ÐµÑĢÐµÐ¸Ð¼ÐµÐ½ Ð¾Ð²Ð°Ð½Ð°
ĠÐ²Ð¾Ð·Ð´ÑĥÑĪ Ð½ÑĭÑħ
ĠÑģ ÑĦÐµÑĢ
ĠÐ¼Ð°Ð¹ Ð¾ÑĢ
ÐµÐ½ Ð´Ðµ
Ġ7 8
ĠÑĪÐ¸ÑĢÐ¾Ðº Ð¾Ðµ
ĠÑĤÐµÐºÑģÑĤ Ð¾Ð²
ĠÐ¿Ð¾Ð²ÐµÐ´ ÐµÐ½Ð¸Ðµ
ÑĤ ÑĢÐ¾
ĠÐ¿Ð¾Ð¿ÑĭÑĤ Ð°Ð»ÑģÑı
ĠÑĢÐ°ÑģÐ¿Ð¾Ð»Ð°Ð³ Ð°Ð»ÑģÑı
Ġst ud
Ð°Ð» Ð¸Ð¹
ĠÐ´Ð¸ÑģÐº Ð°
ĠÑĢÐµÐ¹ÑĤÐ¸Ð½Ð³ Ðµ
Ð¾ Ð¾ÐºÐµ
Ð¾ÑģÑĤ ÐµÐ¿
Ġb ro
ĠÐ±ÐµÑĢÐµ Ð¼ÐµÐ½
ĠÑģÐ»ÑĥÑĩÐ°Ð¹ Ð½Ð¾
ĠÑĩÑĢÐµÐ·Ð²ÑĭÑĩÐ°Ð¹ Ð½Ð¾
v el
Ð¸ Ð°Ð½Ð°
Ð³ Ð²Ð°ÑĢÐ´
Ð¸Ð½Ð³ Ðµ
ĠÐ¸ÑĤ Ð°Ð»Ð¸Ñı
Ð°ÑĢÑħ Ð¸ÑĤ
ĠÐ¼ÐµÑģÑĤ ÐµÑĩ
Ð³Ð¸ ÐµÐ¹
Ð¸Ð² Ð¾ÑģÑĤ
Ð½Ð¸Ðº Ð¾Ð»Ð°
ĠÐ¿ÑĢÐµÐ´ Ð²Ð¾Ð´
ĠÐ¸ÑģÑĤÐ¾Ñĩ Ð½Ð¸Ðº
ÑĪ ÐºÐ°
ĠÐ¶Ð¸Ð· Ð½
ĠÐ±ÐµÐ¶ Ð°Ð»
ĠÐ¾ÑģÐ½Ð¾Ð²Ð°Ð½ Ð¾
ĠÐ·Ð°Ð¼ÐµÑĤ Ð½Ð¾
ĠÐ°Ð² Ð¸Ð°Ð½
ĠÐ¸Ð½Ð´ Ñĥ
ĠÐ²Ð¸Ðº ÑĤÐ¾ÑĢÐ°
ĠÐ¼Ð°ÑĤÐµÐ¼Ð°ÑĤ Ð¸ÐºÐ¸
Ð¾Ð¹ Ð´
Ġc ar
ĠÐ½Ð°Ð·Ð½Ð°Ñĩ ÐµÐ½Ð¸Ðµ
ĠÐ¿ÑĢÐ¸Ð½Ð¸Ð¼ Ð°Ð»Ð°
ĠÐ²Ð¸Ð· Ñĥ
Ñĩ Ð°Ðº
ĠÑģÐµÑĢ ÑĤÐ¸ÑĦ
ĠÐ°Ð¼ ÑģÑĤÐµÑĢÐ´
Ġ187 9
p le
ĠÑħ ÑĥÐ´
Ð½Ð¸Ñĩ ÐµÑģÑĤÐ²Ð°
ĠÐ°Ð²Ð¸Ð°ÑĨÐ¸Ð¾Ð½ Ð½Ð¾Ð³Ð¾
ĠÑį ÑģÑģ
ĠÐµÐ²ÑĢÐµÐ¹ ÑģÐºÐ¾Ð³Ð¾
ĠÐ²Ð¸Ð»ÑĮÐ³ÐµÐ»ÑĮ Ð¼
ĠÐ¶ÐµÐ»ÐµÐ· Ð½Ð°Ñı
ĠÐ´Ð°Ð² Ð½Ð¾
ĠÐ·Ð°Ð´Ð°Ñĩ ÐµÐ¹
Ðº Ð°Ð½Ð°
ĠÑģ ÐµÑĢÐ°
Ġl in
ĠÑĢÐ°Ð· Ð¾ÑĢ
ĠÐ´Ð¸ Ð°Ð»Ð¾Ð³
ĠÑħÑĥÐ´Ð¾Ð¶ Ð½Ð¸ÐºÐ¾Ð¼
ÑĩÐµÑģÐº Ð¾Ð³Ð¾
ÑĦ Ð°ÐºÑĤ
ĠÑĤÐµÐ¾ÑĢ Ð¸Ñİ
Ð¿ÑĢÐµÐ´ÑģÐµÐ´ Ð°ÑĤÐµÐ»ÑĮ
ĠÐ²Ð¸Ð´ Ð¸ÑĤ
ĠÑĤÑĢÐµÑĤ ÑĮÑı
Ñİ Ð±
ÑĤ ÑĢÐ¾Ð¿
ÐµÐ³ Ð¸
ĠÐ¾ÑĤÐ¿ÑĢÐ°Ð² Ð»ÑıÐµÑĤÑģÑı
ÑıÐ½ ÑģÐºÐ¸Ð¹
Ð¾Ð» Ñĭ
ÑĭÐ² Ð°Ð½Ð¸Ðµ
ĠÑĤÐ²Ð¾ÑĢÑĩ ÐµÑģÑĤÐ²Ð¾
ĠÐ¼ ÑģÑĤ
ĠÐ½Ð° ÐºÐ¾Ð¿
ĠÑĢÑĥÐºÐ¾Ð²Ð¾Ð´ Ð¸ÑĤÐµÐ»Ñı
ĠÑģÑĤÐ°ÑĤ ÑĥÑģÐ°
ĠÐº Ð¾ÑģÑĤÐ¸
ĠÐ¿ÑĢÐ°Ð² ÑĭÐ¹
ĠÐ·Ð½ Ð°Ð»
ĠÑģÐ¾Ð²ÐµÑĤ ÑģÐºÐ¾
ĠÐ»ÑİÐ± Ð¾Ð³Ð¾
Ð°Ð» Ð¸Ð½
ĠÐ»Ð¸Ð³ Ñĥ
193 9
ĠÐºÑĥÐ»ÑĮÑĤÑĥÑĢ Ð½Ð¾Ð³Ð¾
ĠÐ¿ÐµÑĢÐµÐ³Ð¾Ð² Ð¾ÑĢÐ¾Ð²
ÐµÐ½ ÑĨÐ¸Ñİ
ĠÐ·Ð°Ð½Ð¸Ð¼ Ð°ÑİÑĤ
ĠÐ·Ð°Ð²Ð¾ÐµÐ² Ð°Ð»Ð°
ĠÑĤ Ñį
Ð°ÑĢÐ¸ Ð¾
ĠÑĥÑĩÑĢÐµÐ¶Ð´ ÐµÐ½Ð¸Ðµ
ĠÐ²ÑĭÐ¿ÑĥÑī ÐµÐ½Ð¾
ĠÑģÑĬ ÐµÐ·Ð´Ðµ
ĠÐ³ÐµÐ¾ÑĢÐ³ Ð¸Ñı
Ð²Ð¾Ð·Ð´ ÑĥÑĪ
ĠÐ¸ Ð½ÑĭÑħ
ĠÐ´Ðµ ÑĦ
ĠÐ¿Ð¾Ð¿ÑĭÑĤ ÐºÐ°
ĠÑģÑĥÑĤ Ð¸
ĠÑħ ÑĥÑĤÐ¾ÑĢ
ĠÐ¿Ð¾Ð¿ Ð°Ð´Ð°ÐµÑĤ
ĠÐ±Ð°ÑĤÐ°ÑĢÐµ Ð¸
ÑĥÑī ÐµÐ³Ð¾
ĠÑģÐ¾Ð·Ð´ Ð°Ð»Ð¸
ĠÑģÐ¸Ð¼ Ð¿
Ð½Ð° Ð·
Ð¿ÑĢÐµ Ð¿Ð¾Ð´
ĠÑĤÐ¾Ñĩ ÐµÐº
ĠÑĢÐ°Ð·Ð¼ ÐµÑĢÐµ
ĠÑĪ Ð°Ð¿
ĠÐ¼Ð°ÑĪ Ð¸Ð½Ð°
ĠÑģÑĢÐ°Ð¶ ÐµÐ½Ð¸Ðµ
ĠÑħÐ°ÑĢÐ°ÐºÑĤÐµÑĢÐ¸ÑģÑĤ Ð¸ÐºÐ¸
m on
Ð¹ Ð´Ñı
Ð¸Ð¼ Ð¾Ðµ
ĠÑħ ÑĢÐ°Ð±
ÑĳÐ½ Ð½Ð¾Ð¼Ñĥ
ĠÐ²ÐµÐ»Ð¸Ðº Ð¾Ð»
ĠÐ°ÑĦ Ð°Ð½
ĠÑģÐ²Ð¾Ð±Ð¾Ð´ Ð½Ð¾Ð³Ð¾
Ð¼Ð°Ð¹ Ð¾ÑĢÐ°
ĠÐ¿ÑĢÐ¸Ð² ÐµÐ»Ð°
ĠÐºÐ»ÑĥÐ± Ñĭ
ĠÑĩÐµÑĢ Ð½Ð¾Ð²
ĠÐ½Ð° ÑĨÐ¸Ð¹
Ð¶ ÑĳÐ»ÑĤ
Ðº Ð°Ð²ÐºÐ°Ð·
ĠÐ½ Ð±Ð°
Ð¾Ð» Ð¾Ð´
ĠÑĨÐµÐ½ÑĤÑĢÐ°Ð»ÑĮ Ð½Ð¾Ð¼
Ñĩ Ð¾
ĠÐ° Ð»Ñİ
ĠÐ²Ð¼ ÑĦ
ÑĮ ÐµÐ²Ð°
ÑĪ Ð¸ÑĦ
ĠÐ²Ð¾Ð· ÑĢÐ¾Ñģ
ÐµÐ² ÑģÐºÐ°Ñı
ĠÐ´Ð°Ð² Ð»ÐµÐ½Ð¸Ðµ
ĠÐ¶ÐµÐ»ÐµÐ·Ð½Ð¾Ð´Ð¾ÑĢÐ¾Ð¶ Ð½Ð¾Ð³Ð¾
Ñģ Ð°Ð½ÑĤ
ĠÑĥ ÑĢÐ¾Ðº
Ð¾ÑĢÐ° Ð¼
198 8
ĠÑģÐ¼ ÐµÐ½Ð¸Ð»
ĠÐ½Ð°Ð·Ð² Ð°ÑĤÑĮ
Ð±Ñĥ Ð¶Ð´
ÑģÐ°Ð¼ ÑĭÐ¹
ĠÑİ ÑĢÐ¸Ñı
Ð±Ð¾Ð» Ð¾Ð²
Ð´Ð¾Ð½ Ñĥ
Ð¸ÑģÐ¿ ÑĭÑĤ
ĠÐ± Ð¾Ð´
Ð¸Ð½ ÑĦ
ĠÐµ Ð´Ð¸
ĠÑĦÑĢÐ°Ð½ÑĨÑĥÐ· ÑģÐºÐ¾Ð¼
Ð½Ð°ÑĨÐ¸Ð¾Ð½ Ð°Ð»ÑĮÐ½ÑĭÐ¹
ĠÐ² ÐµÑĤÐµ
ĠÐºÐ¾Ð» ÐµÑģ
ÑĮÑı Ð¼
ĠÐ¾ÑĤÑĤ ÑĥÐ´Ð°
Ð°Ð½ Ð½Ð¾Ð¼
ÑĥÐ±Ð» Ð¸ÐºÐ¾Ð²
ĠÐ¸Ð·ÑĥÑĩ ÐµÐ½Ð¸Ðµ
ĠÐ³ÑĢÐ°Ð½ Ð¸ÑĨÐ°
ĠÐ³Ð¾Ð½ ÐºÐ¾Ð½
ĠÐ¾ÑĤÐ¼ÐµÑĩ Ð°Ð»
Ð» Ð¸Ð¹
ĠÐ¼ Ð¾Ñĩ
ĠÐ°ÑģÐ¿ ÐµÐºÑĤ
ĠÐ±Ð¾Ð³Ð¾Ñģ Ð»ÑĥÐ¶
ĠÐ¿ÑĢÐ¾Ð¼ÑĭÑĪÐ»ÐµÐ½ Ð½Ð¾ÑģÑĤÑĮ
Ð½Ð° ÑģÑĤÐ¾ÑıÑī
198 5
Ð´Ð° Ð¶Ðµ
Ġa c
ĠÐ³ÑĢÐ°Ð¶Ð´Ð°Ð½ ÑģÐºÐ¾Ð³Ð¾
ĠÐ´Ð°Ð² Ð¸Ð´
ĠÐ´ÐµÑģÑıÑĤ ÐºÐ¾Ð²
er ic
ĠÐ¿Ð¾Ð½ÑıÑĤ Ð¸Ñı
ĠÑĢÐ¾Ð¼ Ð°Ð½Ðµ
ĠÐ¿Ð°Ð» ÑĥÐ±
ĠÑħ Ð¾
ĠÑģÐ» ÑĥÐ¶ÐµÐ±
Ð²ÐµÑĢ Ð¾ÑıÑĤÐ½Ð¾
ĠÐºÐ°Ð· Ð°Ð½Ð¸
ĠÑĥÑĤ ÑĢÐ°
Ġ188 3
ĠÑĩÐµÑĤÐ²ÑĳÑĢÑĤ ÑĭÐ¹
p ro
ÐµÐº Ñĥ
ĠÐ¾ÑĨÐµÐ½ ÐºÑĥ
ÑĨÐ¸Ð¾Ð½ Ð½Ð¾Ðµ
ĠÐ±Ð¾Ð³ Ð¾Ð¼
ĠÐ³ÑĢÐ°Ð½ Ð¸ÑĨÐµÐ¹
ĠÐ¿Ð¸ÑģÑĮ Ð¼Ðµ
Ñħ ÑĢÐ°Ð¼
ĠÐ·Ð°ÑħÐ²Ð°ÑĤ Ð¸ÑĤÑĮ
Ð¾ÑĤ Ð¾Ð½
ĠÐ¾ÑĦÐ¸ÑĨÐ¸ Ð°Ð»ÑĮÐ½Ð¾Ð¹
ĠÐ¿ÑĮÐµÑģ Ñĭ
ĠÑĥÐ´Ð° ÑĳÑĤÑģÑı
ĠÑģÐ¾ÑĨÐ¸ Ð°Ð»ÑĮÐ½Ð¾Ð³Ð¾
ĠÐ¿ÑĢÐ¾ÐµÐºÑĤ Ñĭ
ĠÐ²ÐµÑĢÑģ Ð¸Ð¹
Ñģ Ð¾Ñģ
Ð°ÑĤ Ð»ÐµÑĤ
ĠÐ¿Ð¾Ñģ Ð¿Ð¾Ð»Ð¸ÑĤ
Ġ187 1
u ro
ĠÐ½Ð° ÑĪÐ¸
ĠÐ½Ðµ Ð¿Ð¾Ð»
ĠÐ¾ÑĤÐºÐ°Ð· Ð°ÑĤÑĮÑģÑı
ĠÐºÐ°Ð½ÑĤ Ð¾Ð½
ĠÐ¿ÑĭÑĤ Ð°Ð»Ð¸ÑģÑĮ
Ã ¶
ĠÑĩ ÑĥÐ¶
ĠÐ¾Ð± Ð¾Ð³
ĠÐ´ÐµÐ» Ð¸ÑĤÑģÑı
ĠÑĦÐµÐ¾Ð´ Ð¾Ñģ
ĠÐ¿Ð¾Ð´ ÑĬÑĳÐ¼
198 6
ĠÐ±Ð°Ð½ ÐºÐ¾Ð²
ĠÐ² ÑģÑĤÐ°Ð²
Ð¼Ð° ÑģÑģ
ĠÐ±ÑĥÑĢ Ð³
ÑĢÐµ Ñı
ĠÑĩÐµÑħÐ¾ÑģÐ»Ð¾Ð² Ð°ÐºÐ¸Ð¸
ĠÑĢÐµ Ð°Ð±Ð¸Ð»
ĠÐ»ÑİÐ´ Ð²Ð¸Ð³
Ð°Ð½ Ð½ÑĥÑİ
ĠÐ½Ð° ÑĪÐ»Ð¸
ĠÐ¾Ð±ÑĢÐ°Ð·Ð¾Ð²Ð°Ð½ Ð¾
ĠÐ² Ð¿Ð°Ð´Ð°ÐµÑĤ
Ġ186 6
ĠÐ´Ð¸Ð· Ð°Ð¹Ð½
ĠÐ¿Ð¾Ð³ Ð»Ð¾Ñī
ĠÐ¸Ð·Ð¼ÐµÑĢ ÐµÐ½Ð¸Ñı
ĠÐ¿ÑĢÐ¸ ÑĪÐ»Ð°
ĠÐ¿Ð¾Ð±ÐµÐ´ Ð°
ĠÑģÐ¿ÑĥÑĤ Ð½Ð¸ÐºÐ¾Ð²
Ð² Ð¿ÑĢÐ¾ÑĩÐµÐ¼
Ð°Ð² Ð¾Ð´
ĠÐ²ÑĭÑģÐ¾Ðº ÑĥÑİ
ĠÐ¼Ð¸Ð» Ð¸ÑĨÐ¸Ð¸
g o
ÐµÐ»ÑĮ Ð½Ð¾
Ð¾ÑĪ Ð»Ð¸
ĠÐ³ÑĢÑĥÐ¿Ð¿ Ð¸ÑĢÐ¾Ð²ÐºÐ¸
ĠÐ²ÑĭÐ¿ÑĥÑī ÐµÐ½Ð½ÑĭÐ¹
ĠÑĤ ÐµÐ¹
ĠÑģÐ²Ð¾Ð¹ ÑģÑĤÐ²
ĠÐº Ð¸Ñģ
ĠÐ´Ð»Ð¸Ð½ Ðµ
ĠÐ¾ÑĨÐµÐ½ ÐºÐµ
x x
ĠÑĨÐ²ÐµÑĤ Ð¾Ð²
at a
Ġ186 8
ĠÑģÐµÑĢÐ´ ÑĨÐµ
ĠÐ¿Ð»Ð°Ð½ Ð¸ÑĢÐ¾Ð²Ð°Ð»Ð¾ÑģÑĮ
ĠÐ¸Ð½ÑĤÐµÑĢ ÑĦÐµÐ¹
ĠÐ¾ÑĤÐ»Ð¸Ñĩ Ð¸Ñı
ĠÐ²ÐµÑī Ð¸
Ð² Ð¾ÑĤ
ĠÐ» ÐµÐºÑģ
ĠÐ¿Ð¾Ð² ÐµÑģÑĤÐ¸
ÑĢÐ°ÑģÐ¿ ÑĢÐ¾ÑģÑĤÑĢÐ°Ð½
ĠÐ´Ð¸Ð°Ð¼ÐµÑĤ ÑĢÐ¾Ð¼
ĠÐ²ÑĭÑĩÐ¸Ñģ Ð»
ĠÐ¿ÑĢ Ð¾Ð½
ĠÑĥÑĩÑĳÑĤ Ð¾Ð¼
ĠÐ± Ð°ÑĢÑĤ
ĠÑĪÐºÐ¾Ð» Ð°Ñħ
ĠÑģÐ»Ð° Ð±Ð¾
ĠÐ¿Ð¾Ð¿ ÐµÑĢÐµÑĩ
ĠÐ¼ÐµÑĤ Ðµ
ĠÑĢÑĥÐºÐ¾Ð²Ð¾Ð´ Ð¸ÑĤÐµÐ»ÐµÐ¹
ĠÑĢÐ°Ð· Ð½ÑĭÐ¼
ĠÐ¿Ð¾Ñģ Ð¾Ð±
ĠÑĥÐºÑĢÐµÐ¿ Ð»ÐµÐ½Ð¸Ñı
m ar
Ð¾Ð³ Ðµ
ĠÑİ ÑĢÐ¸ÑģÑĤ
ÐµÐ½ÑĮ Ðµ
ĠÐ¿Ð¾Ð´ÑĢÐ°Ð·Ð´ÐµÐ» ÐµÐ½Ð¸Ð¹
Ñħ Ð°Ð±
ĠÑģÐ¿ Ð»Ð°Ð²
ĠÐ·Ð°Ð¿ Ð»Ð°Ð½
3 00
ĠÑĩ Ð¸Ð»Ð¸
ĠÐ·Ð°Ð´ ÑĥÐ¼
c he
ĠÑİ Ð±Ð¸Ð»
ĠÐ¶ÐµÐ» ÑĥÐ´
ĠÐ²ÑĭÑģÐ¾Ðº Ð°Ñı
ĠÑĢÐ°ÑģÐ¿Ð¾Ð»Ð°Ð³ Ð°Ð»Ð¸ÑģÑĮ
ĠÐ°Ð½ Ð½
ĠÑĤÐ²Ð¾ÑĢÑĩ ÐµÑģÑĤÐ²Ðµ
ĠÐ¾ÑģÑĤÐ°Ð² Ð¸Ð²
ĠÐ°ÑĢÐ³ÐµÐ½ÑĤ Ð¸Ð½Ñĭ
ĠÐ¿Ð¾ÑģÑĤÐ¾ÑıÐ½ Ð½Ð¾Ð¹
ĠÐºÐ¾Ð½ÑģÑĤÐ°Ð½ÑĤ Ð¸Ð½Ð°
ĠÑģÐ¿Ð¾ÑĢÑĤÐ¸Ð² Ð½Ð¾Ð¹
ÑĤ Ð¸ÑĤ
ĠÐ» ÑĭÐ¶
ĠÐ¾ÑĤÐ½Ð¾Ñģ ÑıÑĤ
ĠÐ²Ð¾ÑģÑģÑĤÐ°Ð½Ð¾Ð² Ð»ÐµÐ½
p or
ĠÐ´ÐµÐ¼ Ð¾Ð±Ð¸Ð»
ĠÐ½Ð¾Ð²Ð³Ð¾ÑĢÐ¾Ð´ ÑģÐºÐ¾Ð¹
ĠÐ·Ð°ÑģÐµÐ´ Ð°Ð½Ð¸Ð¸
Ð¾ÑĤÐ½Ð¾Ñģ Ð¸ÑĤÑģÑı
ĠÑĢÐµ Ð»Ð¸Ð·
Ð°ÑĢÐ° Ð¼Ð¸
ĠÐ¸Ð³ÑĢÐ° Ð»Ð°
ĠÐ¾Ð±Ð»Ð°Ð´ Ð°ÑĤÐµÐ»ÐµÐ¼
ĠÐº Ð»Ñİ
Ð¸Ð´ Ð½Ð¾Ð¹
ĠÑĤÑĢÐ°Ð² Ð¼Ñĭ
ĠÑĩÐµÐ¼Ð¿Ð¸Ð¾Ð½Ð°ÑĤ Ð°Ñħ
ĠÑģÑĥÐ¿ÑĢÑĥÐ³ Ð°
ĠÐ¸Ð·ÑĥÑĩ ÐµÐ½Ð¸Ñİ
Ð´Ð°Ð½ Ð½ÑĭÐ¹
Ñħ ÑĤ
ĠÐ¾Ð± Ð¾ÑģÐ½Ð¾Ð²
ÑģÐ¿ ÑĢÐ°Ð²
ÐµÑģ Ð¸
ĠÐ¿Ð¾ÑģÐ»ÐµÐ´ Ð¾Ð²
ĠÑĨÐ°ÑĢ ÑģÑĤÐ²
ĠÐ½ÐµÐ¼ÐµÑĨ ÐºÐ¾Ð¼
ĠÐ¼Ð¾Ð½Ð°ÑģÑĤÑĭ ÑĢ
ĠÐ¿Ð¾ÑĤ Ð¾Ðº
ĠÐ¿ÑĢÐµÑģÑĤ Ð¾Ð»Ð°
Ð´ Ð¾ÑĢ
ĠÑĢÐµÐº Ð»Ð°
ĠÐ¼ÐµÑĤ Ð¾Ð´Ð°
ĠÑģÑĤÐ°ÑĢ ÑĭÐ¹
ĠÐ¿ÑĢÐ¸ÐºÐ°Ð· Ð¾Ð¼
ĠÑģÑĤ Ð°Ð²ÑĪÐ¸Ð¹
ÑĦ Ð¾ÑĢÑĤ
ĠÑģÐ¾Ð²ÑĢÐµÐ¼ ÐµÐ½Ð½Ð¾Ð¼
ĠÐ´Ñĥ ÑįÑĤ
ĠÑıÐ´ ÑĢÐ°
Ð´Ð¸ ÑĢÐµÐº
ĠÐ»Ð¸ÑĤ Ð¾Ð²ÑģÐºÐ¾Ð³Ð¾
re am
ĠÐ´Ð¾ÐºÑĥÐ¼ÐµÐ½ÑĤ Ð°Ñħ
ĠÐºÑĢÐ°ÑĤ ÐµÑĢ
ĠÐ·Ð°Ð±Ð¾Ð»ÐµÐ² Ð°Ð½Ð¸Ñı
ĠÐºÐ¾Ð¼Ð¼ÑĥÐ½Ð¸ÑģÑĤ Ð¸ÑĩÐµÑģÐºÐ¾Ð¹
p a
ĠÑģÐ» Ð¾Ñı
ĠÐ»Ð¸Ð´ ÐµÑĢÐ°
ĠÐ² ÐµÐ½ÑĤ
ĠÐ¿ÑĢÐ¸Ð½ ÑĨ
ĠÐ°Ðº ÑĨÐ¸Ð¸
ĠÐ½Ð°Ð¿Ð¸Ñģ Ð°Ð½Ñĭ
ĠÑģÑĤÐ¸Ñħ Ð¾Ð²
ĠÑģÑĤÐ°ÑĤÐ¸ÑģÑĤ Ð¸ÐºÐ¸
Ð¸ Ð¾Ð¿
ĠÐº Ð¾Ð³Ð¾
ĠÑĢÐ°Ð· ÑĭÐ³
ÐµÐ·Ð¶ Ð°ÐµÑĤ
ĠÐºÐ»Ð°ÑģÑģ Ñĥ
ĠÐ³ÑĢÑĥÐ¿Ð¿ Ð°Ð¼Ð¸
Ð°ÑģÑģ Ð¸
ĠÑĥÐ³ Ð»Ð¾Ð²
ĠÐ¿Ð¾Ð² ÐµÐ´ÐµÐ½Ð¸Ñı
ĠÐ°ÑģÑģ Ð°Ð¼Ð±Ð»Ðµ
ĠÐ¿ÑĢÐµÐ´ÑĭÐ´ÑĥÑī Ð¸Ñħ
al e
Ġr o
ĠÐ³ÑĢ Ð¸Ð½
t on
ĠÐ¾Ð± ÑģÑĤÑĢÐµ
ĠÑĥÑģÑĤÑĢÐ¾Ð¹ ÑģÑĤÐ²
ĠÐºÐ¾Ð»ÑĮ ÑĨÐ¾
ĠÐ¾ÑģÐ²Ð¾Ð±Ð¾Ð¶Ð´ ÐµÐ½Ð¸Ð¸
Ñģ Ð¾ÑĦ
Ð°Ð» Ñĳ
ĠÐ¿ÑĢÐµÐ´ ÑģÐºÐ°Ð·
ĠÐ¾Ð±Ñī Ð¸Ð½Ðµ
ĠÐ¿ÑĢÐ¾ÑĤÐ¸Ð² Ð½Ð¸ÐºÐ¾Ð²
ĠÑĢÐ°Ð±Ð¾Ñĩ Ð¸Ð¹
ĠÐ»ÑĳÐ³ ÐºÐ¾Ð¹
ĠÑħÐ¾ÑĢÐ²Ð°ÑĤ Ð¸Ð¸
ĠÐ°ÑĢÐµÐ½Ð´ Ñĥ
ĠÐ½Ð°Ð·ÑĭÐ² Ð°Ð»ÑģÑı
ĠÐ¿Ð¾Ð½ Ð¸Ð¶
ÑĥÐ»ÑĮ ÑĤÐ°
Ġ8 1
ĠÑĢÐ°Ð½ Ð½ÐµÐ³Ð¾
ĠÐ¿ÑĢÐ¾ÑĤÐµÑģÑĤ Ð°Ð½ÑĤ
Ð°ÑĢÑħ Ð¸Ñı
ĠÐµÐ¿Ð°ÑĢÑħ Ð¸Ñı
Ð¿ÑĢÐ¸Ðº Ð°Ð·
Ð°ÑĤ Ð°Ð¹
ĠÐ²ÐµÐ´ ÑĮ
198 7
ÑĥÐ´ Ñĭ
ĠÐ¸Ð³ÑĢÐ¾Ðº Ð¸
ĠÑĢÐµÐºÐ¾Ð¼ ÐµÐ½Ð´Ð°
Ñģ Ð¸Ñģ
ĠÐ´ Ð°ÑĤÐ°
Ñį Ð³
ĠÐ¿ÑĢÐµÐ´ÑģÑĤÐ°Ð²Ð»Ñı Ð»Ð¸
ĠÐºÐ¾ÑĢÐ¾Ð»ÐµÐ² ÑģÑĤÐ²Ð¾
Ð¾Ð¿Ð¾Ð» Ðµ
Ð½Ð¾Ð¼ Ð¾Ñĩ
ĠÐ¼Ð°Ð» Ð¾Ð³Ð¾
ĠÐ¾Ð±Ð»Ð° Ð´Ð°ÑİÑĤ
ĠÐ½Ðµ ÑĢÐ°Ð²
ÑĢÐµÐ¼ Ð¾Ð½ÑĤ
ĠÐ¾Ð¿ÑĢÐµÐ´ÐµÐ» ÑıÐµÑĤ
ĠÐ½Ð¾Ñĩ Ð¸
Ð¸Ð» Ð¾Ð²Ð°
ÐºÐ¾Ð¼ Ð°Ð½Ð´Ð°
ĠÐ»ÐµÐ± ÐµÐ´
ĠÐ½ÐµÐ´Ð°Ð² Ð½Ð¾
ĠÐ¾ÑĤ ÑģÑĤÑĢÐ°Ð½
ĠÐ¿ÐµÑĢÐµ ÑģÑĤ
ĠÑĥÐ½Ð¸ÑĩÑĤÐ¾Ð¶ Ð¸ÑĤÑĮ
ĠÐº ÑĥÑĩ
ĠÐ·Ð°Ð¿ Ð¾Ð»Ð½
ĠÑģÐ²ÑıÐ· ÐµÐ¹
ĠÐ·Ð°ÑħÐ²Ð°ÑĤ ÑĩÐ¸ÐºÐ°Ð¼Ð¸
ÑĢÐµ ÑĨ
ĠÐ¾Ð¿ ÑĭÑĤÐ°
ĠÐ¼Ðµ ÑģÑģ
ĠÐ½ÐµÐ² Ñĭ
ĠÐ½Ð°Ð» Ð¾Ð¶
Ñģ Ð¾Ðº
ĠÐºÐ¾ÑĢ Ð¸ÑĩÐ½ÐµÐ²
ÑıÑī ÐµÐµ
ĠÐ¿ÐµÑĤÑĢÐ¾Ð³ ÑĢÐ°Ð´
ĠÐ´Ð¸ÑĦÑĦÐµÑĢÐµÐ½ ÑĨÐ¸
ĠÑĢÐ°Ð¹Ð¾Ð½ Ñĥ
ĠÐ¿ÑĢÐµÐ´ÑģÑĤÐ°Ð² Ð»ÐµÐ½Ð¸Ðµ
ĠÐ¼Ð¾Ð½ ÐµÑĤÑĭ
ĠÐ²ÑģÑĤÑĢÐµÑĩ Ðµ
ĠÐ»Ñĥ Ð¸
ĠÐ¾Ð±Ð²Ð¸Ð½ ÐµÐ½Ð¸Ñı
Ð»ÐµÑĤ ÑĢÑıÑģ
ĠÐ°Ð»ÐµÐºÑģÐ°Ð½Ð´ ÑĢÐ¾Ð¼
Ð¸Ð» ÐµÐ³
ĠÐºÐ¾ Ð¾Ð¿
ĠÑģÐµÑĢÐ¸ Ð°Ð»
ĠÐ½Ð°ÑģÐµÐºÐ¾Ð¼ ÑĭÑħ
Ð² Ð¾Ð¿
ĠÑĨ ÐµÐ½Ð·
ĠÑĢ Ð¸Ð¾
ĠÐ² Ð°Ð²
Ð°ÑĤ ÑĭÐ¹
Ð¸Ðº ÑĤ
ĠÐ·Ð½ Ð°Ð½Ð¸Ñı
ĠÑģÐ°Ðº ÑģÐ¾Ð½
or n
ĠÑģÑĥÐ´ Ð½Ð°
ĠÐ¾Ð±ÑĢÐ°Ñī ÐµÐ½Ð¸Ðµ
ĠÑģÐ¼ ÐµÐ½
ĠÐ¿ÑĥÑĪ ÐºÐ¸
ĠÑĤÑİÑĢÑĮ Ð¼Ñĭ
ĠÐ¿Ð°Ð²Ð»Ð¾Ð² Ð¸Ñĩ
ĠÑĤÐ¾Ð¼ Ð°
ĠÐ°ÑĢÑħ Ð¸Ð¼Ð°Ð½Ð´
ol l
ĠÐ¿Ð¾Ð»Ð½Ð¾ ÑĨÐµÐ½
ĠÑĢÐ¾Ð·ÑĭÐ³ ÑĢÑĭ
ĠÐ¿Ð¾Ð´ ÑĩÐµÑĢÐº
an y
ĠÐ¿ÑĢÐ¾Ð¼ÑĭÑĪÐ»ÐµÐ½ Ð½ÑĭÑħ
ĠÐ³ÑĢÐµÑĩÐµÑģÐº Ð¾Ð³Ð¾
Ð°ÑĢ Ð¾
Ð²ÐµÑĢ ÑĤ
Ð¾Ð» ÐµÐ¹
ĠÑĦ ÑĢÐ°Ð·
Ð¸Ð»ÑĮ Ð¸
194 2
ĠÐ±ÐµÑĢ ÑĳÑĤ
ĠÐ¼ Ð¾Ð¹
ĠÑħ ÐµÐ»ÑĮ
ĠÐ¼Ð¸ÑĦ Ð¾Ð»Ð¾Ð³Ð¸Ð¸
ĠÐ¶ Ð¸Ð»Ð°
ĠÑģÑĭ Ð½Ñĥ
ĠÑģÐ¿ Ð°ÑĢÑĤ
ĠÑĢÐµÐ³Ð¸Ð¾Ð½ Ð°Ñħ
ĠÐ¸ ÐµÑĢÐ°ÑĢ
ĠÐ· Ð¼Ðµ
Ð¾ÑģÐ½Ð¾Ð² Ð½ÑĭÐ¼
ĠÑĨÐµÑĢÐºÐ¾Ð² ÑĮÑİ
ĠÐ±ÐµÑģ ÐµÐ´
Ð½Ð°Ð´ÑĨÐ°ÑĤ Ð¸
ĠÑĤ ÑĢÐµÐ²
Ð°ÑĤ Ð¾Ð¹
Ð¼ Ð°Ð¼
Ð¸Ð¹ ÑĨÑĭ
ĠÐ´ÐµÐ¹ÑģÑĤÐ² Ð¸ÑĤÐµÐ»ÑĮÐ½Ð¾ÑģÑĤÐ¸
Ð»ÐµÑĤ Ð½ÐµÐ³Ð¾
ĠÐ¾ÑĤÐºÑĢÑĭÑĤ ÑĭÐ¹
ĠÑĥÐ»Ð¸ÑĨ ÐµÐ¹
ĠÐ½Ð°Ð¹Ð´ ÐµÐ½Ñĭ
ĠÐ±ÑĢÐ¾Ð½ ÐµÑĤ
ĠÐ±Ð¾Ð»ÑĮ Ð½Ð¸ÑĨÑĭ
ĠÐµ Ñİ
Ġn o
ÑĥÑĪ Ð°
ct ion
ĠÐ²ÑģÐµÐ¼Ð¸ÑĢ Ð½Ð¾Ð³Ð¾
ĠÐµ Ð´Ð²Ð°
ĠÐ¿ÑĢÐµÐ´ÑģÑĤÐ°Ð² Ð¸ÑĤÐµÐ»ÐµÐ¼
ĠÐ³Ð¾ÑģÑĥÐ´Ð°ÑĢÑģÑĤÐ²ÐµÐ½ Ð½ÑĭÐµ
ĠÐ²ÑĭÐ± Ð¸ÑĢÐ°
ĠÐºÑĢÐ¸ÑĤ Ð¸ÐºÐµ
ĠÑģÐ°Ð¼Ð¾ ÑĥÐ±Ð¸Ð¹
ĠÐ» ÑĥÐ¶
ĠÐ´Ð¾Ð½ ÐµÑĨ
ĠÐ·Ð°Ð¼ÐµÐ½ Ñĥ
ĠÐ¼ÑıÑĩ ÐµÐ¹
ĠÐ¸Ð³ ÑĢÐ¾Ð¹
ĠÐ¿ Ð°ÑĪ
ĠÑİÐ¶ Ð½ÑĭÑħ
ĠÐ¾Ð±ÑĢÐ°Ñī ÐµÐ½Ð¸Ñı
Ð¾ÑĢ Ð¶
ĠÐºÑĢÐ°Ñģ Ð½Ð¾Ð·
ĠÑĥÑĩÑĳ Ð½ÑĭÐµ
ĠÐ½Ð°Ð¼ Ð½Ð¾Ð³Ð¾
Ð³ Ð¾Ð´Ð°
Ð¾Ð½ ÑģÐºÐ¾Ð¹
ĠÑĪ Ð¸Ð¿
ĠÐ´Ð¶ Ð°Ð½
ĠÐ¼ÑĥÐ¶ ÑĩÐ¸Ð½Ð°
ĠÐ¼Ð¾ÑĤÐ¸Ð² Ð°Ð¼
ĠÐ½Ð° Ð¾Ð±Ð¾ÑĢÐ¾ÑĤ
ĠÐºÐ° Ð¶
ĠÐ¿Ð¾ÑĢ ÑĤÐ°
ĠÑĤÑĢÑĥÐ´ Ð¾Ð²
Ġ187 3
Ð³ ÑĥÑĢ
ĠÑħÑĥÐ´Ð¾Ð¶ ÐµÑģÑĤÐ²
Ð³Ð¾Ð» ÑĥÐ±
ĠÐ·Ð½Ð°ÑĩÐ¸ÑĤÐµÐ»ÑĮ Ð½ÑĥÑİ
Ð°Ð¿ Ð¿Ð°ÑĢÐ°ÑĤ
ĠÐ¾Ð¿ÑĢÐµÐ´ÐµÐ» ÐµÐ½Ð¸Ðµ
ĠÐ¾ÑĤÐ´ÐµÐ» Ð¾Ð¼
ĠÐ¶Ð°Ð½ ÑĢÐ°
ĠÐ¾ÑĤÐ·ÑĭÐ² Ñĭ
ĠÐ¿Ð¾Ð´ ÑĩÑĳÑĢÐº
ĠÐ´Ð¾Ð» Ñı
ĠÑĨÐµÐ» ÑĭÐ¹
Ð¶ ÐµÑĢ
ĠÐ¾ÑĤ ÑĭÐ³
196 3
ĠÐ¾Ð¿ÑĢÐ°Ð² Ð´
Ð² Ð°Ð»ÑĮ
ĠÐ¿Ð¾Ðº Ð¾Ð¹
Ġh ot
ĠÐ°Ð¼ ÑĥÑĢ
Ð°Ð¼ Ð±Ñĥ
ĠÐ¸Ð¼ Ð¼ÑĥÐ½
ĠÐ¼Ð°ÑģÑģ Ð¾Ð²Ð¾Ð¹
Ñģ Ð¾ÑģÑĤÐ¾Ñı
ĠÐ¸ÑģÑĤÐ¾ÑĢ Ð¸ÑĩÐµÑģÐºÐ¸Ðµ
ĠÑģÐ¾ÑħÑĢÐ°Ð½ Ð¸Ð»Ð¾ÑģÑĮ
i os
ĠÐµÐ²ÑĢÐ¾Ð¿ Ñĥ
Ð½ÐµÐ² Ð¾ÑģÑĤ
ĠÐ°ÑĢÑħÐ¸ÐµÐ¿Ð¸ÑģÐºÐ¾Ð¿ Ð°
ÑĤÐµÑĢÑĢÐ¸ÑĤÐ¾ÑĢÐ¸ Ð°Ð»ÑĮÐ½Ð°Ñı
Ġ all
ĠÐ¿Ð¾Ð´ ÑĬ
ĠÐ°Ð½ Ð¸Ð¼
ĠÐ¿ÑĢÐ¾ÑĤÐ¸Ð² Ð¾ÑģÑĤÐ¾Ñı
ĠÐ´ ÐµÐ·
Ð¾ÑģÑĤ ÑĥÐ´
Ð¸Ð³ Ð¾ÑĢ
ĠÐ´Ð² Ð¸Ð½
ÑĤÐ¾Ð² ÑĭÑħ
ĠÐ·Ð°Ñħ Ð²Ð°ÑĤÐ°
ĠÐ¾Ð±ÑģÐ»ÑĥÐ¶ Ð¸Ð²Ð°Ð½Ð¸Ñı
ĠÐ²Ð¸Ð´ ÐµÑĤÑĮ
k a
ĠÐ· Ð¾Ð½Ð°
ĠÐ¿ÑĢÐ¾ÑĨÐµÑģÑģ Ñĭ
ĠÐ¼Ð°Ð¹ ÐºÐ»
Ð¸ÑģÑĤ ÑĭÑħ
ÑĥÑģÑĤ Ð°Ð½Ð¾Ð²
er a
Ġ7 7
ĠÐºÐ²Ð°Ð»Ð¸ÑĦ Ð¸ÐºÐ°ÑĨÐ¸Ð¸
ĠÑĢ Ð¸Ð¶
ĠÑģÑĤÐ°Ð» Ð¸Ð½Ð³ÑĢÐ°Ð´
ĠÑĤÐµÐ» ÐµÑĦ
ĠÐ¾Ð¿Ð¸Ñģ Ð°Ð»
ĠÑģÐ¿ Ð°ÑģÑĤÐ¸
ÑģÑĥ Ð°
ĠÐ¿ÑĥÑĪ ÐºÐ¸Ð½Ð°
ĠÐ·ÐµÐ¼Ð»Ñı Ñħ
ĠÐºÐ¾Ð» Ð»Ðµ
ĠÑĤÑĢÑĥÐ´ Ñĭ
ĠÑģÑĤÐ°Ð± Ð¸Ð»
Ð² Ð¸Ð»
Ð´Ð¶ ÐµÑĢÑģ
Ġ187 2
Ġ187 6
ĠÐ²ÐµÑĢÐ½ÑĥÐ» Ð¸ÑģÑĮ
ĠÐ²Ð¾Ð·ÑĢ Ð¾Ð¶Ð´ÐµÐ½Ð¸Ñı
ĠÐ´Ð¸Ð¼ Ð¸ÑĤ
Î ±
ĠÑĢÐ°Ð·Ð¼ Ð½Ð¾Ð¶
ĠÐ¼ÐµÐ½ÑĮ ÑĪÐµÐ¹
ÐµÐ¼Ð¾Ð½ ÑģÑĤÑĢ
ĠÐ½ Ð¾ÑĤ
ĠÐ¿ ÐµÐ½Ð·
ĠÑĥ ÑĪ
ĠÐ°ÐºÐ°Ð´ÐµÐ¼ Ð¸Ñı
ÑįÐ»ÐµÐºÑĤ ÑĢÐ¾Ð½
Ð²Ñģ Ð»ÐµÐ´
ĠÐ±ÑĢ ÐµÐ½Ð´
Ð°Ñį ÑĢÐ¾Ð¿
ĠÐºÑĢÐ¸ÑģÑĤÐ°Ð» Ð»Ñĭ
Ð°Ð² ÑĢÐ°
ÐµÑĢÐµ Ð´Ð¸
ĠÑģ ÐµÐ¿
Ð¸Ñħ Ð¾Ð´
ĠÐ¾Ð±ÑĢÐ°Ð·Ð¾Ð²Ð°Ð½ Ð¸ÐµÐ¼
ĠÐ±ÑĢÐ¾Ð½ ÐµÐ½Ð¾Ñģ
ĠÐ¸ÑĤÐ°Ð»ÑĮÑıÐ½ ÑģÐºÐ¾Ð³Ð¾
up er
Ð½ÐµÐ³ ÑĢÐµÑĩÐµÑģÐº
ĠÐºÐ¾Ð»Ð»ÐµÐ³ Ð¸Ð¸
ĠÑģÐµÐ¼ÑĮ ÑĳÐ¹
Ðº Ð¾ÑģÑĤÑĮÑİ
ĠÐ°Ð» Ð±
ÑģÐ»ÑĥÐ¶ Ð¸Ð»
ÑĢÐ¾Ñģ Ð°
Ð»Ð¾ Ñħ
ĠÐ»Ð¸ÑĤ Ð¾Ð²
ĠÐ¾ÑĤÐ´ÐµÐ»ÑĮ Ð½Ð¾
ĠÐ± ÐµÐ½Ð·
ĠÐ¿Ð¾Ð»Ð¸ÑĤ Ð¸Ðº
ĠÐ´Ð¸Ð°Ð³ Ð½Ð¾ÑģÑĤ
Ð» Ð¾Ðµ
ĠÐºÐ°Ðº Ð¸Ð¼
ĠÐ»ÐµÑģ Ð°Ñħ
ĠÐºÐ°Ð» ÑĥÐ¶
ĠÐ´ Ð¸Ð»
Ñģ Ð°Ðº
Ġ187 5
ĠÐ¾Ð³ Ð½ÐµÐ²
ĠÐ·Ð°Ð½Ð¸Ð¼ Ð°Ð»Ð°ÑģÑĮ
ĠÑĥÐ¿Ð¾Ð¼ Ð¸Ð½Ð°
Ġ14 0
ĠÑģÐ°Ð¹ ÑĤ
ĠÐ¿Ð¾Ñģ Ð¼ÐµÑĢÑĤÐ½Ð¾
ĠÐ»Ñĥ ÐºÐ°
ÐµÐ² Ð°ÐµÑĤ
ĠÐ¿ÑĢÐ¾Ð¶Ð¸Ð² Ð°Ð»
ĠÐ¾Ð±ÐµÑģÐ¿ÐµÑĩ ÐµÐ½Ð¸Ðµ
ÑĢÐ°ÑģÐ¿Ð¾Ð»Ð¾Ð¶ ÐµÐ½Ð¾
ĠÐ¼Ð°Ð´ ÑĢÐ¸Ð´
ĠÐº ÑĢÐµ
ĠÐ¾Ñĩ Ð¸ÑģÑĤ
ĠÐ¾ÑĤÐºÐ°Ð· Ð°Ð»Ð¸ÑģÑĮ
ĠÐ½Ð° ÑĪ
ĠÑı ÐºÑĥÑĤ
ÐºÐ¾Ð² Ð°Ñı
Ġp l
ĠÐºÑĢÑĭ Ð¼Ñĥ
Ð¾Ð¿ÑĢ Ð¸Ð¼
ĠÑģ Ð¿ÑĢÐ¾Ñģ
Ð»Ñı Ð»ÑģÑı
ĠÐ¼Ð¾ÑĢ ÑĦ
ĠÑĥ Ð¹ÑĤÐ¸
ĠÑħ ÑĢÑĥ
ĠÐ°ÐºÐ°Ð´ÐµÐ¼ Ð¸Ðº
ĠÐ½Ð°ÑģÑĤÐ¾ÑıÑī Ð¸Ð¹
ĠÑģÐ¾ÑĤÑĢÑĥÐ´Ð½Ð¸Ñĩ ÐµÑģÑĤÐ²Ð°
ĠÐ¸Ð½ÑĤÐµÑĢ Ð¿ÑĢÐµ
ĠÐºÐ¾Ð½ÑģÐµÑĢÐ² Ð°ÑĤÐ¸Ð²
ĠÐ¿ÑĢÐ¾Ð²Ð¾Ð·Ð³ Ð»Ð°Ñģ
Ð¼ÐµÑĤ Ð¾Ð´
ĠÑģÐ¾Ð³Ð»Ð°Ñģ Ð¸Ð»ÑģÑı
ĠÐºÐ¸Ðµ Ð²Ð°
ĠÐ»Ð¾ÑĪÐ°Ð´ ÐµÐ¹
ĠÐº ÑĢÑĥ
ĠÐ³ Ð°Ð³
ĠÐ½ÐµÐ¼ÐµÑĨ ÐºÐ¸Ð¼
ÑģÑĤÐ°ÑĢ Ð¾ÑģÑĤÑĭ
ĠÑĢÐµ ÑĦÐµÑĢ
Ġs m
ĠÐ¾Ð¿ÑĥÐ±Ð»Ð¸Ðº Ð¾Ð²Ð°Ð½Ð°
ĠÐ¿ÑĢÐ¾ÑĦÐµÑģÑģÐ¸Ð¾Ð½ Ð°Ð»ÑĮÐ½Ð¾Ð³Ð¾
Ð¾Ð¹ Ð´Ñı
ĠÐ±Ð¾Ñı ÑĢ
ĠÑĥÐ¶ Ð°Ñģ
ĠÐ³ Ð¸
ĠÑģÑĥÑīÐµÑģÑĤÐ² Ð¾Ð²Ð°Ð»Ð¾
ĠÐ¼ÐµÐ» ÐºÐ¸Ðµ
ĠÐ½Ð°Ð¿Ð¾Ð¼ Ð¸Ð½Ð°
Ð°Ð½ ÑģÐºÐ¸Ðµ
Ð± Ð°Ðº
ĠÐ¸ÑģÐ¿ Ð°Ð½ÑģÐºÐ¸Ð¹
ĠÐ²Ð· ÑıÐ»Ð¸
ĠÐ¼Ð»Ð°Ð´ ÑĪÐµÐ³Ð¾
ĠÑıÑĢ ÐºÐ¾
ĠÑħÑĥÐ´Ð¾Ð¶ÐµÑģÑĤÐ²ÐµÐ½ Ð½Ð¾Ð³Ð¾
ĠÐ´ÐµÐ²ÑĥÑĪ ÐºÐ°
ĠÐ¾Ð±ÑģÐµÑĢÐ² Ð°ÑĤÐ¾ÑĢÐ¸Ð¸
ĠÐºÐ¾Ð½ÑĨÐµÑĢÑĤ Ð¾Ð²
ĠÑģÐ°Ð¼Ð¾Ð»ÑĳÑĤ Ñĭ
Ðº ÐµÑĤ
ĠÐ´Ð°Ð»ÑĮ Ð½ÐµÐ³Ð¾
ĠÑģÐ¾Ð»Ð´ Ð°ÑĤÑĭ
ĠÐ´ÑĥÑĪ Ð¸
ĠÐ¿Ð¾Ð»Ð½Ð¾Ð¼Ð¾Ñĩ Ð¸Ð¹
ĠÐ¾Ð±Ð¾ÑĢÐ¾Ð½ Ðµ
ÑĪ Ð°ÑĢ
ĠÑĤÑĢÐ°Ð½ ÑģÐ»Ð¸
Ð»Ð¸ÑĪ ÑĮ
ĠÐ¾ÑģÐ²Ð¾Ð±Ð¾Ð¶Ð´ ÑĳÐ½
ĠÑįÐ¼Ð¸Ð³ ÑĢ
ĠÐ½ÐµÐ½ Ð°Ð²
ĠÐºÐ¼ÐµÑĤ ÑģÑĤÐ²Ðµ
ĠÑģÐµÐ²ÐµÑĢ Ð½ÑĭÑħ
ĠÑģÑĤÐ¾Ð» Ð¸ÑĨÐµÐ¹
ĠÐ»ÑĮÐ² Ð¾Ð²
ĠÐ¿ÑĢÐ°Ð·Ð´ Ð½Ð¸Ðº
ĠÐºÑĢÐµÐ¹ ÑģÐµÑĢ
ĠÐ³ ÑĢÐ¾Ð´
ĠÐºÐ¾Ð½ÑĤ ÐµÐºÑģÑĤ
Ð°Ð´ Ð¼Ð¸ÑĢÐ°Ð»
ĠÑģÐ¾ÑİÐ· Ðµ
ĠÐ¾ÑĤ ÑĤÐµÐ½
ÑįÐ¹ Ð½
ĠÐ»Ð°Ð½Ð´ ÑĪÐ°
ÑģÑģ Ð¾Ð½
Ġs ch
ĠÐ¿Ð¾Ð»Ð¸ÑĤ ÐµÑħÐ½
ĠÑĥÐ³ Ð»Ñı
ĠÑįÐº Ð²
ĠÑģÑĢÐµÐ´ Ð½Ð¸Ðµ
ÐµÐ» ÐµÐ½
ĠÐ± Ð¾ÑĢÐ¾Ð²
ĠÐ¿ÑĢÐ¾Ð´ ÐµÐ¼Ð¾Ð½ÑģÑĤÑĢ
ĠÑģÑĩÐ¸ÑĤ Ð°Ñı
ĠÐ¾ÑĤÐ² Ð°Ð³Ñĥ
ĠÐ¿ÑĢÐµÐ´Ð¾ÑĤ Ð²ÑĢÐ°Ñī
ĠÑģÐº ÑĢÑĭÑĤ
ĠÐ°Ð½Ð³ ÐµÐ»
ĠÐ½Ð° ÑĪÑĳÐ»
ĠÐ½Ð°Ð´Ðµ Ð¶
Ñĥ ÑĨ
ĠÐ¼ Ð¾Ð±Ð¸Ð»
ĠÐ· Ð°Ð»Ð°
ĠÐ°Ð»Ð³Ð¾ÑĢ Ð¸ÑĤ
ĠÑħ Ð°ÑĢÑĤ
ĠÐ°Ð·ÐµÑĢÐ±Ð°Ð¹Ð´Ð¶ Ð°Ð½ÑģÐºÐ¾Ð¹
p t
ĠÐ¿Ð¾Ð¿ Ð°Ð»Ð¸
ĠÐ·Ð°ÐºÐ»ÑİÑĩ Ð¸Ð»
ĠÐ¼ÐµÑĢÐ¾Ð¿ÑĢÐ¸ÑıÑĤ Ð¸Ñı
ĠÐºÑĢÐ¸Ð· Ð¸Ñģ
Ð»Ð° ÑĩÐ¸Ð²
Ð¸ÑģÑĤ Ð¾Ñĩ
ÑĢÑĥÐºÑĤ Ð¸Ð²
ĠÑģÐ¼Ð¾Ð» ÐµÐ½ÑģÐºÐ¾Ð¹
Ð°Ð½ ÑģÐ°
ĠÐ±ÐµÑģÐ¿ Ð¾ÑĢÑıÐ´
ĠÑĢÐ° ÑģÑĤÐ²
ĠÐ¶ Ð¸ÑĤÐµÐ»ÑĮ
ĠÐ¿Ð¾Ð´ ÑĢÑĥÐ³
ĠÐ¿ÐµÑĢÐµ ÑģÑĤÑĢÐ¾
Ġ3 50
ĠÐ·Ð½Ð°Ñĩ Ð¸ÑĤ
ĠÐ¿Ð¾Ð¼Ð¾Ð³ Ð°ÐµÑĤ
ĠÐ´ Ð°Ð¹
ĠÐ¾Ð´Ð¸Ð½ Ð¾ÑĩÐ½Ð¾Ð¼
Ð¼Ð°ÑĢ Ð¸Ñı
ĠÐ¿Ð¾Ð»Ð¾ÑĤ Ð½Ð¸
ÑģÑĤ ÐµÐ¿
ĠÐ° Ð±Ñĥ
ĠÑĢÐµ Ð¿Ñĥ
ÑĨÐ¸Ð¾Ð½ Ð½ÑĥÑİ
ĠÐ¿Ð¾Ð¿ ÐµÑĩ
ĠÐ½Ð¸Ð¶ Ð½Ð¸Ð¹
ĠÐ´Ð½Ðµ Ð¿ÑĢÐ¾Ð¿ÐµÑĤÑĢÐ¾Ð²
Ð¼ Ð¸Ð´
ĠÑģÑĤ ÐµÐ±
Ġ3 000
ĠÐ»Ð¸ÑĨ Ð¾Ð¼
ĠÐ½Ð°Ð¿Ð¾Ð¼Ð¸Ð½ Ð°ÐµÑĤ
ĠÑģÑĩÐ¸ÑĤ Ð°ÑİÑĤÑģÑı
ĠÐ¸Ð·Ð± Ð°Ð²
ĠÐ½Ð°ÑĥÑĩ Ð½ÑĭÐ¼
ĠÐ½Ð¸Ð¶ Ð½ÐµÐ³Ð¾
ĠÑįÑģÑĤ Ð°ÑĦ
ĠÐ½Ð° Ð¿Ð¸ÑĤ
ĠÑģÑĤ ÑĢÐ°Ð¶
ĠÐ¿ÑĢÐ¸Ð² ÑıÐ·
Ġe d
ĠÑģÐ¾ÑĤÑĢÑĥÐ´Ð½Ð¸Ñĩ ÐµÑģÑĤÐ²Ð¾
ĠÑĦ ÑĥÐ½ÑĤÐ¾Ð²
ĠÑĪ Ð°Ð±
ĠÐºÐ¾ Ð°Ð»
ĠÑıÐ¿Ð¾Ð½ ÑģÐºÐ¸Ñħ
198 4
ĠÐºÑĢÐ¸Ð· Ð¸ÑģÐ°
ĠÐ¸ ÑĢÐ°Ðº
ĠÑģÑĤ Ð°Ð½Ð´
ĠÐ¿Ð¾Ð¼ ÐµÑĪ
ĠÐ°Ð»Ñİ Ð¼Ð¸Ð½
Ð°ÑĢ Ð¸Ñİ
ĠÑħ Ð°Ð½Ð°
Ð½Ð¾Ð² ÑģÐºÐ¸Ð¹
ĠÐ·Ð°Ð² ÐµÑī
ĠÑģÐ° ÑĥÐ½Ð´ÑĤ
ÑĨÐ¸Ñı Ð¼
ĠÑģÑĤÑĢÐ° ÑĪ
ĠÐ¸ÑĤÐ°Ð»ÑĮÑıÐ½ ÑģÐºÐ¾Ð¹
ÑĢ Ð¸Ñİ
ĠÑģÑĥÐ´ Ð½Ð¾
ĠÑĢÐ°Ð·ÑĢÐ°Ð±Ð¾ÑĤ ÐºÑĥ
ĠÐ½Ð° Ð²Ñĭ
ĠÑģÑĤÐ°ÑĤÑĮ Ñı
ĠÑĪ Ð²
Ð°Ð¹ ÐºÐ°Ð»ÑĮ
ĠÐºÐ° ÑĢÐµÐ»
ĠÐ³Ð¾Ð» Ð»Ð¸Ð²
ĠÐºÐ¾Ð¼Ð¿Ð¾Ð· Ð¸ÑĨÐ¸Ñı
ĠÐµÐ´Ð¸Ð½ÑģÑĤÐ²ÐµÐ½ Ð½Ð¾Ð¹
Ð½ÐµÐ½ ÑģÐºÐ¾Ð¹
ĠÑĤÐ¾Ðº Ð¸Ð¾
Ð¸Ðº Ð¾Ð²Ð°
ĠÐ²Ð¾Ð· Ð±ÑĥÐ¶Ð´
ĠÐ·Ð°Ð´Ð°Ñĩ Ñĥ
Ð´ Ð¶Ðµ
ĠÐ±Ð°Ð» ÐµÑĤÐ°
ĠÐ½ Ð¼
ÐµÑĢ Ð¼Ð°Ð½
ÑİÐ· Ð¸Ðº
Ġ enter
Ð¿ÑĢ ÑıÐ¼
Ð°Ð²ÑĪ ÐµÐµ
ĠÑģÐ² ÑıÑĤÐ¾
Ð¾ÑĢÐµ Ð¹
Ġ16 0
ĠÐ¼Ð¸Ð½ ÐµÑĢÐ°
ĠÐ¿Ð¾Ñĩ ÐµÐ¼Ñĥ
ĠÐ¿Ð° ÑĢÐµ
ĠÐ»ÐµÐ² Ð¾Ð³Ð¾
ĠÑĤÑİÑĢÑĮ Ð¼Ñĥ
ĠÐ¿ÑĢÐ¾ÑģÐ² ÐµÑīÐµÐ½Ð¸Ñı
ÑĢÐ¾Ð² ÑģÐºÐ¸Ð¹
ĠÑĢÑĥ ÐºÑĥ
ĠÐºÐ¾Ð¶ Ð¸
w w
as h
ĠÑģÐ°Ð¼Ð¾ÑĥÐ¿ÑĢÐ°Ð² Ð»ÐµÐ½Ð¸Ñı
/ /
ĠÑĥ Ð»Ð¸Ñĩ
ĠÑģÐ¸Ð½ Ð¾Ð´Ð°
ĠÐ¿Ð¾ÑħÐ¾Ð´ Ðµ
ĠÐºÐ°Ð½ÑĨ ÐµÐ»Ñı
Ð² Ð¾Ð»ÑĮ
Ð¿ ÐµÑĢÐ¸
ĠÑĢÐ°Ð·ÑĢÐ°Ð±Ð¾ÑĤ Ð°Ð»
ĠÐ¿ÑĢÐ¾Ðº ÑĥÑĢ
ĠÐºÐ°Ð¿ Ð¸ÑĤÑĥ
Ġ18 40
ĠÐ´Ð¾Ð¿Ð¾Ð»Ð½ ÐµÐ½Ð¸Ðµ
ĠÑĦÑĢÐ¸Ð´ ÑĢÐ¸ÑħÐ°
ĠÐ¿Ð¾Ð² ÐµÐ»
ĠÐ´ÐµÐ±ÑİÑĤ Ð½ÑĭÐ¹
ĠÐ¿ÑģÐ¸Ñħ Ð¾Ð»Ð¾Ð³Ð¸Ð¸
ĠÐ¾Ð¿Ð¿Ð¾Ð· Ð¸ÑĨÐ¸Ð¸
ĠÐ¸Ð¼Ð¿ ÐµÑĢ
ĠÑĢÐ°ÑģÐ¿Ð¾Ð»Ð¾Ð¶ ÐµÐ½Ð¸Ðµ
Ð¿ÑĢÐ¸Ð½Ð¸Ð¼ Ð°Ð»
ĠÐ¿Ð¾Ð»ÑĥÑĩ Ð¸Ð²ÑĪÐ¸Ð¹
ÑĨÐµÐ½ÑĤ ÑĢÐ°
iv ers
Ñī Ð°
ĠÑģÑĤ ÑĢÑĥ
Ð½Ð°Ðº Ð¾Ð½ÐµÑĨ
la t
ĠÑģÑĩÐ¸ÑĤ Ð°Ð»ÑģÑı
ĠÑĤÑĥÑĢÐ½ Ð¸ÑĢÐ¾Ð²
v i
Ð¾Ð² Ð°Ð²
ÐµÑĢÐ½ Ð°Ð½Ð´
ĠÑģÑĢÐ¾Ðº Ð°
ÑĮ Ñĳ
ĠÐ¼ Ð²
Ð¾Ðµ Ð³Ð¾
ÑĦ ÐµÐ»ÑĮÐ´
Ð»Ð° Ð¶
19 30
ĠÑģÑĥÐ´ ÐµÐ¹
ĠÑĢÐ¾Ð» ÐµÐ¹
Ð¿ÑĢÐ¸Ð½ ÑıÑĤ
ĠÐ²Ð¾Ð»ÐµÐ¹ Ð±Ð¾Ð»
ĠÐ¼Ð¸Ð½ ÐµÑĢÐ°Ð»ÑĮ
ĠÐ´ÐµÑĤ ÑģÐºÐ¸Ñħ
ĠÑģÐ»ÑĥÐ¶ Ð±Ð°
ĠÐ½ÐµÑĦÑĤ Ñı
Ð¸Ð½ ÑĨÐµÐ²
ĠÐ°Ð½Ð´ÑĢÐµ ÐµÐ²Ð¸Ñĩ
ÐµÐ² Ðµ
ĠÑģÐ¾Ð± Ð°Ðº
Ġ187 4
ĠÐ¾Ð¿ÐµÑĢÐ° ÑĨÐ¸Ñİ
Ñį Ð»Ñı
Ð½Ñı Ðº
ĠÐ½Ð°Ð·ÑĭÐ² Ð°ÑĤÑĮÑģÑı
ĠÐ¿ÑĢÐ¸Ð± ÑĭÐ²
ĠÐ²Ð¾ÑģÑģÑĤÐ°Ð½Ð¾Ð² Ð¸ÑĤÑĮ
ĠÐ¿ÐµÑĢÐ² ÑĭÐ¼Ð¸
Ġ186 9
Ð¾Ð· ÐµÑĢÐ¾
ĠÐ» Ð¸ÑĦ
ĠÐ¿Ð¾Ð´ Ð»Ð¸Ð½
Ġc r
ĠÐ²Ð°Ð» ÐµÑĢÐ¸Ð¹
ĠÐ³Ñĥ ÑģÑĤÐ°Ð²
ĠÐ²Ð¸ÑĢ ÑĤÑĥ
ĠÐ³ÑĢÐ°Ð¶Ð´Ð°Ð½ ÑģÐºÐ¸Ñħ
ĠÐ¿ÑĢÐ¾ÑģÑĮ Ð±Ð¾Ð¹
ÐµÐ½ ÑĨÐ°
Ġ1 13
ĠÐ¸Ð·Ð¾Ð±ÑĢÐ°Ð¶ ÐµÐ½Ð¸ÐµÐ¼
ĠÐ¿ÑĢÐµÐ´ÐµÐ» Ñĭ
ĠÐ¼ Ð¾Ðº
ÑĥÐ» ÑģÑı
Ð²Ñĭ ÑĪÐµ
ĠÐ½ÐµÐºÐ¾ÑĤÐ¾ÑĢ ÑĭÐ¼Ð¸
ĠÑģÐµÑĢÐ³Ðµ ÐµÐ²Ð¸Ñĩ
Ð°Ð½ Ð½ÑĭÐ¼Ð¸
Ð¾ÑģÐ½Ð¾Ð² Ð½ÑĭÐ¼Ð¸
ĠÐ¾Ð±Ñī Ð¸Ð½Ð°
ĠÐ³Ð¾ÑĢ Ð´
ĠÐ»ÐµÐ¹ ÑĤÐµÐ½Ð°Ð½ÑĤÐ°
Ð½ Ð¾Ð»
ĠÑĥ Ð¼Ð¸ÑĢÐ°
ĠÐ²Ñĭ Ð¼
ĠÐ³Ð»Ð°Ð² Ð½ÑĭÐµ
Ġm y
ĠÐ¿ Ð°Ñħ
ĠÐ¼ Ð¸Ñĩ
ĠÐ½Ð°ÑħÐ¾Ð´ ÑıÑģÑĮ
Ð°ÑĦ ÑĢÐ¸ÐºÐ°Ð½
ĠÐ¿Ð¾ÑģÑĤÐ°Ð½Ð¾Ð² Ð»ÐµÐ½Ð¸Ðµ
ĠÐ²Ð¾Ð·Ð´ÑĥÑħ Ðµ
ĠÑģÑĤÐ¾Ñı Ð»
Ð¾Ð· Ð½Ð°Ð²
ĠÑħ ÐµÐ¹
ĠÐ¿ÑĢÐµ ÑģÐ²ÑıÑĤÐ¾Ð¹
ĠÐ½Ð¸Ðº Ð¸ÑĤ
ĠÐ³ÑĢÐ¸Ð³Ð¾ÑĢ ÑĮÐµÐ²Ð¸Ñĩ
Ð» Ð°ÑĤÑĭ
Ð¸Ð½ ÑĦÐ¾ÑĢÐ¼Ð°
ĠÑģÐ¸Ð¼ ÑĦÐµÑĢ
ĠÐ·Ð¾Ð»Ð¾ÑĤ ÑĥÑİ
ĠÑģÐµÑĢÐµÐ±ÑĢÑı Ð½ÑĭÐ¹
ĠÐ²Ð¾Ð² ÑģÐµ
Ð»Ð¾ ÑĨ
20 16
ĠÐ²Ð»Ð°Ð´ Ð¸Ð²Ð¾ÑģÑĤ
ĠÐ± Ð°Ð»ÑĮ
ĠÐ³Ð¾ÑģÑĥÐ´Ð°ÑĢÑģÑĤÐ²ÐµÐ½ Ð½ÑĭÐ¼
Ð½ Ð¸Ð½
Ð¿ Ð°Ðº
ĠÐ·Ð° ÑĩÑĳÑĤ
ĠÐºÑĢÐ¸ÑģÑĤ Ð°Ð»Ð»
ĠÐ¸Ð½ÑĤÐµÑĢÐµ ÑģÑĭ
Ð¸Ð· ÑĥÑĩ
ĠÐ² ÑģÐº
Ð± ÑĢÐ¸ÑĤ
ÑģÑĤÐ²ÐµÐ½ Ð½ÑĭÐ¼Ð¸
Ð¾Ð¿ÑĢÐ¸Ð¼ ÐµÑĩÐ°ÑĤÐµÐ»ÑĮ
ĠÑħ Ð°ÑĤ
ĠÐ½Ð°ÑģÑĤ Ð¾ÑıÑĤ
ĠÑģÐ°Ð¼ Ð¾Ðº
Ġ8 2
ĠÑģÐ¿ÐµÑĨÐ¸ Ð°Ð»ÑĮÐ½Ð¾Ð¹
ĠÐ´Ð¾Ð» Ð¸Ð½Ñĭ
ĠÐµÐºÐ°ÑĤÐµÑĢ Ð¸Ð½Ð°
Ð´ Ð²Ðµ
Ð¸Ð³ ÑĢÐ¾Ðº
Ġ8 8
ĠÑģÑĤÐ°Ð½Ð¾Ð² Ð¸Ð»ÑģÑı
ĠÐ¿ÑĢÐ¾Ð·Ð² Ð¸ÑīÐµ
ĠÐ¿Ð¾Ð´ ÑĢÐ°Ð·ÑĥÐ¼
ĠÐ¾ÑĢ ÑĤ
ĠÑģÐ¾Ð¾Ð±Ñī ÐµÑģÑĤÐ²Ð°
Ñı ÑİÑīÐ¸Ð¹
ĠÐ·Ð°Ð¿ ÑĥÑģÑĤ
ĠÐºÐ¾Ð¼Ð°Ð½Ð´ ÑĥÑİÑīÐ¸Ð¹
ĠÑĤÑİ ÑĢÐµÐ¼
ĠÐ°Ð²Ð¸Ð°ÑĨÐ¸Ð¾Ð½ Ð½Ð¾Ð¹
ÐµÑģÐº Ð¾Ð¼
Ð¾Ð²Ð°Ð½ Ð½Ð¾Ð³Ð¾
ÑĥÐº ÑĢÐ°ÑĤ
ĠÐ¿ÑĢÐ¾ÑĪ Ð»Ð¾
ĠÐ¸Ð¼ÑĥÑīÐµÑģÑĤÐ² Ð°
ĠÐ¿Ð¾ÑĢÑĤ Ñĥ
ĠÑĤÐµÐºÑģÑĤ Ñĭ
ĠÐ´Ð¾Ð¿Ð¾Ð»Ð½ Ð¸ÑĤÐµÐ»ÑĮÐ½ÑĭÑħ
ĠÑĢÐ°ÑģÑĪÐ¸ÑĢ ÐµÐ½Ð¸Ñı
Ð¿Ð¾Ð¿ ÑĥÐ»ÑıÑĢ
ĠÑģÐ²ÐµÑĢÑħ Ñĥ
Ð¸Ð½ Ñģ
ĠÐ´ÐµÐ¹ÑģÑĤÐ² Ð¾Ð²Ð°Ð»Ð¸
ĠÑĤÐ¾ÑĢÐ³Ð¾Ð² ÑĭÑħ
Ð¼ÐµÐ¹ ÑģÑĤÐµÑĢ
Ð´ÐµÐ¹ÑģÑĤÐ² Ð¸Ðµ
ĠÑİ Ð½Ð°Ð¹ÑĤÐµÐ´
ÑĩÐ°ÑĤ ÑĭÐµ
ĠÐ¸ ÑģÐ»
ĠÐ±ÑĭÐ² Ð°ÐµÑĤ
ĠÐºÐ°ÑĦÐµÐ´ ÑĢÐ°Ð»ÑĮ
ĠÐºÐ¾Ð½ÑĤÑĢÐ¾Ð» ÐµÐ¼
Ñģ ÑİÑĢ
Ð¾Ñģ ÐµÐºÑģÑĥ
ĠÑģÑĤ ÑįÐ½
Ð¿ÑĢ Ð¾Ðº
ĠÐ¸Ð½ÑģÐ¿ ÐµÐº
ÐµÐ½ ÐµÑĨ
ĠÐ¾Ð±Ñī ÐµÑģÑĤÐ²
196 5
ÑįÐ¼ Ð¼Ð¸
ĠÑģÐ¾ÑģÐµÐ´ Ð½Ð¸Ñħ
ĠÑģÑĥÐ±ÑĬ ÐµÐºÑĤ
ĠÐ¾Ð±ÑīÐµ Ð¾Ð±ÑĢÐ°Ð·Ð¾Ð²Ð°ÑĤÐµÐ»ÑĮ
ĠÐ»ÐµÑĩ ÐµÐ±
Ð¼ ÑĥÐ´
Ð½Ð¾Ð² Ð¾Ð¹
ĠÐ»ÐµÑĤ Ð¾Ð¿Ð¸Ñģ
ÑĢÑĮ Ð¼Ñı
ĠÐ¶Ñİ ÑĢÐ¸
Ð¾Ð± Ð¸ÑĤ
ÐµÐ¼ ÑĭÐµ
ĠÐ±Ð»Ð°Ð³ Ð¾Ð¿ÑĢÐ¸ÑıÑĤ
ĠÑĤÐ° Ð¸Ð»
ÑģÑĤÐ°ÑĢ ÑĪÐ¸Ð¹
Ð¸Ð² Ñĭ
ĠÐ²Ð¾Ð¹ÑģÐº Ð°Ð¼
ĠÐ¸ÑģÐ¿Ð¾Ð»Ð½ Ð¸Ð»
ĠÑĪÐ¸ÑĢÐ¾Ðº Ð¾Ð¹
ĠÐ¿ÐµÐ² Ð¸ÑĨÑĭ
ĠÐ½Ð°ÐºÐ°Ð· Ð°Ð½Ð¸Ñı
ĠÐ´Ð°Ð½ Ð¾
ĠÑģÐ¿Ð¾ÑĢÑĤ ÑģÐ¼
ĠÑģÐ¾Ð·Ð´Ð°Ð² Ð°ÑĤÑĮ
ĠÑĥÑģÐ¿ ÐµÐ»
ĠÐ¼Ð¸Ð½ÑĥÑĤ Ñĭ
ĠÐ²Ð¾Ð· Ð¼
ĠÐ³Ð»Ð°Ð² Ð½Ð¾Ðµ
Ġ9 6
ĠÑįÐºÑģÐ¿ ÑĢÐµÑģÑģ
ĠÑįÐ¼ Ð±
Ð¾Ð±Ð¾ÑĢ ÑĥÐ´
ĠÐ¿Ð°ÑĤÑĢÐ¸Ð°ÑĢÑħ Ð°
ÑĦ ÑĢÐ¸Ð´
ÐµÐ³ Ð°ÐµÑĤ
ĠÐ¾Ð±ÑĢÐ°Ð· ÑĨÐ°
ĠÑĤÑĥÑĢ Ð½Ðµ
ĠÐ¿ÑĢÐ¾Ð¿ Ð¾ÑĢ
ĠÑĢÐ°ÑĥÐ½ Ð´Ð°
ÐµÑĢ Ð¼
ÐµÑĢ Ð½Ð¾Ð³Ð¾
ĠÐ±Ð°ÑģÐºÐµÑĤ Ð±Ð¾Ð»ÑĮ
ĠÐ¿ÑĢÐ¾ÑĦ ÑģÐ¾ÑİÐ·
ĠÐ³Ð»ÑĥÐ± Ð¸Ð½Ðµ
ĠÐ¾Ð¿Ð°Ñģ Ð½Ð¾ÑģÑĤÐ¸
ĠÑĦÑĢÐµÐ´ ÐµÑĢ
Ñħ Ñį
Ð¸ÑģÑĤ ÑģÐºÐ¸Ñħ
ĠÑĦÐµÐ´ ÐµÑĢÐ°
ĠâĢ ¦
ĠÐ²ÐµÐ» Ð¾ÑģÐ¸Ð¿
ĠÑģÐ¾ÑĨÐ¸Ð°Ð»Ð¸ÑģÑĤ Ð¸ÑĩÐµÑģÐºÐ°Ñı
ĠÑĢÐ°Ð· ÑĬ
ĠÐ²ÑĭÐ¿Ð¾Ð»Ð½ ÑıÑĤÑĮ
ÑĤ ÐµÑĤ
ĠÐ¾ÑĤ ÑĢÐ°Ð²
ĠÑįÑģÑĤ ÐµÑĤ
ĠÐ¿ Ð¸Ð²
ÐµÐ» Ð»Ð¾
ÐµÐ² Ñĥ
ĠÐµ Ð´
ĠÐ·Ð¾Ð»Ð¾ÑĤ Ð¾Ð¼
ĠÐ¼ÐµÑģÑĤÐ¾ÑĢ Ð¾Ð¶Ð´ÐµÐ½Ð¸Ñı
ĠÐ½Ð° ÑĪÐµÐ³Ð¾
ĠÐ¾Ð± ÐµÑĢ
Ð¸ÑĢ Ð¸
ĠÐ¿Ð¾Ð´ Ð°Ð»
ĠÐ¿Ð¾Ð´ÑĢÐ°Ð·Ð´ÐµÐ» ÐµÐ½Ð¸Ðµ
ĠÐ¿Ð¾Ð´ ÑģÐµÐ¼ÐµÐ¹
Ð¾Ð³ÑĢÐ°Ð´ ÑģÐºÐ¾Ð¹
Ð°ÑįÑĢÐ¾Ð¿ Ð¾ÑĢÑĤ
ĠÐ¿ÑĢÐ¾ÑĤ Ð¾ÐºÐ¾Ð»
ĠÐ¿Ð¾Ñĩ ÐµÑĤ
ĠÐ¿ÑĢÐ¾Ð²ÐµÐ´ ÐµÐ½Ñĭ
Ð» Ð¾ÐºÐ¾Ð¼Ð¾ÑĤÐ¸Ð²
us s
ĠÐ»ÑĮ Ð²Ð°
ĠÐ²ÐµÐ»Ð¸ÐºÐ¾Ð±ÑĢÐ¸ÑĤ Ð°Ð½Ð¸Ñı
ĠÑįÐ¼Ð¸Ð³ ÑĢÐ°ÑĨÐ¸Ð¸
Ð¾ ÑĨÐ¸Ð¸
ĠÐ¸Ð¼Ðµ ÑİÑīÐ¸Ñħ
ic al
ĠÐ¾ÑĤÐ»Ð¸Ñĩ Ð¸Ð»ÑģÑı
ĠÐ¸Ð·Ð³Ð¾ÑĤÐ¾Ð² Ð»ÐµÐ½Ð¸Ñı
ĠÐ¿Ð¾ÐµÐ·Ð´ Ð¾Ð²
ĠÐ²Ð¾Ð´Ð¾ ÑĳÐ¼
ĠÐ½Ð¾Ñģ Ð¸Ð»
Ð¾Ð»Ð¾Ð³ Ð¸ÑĩÐµÑģÐºÐ°Ñı
Ð·Ð² ÑĳÐ·Ð´
ĠÐ¾ÑĤ Ð¿ÑĥÑģÐº
Ð¾Ñĩ ÐµÑĢ
ĠÐ¿ÐµÑĢÐµÐ´ Ð°ÑĤÑĮ
ĠÐ±Ð»Ð°Ð³ Ð¾ÑĢÐ¾Ð´
ĠÐ·Ð°ÐºÐ¾Ð½ Ñĥ
ĠÑĢÐ¾ÑģÑĤ Ð¾Ð²ÑģÐºÐ¾Ð¹
Ð°Ð³ Ð½Ð¸ÑĤ
ĠÐ¿ÑĢÐ¸Ð² ÑĳÐ»
ĠÐºÐ°Ñĩ ÐµÑģÑĤÐ²Ð¾
ĠÑĥÑĩÑĳ Ð±Ñĥ
196 6
ĠÑĥÐ²ÐµÐ»Ð¸Ñĩ ÐµÐ½Ð¸Ñı
ĠÑĤÐ°Ð»Ð°Ð½ÑĤ Ð»Ð¸Ð²
ĠÐ¿ÑĢÐ¸Ñģ ÑĥÑĤÑģÑĤÐ²Ð¸Ð¸
ÑĤÑĢÐ°Ð½ ÑģÐ¿Ð¾ÑĢÑĤ
ĠÐº Ñĭ
ÑĢÐ¾Ð¼ Ð°
ĠÐ³ Ð¸Ð»
ÐµÐ»ÑĮ Ð½Ð°Ñı
ĠÐ¾ÑģÐ½Ð¾Ð² Ð½Ð°Ñı
Ð´ÑĢÑĥÐ³ Ð¾Ð¹
ÑĤ Ð¸Ñħ
Ð± Ð¾ÐµÐ²
ĠÑĤ Ð±Ð¸Ð»
ĠÑħÑĢÐµÐ± ÑĤÐ°
ĠÑİ Ð»Ð¸
Ð½Ñĥ ÑĤÐ°
ĠÑįÐ» Ð»Ð¸
ĠÐ¾Ð±ÑĬÐµÐ´Ð¸Ð½ ÐµÐ½Ñĭ
Ġu gc
yst em
ĠÐ° ÑĢÐ°Ð²
ĠÐ´Ð¾Ð± ÑĢ
ĠÐ¿Ð¾Ð¿ÑĭÑĤ ÐºÑĥ
ĠÐ±ÑĥÐº Ð²Ñĭ
ĠÐ½Ð°ÑģÑĩÐ¸ÑĤ ÑĭÐ²Ð°ÐµÑĤÑģÑı
ĠÐ°ÑĥÐ´ Ð¸ÑĤ
e k
ÑĢ Ð¾Ð¶Ð´
Ð°ÑĤ Ð¾Ð³Ð¾
Ñģ Ð°Ñħ
ĠÐ¶ÐµÐ» Ð°Ð½Ð¸Ðµ
Ð´Ð°Ñĩ Ð°
ÑĩÐ¸Ñģ Ð»Ð¾
Ð» Ð°Ð½Ð´Ð°
ĠÐ¾ÑĤÐ»Ð¸Ñĩ Ð¸ÐµÐ¼
ĠÐ½Ð°Ð·ÑĭÐ²Ð°ÐµÐ¼ ÑĭÐµ
ĠÐºÐ»Ð°Ð² Ð¸ÑĪ
ÑĩÐµÑģÑĤ ÐµÑĢ
ĠÑĥÐ· Ð½Ð°Ð²
er t
ÑĩÐµÑģÐº Ð°Ñı
ĠÐ¾Ð±ÑģÐ»ÑĥÐ¶ Ð¸Ð²
Ñģ Ð°Ð¼Ð¸
ĠÐ²Ð¸Ð´ Ð°Ð¼Ð¸
ĠÑģÐ¾Ð²ÐµÑĤ Ð¾Ð¼
ĠÑĢÐ°Ð·Ð»Ð¸Ñĩ Ð½ÑĭÐ¼
ĠÐ¿Ð¾Ð¼Ð¾Ñī Ð½Ð¸Ðº
ĠÑĢÑĭ Ð±Ð¾Ð»Ð¾Ð²
ĠÑĪÐµÑĢ ÑģÑĤ
ÑĢ Ð¸Ð·
ÑıÐ½ Ñĥ
ĠÑģÑĥÐ¿ÑĢÑĥÐ³ Ð¸
Ð¸Ð³ Ð¸
ĠÐ·Ð°Ðº Ð°Ð²ÐºÐ°Ð·
Ð¿Ð¾ÑģÑĤ ÑĢÐ¾
ĠÑĤÑĢÑĥÐ´ Ð½Ð¾
ĠÐ¿ÐµÑħÐ¾ÑĤ Ð½Ð¾Ð¹
ĠÐ´ ÑıÐ´
Ġ1 17
ĠÐ»Ñİ Ð±Ð¾Ð¼
ĠÐ±Ð¸Ð· Ð½ÐµÑģÐ°
ĠÐ¸ÑģÐ¿ Ð¾Ð»
ĠÐ¼ÐµÑĢÐ¾Ð¿ÑĢÐ¸ÑıÑĤ Ð¸Ð¹
Ñĭ ÐºÐ¸
ĠÐ³ ÑĢÐµÐ¹
ĠÐ¼ÐµÑĤÐ°Ð» Ð»Ð¾Ð²
Ð¾Ð² ÐºÐ¸
ĠÑħ Ð°Ð´
ĠÐ¿Ð¸ÑĤ ÐµÑĢ
ĠÑįÐºÑģÐ¿Ð»Ñĥ Ð°ÑĤ
ĠÑı ÑĩÐµÐ¹
197 9
Ð´ÐµÑĤ Ð¸
n o
ÑĢÐ° Ð¿
ÑģÑĤÐ²ÐµÐ½ Ð½Ð¾Ð¼
ĠÐºÐ¾Ð½Ð³ÑĢÐµÑģÑģ Ð°
ĠÐ°Ð±Ð´ ÑĥÐ»
ĠÐºÑĥÐ¹ Ð±Ñĭ
ĠÑĤ ÐµÐ»ÑĮ
ÑĢÐ¾Ð² ÑĭÐ¹
ĠÐ½Ð¾Ð² ÑĭÐ¼Ð¸
ĠÐ±Ð¸ Ð¾Ð³ÑĢÐ°ÑĦ
Ġ ),
ÐºÐ¾Ð¼ Ð¿Ð¾Ð·
ĠÐ¾ÑĤÐ¼ÐµÑĩ Ð°ÐµÑĤÑģÑı
ĠÐ¾Ð¿ÑĥÐ±Ð»Ð¸Ðº Ð¾Ð²Ð°Ð½Ñĭ
ĠÑģÐµÐ³ Ð¼ÐµÐ½ÑĤ
ĠÐºÑĢÐ°ÑģÐ½Ð¾Ð· Ð½Ð°Ð¼
Ð¾ÑĤ Ð¾Ð¼
ĠÑĢÐµ ÑģÑĤÐ¾
ĠÑģÐ¾Ð· Ð½Ð°Ð½Ð¸Ñı
ĠÐ¾ÑĢÐºÐµÑģÑĤ ÑĢ
ĠÐ·Ð°ÐºÐ°Ð½ÑĩÐ¸Ð² Ð°ÐµÑĤÑģÑı
an a
ĠÐ½Ð°ÑģÑĤÐ¾ÑıÑī ÐµÐ³Ð¾
ĠÐ³Ð¾Ð²Ð¾ÑĢ Ñı
ÑĤÑĥ ÑĢÑĥ
ĠÐ² Ð°ÑĢÑĮ
Ġm on
ĠÑĥÑĩÑĳ Ð±Ñĭ
ÑĪ ÐºÐ¸
Ð¾Ð¿ Ð»Ð°Ð½
ĠÐ°Ð» Ð¶
om e
ĠÑģÐ¾ÑĤÑĢÑĥÐ´Ð½Ð¸Ñĩ ÐµÑģÑĤÐ²Ðµ
ĠÑĥÐ¿Ð¾Ð¼ ÑıÐ½ÑĥÑĤ
ĠÑĤ Ð¸ÑĢ
ĠÐºÐ¾Ð¼ ÐµÐ½Ð´
ĠÐ¿ÑĢÐ¾Ð¸ÑģÑħÐ¾Ð´ ÑıÑĤ
Ġ1 12
ĠÑĥ Ð¾ÑĢ
ÑģÐµÐ»ÑĮ ÑģÐºÐ¾Ðµ
ĠÑģ ÐµÑĩ
ĠÐ± ÑĢÐ¾ÑĪ
Ð»Ðµ Ð¾Ð½
ĠÑĢ Ð¸ÑĦ
ĠÐ¾Ñģ Ð»Ð¾Ð¶
ĠÐ°ÐºÑĤ Ñĥ
ĠÐºÑĢÐµÑģÑĤÑĮÑıÐ½ ÑģÐºÐ¸Ñħ
ĠÐ¾ÑĤÐ²ÐµÑĤÑģÑĤÐ²ÐµÐ½ Ð½Ð¾ÑģÑĤÑĮ
ĠÑģÑĤÐ¾Ðº Ð³Ð¾Ð»ÑĮ
ĠÐ¿ÑĢÐµ Ð·
ĠÐ´ÑĢÐµÐ² Ð½ÐµÐ³ÑĢÐµÑĩÐµÑģÐº
ĠÑģÑĭÐ³ ÑĢÐ°Ð²
in i
at t
ĠÐ´ÐµÑģÑıÑĤÐ¸Ð»ÐµÑĤ Ð¸Ñı
ÑĪ Ð°Ð½
ĠÑĥ ÑħÐ¾Ð´Ð¸ÑĤ
ĠÐ½ÐµÐ±Ð¾Ð»ÑĮÑĪ Ð°Ñı
Ð± Ð°Ð´
Ð»Ð°Ð´ ÐµÐ»ÑĮ
ĠÐ½Ð°Ð·Ð² Ð°Ð»Ð¸
ĠÐºÐ°ÑĢ ÑĤÐ¾Ñĩ
ĠÐ¶ÐµÐ½ ÑģÐºÐ¾Ð¹
ĠÑĥÑģÑĤÐ°Ð½Ð¾Ð² Ð»ÐµÐ½Ð¸Ñı
197 6
ĠÑĢÐ°Ð·Ð¼ÐµÑĢ Ñĭ
ĠÑģÑĤÑĢ Ð¾Ð³Ð¾
Ð¼Ð¸ÑħÐ° Ð¸Ð»
ÐµÑĤ Ñĥ
ĠÐ·Ð° Ð¸Ð½ÑĤÐµÑĢÐµÑģ
ĠÑģÐ» Ð¾Ð¼
ĠÐ¼ÑĥÐ¶ ÐµÐ¼
Ġxx i
ĠÐ²ÑĢÐ°Ð¶ÐµÑģÐº Ð¸Ñħ
ĠÐ¸Ð·Ð»ÑĥÑĩ ÐµÐ½Ð¸Ñı
Ð° Ð¶Ð´
ĠÐºÐ¾Ð½ Ð²ÐµÐ½
ÑĢÐ°Ð½ Ð¶
197 4
if e
" :
ĠÐ´ Ð°ÑİÑĤ
ÑĥÐº Ð¾Ð¼
ÑĦÐ¸Ð» Ð´
Ð°Ñģ Ð¸
ĠÑģÐ¿ Ð¾Ð½Ñģ
Ð¸ÑĢÐ¾Ð²Ð°Ð½ Ð½ÑĭÐ¼Ð¸
Ð°ÑĢÐ¸ Ð°ÑĤ
ĠÐ¿ÑĢÐ¾ÑĢ ÑĭÐ²
ĠÐ²Ð¾ÐµÐ½Ð½Ð¾ÑģÐ»ÑĥÐ¶ Ð°ÑīÐ¸Ñħ
Ð¿Ð¸Ñģ Ð°Ð»
ĠÐ°Ð²ÑĤÐ¾Ð¼Ð¾Ð±Ð¸Ð»ÑĮ Ð½Ð¾Ð¹
l er
ĠÑģÐ¾ÑģÑĤÐ¾Ñı Ð»Ð¸ÑģÑĮ
ĠÐ· Ð»Ð¾
Ð¸Ñĩ Ð½ÑĭÐ¼Ð¸
ĠÑģÑĥÑīÐµÑģÑĤÐ² Ð¾Ð²Ð°Ð»Ð¸
ĠÑģÐ¿Ð¾ÑĢÑĤÐ¸Ð² Ð½ÑĭÑħ
ĠÐ¼ ÐµÐº
Ġi m
ĠÐ´ÐµÐ²ÑĥÑĪ ÐºÐ¸
Ð¾Ð¿ÑĢÐ¾ Ð¸Ð·Ð²
ĠÑĤÑĢÑĥÐ´Ð¾ÑģÐ¿Ð¾ÑģÐ¾Ð± Ð½Ð¾Ð¼
ĠÐ±Ð¾Ð»ÑĮÑĪ Ð¸Ð¼Ð¸
ĠÐ²Ð¾Ð´ Ð½ÑĭÑħ
ĠÑĤÐµÑĩ ÐµÐ½Ð¸Ñı
ĠÑģÐ¾ÑħÑĢÐ°Ð½ ÐµÐ½Ð¸Ñı
ĠÑįÑĢ Ð½
ĠÑģÑĬÑĳÐ¼ ÐºÐ¸
ĠÑģ Ð¸Ð½Ð°
ĠÐ´Ð² Ð¾
ĠÑģÑĥÑīÐµÑģÑĤÐ² Ð¾Ð²Ð°Ð»Ð°
ĠÐ¿ÑĢÐ°Ð²Ð¸ÑĤÐµÐ»ÑĮ ÑģÑĤÐ²Ðµ
ĠÐ¿ÑĢ Ð¾ÐºÑĥÑĢÐ°ÑĤ
ĠÐ» ÐµÐ¼
ĠÑĢÐµÐ¹ Ñħ
ĠÐ²Ð°ÑĢÐ¸Ð°Ð½ÑĤ Ñĭ
ĠÐ½Ð°Ð»Ð¸Ñĩ Ð¸Ð¸
p o
Ð¿ ÑĨÐ¸
Ð·Ð°Ð¿Ð°Ð´ Ð½Ð¾Ð³Ð¾
ĠÐ¿Ð¾Ð´Ð¾Ð± Ð½ÑĭÐµ
ĠÑĥÐ¿ÑĢ Ð¾Ñī
ÑĥÐ» Ð¾Ð¹
ĠÐ²Ð¾Ð¿ÑĢÐ¾Ñģ Ñĥ
ÑĢÑĭÐ² Ð°ÐµÑĤÑģÑı
ĠÑĤÐµÑħÐ½ Ð¸ÑĩÐµÑģÐºÐ¾Ð³Ð¾
ĠÐ¼ÐµÐºÑģ Ð¸ÐºÐ¸
ĠÑĤÐµÑģ Ð½Ð¾
ĠÐ²ÑĭÐ½ ÑĥÐ´
ĠÐ¼ÑĥÐ¶ ÑģÐºÐ¾Ð¹
ĠÐ½ÐµÐ¼ÐµÑĨ ÐºÐ°Ñı
196 8
ĠÐ²Ð°ÑĢÐ¸Ð°Ð½ÑĤ Ð¾Ð²
ĠÐ¿ÐµÑĢÐµ Ð¹ÑĤÐ¸
ĠÐ³ÐµÐ½ Ð½Ð°Ð´
ĠÐ½Ð°Ð·ÑĭÐ² Ð°ÑİÑĤÑģÑı
ĠÐ½ Ð¸Ð¸
ĠÐ¿Ð¾Ð» ÐµÐ¼
ĠÐºÐ¾ÑĢÐ¾Ð» Ñİ
ÐºÐ¾Ð¼Ð°Ð½Ð´ Ð¸ÑĢ
ĠÐ°Ð½Ð° ÑģÑĤ
ĠÐ½Ð° ÑģÐ°
ĠÐ¾Ð± ÑĢÑıÐ´
ĠÑģÑĤÑĢÐ°Ð½ Ð°Ð¼Ð¸
ĠÑĤÑĥÑĢ ÐºÐ¼
ĠÐ²Ñĭ ÑģÑĤÑĢÐ¾
ÑĪÐ¸Ðµ ÑģÑı
ĠÑĤ Ð¸ÑĦ
Ð°Ð¼ Ðµ
ĠÐ·ÐµÐ¼ Ð»ÐµÑĤÑĢÑıÑģ
ĠÐ¿ÐµÑĢÐµÐ´ Ð²Ð¸Ð¶
ĠÑĩÐµÑĤÑĭ ÑĢÑĮÐ¼Ñı
ÑĦÑĢÐ°Ð½ ÑĨÐ¸
ÑĤÑĢÐ° Ð´Ð¸ÑĨÐ¸Ð¾Ð½
Ð¸Ðº ÑģÐ°
ĠÐºÐ°Ð¼ Ð½Ñı
ĠÑĢÑĭ Ð±Ñĭ
ĠÐ½ÐµÐ² ÐµÑĢ
ĠÐ½Ð¾Ñģ Ð¸Ð»Ð¸
ÑĪÑĤ ÐµÐ¹Ð½Ð°
ĠÐ»Ð¾Ð´ Ð¾Ðº
ĠÐ¿ÑĢÐ¾Ñħ Ð¾Ð¶Ð´ÐµÐ½Ð¸Ñı
ĠÐ°Ð½Ð³Ð»Ð¸ Ñİ
Ð´ Ñį
Ñİ Ð¼
Ð¶ÑĥÑĢÐ½ Ð°Ð»
ĠÐ¿Ð¾ÑģÐ¿Ð¾Ð»Ð¸ÑĤ Ð¾Ð¹
Ġ1 14
ĠÐ¿ÑĢÐ¾ Ñī
ĠÐ¾Ð´ Ð½Ð¾Ðº
ĠÑģÑĤÑĢÐ¾ ÐµÐ½Ð¸Ð¹
ĠÑĤÐ°Ð¼ Ð±
ĠÐ°Ð¼ Ð±
ĠÐ¿Ð¾Ð»ÑĮ ÑģÐºÐ¸Ñħ
ĠÐ´Ð¾ÐºÑĤÐ¾ÑĢ ÑģÐºÑĥÑİ
ĠÑħÐ°Ð± Ð°ÑĢÐ¾Ð²
Ð¾Ðº Ð°Ð·
ÑĥÑģ Ðµ
ĠÑĦÐ°Ðº ÑĤÐ¾ÑĢÐ¾Ð²
ĠÑģÑİÐ¶ ÐµÑĤÐ°
Ðº Ð¸ÐµÐ²
Ð»ÐµÑĤ Ð¸Ñİ
ĠÐ¿ÑĢÐ°ÐºÑĤ Ð¸ÐºÐ¸
ĠÐ¿ÑĢÐ¸Ð½Ð°Ð´Ð»ÐµÐ¶ Ð°Ð»
ĠÐ´Ð¸ÑĢÐµÐº ÑĤÐ¾ÑĢÐ¾Ð²
197 5
Ñģ Ð¸ÑĤÐ¸
ĠÑĢÐ¾Ð´ Ð¸Ð½Ðµ
ĠÑĩÑĳÑĢ Ð½Ð¾Ð¹
ĠÐ²Ð¾Ð·Ð²ÐµÐ´ ÑĳÐ½
Ð¿Ð°Ð¼ÑıÑĤ Ð½Ð¸Ðº
ĠÑĥÐ²Ð¸Ð´ ÐµÐ»
w ay
ĠÑģÐ¼ Ð¾Ð¶ÐµÑĤ
ĠÑĥÑģÐ» ÑĭÑĪ
ĠÐºÐ¾Ð¼ÐµÐ´ Ð¸Ð¸
Ġ q
ĠÐ¾ÑģÐ¾Ð± Ð¾Ð¹
yst ation
Ġinter national
] ]
ĠÐ´ ÑĢÐ°Ð³
ÑĤÐ° ÑĨÐ¸Ñİ
ĠÐ¿Ð¾Ð´Ð´ÐµÑĢÐ¶ Ð¸Ð²Ð°Ð»
ĠÑĨÐµÐ½ÑĤÑĢÐ°Ð»ÑĮ Ð½Ð°Ñı
ĠÑģÐ¾Ñģ Ð»Ð¾Ð²
Ã Ń
Ð°Ð½Ð´ Ðµ
ĠÐ·Ð°ÐºÐ¾Ð½ Ñĭ
ĠÐ¹ Ð¾ÑĢ
ĠÐ¿Ð¾Ð´ Ð»ÐµÐ¶
ĠÑģÐº Ð¾ÑĤÐ°
ĠÑģÐ¸Ð¼ Ð¼ÐµÑĤ
Ð°ÑĤÑĥ ÑĢÑĥ
ĠÐ¾ÑĦÐ¸ÑĨÐ¸ Ð°Ð»ÑĮÐ½Ð¾Ð³Ð¾
ĠÐ¿Ð»Ð°ÑĨ Ð´Ð°ÑĢ
ĠÑįÐºÐ² Ð¸Ð²Ð°Ð»
Ð² Ð¸Ð»Ð¸
ĠÐ±Ð°Ð· Ñĥ
ĠÐ» Ñı
ĠÐ²ÑĢÐ° Ð³Ð¾Ð²
ÐµÑģÑĤÐ²ÐµÐ½ Ð½ÑĭÐ¹
Ð¾ÑĦ Ð¸ÑĨ
ĠÐ´Ð¸Ð²Ð¸Ð· Ð¸Ñİ
ĠÐ°Ð¼ÐµÑĢÐ¸ÐºÐ°Ð½ ÑģÐºÐ¸Ð¼
ĠÐ¾ÑģÐ½Ð¾Ð²Ð°Ð½ Ð½ÑĭÐ¹
Ġ1 16
ÑĤÐ°Ðº Ð¸
ĠÐ´ÐµÐ¹ÑģÑĤÐ² ÑĥÑİÑīÐµÐ¹
ĠÐ¿ÑĢÐ¾Ñģ Ð¸ÑĤ
ĠÐºÐ¸ÑĪ Ð¸Ð½
ĠÐºÐ¾ÑĢ ÑĢÐµÑģÐ¿Ð¾Ð½Ð´
ĠÑįÐ¿ Ð¸Ð´ÐµÐ¼
Ð³ Ð¸ÑĤ
ÐµÐ½ÑĤ Ñĥ
ĠÐ¿Ð¾ÑĢÐ¾Ð´ Ñĭ
ĠÐ¸Ð·Ð´ÐµÐ» Ð¸Ñı
ĠÐ¼Ð¸Ð½Ð¾Ð¼ ÑĳÑĤ
ĠÐ²ÑĢÐµÐ¼ ÐµÐ½Ð½Ð¾Ð³Ð¾
ĠÑĩÐ¸Ñģ Ð»Ð¾Ð¼
Ð²ÐµÐ½ Ð³
ĠÑĥÐ¸Ð»ÑĮ ÑıÐ¼Ð°
ÑģÐ¾ÑĢÐµÐ² Ð½Ð¾Ð²Ð°Ð½Ð¸Ñı
ĠÐ¸ ÑĢÐ°Ð½Ð°
ÐµÐ½Ð¸ ÑĨÑĭ
Ð°ÑĢ Ð¼Ð¾Ð½
ĠÑģÐ¾ÐµÐ´Ð¸Ð½ ÑĳÐ½Ð½ÑĭÑħ
ĠÐ¿ÑĢÐµÐ¿Ð¾Ð´Ð°Ð² Ð°ÑĤÐµÐ»ÐµÐ¼
ĠÑĥÐ·Ð±ÐµÐº Ð¸ÑģÑĤÐ°Ð½Ð°
Ġ9 9
ĠÑıÐ¿Ð¾Ð½ ÑģÐºÐ¾Ð³Ð¾
ĠÐºÐ¾Ð½ÑģÑĤÑĢÑĥÐº ÑĤÐ¾ÑĢ
ĠÐ¾Ð»Ð¸Ð¼Ð¿Ð¸ Ð°Ð´Ðµ
ĠÐ¿Ð¾Ð»Ð½Ð¾Ð¼Ð¾Ñĩ Ð¸Ñı
Ðº Ð¸Ð»
Ð¸Ñĩ Ð½ÑĥÑİ
ĠÐºÐ¾Ð½ Ð´
ĠÐ¿ÑĢÐ¾ÑĤ Ð¾ÑĤÐ¸Ð¿
ĠÑģÐº Ð»
ĠÑıÐ¿Ð¾Ð½ ÑģÐºÐ¸Ð¹
Ð» ÑĳÐº
Ð¾Ð¿ Ð°ÑĤ
Ð°Ð¹ Ð»
ĠÐ¾Ð¿ ÑĥÐ±Ð»Ð¸ÐºÐ¾Ð²
ĠÐ²Ð¾Ð·Ð¼Ð¾Ð¶ Ð½ÑĭÑħ
ĠÐ¿Ð¾Ð» Ð½ÑĭÐ¼
Ð¸ÑĢÐ¾Ð² Ð°Ð»Ð¾
ĠÑĪ Ð¸
Ġ9 8
ĠÑĪÐ°Ñħ ÑĤ
ĠÐ´Ð¾ÑģÑĤÑĥÐ¿ Ð°
ĠÐ±Ð°Ð»ÑĤ Ð¸Ð¹ÑģÐºÐ¾Ð³Ð¾
ÑĮ ÑĩÐ¶
Ñĩ Ñĥ
y m
Ð¾ ÑĨÐ¸Ðº
ĠÐ´ÐµÐ¹ÑģÑĤÐ² Ð¾Ð²Ð°ÑĤÑĮ
ĠÐ¸ÑĤ Ð°Ð»Ð¸Ñİ
is e
ĠÑĨÐµÐ½ÑĤÑĢÐ°Ð»ÑĮ Ð½ÑĭÑħ
ĠÐ¿ÑĢÐ¸Ð½ÑĨÐ¸Ð¿ Ð¸
ĠÑģÐ²Ð¸Ð´ÐµÑĤÐµÐ»ÑĮÑģÑĤÐ² ÑĥÐµÑĤ
Ð¸Ð´ Ð½ÑĭÑħ
ÑĤÐ¸ ÑĢÑĥ
Ð°ÑİÑī ÐµÐ¼
ĠÐ±ÑĥÐ´ ÑĤÐ¾
ĠÐ´ÐµÑĤ ÐµÐºÑĤÐ¸Ð²
ĠÑįÐ»ÐµÐ¼ ÐµÐ½ÑĤÐ°Ð¼Ð¸
ĠÐ¸Ð½ ÑĨÐ¸Ð´
Ð¿ÑĢÐ¸Ð¼ ÐµÐ½
ĠÐ¿ÑĢÐ¸ÑģÑĥÑĤÑģÑĤÐ² ÑĥÑİÑĤ
ĠÐºÑĥÑĢ Ð¾ÑĢÑĤ
ĠÐ´ÑĢÐµÐ² Ð½ÐµÑĢ
ĠÐ³Ð¾Ð²Ð¾ÑĢ Ð¸ÑĤÑģÑı
ĠÐ¸Ð½Ð¶ÐµÐ½ ÐµÑĢÐ°
ĠÐ»Ð°Ð³ ÐµÑĢÐµ
19 18
Ð¿Ð¾Ñı Ð²
ÑĥÑĤ Ð¾Ð²
il d
op h
ĠÐ³ÑĢÐµÑĩÐµÑģÐº Ð¾Ð¹
ĠÐ± ÑĥÐ½
ĠÐ·Ð°Ð¿Ð°Ð´ Ð½Ð°Ñı
ĠÐºÐ°Ð¿Ð¸ÑĤ Ð°Ð½Ð¾Ð¼
ĠÐ²ÑĢÐ°Ñĩ Ð°
ĠÐ¼ Ð°Ð½ÑĤ
Ð°Ð²ÑĪ Ð¸Ð¼Ð¸
ĠÐ¾ÑĤÐ²ÐµÑĤ Ð¸Ð»
ĠÐ·Ð¸Ð¼ Ð½Ð¸Ñħ
ÑĢ Ð¾Ð»ÑĮ
ÐµÐº Ðµ
ÑĢÐ¾Ð² Ð¸Ð´
ĠÐ¿ÑģÐµÐ²Ð´Ð¾Ð½ Ð¸Ð¼Ð¾Ð¼
Ñĩ Ð°ÑĢ
ĠÑģÑĥÐ´ Ðµ
ĠÐ¿Ð¾ÑģÑĤÐ°Ð² Ð»ÐµÐ½
ĠÐ¿Ð¾ÐµÐ´Ð¸Ð½ ÐºÐµ
ĠÑĦÐ¾ÑĢÐ¼ Ð°ÑĤÐµ
ĠÐ¾Ð±Ð»Ð° Ð´Ð°ÑİÑī
ÑĢÐ°ÑĤ Ñĭ
ĠÑģÑĤÐ°ÑĢ ÑĭÐµ
ĠÑĦÐ¾ÑĢÐ¼ Ð°Ð»ÑĮÐ½Ð¾
ĠÐ½Ð°Ð± ÑĢÐ°Ð²
Ð¸ÑĤ Ð°Ð¼Ð¸
ĠÐ¿ÑĢÐ¾Ð´ Ð»
ĠÐ¾Ñĩ ÐºÐ°
ĠÑĥÐ± Ð¸Ð²Ð°ÐµÑĤ
Ð°ÑİÑīÐµÐ¹ ÑģÑı
ĠÐ·Ð° ÑĩÐ¸ÑģÐ»ÐµÐ½
ĠÐ²Ð¾ÑģÑģÑĤ Ð°Ð½Ð°Ð²Ð»Ð¸Ð²
âĢ ¢
ĠÐ¿Ð¾Ð´ Ð½ÑıÑĤ
ĠÐ³Ð¾ÑģÑĥÐ´Ð°ÑĢÑģÑĤÐ²ÐµÐ½ Ð½Ð°Ñı
ĠÐ¸Ð³ÑĢÐ° ÑİÑĤ
ĠÐ¿Ð¾Ð»Ð¾Ð² Ð¸Ð½Ð°
197 1
ĠÐ¿Ð¾Ð¿ÑĥÐ»ÑıÑĢ Ð½Ð¾ÑģÑĤÐ¸
ĠÐ¼ÐµÐ´Ð¸ÑĨ Ð¸Ð½ÑģÐºÐ¾Ð³Ð¾
Ð°Ð½ ÑĨÑĭ
ĠÐ³ Ð´ÑĢ
ĠÐ²ÑĭÑħÐ¾Ð´ Ð¸Ð»
ĠÐ¿ÑĢÐ¸Ð´ ÑĥÐ¼
ĠÑĦÐµÑĢ Ð´Ð¸Ð½
ĠÐ¿ÐµÑĢÐµÑģ ÐµÐº
ĠÑĢÐµ ÑĨÐµÐ½Ð·
ĠÐ¿ÑĢÐ°Ð² Ð´Ð°
ĠÐ¿ÑĢÐ¾Ð´Ð¾Ð»Ð¶ ÐµÐ½Ð¸Ðµ
ĠÑģ Ð°ÑĦ
Ð²Ð¾ ÐµÐ²
ÑįÑĤ Ð½
ĠÐ¿Ð¾Ñĩ Ð²
.. .
Ð² Ð¸Ð½Ð°
ĠÐ» Ð¾Ð¼Ð±
ĠÑģÐ» ÐµÐ²Ð°
Ġp ar
Ð¾Ð½Ð°Ñĩ Ð°Ð»Ñĥ
ÑĭÐ² Ð°Ð»Ð¾
ĠÑĥ Ð½Ð¸
ĠÐºÐ¾Ð» ÑħÐ¾Ð·Ð°
or g
ĠÐ¾ÑĤÑĢÑıÐ´ Ð¾Ð²
ĠÑĢÐ°Ð·Ð¼ÐµÑĢ Ð¾Ð¼
Ð»Ð¾ ÑĪ
ĠÑģÐ¿Ð¾ÑģÐ¾Ð± Ð½Ñĭ
ĠÐ³ ÑĥÐ¼
Ð¸Ð½ Ð¶ÐµÐ½
us e
ÑĤÑĭ ÑģÑıÑĩ
ĠÐ¿Ð¾Ð´Ð¿Ð¸Ñģ Ð°Ð½
Ð½ÐµÐ· Ð°Ð²Ð¸ÑģÐ¸Ð¼
Ð±Ð°ÑģÑģ ÐµÐ¹Ð½
ĠÐ¿ÑĢÐ¸Ð² Ð°ÑĤ
ĠÐ¿Ð°ÑĢÐ° ÑĪ
198 2
ĠÐ´ÑĢÐ°Ð¼Ð°ÑĤ ÑĥÑĢÐ³
ĠÐ²ÐµÑĢÑĪ Ð¸Ð½Ðµ
ÐµÑģÑĤÐ²ÐµÐ½ Ð½ÑĭÑħ
ĠÐ²ÑĭÑģ ÑĪÑĥÑİ
ĠÐ¿ÐµÑĢÐµÐ²Ð¾Ð· ÐºÐ¸
ĠÐ´ Ð°Ð»Ð°
ÑģÑĤÐ²ÐµÐ½ Ð½ÑĥÑİ
ĠÐºÐ° ÑĢÐ°ÑĤ
ĠÐ·Ð°ÑıÐ² Ð»ÐµÐ½Ð¸Ðµ
ĠÐ¼ÐµÐ½ÑĮ ÑĪÐ¸Ð½
ĠÐ²Ð½ÐµÑģ ÑĳÐ½
Ġ Â
ÑĦ Ð¸Ð»Ð¸
Ð¾Ð¿ ÐµÑĢÐ°
âĢ¦ Â»
Ð°Ð² Ð»Ð¾Ð²
ĠÑģÐº Ð°Ð»
Ð°ÑĤÐ¾ÑĢ Ð¸Ñı
ĠÐ¿ÑĢÐ¾ÑĪ Ð»Ð¾Ð³Ð¾
Ð· Ð°Ð´
ĠÑĥÑĩÐ°ÑģÑĤ ÐºÐ¾Ð²
ĠÐ¿ÐµÑĢÐµ Ñĩ
ĠÑıÐ²Ð»Ñı Ð»Ð¾ÑģÑĮ
198 1
ĠÐ´ÐµÐ¼Ð¾ÐºÑĢÐ°ÑĤ Ð¸ÑĩÐµÑģÐºÐ¾Ð¹
ĠÐ¿ÑĥÑĤÐµÑĪ ÐµÑģÑĤÐ²ÐµÐ½
ĠÑĢÐµÐ³Ð¸ÑģÑĤ ÑĢÐ°
Ð¾ÑģÑĤ Ð¾Ð¹
ĠÐ¿ÑĢÐµÐ´ÑģÑĤÐ°Ð² Ð¸Ð»
ĠÐºÐ¾Ñģ Ð¼Ð¾Ð½
ĠÐºÑĢ Ð¸Ð¼Ð¸Ð½
ĠÐ¾ÑĤÑĢÐ°Ñģ Ð»Ð¸
Ð°ÐµÐ¼ ÑĭÐ¼
ĠÐ¼ÐµÑĤÐ¾Ð´ Ð¾Ð¼
ĠÑĦÐ¸Ð³ ÑĥÑĢÑĭ
Ġaward s
ĠÐ¸Ñİ Ð»ÑĮ
ing s
ĠÐ²Ð·Ð³Ð»Ñı Ð´
Ð¸ÑĢÐ¾Ð²Ð°Ð½ Ð½ÑĥÑİ
ĠÑģÐ¾Ð²ÐµÑĢÑĪ ÐµÐ½ÑģÑĤÐ²
ĠÐºÐ¾Ð» ÑĳÑģ
ĠÐ½ÐµÐ±Ð¾Ð»ÑĮÑĪ Ð¾Ðµ
Ð¾Ð¿Ð¾Ð» ÑĥÑĩ
ĠÐ½Ð°ÑĢÑĥÑĪ ÐµÐ½Ð¸Ñı
ĠÐ¿Ð¾Ð² Ð¾ÑĢÐ¾ÑĤ
ĠÐ¿ÑĢ ÑĥÑģÑģÐ¸Ð¸
ĠÑĢ Ð¾ÑĤÐ°
ĠÐ¿ÑĢÐ¸ Ð¾ÑģÑĤÐ°Ð½Ð¾Ð²
ĠÐ²Ð¾Ð» ÑĪÐµÐ±
Ð²Ð¾ÑģÑĤ Ð¾Ñĩ
Ð¿Ð°ÑĢ Ðº
ĠÑģÐ¿ÑĢÐ°Ð² Ð°
Ð¾Ñİ ÑĢÐ¾Ð´
ĠÐ°Ð²Ð¸Ð°Ð½ Ð¾Ñģ
ĠÐºÐ°ÑĢÑĤ Ð¸Ð½Ñĥ
ĠÑĤÐ°Ð³ Ð°Ð½
Ð¿ ÐµÐ½
ĠÐ¿ÑĢÐµÐ´Ð¿Ð¾Ñĩ ÑĤ
ĠÐ² ÐµÑĢÐµ
Ñİ ÑĢÐµ
ĠÑĨ Ñĭ
ĠÐ¾ÑģÑĤÐ°Ð² Ð°Ð»Ð°ÑģÑĮ
ĠÐ²Ð½ÑĥÑĤÑĢÐµÐ½ Ð½ÐµÐ³Ð¾
ĠÐ¾Ð± ÑħÐ¾Ð´
ÐºÐ°ÑĢ Ð»
ĠÐ°ÑĢÑĤÐ¸Ð»Ð»ÐµÑĢ Ð¸Ð¹ÑģÐºÐ¾Ð³Ð¾
ĠÐ¼ÐµÑĤÐ°Ð» Ð»Ð°
ĠÐ¸Ð½ Ð²Ð°Ð»
ĠÑĥÐ¿ Ð°Ð´
ĠÐº ÑĥÑĢÐ°
ÐµÑĤ ÑģÐºÐ¸Ð¹
19 50
ĠÐ¾Ð±ÑĢÐ°Ð· Ð°
ĠÐ²ÐµÑĢÑħ Ð½ÐµÐ³Ð¾
Ð½Ð¸Ñĩ ÐµÑģÑĤÐ²Ð¾
ĠÑģÐ¸Ð»ÑĮ Ð½ÑĭÐ¼
ĠÐ»ÑİÑĤ ÐµÑĢÐ°Ð½
ĠÐ¿ÑĢÐ¾ÐµÐºÑĤ Ðµ
ĠÑģ Ð´ÐµÑĢÐ¶
Ġ1 18
ĠÐ·Ð°Ðº ÑĥÐ¿
Ñģ Ð¾Ð½Ð¾Ð¼
ĠÐ¶Ð¸Ð² Ð¾Ð¹
ĠÐ´Ð°Ð² Ð»ÐµÐ½Ð¸ÐµÐ¼
193 7
ĠÐ¾ÑĢÐ³ Ð°Ð½Ð°
ĠÑĦ ÑĢÐ³
ĠÐ¸Ð· Ð¾Ð»
ĠÑĢÐ¾Ð´ Ð½Ð¾Ð¼
ÐµÑģÑĤÐ²ÐµÐ½ Ð½ÑĭÐµ
ĠÑĢÐ°ÑģÐ¿Ð¾Ð»Ð°Ð³ Ð°ÑİÑĤÑģÑı
ÐµÐ¹ ÑĢÐ¾
ĠÐµ Ñģ
ĠÑģÐ¾Ð²ÐµÑĤ Ð½Ð¸ÐºÐ°
ĠÐ½Ð°Ð± ÑĢÐ°Ð»
ĠÐ² ÑĨÐ¸Ðº
Ð½Ð° ÑĪ
ĠÑĢ Ð¿
Ġ18 00
Ð¸ÑĢÐ¾Ð² Ð°Ð²
ro w
ĠÐ²ÑĭÐ·Ð² Ð°Ð»
Ð½Ð°Ñĩ Ð°Ð»Ð¾
ĠÐ»ÐµÑģ Ð¾Ð²
ĠÐ½Ð¸ÐºÐ°Ðº Ð¾Ð³Ð¾
ĠÐ² ÐµÑĢÐ°
ĠÐ¾Ð±ÑĢÐ°Ð·Ð¾Ð²Ð°Ð½ Ð¸Ð¸
ĠÐ¾ÑģÑĥÑīÐµÑģÑĤÐ²Ð»Ñı ÐµÑĤ
ĠÐºÐ°ÑĦÐµÐ´ ÑĢÑĥ
ĠÐºÐ¾ÑĢÐ¿ÑĥÑģ Ðµ
ĠÑĥÐ´Ð° ÑĢÐ°
ĠÐ¿ÐµÑģ Ð½ÐµÐ¹
ĠÐ±Ð°ÑģÑģ ÐµÐ¹Ð½
ĠÐ¾ÐºÑĢÐ° Ð¸Ð½Ðµ
ĠÐ±Ð°Ð· Ð°
ĠÐ¿ÑĢÐ¸Ð¼ÐµÐ½ ÑıÑİÑĤÑģÑı
ĠÑĪÐ¸ÑĢÐ¾Ðº Ð¸Ð¹
ĠÐ²ÐµÑĢÑħÐ¾Ð² Ð½ÑĭÐ¹
ĠÑĥÐ²ÐµÐ»Ð¸Ñĩ ÐµÐ½Ð¸Ðµ
ĠÑĦÑĢÐ°Ð½ ÑĨÐ¸
ĠÐ³Ð¾Ð» Ð¾ÑģÐ°
ĠÑĥÐ´ Ð»Ð¸Ð½
ÐºÑĥÑĢ Ñģ
ĠÑģÑĤÐ¾Ñı Ñī
ĠÐ²Ð¸Ð»ÑĮÐ³ÐµÐ»ÑĮ Ð¼Ð°
ĠÐ½ÐµÐ» ÐµÐ³
ĠÐ¿ÑĢÐ¸ Ð¾ÑĢ
Ð³ÐµÑĢ ÑĨ
197 8
ĠÐ¿ÑĢÐ¾Ð±Ð»ÐµÐ¼ Ð°
ĠÑĥÐ»ÑĮ ÑıÐ½Ð¾Ð²
ĠÐ»ÑİÐº ÑģÐµÐ¼
ĠÐ½Ð° ÑĤÑĢ
ĠÑģÐº ÑĢÑĭ
ĠÐºÐ½ÑıÐ· ÐµÐ¼
Ġop en
Ñį Ð»ÐµÐ¼
ĠÑĢÐ°Ð· Ð½ÑĭÐ¼Ð¸
ÑħÐ¾ÑĢ Ð¾ÑĪ
ĠÐ¾ÑģÑĤ Ð°ÑİÑĤÑģÑı
ĠÐ·Ð°Ð¿Ð¸Ñģ Ð°Ð½
Ð´ Ð¸Ð²
Ð¸Ð² Ð°Ð»Ð°ÑģÑĮ
ĠÑĩ Ð°ÑĢÑĤÐµ
ĠÑĢÐµÐ· Ð¾Ð½
le c
Ð»Ð¸ÑĤ ÐµÑĢÐ°ÑĤÑĥÑĢ
ĠÐ½Ð° ÑĤÑĥ
ĠÑĢÐ°ÑģÐ¿Ð¾Ð»Ð¾Ð¶ ÐµÐ½Ð½Ð°Ñı
ĠÑħÐ°ÑĢÐ°ÐºÑĤÐµÑĢÐ¸Ð· ÑĥÐµÑĤÑģÑı
ĠÑĢÐ°Ð·Ð½ Ð¾Ð³Ð»Ð°Ñģ
ĠÑģÐ¾ Ð°Ð²ÑĤÐ¾ÑĢ
ĠÑħÑĢÐ°Ð¼ Ð¾Ð²
ĠÑĥÑĩÐµÐ± Ð½Ð¾Ð³Ð¾
ĠÐ¿Ð»Ð°ÑģÑĤ Ð¸Ð½
ĠÐ·Ð°ÑģÑĤÑĢÐ¾Ð¹ ÐºÐ¸
Ð· Ð¸Ñı
Ð°Ð²ÑĪ ÑĥÑİ
ĠÑĤÐµÐ» ÐµÐºÐ¾Ð¼
ĠÑģÐ´ÐµÐ» Ð°Ð½Ð¾
Ġ art
ĠÐ² Ð°Ð´
ĠÐ¿ÐµÑĢÐµ ÐºÐ»ÑİÑĩ
Ð¿Ð¾Ð» Ð¾Ð¶
ĠÑģÑĤÑĢÐ¾ ÐµÐ½Ð¸Ñı
Ð¼Ð°ÑĤ ÐµÑĢÐ¸
ĠÐ¿Ð¾Ð¸ÑģÐº Ð°Ñħ
ĠÑĤÐ¸ÑĤÑĥ Ð»Ð°
ĠÑģ ÑİÐ´Ð°
ĠÐ´Ð² Ð¾ÑİÑĢÐ¾Ð´
ĠÐ²Ð· Ð¾ÑĢÐ²
ĠÐ¿ÑĢÐ¸ÐµÑħ Ð°Ð»
m y
ĠÐ³ Ð¸Ð½
ĠÐ» Ð¸ÑģÑĤÐ¾Ð²
ÑĥÑİÑī ÑĥÑİ
ĠÐ¿ÐµÑģ Ð½Ðµ
ĠÐ¾Ð±ÑĢÐ°Ð·Ð¾Ð²Ð°Ð½ Ð¸Ñİ
Ġ185 6
195 7
ĠÑģÐ¾ÑĢ Ð¾Ðº
ĠÑģÐºÐ°Ð½Ð´ Ð¸Ð½Ð°Ð²
Ð¼ Ð½Ð¾Ð¶
Ð¸ÑģÐº ÑĥÑģ
ĠÐ¾ÑĨÐµÐ½ ÐºÐ°Ð¼
Ð½ ÑģÐºÐ¾Ð³Ð¾
ĠÐ¾Ð¿ Ð¾Ð»Ñĩ
ĠÐ³Ð¾Ð» Ð¾Ð²Ð°
Ð¾Ð½Ð¾Ð² Ð¸Ñĩ
ĠÐ¾Ð±ÑĬÐµÐºÑĤ Ð¾Ð¼
ĠÐº Ð°Ð»Ð°
Ð¾Ð²Ð°Ð½ Ð½Ð¸
ĠÐ¿ÑĢÐ¾ ÑĨÐµÐ½ÑĤ
ĠÐ¿ÑĢÐ¾Ñģ ÑĥÑīÐµÑģÑĤÐ²
ĠÐ½Ð°Ðº Ð»Ð¾Ð½
ĠÐ¿Ð¾Ð¿ÑĥÐ»ÑıÑĢ Ð½Ð¾Ð¹
ĠÐ±Ð°ÑĪ ÐºÐ¾ÑĢÑĤ
ĠÐ±ÐµÐ¶ Ð°ÑĤÑĮ
ĠÐ¾ÑĤ Ð½
ĠÐ°Ð»ÑĮ ÑĦÑĢÐµÐ´
ĠÑĥÑĩÑĳ Ð½Ð¾Ð³Ð¾
ĠÐ²ÑĭÐ¸Ð³ ÑĢÐ°ÑĤÑĮ
ĠÑĩÐ¸ÑĤ Ð°Ð»
Ð· ÐµÑĢ
ĠÑĤÑĭÑģÑıÑĩ ÐµÐ»ÐµÑĤ
ĠÑģÐµÐ»ÑĮÑģÐºÐ¾ÑħÐ¾Ð·ÑıÐ¹ ÑģÑĤÐ²ÐµÐ½Ð½ÑĭÑħ
ĠÐ´Ð¶Ðµ ÑĦÑĦ
ĠÐ¸ÐµÑĢÑĥÑģÐ°Ð» Ð¸Ð¼
ĠÐ¼Ð°ÑĢ Ð³Ð°ÑĢ
ĠÐ·Ð°Ð²ÐµÐ´ ÑĥÑİÑīÐ¸Ð¼
ĠÐ² Ð°ÑģÑģ
ĠÐ·Ð° Ð³Ð¾Ð²
ĠÐ°Ð» ÑĤ
Ð¸Ð²ÑĪ Ð¸Ð¼ÑģÑı
ĠÐ°Ð¿ÑĢÐµ Ð»ÑĮ
ĠÑĢÐ°Ð±Ð¾Ñĩ Ð¸Ðµ
ĠÐ¸ÑģÑĤÐ¾Ñĩ Ð½Ð¸ÐºÐ°Ð¼
ĠÑİÑĢÐ¸Ñģ Ð´Ð¸Ðº
Ñħ Ð°Ð»
ĠÐ¿ÑĢÐ¸Ñĩ Ð°ÑģÑĤ
ĠÐ²ÑĭÐ¿ÑĥÑī ÐµÐ½Ñĭ
ĠÐ´ ÑĥÑĢ
ĠÐ³Ð°ÑĢÐ½Ð¸Ð· Ð¾Ð½
ÐµÐ¼ ÑĭÐ¹
ĠÐ³Ð¾ÑĢÐ¾Ð´ ÑģÐºÐ¾Ð¼
ĠÐ´ÐµÐ¹ÑģÑĤÐ² Ð¾Ð²Ð°Ð»
ĠÐ¶ÑĥÑĢÐ½ Ð°Ð»Ð¾Ð²
ĠÐºÐ¸Ð½ Ð¾ÑģÑĤÑĥÐ´
ĠÐ·Ð°Ð²Ð¾Ð´ Ð¾Ð²
ĠÐ±ÑĥÐ´Ð° Ð¿ÐµÑĪ
Ð´ Ð°ÑĤ
ĠÐ± Ð°Ð»Ð°
ĠÐ· Ð²ÐµÑĢ
ĠÑĩ Ð¸ÐºÐ°
ĠÐ´Ð² Ð°Ð´ÑĨÐ°ÑĤÑĮ
ĠÐ¸ÑģÐ¿Ð¾Ð»ÑĮÐ· Ð¾Ð²Ð°Ð½Ñĭ
ĠÐ¿ÑĢÐ¸Ð² Ð¸Ð»ÐµÐ³
ĠÐ¾Ð¶ ÐµÑģÑĤÐ¾Ñĩ
ĠÐ±Ð°Ðº Ð°Ð»
ĠÐ°ÑģÐ¿ Ð¸ÑĢÐ°Ð½
ĠÐºÐ¸Ð½ Ð¾Ð¿
Ġ185 7
ĠÑħÑĢÐ°Ð± ÑĢ
Ð² ÐµÑĢÐ°
ĠÐµÐ²Ð³ ÐµÐ½Ð¸Ñı
ĠÑģÑĤÑĢÐµÐ»ÑĮ Ð±Ñĭ
ĠÑĢÑĥ Ð±Ðµ
ĠÐ¿Ð¾ÑģÐ²ÑıÑĤ Ð¸Ð»
ĠÐ¿ÐµÑĢÐµ Ð´ÐµÐ»
ĠÐ´Ð¾ÑģÑĤ Ð¾Ð¿ÑĢÐ¸Ð¼ÐµÑĩÐ°ÑĤÐµÐ»ÑĮ
Ð¾Ð±ÑĢÐ°Ð· Ð¾Ð²Ð°Ð½Ð¸Ðµ
ĠÑģÑĥÑĤ ÐºÐ¸
Ð°ÑĢ Ð½ÑĭÐµ
Ġm ag
ĠÑħÐ°ÑĢÑĮÐºÐ¾Ð² ÑģÐºÐ¾Ð¹
Ġ18 29
Ð°Ð½Ð³ Ð°ÑĢÐ´
Ġ185 8
ĠÐ»ÑĳÐ³ ÐºÐ¸Ñħ
ĠÐ»Ð¾Ð¼ Ð¾Ð½Ð¾Ñģ
u k
Ð¾Ð´ Ð¾Ð²
Ġd o
ĠÐ·Ð½Ð° ÐµÑĤ
ĠÐ» Ð¾ÐºÐ¾Ð¼Ð¾ÑĤÐ¸Ð²
Ð¾Ð· Ðµ
ĠÑĥÑģÑĤÑĥÐ¿ Ð¸Ð»
Ð¾ÐºÐ¾Ð» Ð°Ð¼
tain ment
ĠÐ¸ Ð¿
ĠÐ·Ð°Ð±Ð¾Ð»ÐµÐ² Ð°Ð½Ð¸Ð¹
ĠÐ¾ÑģÐ¾Ð±ÐµÐ½ Ð½Ð¾ÑģÑĤÐµÐ¹
ĠÐ¿ÑĢÐµÐ¿ÑıÑĤ ÑģÑĤÐ²
ĠÐ´ÐµÑĢÐµÐ² Ð¾
ĠÐ´Ð¸Ð²Ð¸Ð· Ð¸Ð¹
ĠÑģÐ¿Ð¸ÑĢÐ° Ð»ÑĮ
ĠÑģÑĤ Ð¾Ð»ÑĮÐºÐ¾
Ð°ÑĤÑĮ Ñı
ĠÑĤÐµÐ¼Ð¿ÐµÑĢÐ°ÑĤ ÑĥÑĢÐµ
ĠÐ¿Ð¾ÑĩÑĤÐ¾Ð² ÑĭÑħ
ĠÐ²Ð¾ÐºÐ· Ð°Ð»Ð°
Ð· Ð¾
ÑĢÐ°Ð±Ð¾ÑĤ Ñĭ
197 3
ĠÐ½Ð°ÑģÑĤ Ð°
ĠÐ½ÐµÐ´Ð¾ÑģÑĤÐ°ÑĤ Ð¾ÑĩÐ½Ð¾
Ð´ ÐµÑĢÐ°
ĠÐ²Ð·ÑĢÑĭÐ² Ð°
ĠÐ´ ÑĥÐ½Ð°
Ð¾ÑĤ ÑĤ
Ġ7 9
ĠÑĪÐ¸ÑĢ Ð¸Ð½Ñĭ
ĠÐ¿ÑĢÐ¸ÑĢÐ¾Ð´ Ð½ÑĭÑħ
ĠÐ²ÐµÑĩ ÐµÑĢ
ĠÐ¿ÑĢÐ¾ÑģÐ¿ ÐµÐºÑĤÐ°
ĠÐ»ÐµÐ½Ð¸Ð½Ð³ ÑĢÐ°Ð´Ð°
ĠÑĤ ÑĢÐµÐº
ĠÐ¿Ð¾Ð»ÑĥÑĩ Ð°ÑĤÑĮ
ĠÑģÐ¾Ð· Ð´Ð°ÑĳÑĤ
ĠÑĢÐ°ÑģÐ¿Ð¾Ð»Ð°Ð³ Ð°Ð»Ð°ÑģÑĮ
ĠÑĦÐ°Ð±ÑĢ Ð¸ÐºÐ°
ĠÐ¼Ð½ ÐµÐ½Ð¸Ñı
ĠÑĢÐ°Ð·Ð»Ð¸Ñĩ Ð¸Ñı
ĠÐ·Ð°Ð²ÐµÐ´ ÐµÐ½Ð¸Ð¹
ĠÑģÐ¸Ð¼Ð²Ð¾Ð»Ð¸Ð· Ð¸ÑĢÑĥÐµÑĤ
n er
ro m
ÑĤÐ¾ÑĢ Ð¿ÐµÐ´
ĠÐ²Ð¾Ñģ ÑħÐ¾Ð´
ĠÐ²Ð¾Ñģ Ð¿ÑĢÐ¸ÑıÑĤ
ĠÐ¿Ð¾ÑģÐ»ÐµÐ´Ð¾Ð²Ð°ÑĤÐµÐ»ÑĮ Ð½Ð¾
Ð¾ÑĤ Ð´ÐµÐ»ÑĮ
ĠÐ¾Ð¿ ÑĢÐ¾Ð²
Ð½Ð¾Ð² ÐµÑģ
ĠÐ±ÐµÐ»Ð¾ÑĢÑĥÑģ ÑģÐºÐ¾Ð¹
ĠÐ¼Ð¸Ð½ Ð¾Ð½Ð¾Ñģ
ĠÑģÐ»Ð¾Ð¶ Ð½ÑĭÑħ
ÑģÐ¿Ð°ÑĢÑĤ Ð°Ðº
Ð½Ð°Ð¼ ÐµÐ½
ĠÐ´ ÐµÐ³
Ġ8 4
ĠÑģÐ¸ÑģÑĤÐµÐ¼ Ð°Ñħ
ĠÐ±Ð»Ð°Ð³ Ð¾ÑģÐ»Ð¾Ð²
ĠÐº ÐµÐ½
ÐµÐ´ Ð¾Ð²
Ġ9 7
ĠÐ¸ÑģÐ¿Ð¾Ð»Ð½ Ð¸ÑĤÐµÐ»ÐµÐ¹
ĠÐ³Ð°Ð² Ð°Ð¹
ÐµÑĢ Ð½ÑĭÐ¹
Ð¾ÑģÑĤ Ð¾ÑıÐ½
ĠÐ¿Ð¾Ð´Ð²Ð¾Ð´ Ð½ÑĭÑħ
ĠÐµÐ´Ð¸Ð½ Ð¾Ð³Ð¾
ĠÐ¿ÑĢÐ¾Ð²Ð¸Ð½ ÑĨÐ¸Ñı
ĠÐ²ÑĭÐ²Ð¾Ð´ Ñĥ
ĠÐ¿Ð°ÑĨÐ¸ ÐµÐ½ÑĤÐ¾Ð²
ĠÐ°Ð³Ð»Ð¾Ð¼ ÐµÑĢÐ°ÑĨÐ¸Ð¸
ĠÐºÑĢÐ° Ñİ
ĠÐºÑĢÐ° ÐµÐ²ÐµÐ´
ĠÐ¿Ð¾Ð»Ð¾Ð² Ð¸Ð½Ñĥ
Ð¾ÑĢ ÑģÐºÐ¸Ð¹
ĠÐ° Ð¿Ð¾Ð»
ĠÑĦÑĢÐ°Ð½ ÐºÐ¾
ĠÐ½ÐµÐ¿ÑĢÐ°Ð² Ð¸Ð»ÑĮ
s m
ĠÐ¼ ÑİÐ·Ð¸Ðº
ĠÐ· ÐµÑĢ
Ð¸Ð´ Ð¸
Ð°ÑĢÐ¸ Ð°ÑĤÐ°
ĠÐ± Ð¸Ð½
Ð³Ð¾ ÑĨÐµÐ½
ĠÐ½Ð¾Ð² Ð¾ÑĢÐ¾ÑģÑģ
Ġ5 000
ĠÑģÐº ÑĢÐ¾Ð¼
ÐµÐ¶ ÑģÐºÐ¾Ð³Ð¾
ĠÐ¼Ð¾Ð´ Ð¸ÑĦÐ¸ÐºÐ°ÑĨÐ¸Ð¸
ĠÐ³ ÐµÐ¼
ĠÐ¿ÑĢÐ°Ð² Ð¾Ð³Ð¾
ĠÑģÐ»ÑĥÑĩ Ð°Ð¸
Ð°Ð½Ð´Ð¶ÐµÐ»ÐµÑģ Ðµ
ĠÐ¿ÑĢÐ¸Ð½Ñı Ð»Ð¾
ĠÐ²ÐµÐ»Ð¸Ñĩ Ð¸Ð½Ñĭ
ĠÑıÑģ Ð½Ð¾
ĠÑĢÐ°Ð·ÑĢÐ°Ð±Ð¾ÑĤ ÐºÐ°
Ð°Ð½ ÑģÐºÐ¾Ðµ
Ð¿Ð¾Ð» Ð½Ð¾Ð¼Ð¾Ñĩ
ÑĤÐµ Ð¾
ĠÐ²Ð¾Ð·Ð´ÐµÐ¹ÑģÑĤÐ² Ð¸Ñı
ĠÐ¸Ð· ÑıÑī
ĠÐ¾Ð±Ñī ÑĥÑİ
ĠÑģÐ¿Ð¾ÑĢÑĤÑģÐ¼ÐµÐ½ Ð¾Ð²
ĠÐ¿ÐµÑĢÐµ ÑģÐ¼Ð¾ÑĤ
ĠÐ»Ð¸Ð³ Ð°
ĠÐ±Ð¾Ð»ÑĮ Ð½Ð¸ÑĨÐµ
Ð¿ÑĢÐ¾Ð´ ÑĥÐºÑĤ
ĠÐº ÑĥÐ´
ÑĢÐ°Ð½ Ð¸Ñı
ĠÑĢÑıÐ´ Ñĥ
ĠÑĦÑĢÐ°Ð½ÑĨÑĥÐ· ÑģÐºÐ¸Ð¼
ĠÐºÐ¾Ð¼Ð¿Ð¾Ð· Ð¸ÑĨÐ¸Ð¹
ÐµÐ½ Ð½Ð¾ÑģÑĤÑĮÑİ
ĠÑģÐ°Ð¼ Ð¸Ð¼
ĠÑĦÑĢÐ°Ð½ Ñģ
ĠÐ²ÐµÐ»Ð¸Ðº Ð¸Ð¼
Ġl ove
ĠÐ² ÑıÑĤ
ÑģÐº ÑĢÐ¸Ð¿
ÑĢÑĭÑĤ Ð¸Ñı
ĠÑĤÐ°Ð¼ Ð¾Ð¶
197 2
ĠÐ¸Ð½Ð¶ÐµÐ½ ÐµÑĢÐ¾Ð¼
ĠÐ¼ ÑįÐ½
ĠÐ°ÑĢ ÐºÑĤ
ÑĥÐ· Ð¸
ĠÐ»ÐµÑĤ Ð¾
ĠÐ¾ÑģÑĤÐ°Ð² Ð°Ð»Ð¸ÑģÑĮ
Ð¾Ð´Ð½Ð° Ð¶Ð´Ñĭ
Ð³ Ð°Ð¹
ĠÐ¼Ð°ÑģÑĤÐµÑĢ ÑģÐºÐ¾Ð¹
ĠÐ° ÑĥÑĤ
ĠÑĢÐµ Ð°ÐºÑĤÐ¸Ð²
ĠÐ±Ð¾Ð³ Ð´
ĠÐ°Ð½ÑĤ Ð°ÑĢÐºÑĤ
ĠÐµ Ð³Ð¾ÑĢ
ĠÑģÐ¼ ÐµÑī
ĠÐ½Ð°Ð·ÑĭÐ² Ð°ÑĤÑĮ
ĠÑģÑĤÑĢÑĥÐºÑĤ ÑĥÑĢÐµ
ĠÑĤÐµÐ¼ Ðµ
ĠÑģÐµÐº ÑĤÐ¾ÑĢÐ°
ĠÐ²ÑĭÐ± Ð¾ÑĢÐ°
ĠÑģÐ½Ñı Ð»
ĠÑģÑĤ Ð¾ÑıÐ½
ÐµÐ² ÑģÐºÐ¾Ð¼
ÐºÐ° ÑĢÐ°
Ġs on
Ð»Ð¾Ð¶ ÐµÐ½Ð¸Ñı
196 9
ĠÐ°ÑĢÐµÐ½Ð´ Ñĭ
ĠÑĦÑĢÐ°Ðº ÑĨÐ¸Ð¸
Ðº Ð°Ð½Ð´Ð¸Ð´
ĠÐ¿ ÑģÐºÐ¾Ð²
ĠÐ² Ð´Ð¾Ð²
ÐµÐ½ Ð°Ð¼Ð¸
ĠÐ¾Ñĩ ÐµÑĢ
bo x
ĠÑĥÐ»ÑĮ ÑĤ
Ð¸Ð¹ ÑģÐºÐ¸Ð¼Ð¸
193 8
ĠÑĦÐ¾ÑĢÐ¼ Ð°ÑĤ
ĠÐ¾Ð±ÑĥÑĩ Ð°Ð»ÑģÑı
ĠÐ¿ÑĢÐ°Ð²Ð¾ÑģÐ»Ð°Ð² Ð½ÑĭÑħ
ĠÑģÐ¸ÑĤÑĥ Ð°ÑĨÐ¸Ñİ
Ð± Ð°ÑĢÐ°
ĠÐ¼Ð¾Ð½ ÑĥÐ¼ÐµÐ½ÑĤ
ĠÐ¿ÑĢÐ°Ð²Ð¸ÑĤÐµÐ»ÑĮ ÑģÑĤÐ²Ñĥ
ĠÐ²Ð¿ÐµÑĩÐ°ÑĤ Ð»ÐµÐ½Ð¸Ðµ
ĠÑĢÐµÐ»ÑĮ ÐµÑĦ
Ð½ Ð¾Ð½
ĠÐ´ ÑĥÐ¼Ð°
ÑĢÐ¸ ÐµÐ¼
ĠÐ¿ÑĢÐ¾Ð²Ð¸Ð½ ÑĨÐ¸Ð¹
ĠÐ¿ÑĢÐ¸Ð½Ð°Ð´Ð»ÐµÐ¶ Ð°Ð»Ð°
ĠÑħÑĥÐ´Ð¾Ð¶ÐµÑģÑĤÐ²ÐµÐ½ Ð½ÑĭÑħ
ĠÐ°Ð³ÐµÐ½ÑĤ ÑģÑĤÐ²Ð°
Ð¸ÑģÐ¿Ð¾Ð» Ð½
ĠÐ½Ð°ÑĤÑĥ ÑĢÐ°Ð»ÑĮ
Ð¸Ð´ Ð·Ðµ
ĠÐ¿Ð¾Ð¶ Ð°ÑĢÐ°
ĠÐ¾Ð´Ð½Ð° Ð¶Ð´Ñĭ
ĠÐ³Ð¸Ð¼Ð½Ð° ÑģÑĤ
ĠÐ¿Ð°Ð» Ð¾Ð¼
196 2
Ġpla ystation
ÑĦ ÐµÐ»ÑĮ
ĠÐ¿Ð¾Ð´ Ð²Ð¸Ð³
19 20
Ġ8 6
ĠÐ²ÐµÑĢÑĪ Ð¸Ð½Ñĭ
ĠÐ´Ð¼Ð¸ÑĤÑĢÐ¸ÐµÐ² Ð¸Ñĩ
ĠÐ½Ðµ Ð±Ð¾
ĠÐ²ÐµÑĢ ÑģÑĤ
Ð²ÑĭÑģ Ð¾Ðº
ĠÐ¿Ð¾ÐµÐ·Ð´ ÐºÐ¸
ĠÐ´ÐµÐ²ÑıÑĤ Ð¸
a i
ÐµÐ² ÑĥÑİ
Ð½Ðµ Ð¾Ð±
ĠÐ¿ÑĢÐµÐ´ÑģÑĤÐ°Ð² Ð¸ÑĤÐµÐ»Ñı
ĠÑĤÐµÑħ Ð°Ñģ
ĠÐ³Ð» ÑĥÑħ
ĠÐ¾Ð¶ Ð¸Ð´Ð°
ĠÐ¾Ð³ÑĢÐ¾Ð¼ Ð½Ð¾Ðµ
ĠÐ¾Ð»ÑĮ Ð³Ð°
ĠÑĪ ÐµÐº
ĠÐ¿ÑĢÐµÐ´ ÑģÑĤ
ĠÑĢÐµÑĩ Ð½Ð¾Ð¹
ĠÐ¿Ð¾Ð»ÑĥÑĩ Ð°Ð»Ð¸
ĠÐ¿Ð¾ÑģÐ»ÐµÐ´ Ð½ÑıÑı
Ð´Ð¶ Ð¸
ĠÐ½Ð°Ñģ Ñĭ
ĠÐ°ÐºÑĤÐ¸Ð² Ð½Ð¾ÑģÑĤÑĮ
ĠÐ¼Ð¾Ð»Ð¾Ð´ ÑĭÐ¼
ĠÐ»ÐµÐ¹Ð± Ð»Ðµ
ĠÐºÐ¾Ð»Ð»ÐµÐ´ Ð¶Ðµ
ĠÐ³ Ð½ÐµÐ·Ð´
ĠÑĢ Ð¸Ðº
Ð¿Ð¾Ñģ Ð°Ð´
un t
ĠÑģÑĥ Ð²ÐµÑĢ
ĠÐ¿Ð¾ ÑĪÑĳÐ»
ĠÑı Ð½Ð°
ĠÐ¿Ð¾Ð´ Ñģ
ĠÑģÐ¾ÑģÑĤÐ°Ð² Ð¸Ð»Ð¾
Ð¾Ð»Ð¾Ð³ Ð¸
ĠÐ´Ð¶ÐµÐ¹Ð¼ ÑģÐ°
ĠÑģÐºÑĥÐ»ÑĮÐ¿ÑĤ ÑĥÑĢÑĭ
Ð³ Ð»Ð¸
ĠÐºÐ°Ðº Ð¾Ðµ
ĠÐ°Ð± Ð±Ð°ÑĤ
ĠÐ¶ÑĥÑĢÐ½Ð°Ð»Ð¸ÑģÑĤ Ð¾Ð²
Ð¼ Ñģ
Ð°ÑĢ Ñİ
Ð²Ð¸Ðº ÑĤÐ¾ÑĢ
ĠÐ¿ÐµÑĢÐµ ÑĩÐ¸Ñģ
Ġg en
ĠÐ¼ÑĳÑĢ ÑĤÐ²
ĠÑĦ Ð°ÑĢÐ°
ĠÐ¿ÑĢÐ¾ÑĤÐ¸Ð² Ð¾ÑĤÐ°Ð½
ĠÐ¾ÑĤÐ²ÐµÑĤÑģÑĤÐ²ÐµÐ½ Ð½Ð¾ÑģÑĤÐ¸
? Â»
ĠÐ¾Ð± Ð¼ÐµÐ½Ð°
ÐµÑģÐº Ð¸Ð¹
198 3
Ð¾ÑĢ ÑģÐºÐ¾Ð³Ð¾
ĠÐ²Ð¾ ÑĪÐ»Ð¾
Ð¼ÐµÑģÑĤ Ð¾
Ġ9 00
196 7
ÑĤ ÐµÐºÑģÑĤ
Ġ8 7
ĠÐ·Ð¾Ð»Ð¾ÑĤ ÑĭÐµ
ÑĢÐ°Ðº ÑĤÐ°
ÐºÑĥ Ð»
ĠÐ²Ð°ÑĪÐ¸Ð½Ð³ ÑĤÐ¾Ð½
ĠÑĩÐ¸ÐºÐ° Ð³Ð¾
19 17
er e
ĠÐ¾Ð±Ñī Ð¸Ñħ
ĠÑįÑĦ Ð¸Ð¾Ð¿
Ñģ Ð¾Ð´ÐµÑĢÐ¶
ÐµÐ½ ÑĩÐ°ÑĤ
Ð»Ð¸ Ð³Ð¸
ÐµÐ½Ð¸ ÑģÑĤ
ĠÐ¿Ð¾Ð»ÑĥÑĩ Ð°Ð»
ĠÑĨÐµÑĢÐºÐ¾Ð² Ð½Ð¾Ð¹
ĠÐ¾Ð³ÑĢÐ°Ð½Ð¸Ñĩ ÐµÐ½Ð¸Ñı
ĠÐ·Ð°ÑĢÑĥÐ±ÐµÐ¶ Ð½ÑĭÑħ
Ġc an
ÐµÐ½ ÑģÐºÐ¾Ðµ
ĠÐ¼ ÑįÑĤ
ĠÐ¼Ð¾Ð»Ð¾Ð´ÑĳÐ¶ Ð½Ð¾Ð¹
ĠÐ¿ÑĢÐ¾Ð´ÑĥÐºÑĤ Ñĭ
ĠÐ¿Ð¾Ð´Ð¾Ð· ÑĢ
ĠÐ» Ð¾Ð½Ð³
ĠÑĪ Ð°ÑģÑģÐ¸
Ð°ÑĤÐµÐ»ÑĮ Ð½ÑĥÑİ
ĠÑĤÐµÐ» ÐµÑģÐº
ĠÐ³Ð¾Ð»Ð¾Ñģ Ð¾Ð²Ð°Ð½Ð¸Ñı
ĠÐºÐ¸ÑģÐ» Ð¾ÑĤ
Ð»Ð¾ Ñĥ
ĠÑĤÐ¾Ñĩ ÐºÐµ
Ð¿ Ð¾Ð¶
Ð³ ÑĤ
ĠÐ¾Ðº Ð½Ð°
ĠÑĥÑĤ ÑĢÐ¾Ð¼
le t
ĠÐ°Ð³ ÑĢÐµÐ³
195 8
ĠÐ¼ÐµÑĤÑĢÐ¾Ð¿Ð¾Ð»Ð¸ÑĤ ÐµÐ½Ð°
ĠÐ³ Ð½ÐµÐ·
ĠÐ¿ÐµÑĢÐµ ÑģÑĤÑĢÐ¾Ð¹
ĠÐ±ÐµÐ½ ÐµÐ´
sk i
ĠÑģÑĤÐ¾Ð» Ð±
ĠÐ²Ð¾ÑģÑģÑĤÐ°Ð½Ð¾Ð² Ð»ÐµÐ½Ð¸Ðµ
ĠÐ° Ð¾
ĠÐ¿Ð°ÑĤ ÑĢÐ¾Ð½
ĠÐ½Ð¾Ð¼ Ð¸Ð½Ð°
ÑĪÑĤÐ°Ð´ ÑĤ
ĠÑĢ Ð¸ÑĤÐ¼
ĠÐ»ÑĥÑĩ ÑĪÑĥÑİ
ĠÐ² Ð»ÑİÐ±
ĠÐ¿ÑĢ Ð¾Ð»Ð¾Ð¶
ÑģÐ¿ Ð°Ñģ
Ġm o
Ñģ Ð¸ÑĢ
ĠÐ» Ð¸ÑģÑģ
Ð°Ð³ Ð¾Ð½
ÑģÐ¾Ð² ÐµÑĤÐ°
ĠÐ°Ð»ÑĮ Ð±ÐµÑĢÑĤ
ĠÐ·Ð° Ð³Ð¾Ð²Ð¾ÑĢ
ĠÐ¿Ð¾Ð¿ Ð°ÑģÑĤÑĮ
ĠÐ¾ÑĦÐ¸ÑĨ ÐµÑĢÐ°
ĠÑĨ ÐµÐ·
Ð²ÐµÑĢ Ð½ÑĥÐ²ÑĪÐ¸ÑģÑĮ
ĠÐºÐ¾Ð½ÑĨÐµÑĢÑĤ Ñĭ
Ð¾ÑĢ ÑĥÑģ
Ð¾Ð¼ Ð¾ÑĢÑĦ
Ñį Ð½Ð°
ĠÑĥÐ± Ð¸Ð»
ĠÐ¼Ð°ÑĪ Ð¸Ð½Ñĥ
ÑģÐ² Ð¾Ð±Ð¾Ð´
Ð¾ ÑĨÐµÐ½
ĠÐ¿ÑĢÐ¸Ð½ ÑĥÐ´
Ð¿Ð¾ÑģÑĤ Ð¾ÑıÐ½
ĠÑĢÑĥÐ±Ðµ Ð¶Ðµ
ĠÑģÐ¾Ð²ÑĢÐµÐ¼ ÐµÐ½Ð½ÑĭÐ¹
Ð°Ñī ÐµÐ³Ð¾
ĠÐ¸Ð´ ÑĤÐ¸
ĠÐ¸ÑģÑĤÐ¾Ñĩ Ð½Ð¸ÐºÐ°
ĠÐ¿Ð»Ð¾ÑĤ Ð½Ð¾ÑģÑĤÐ¸
ĠÐ¿ÑĢÐµÐ´Ð¿Ð¾Ð»Ð°Ð³ Ð°Ð»Ð¾ÑģÑĮ
ĠÐ³ ÑĢÐ°
ĠÐ¿ÑĢ Ð¸ÑıÑĤ
ĠÑĥÑĩ ÐµÐ½Ð¸Ñı
ÐµÑĢÑģ Ð°
ĠÐ¿ÑĢÐ°Ð² Ð¸ÑĤÐµÐ»Ñı
Ġg u
ĠÐ½Ð°Ð¿ÑĢÐ°Ð² Ð»ÐµÐ½Ð¸Ð¹
ĠÐ²ÐµÐ´ ÐµÐ½Ð¸Ñı
ĠÐ¿ÐµÑĢÐµÐ²Ð¾Ð´ Ð°
ĠÐ¿ÑĢÐ¾ÑĦÐµÑģÑģÐ¸Ð¾Ð½ Ð°Ð»ÑĮÐ½Ð¾Ð¹
ĠÑıÐ² Ð½Ð¾
ĠÐ¸Ð½Ð´ÑĥÑģÑĤ ÑĢÐ¸
ÐµÐ» Ð»Ñĭ
Ð¸Ð»ÑĮ Ð²
ĠÐ³Ðµ Ð¾ÑĢ
ĠÐ¾ÑĤÐºÑĢÑĭÑĤ ÑĭÐ¼
ĠÑį ÑĢÑĭ
Ð»Ð¸ ÑĦ
ĠÐ¿ÐµÑĢÐµÐ´ Ð½ÐµÐ¹
ĠÐ°Ð± Ð±
ĠÐ¾ÑĦÐ¸ÑĨÐ¸ Ð°Ð»ÑĮÐ½Ð¾Ð¼
ĠÑģÐ¸Ð¼Ð²Ð¾Ð» Ð¾Ð²
ĠÐ¾ÑĤÐ²ÐµÑĩ Ð°ÐµÑĤ
ÑĦ Ð¸ÑĢ
ĠÐ¿Ð¾Ð·Ð²Ð¾Ð» Ð¸Ð»Ð¸
ig h
197 7
ĠÑģÐ²ÐµÐ´ ÐµÐ½Ð¸Ð¹
ĠÐ¿Ð» Ð°Ð½Ð¾Ð²
ĠÐ»Ð¸Ð½Ð³Ð² Ð¸ÑģÑĤ
ĠÐ¼ÐµÑģÑĤ Ñĥ
Ġd is
ĠÐ¾ÑĤÐ´ÐµÐ» ÐµÐ½Ð¸Ð¸
ĠÑĦÐ¸Ð» Ð°ÑĢÐ¼Ð¾Ð½
ĠÐ³Ð»ÑĥÐ± Ð¸Ð½Ð°
Ð¼Ð»Ð°Ð´ ÑĪÐ¸Ð¹
ÑĥÑī Ð°Ñı
Ð¼ Ð¸ÑģÑĤ
Ð°ÑĢ Ð¸Ð½
ĠÐ¾Ð±ÑĢÐ°Ð· ÑĥÐµÑĤÑģÑı
ĠÑĢÐµÑĦÐµÑĢ ÐµÐ½Ð´
ĠÐº Ð¸ÑģÑĤ
ĠÐ¼ ÑĥÑĤ
196 4
ĠÐ¿ÑĢÐ¾Ð²ÐµÐ´ ÐµÐ½Ð¸Ð¸
ĠÐ²Ð²ÐµÐ´ ÐµÐ½Ð°
ĠÑĢÐ°Ð· ÑĢÑıÐ´
ĠÐºÐ°Ðº Ð¾Ð³Ð¾
ĠÑģÐ¿Ð¾ÑģÐ¾Ð± ÐµÐ½
ĠÐ¼Ð¸ÑĢÐ¾Ð² ÑĭÑħ
ĠÐ½ÐµÐ±Ð¾Ð»ÑĮÑĪ Ð¸Ð¼
ĠÑıÐ¹ ÑĨÐ°
Ð½ ÑĤ
ÐµÑĩ Ð½Ð¾Ð¹
Ð½ÐµÐ¹ ÑĪÐ¸Ð¼
ĠÐ¾ÑģÐ²Ð¾Ð± Ð¾Ð¶Ð´ÐµÐ½Ð¸Ðµ
ĠÑģÐ± Ð»Ð¸Ð¶
ĠÐ³ÐµÑĢÐ¼Ð°Ð½ ÑģÐºÐ¾Ð¹
ĠÐ·Ð½Ð°ÑĩÐ¸ÑĤÐµÐ»ÑĮ Ð½ÑĭÐ¹
ĠÐ¿Ð¾ÐºÐ¸Ð½Ñĥ Ð»Ð¸
ĠÑĩÐ°ÑģÑĤ Ð½Ð¾Ð¹
ĠÐ¸Ð¼Ðµ ÑİÑīÐ¸Ðµ
Ð¿Ð°ÑĤ ÑĢÐ¸
ĠÐ²Ð¾ÑģÑģ Ð¾Ð·Ð´
ÑģÐµÑĢÐµ Ð±ÑĢÑı
Ð½Ð¾Ð² Ð¾Ðµ
b l
ĠÐ´ Ð¸Ð´
Ð»Ñı Ð²
Ð¾Ð»Ð¾Ð³ Ð¸ÑĩÐµÑģÐºÐ¸
ĠÐ¿Ð¾Ð±ÐµÐ´ Ð¾Ð¹
ĠÐ¿ÑĢÐ¸Ð½Ð¸Ð¼ Ð°ÑİÑĤ
ĠÐ·Ð°Ð¿Ð¸Ñģ Ð°Ð»
y l
ĠÐ² Ð°Ñħ
ĠÐ³ Ð½
ĠÐ±Ð°Ð» Ð»Ð¾Ð²
im e
ÑħÑĢÐ¸ÑģÑĤ Ð¸Ð°Ð½
ĠÐ¸Ð·Ð²ÐµÑģÑĤ Ð½ÑĭÐ¼Ð¸
ĠÐ´ÐµÐºÐ° Ð±ÑĢÑĮ
Ñĥ Ð°ÑĢ
ĠÐ¼ ÑĥÐ»ÑĮÑĤÐ¸
ÑĢÐ¾Ð¿ Ð°Ð²Ð»Ð¾Ð²
Ð´Ð² Ð¾Ðµ
ĠÐ¿ÑĢÐ¸Ð² ÑĭÑĩ
ĠÑĦÐ¸Ð»ÑĮ Ð¼Ñĥ
ĠÐ·Ð½Ð°Ðº Ð¸
ĠÐºÐ°Ð»Ð¸ Ð±ÑĢÐ°
ĠÐ° ÑĢÐ°
w o
ĠÐº ÑĥÑģ
Ġ9 2
ĠÑģÐ¾ÑĤÑĢÑĥÐ´ Ð½Ð¸ÐºÐ¾Ð¼
Ð´ Ð¸Ð½Ð°
ĠÑĦ ÑĢÐµÐ³
ĠÐºÑĢÐµÑģÑĤ ÑĮÑıÐ½Ðµ
ĠÐ²ÑģÑĤÑĥÐ¿ Ð»ÐµÐ½Ð¸Ñı
Ð¾ÑĢÐ³Ð°Ð½ Ð¸Ð·
ĠÐ¿ÑĢÐ¸Ð¾Ð± ÑĢÐµÑĤÐ°
ĠÐ¿Ð¾ ÑıÑģÐ°
Ð°Ð½Ð¾Ð² ÑģÐºÐ¸Ð¹
Ð¼Ð¾Ð½ Ð´
Ð» Ñģ
ĠÐ¿ ÑĥÑĩ
ĠÐ·Ð°Ð² ÑıÐ·
c r
Ð´ ÐµÐ¹
ĠÑģ Ð¸ÑĤÐ¸
ĠÐº Ð¾Ð²Ð°Ð»
ĠÑĢÐ° Ñħ
ĠÑĦ Ð¸ÑĪ
ĠÐ¿ÑĢÐ¸ÑģÐ¾ÐµÐ´Ð¸Ð½ ÐµÐ½Ð¸Ñı
ĠÐ½ÐµÑģ ÑĩÐ°ÑģÑĤ
Ð±Ñİ ÑĢÐ¾
ĠÑİÑģÑĤ Ð¸ÑĨÐ¸Ð¸
a il
ĠÑĥ ÐµÑħ
Ð·Ð°Ð¿Ð°Ð´ Ð½ÐµÐµ
ĠÐ¿ÑĢÐµÑģÑģ Ðµ
ÑĤÐ° Ð¶
Ġm ac
ĠÐ´ÐµÐ» ÐµÐ½Ð¸Ðµ
ĠÐ² Ð¸Ð»Ð»
ĠÐ´ Ñĭ
ĠÑģÐ¾Ð´ÐµÑĢÐ¶ Ð¸ÑĤÑģÑı
ĠÐ¸Ð²Ð°Ð½Ð¾Ð² Ð¸ÑĩÐ°
ĠÐºÐ°Ð±Ð¸Ð½ ÐµÑĤ
Ð¼ Ð¸ÑĢÐ¾Ð²
Ð°Ð½ Ðº
ĠÑı Ð¸ÑĨ
ĠÑĢÐ°Ð·Ð² Ð¸Ð²Ð°ÐµÑĤÑģÑı
ĠÐ²Ð¾Ð·Ð¼Ð¾Ð¶ Ð½ÑĭÐ¼
ĠÑĦÐµÐ´ÐµÑĢÐ°Ð»ÑĮ Ð½Ð¾Ð¹
ĠÐ± ÑĢÐµÑĤ
ĠÐ° Ð¼Ð¸Ð½
ĠÑĢÐ°Ñģ Ñĭ
ĠÐ¼Ð¸Ð½ Ð¸Ð°ÑĤ
ĠÐ·Ð°Ð± Ð°Ð¹ÐºÐ°Ð»ÑĮ
ĠÐ³ÐµÑĢÐ¾ Ð¸
Ð¾ÑĢÐ¾Ð² Ð¸Ñĩ
ĠÐ¾ÑĦ Ð¸Ñģ
ĠÐ°ÑĦ ÑĢÐ¾
Ġe m
Ð¼Ð¾ÑĢ ÑģÐºÐ¾Ð¹
ĠÐ¸ ÑĥÐ´
Ð¾Ð± Ð»Ð°ÑģÑĤ
ĠÐ¿Ð¾Ð´ ÐµÐ»
ĠÐ¸Ð¼ Ð¼Ð¸Ð³
Ð¿Ð° Ð´Ð°ÑİÑĤ
ĠÑįÐºÐ¾Ð½Ð¾Ð¼ Ð¸ÐºÐµ
ĠÐ²ÐµÐ´ ÑĥÑĤ
ĠÐºÐ¸ÑĢ Ð¸Ð»Ð»
ĠÐ½Ð° ÑĤÐ¾
ĠÑĢÐ°ÑģÑģÐºÐ°Ð· Ð¾Ð²
ĠÐ¿ Ð»Ðµ
ÐµÑģÐº Ð¸Ñħ
Ġm ot
ĠÑģÐ¾ÑħÑĢÐ°Ð½ Ð¸Ð»Ð°ÑģÑĮ
ĠÐ·Ð°Ð´ ÐµÐ¹ÑģÑĤÐ²
Ð³Ð²Ð°ÑĢÐ´ Ð¸Ð¸
ĠÐ¿ Ð»Ð°Ð·
ĠÐ¿Ð¾Ð´ÑĩÐ¸Ð½ ÐµÐ½Ð¸Ñı
Ð»ÑıÑĤÑĮ ÑģÑı
ĠÑĦÐ°Ð±ÑĢ Ð¸ÐºÐ¸
Ð°Ñģ Ð¸Ñı
Ġd el
Ðº ÑĢÐ°
Ð´ Ð¾Ð³
Ð³ Ð°ÑĢÐ´
ÐµÑĢ Ð½Ð¾Ð¹
Ð´Ðµ ÑģÑıÑĤ
ĠÐ¼Ð¾Ð½ Ð¾Ð³ÑĢÐ°ÑĦ
ĠÐ¾ÑĤÐºÑĢÑĭÑĤ Ð¾Ð³Ð¾
ĠÐ¿ÑĢÐµÐ¾Ð±ÑĢÐ°Ð· Ð¾Ð²Ð°Ð½Ð¸Ñı
ĠÐ¼Ðµ Ñī
Ð¸ÑģÐº Ðµ
ĠÐ²ÐµÐ»Ð¸Ðº Ð¸Ñħ
ĠÑĤÑĢÐ¸Ð± ÑĥÐ½
Ð°ÑĢ Ð½ÑĭÐ¼
ĠÐ¿ÑĢÐµÐ´ Ð¿Ð¸Ñģ
ĠÑĨÐ¸Ð»Ð¸Ð½Ð´ ÑĢ
ÑĥÑİÑī ÐµÐ¼
ĠÐ½Ð°Ð·Ð² Ð°Ð½Ñĭ
ĠÑĤÑĥÑĢ Ð¸ÑģÑĤÐ¾Ð²
ĠÐ¿ÑĢÐ¸Ñģ ÑĥÐ¶Ð´
Ð¾Ñħ Ð¸Ð¼
ĠÐ²Ð¾Ð·Ð½Ð¸Ðº Ð½Ð¾Ð²ÐµÐ½Ð¸Ñı
ÑĤÐ°Ðº Ð°Ñı
ĠÑĤÐµÑħ Ð½Ð¸ÐºÐµ
ĠÑįÐ»ÐµÐºÑĤ ÑĢÐ¾ÑģÑĤÐ°Ð½
194 8
ĠÑĤÑıÐ¶ÑĳÐ» Ð¾Ð¹
ĠÐºÐ°Ñģ Ð°ÐµÑĤÑģÑı
ĠÐ³Ð¾Ð» Ð¾Ð²Ð¾Ð¹
ĠÐ½Ð¸Ð· ÐºÐ¾Ð¹
ĠÐ±Ð°ÑģÑģÐµÐ¹ Ð½Ð¾Ð²
ĠÐ²ÑĭÑĪÐµÐ´ ÑĪÐ¸Ð¹
Ġs k
ĠÐ²Ð²ÐµÐ´ ÐµÐ½Ð¸Ñı
Ð¸Ð² Ð°Ð»Ð°
Ð¾ÑĪ Ð»Ð°
Ð¸ÑĢÑĥ ÑİÑīÐ¸Ñħ
ÑĦÐ¸Ð» Ð¾ÑģÐ¾ÑĦ
ĠÐ´Ð¶Ð¾ÑĢÐ´Ð¶ Ð°
ĠÑįÐ»ÐµÐºÑĤÑĢÐ¾ ÑįÐ½ÐµÑĢÐ³
ĠÐ¼ Ð¾Ñģ
Ð»ÐµÐ³ ÐºÐ°
ĠÑĢ ÐµÐ½ÑĤ
ÑĥÐº Ð»Ðµ
ĠÐ¸Ð¼ÑĥÑīÐµÑģÑĤÐ² Ð¾
ĠÐ¼Ð»ÐµÐºÐ¾Ð¿Ð¸ÑĤ Ð°ÑİÑīÐ¸Ñħ
ÑģÑĤ Ð¾ÑĢÐ¾Ð½
ĠÐ´ ÑĢÐ°ÑĦ
ĠÐ½Ð° ÑģÐº
ĠÑĥ ÑĤÐ¾Ñĩ
ĠÐ¾ÑĤ ÑĨÑĥ
ĠÐ´ÐµÐ» Ð°ÑİÑĤ
ĠÑĦÐ¾ÑĢÐ¼ Ð¾Ð¹
ĠÐ±Ð¾Ð»ÑĮ Ð½Ð¸ÑĨÐ°
ĠÐ¿Ð¾Ð»ÑĮÐ·Ð¾Ð² Ð°ÑĤÐµÐ»ÐµÐ¹
Ð¿ÑĢÐ¾ÑĦÐµÑģÑģ Ð¾ÑĢ
Ð± Ð¾Ð´
ÐµÐ´ ÐµÐ»ÑĮ
ĠÐ¿Ð¾Ð» ÐºÐ¾Ð¼
ĠÑĤÐ°Ðº ÑĥÑİ
Ð¿Ð° ÑĥÐ»Ñĥ
ĠÐ·Ð°Ð¿Ð°Ð´ Ð½ÑĭÐ¹
Ð°Ð½ ÑģÐºÐ¸Ð¼
ĠÑģÐ¸Ð¼Ð¿ ÑĤÐ¾Ð¼
Ð¸Ð¼ Ð¾ÑģÑĤÑĮÑİ
ĠÐ²ÑĤÐ¾ÑĢÐ¶ ÐµÐ½Ð¸Ñı
ĠÐº ÐµÐ½ÑĤ
ĠÐ±ÐµÐ» Ð¾Ðº
ĠÐ»ÐµÐ¹ Ð¿ÑĨÐ¸
ĠÑĦÐ¸Ð»Ð¸ Ð°Ð»
ĠÑĤÑıÐ¶ÑĳÐ» ÑĭÑħ
ĠÐ²ÑģÑĤÑĢÐµÑĤ Ð¸Ð»
ĠÐ¼Ð¾ÑĤ Ð¾ÑĨÐ¸Ðº
a ir
ĠÐ´ÐµÐ¹ÑģÑĤÐ² Ð¸ÐµÐ¼
ĠÐ½Ð¸Ð¶Ðµ Ð³Ð¾ÑĢÐ¾Ð´ÑģÐºÐ¾Ð¹
ĠÐ¿Ð¾Ðº Ð¸Ð´Ð°
ĠÑĢÐµÑĪ Ð¸Ð»Ð°
ĠÐ¾Ð±ÑĬÑıÐ² Ð»ÐµÐ½
ÑĥÑī ÐµÐ½Ð°
ĠÐ¾Ð· ÐµÑĢÐµ
196 1
Ñį Ð²
ÐµÐ· Ðµ
ĠÑĢÐ¾Ð´ Ð¾ÑģÐ»Ð¾Ð²
ĠÑģÐ¾Ð²ÐµÑĤ ÑģÐºÐ¸Ð¼
ĠÑįÐ»ÐµÐºÑĤ ÑĢÐ¾Ð´
ĠÐ¾Ð±Ð½Ð°ÑĢÑĥÐ¶ ÐµÐ½Ð¾
ĠÐ²ÐµÑģ Ðµ
ĠÑģÑĩÐ°ÑģÑĤ Ð»Ð¸Ð²
ĠÐ´ ÑĭÐ¼
ÑĥÐ» Ð¾Ð²
ĠÐ²Ð¾Ð´ Ð¾ÑħÐ¾Ð·ÑıÐ¹
ĠÐ²ÑĭÑģÑĤÐ°Ð² ÐºÐ°
ĠÑģÐ¸Ð½Ð³ Ð°Ð¿
ĠÐºÑĢÑĥÐ¿Ð½ÐµÐ¹ ÑĪÐ¸Ð¼
ĠÐ½Ðµ Ð¾ÑĢÐ³Ð°Ð½
ĠÑģÐ¼ Ð¸ÑĤ
ĠÑĢÐµÐ²Ð¸Ð· Ð¸Ð¸
ĠÐºÐ°ÑĢ Ð¿
ĠÑģÐ¾Ð±ÑģÑĤÐ²ÐµÐ½ Ð½ÑĭÐ¼
ĠÐ¿Ð°Ð¼ÑıÑĤ Ð½Ð¸ÐºÐ¸
ĠÐ¼ Ð¸Ð»Ð»
ĠÐºÐ¾Ð½ ÑĮ
ĠÐ·Ð°ÑĤ Ð¾Ð¿
ĠÐ¿ÑĢÐ¾ÑĤ Ð¾
ĠÑģÐ¸Ð» Ð°Ñħ
ÑĥÐ± Ð°
ĠÐ¿ÑĢÐµ Ð¾Ð±ÑĢÐ°Ð¶
Ð½ÐµÑģ Ð¾ÑĤÐ°
ĠÑĢÐµÐ³Ð¸Ð¾Ð½ Ð°Ð»ÑĮÐ½Ð¾Ð³Ð¾
Ġ184 2
Ð»Ð¸ÑĢ Ð¾Ð²Ð°Ð½Ð¸Ñı
ĠÑĤÐ°Ð±Ð»Ð¸ ÑĨÐµ
Ġ185 5
ĠÐ´ÐµÑģÑıÑĤ ÐºÐ¸
ĠÑįÐ¼Ð¾ ÑĨÐ¸Ð¾Ð½
ÐµÐ½ ÑģÑĤÐ²Ð¾
Ð¿ Ð¾Ð¹
ĠÑĥÑģÐ¿ÐµÑħ Ð¸
ĠÐ¼Ð¸Ð»Ð»Ð¸ Ð¾Ð½
Ð½ Ð¸ÑĤÑĮ
Ñħ Ð¸Ð½
ĠÐ³Ð¾ÑĢÐ¾Ð´ ÑģÐºÐ¾Ðµ
ĠÐ¾ÑĤÐºÑĢÑĭÑĤ Ñĭ
ĠÐ¿ÑĢÐ¸Ð¾Ð± ÑĢÐµÐ»Ð°
ĠÐ¿ÑĢÐ¸Ð³Ð»Ð°Ñģ Ð¸Ð»
ĠÐ¸ÐµÑĢÐ°ÑĢ Ñħ
Ñģ Ð°ÑĤ
Ð¼ Ð°Ð»ÑĮ
Ð´ Ð½Ðµ
ÑĥÐ³ Ñĥ
ĠÑĥÐ± Ð¸ÑĤÑĭ
ĠÐ¾Ð± Ð·
ĠÐ¾Ð¿ Ð¸ÑĢÐ°
ÐµÑģÑĤÐ²ÐµÐ½ Ð½Ð¾Ð³Ð¾
ÑĤÑĢÐµÑĤ Ð¸Ð¹
ĠÑģÑĤ Ñĭ
ĠÐ±Ð¾Ð³ Ð¾Ð²
ĠÐ³ÑĥÐ±ÐµÑĢÐ½ Ð°ÑĤÐ¾ÑĢÐ¾Ð¼
ĠÐ¾ÑģÐ¾Ð± ÑĭÐ¹
ĠÐ¼Ð°Ð» Ð°Ñı
ĠÐ¿ÑĥÑĤÐµÑĪÐµÑģÑĤÐ² Ð¸Ðµ
Ð² Ð°Ð»Ð¸ÑĦ
ĠÐ¿ ÑĪ
ĠÑĩ Ð°ÑĢÑĤ
ĠÑĤÑĥÑĢ ÐºÐµÑģÑĤ
ĠÑĤÐ¸Ñħ Ð¾Ð¾ÐºÐµ
w ork
ĠÐ¼Ð¾Ð´ Ð¸ÑĦÐ¸ÐºÐ°
ĠÐºÐ² ÐµÐ±
ĠÐ°ÐºÐ°Ð´ÐµÐ¼ Ð¸ÐºÐ°
ĠÑĥÐ½Ð¸ÑĩÑĤÐ¾Ð¶ ÐµÐ½Ð¸Ñı
ĠÑģÑĨÐµÐ½Ð°ÑĢ Ð¸Ð¹
ĠÑĥÑģÑĤÐ°Ð½Ð¾Ð² ÐºÐ°
ĠÑĢÐ°Ð² Ð½Ñı
ĠÐ¾ÑĢÐ³Ð°Ð½Ð¸Ð· Ð¾Ð²Ð°ÑĤÑĮ
ĠÐ´Ð¾ ÑĨÐµÐ½ÑĤ
ĠÑģÐ»ÐµÐ´ ÑģÑĤÐ²Ð¸Ðµ
ĠÐ¾ÑĢÐºÐµÑģÑĤ ÑĢÐ¾Ð¼
ÑĦ ÑĢ
Ð°ÑİÑī Ð°ÑıÑģÑı
ĠÑĥÑĤ ÑĢÐ°Ñĩ
ĠÐºÑĥÑĢ ÑģÐ¾Ð²
ĠÐ·Ð½Ð°Ðº Ð¾Ð²
ĠÑģÑĨÐµÐ½Ð°ÑĢ Ð¸ÑģÑĤ
ĠÐ³ Ð¾Ð½Ñĩ
Ġ8 9
Ġ184 9
ĠÐ¿Ð¾Ð½Ð¸Ð¼ Ð°ÐµÑĤ
ĠÐ¾Ð´Ð½Ð¾Ð¸Ð¼ ÑĳÐ½Ð½Ð¾Ð¹
ĠÑģÐµÐ»ÑĮ ÑģÐºÐ¾Ð¼
ĠÐ°Ð½Ð³ Ð»Ð¾
ĠÐ¿Ð¾Ð²ÑĢÐµÐ¶Ð´ ÐµÐ½Ð¸Ñı
ĠÐ¿ÑĢÐ¾Ð´Ð¾Ð»Ð¶ Ð¸ÑĤÑĮ
ĠÐ¾ÑĢÐ³Ð°Ð½Ð¸Ð· Ð¼Ð°
ĠÐ¿Ð¾Ð³Ð¸Ð± Ð»Ð¾
Ð¾Ð¿ÑĢÐ¾Ð¸Ð·Ð² Ð¾Ð´
Ð² Ð¸Ð·
ÐµÐ¼ Ð¾Ð¹
Ð¸Ñĩ ÐµÐ²
ĠÐ¼ÑĭÑģ Ð»ÑĮ
ĠÐ³Ð¾Ð»Ð»Ð¸Ð² ÑĥÐ´
Ð¿Ð» Ð¾Ð´
ĠÑĦÐ¾ÑĢÐ¼ ÑĥÐ»Ñĭ
Ð¸Ð·Ð²ÐµÑģÑĤ ÐµÐ½
ĠÑģÐ¸Ð»ÑĮ Ð½Ð¾Ðµ
ĠÐ²Ð·Ð³Ð»Ñı Ð´Ñĭ
ĠÐ¼Ð¾Ð½Ð³Ð¾Ð» Ð¸Ð¸
Ñģ ÑĢÐ°Ð·Ñĥ
Ð°Ð» Ð¾Ð½
ĠÐ´Ð¾Ð» Ñİ
ĠÐ²Ð¾Ð·Ð³Ð»Ð°Ð² Ð»ÑıÐµÐ¼
ĠÑģÐ¾Ð»Ð½ ÑĨÐµ
: //
ĠÐ¾Ð´ ÐµÐ¶Ð´
ĠÐ¾Ð´Ð¸Ð½ Ð¾Ñĩ
ĠÑģÐ¸Ð»ÑĮ Ð½ÑĭÐ¹
ĠÐ²ÑĢÐ°Ñĩ ÐµÐ¹
Ð¸Ð» Ñĭ
ÐºÑĥÐ± Ð¾Ðº
ĠÑĤ Ð¸Ð³
Ð¾Ð²Ð°Ð½ Ð½ÑĭÐ¼
ĠÐ¾Ð±ÑĬ ÑĳÐ¼Ð°
ĠÐ»ÐµÑģ Ñĥ
ĠÐ·Ð½ Ð°Ð½Ð¸Ð¹
ĠÐ»Ð¸ÑĤÐµÑĢÐ°ÑĤÑĥÑĢ Ð½Ð¾Ð³Ð¾
ÑģÐ»Ð¾Ð² Ð¾
ĠÐ¿ÑĥÐ±Ð»Ð¸ÑĨ Ð¸ÑģÑĤ
ĠÑģ Ð¸ÑĤ
Ð¿ Ð°Ñģ
Ð¿ ÐµÑĩ
ĠÑĢÐ°Ð·ÑĢÐ°Ð±Ð¾ÑĤ Ð°Ð½Ð°
ĠÑģÐ¾Ð±ÑĭÑĤ Ð¸ÑıÑħ
ÑĪ Ð²ÐµÐ¹
ĠÑģÐ°Ð¼ ÑĨÐ¾Ð²
ĠÐ¼Ñį ÑĢÐ¸
! Â».
Ð¿Ð¾ÑģÐ»ÐµÐ´ Ð½ÑıÑı
Ðº Ð¿
ĠÐ¶ÑĥÑĢÐ½Ð°Ð» Ð°Ñħ
ĠÑģÐºÑĥÐ»ÑĮÐ¿ÑĤ ÑĥÑĢ
Ð»Ð°Ð´Ðµ ÑĪ
ĠÐ³ ÐµÐºÑĤ
ÑĨÐ¸Ð¾Ð½ Ð½Ð¾Ð¼
ĠÐ¼Ð°Ð» ÑĭÐ¹
ĠÐ±Ð°ÑĢ ÑģÐµÐ»
Ð° ÑĢÐµÑģÑĤ
ĠÑģÐ¾ÑģÑĤÐ°Ð² Ð»ÐµÐ½
Ð²Ð¾ÑģÑĤÐ¾Ñĩ Ð½ÐµÐµ
ĠÑĦ Ð°Ð²
Ð¸ÑģÑĤ ÑģÐºÐ¾Ð³Ð¾
Ð»Ñİ Ð´Ð¸
ĠÐ²ÑģÑĤ ÑĢÐ¾
Ġ185 3
ĠÑĦ ÑĢÑĥÐºÑĤ
Ð¸ÑĢÐ¾Ð² ÐºÐµ
ĠÐ²Ð¾Ð·Ð½Ð¸Ðº Ð»Ð¸
ĠÐ¿Ð»ÐµÐ¼ ÑĳÐ½
ĠÐ±ÑĥÐºÐ² Ð°Ð»ÑĮÐ½Ð¾
ĠÐ¶ Ð¸ÑĢ
ÑıÐ½ ÑģÐºÐ¾Ð³Ð¾
ĠÑģÐº Ð²Ð¾Ð·
ĠÐ¼ÐµÑĤ ÑĢ
Ð¸Ð· Ð½
ÑĤÐ°Ðº Ð¾Ð¹
en a
âĢľ Â».
ĠÑģÑĦ ÐµÑĢÑĭ
ĠÐ²Ð°ÑĢÑĪÐ°Ð² Ðµ
Ð°Ð»Ñĳ ÐºÑĥ
ĠÑģÐµÐ½ Ð°ÑĤÐ°
Ð¾Ð¿Ð¾Ð»ÑĮ ÑģÐºÐ¾Ð³Ð¾
ĠÐºÐ°Ð»Ð¸Ð½ Ð¸Ð½Ð³ÑĢÐ°Ð´
Ñħ Ð°ÑĢÐ´
ĠÑģÐ¾Ð² Ð¼ÐµÑī
Ð²Ñģ ÐµÐ³Ð´Ð°
ĠÐ¿Ð¾Ð½ ÑıÑĤÑĮ
194 6
ĠÑĥÑģÑĤÑĥÐ¿ Ð¸Ð²
ĠÐ¿Ð¾Ð¸ÑģÐº Ð°
ĠÑįÐ´ Ð²Ð°ÑĢÐ´
c ol
ĠÐ¾ÑĤ Ð²Ð¾Ð´
Ð°ÑĤÑĮ Ðµ
ĠÐ¿Ð¾Ð¿ÑĥÐ»ÑıÑĢ Ð½ÑĭÐ¼
Ġ/ /
ĠÐ¿ÑĢÐµÐ´ÑĥÑģ Ð¼Ð¾ÑĤÑĢ
195 6
ĠÐ¿ÐµÐ² ÐµÑĨ
Ð¾ÑĤ ÐµÑĢÐ°Ð¿
ĠÐ¾ÑģÐ½Ð¾Ð² Ð½ÑĥÑİ
ĠÑĢÐ¾ÑģÑĤ Ð¾Ð²
ĠÐ³ Ð¸ÑĢ
ĠÐ»Ñĥ Ð½Ñĭ
ĠÐ¼ ÐµÐ¼Ñĥ
ĠÑĦ ÐµÐ½Ð¾Ð¼
ĠÑİ Ð¿Ð¸ÑĤ
or s
ĠÐ°Ð»ÑĮ ÑıÐ½
ĠÑģÐ± Ð¾ÑĢÐ°
ĠÐºÐ¾ÑĢÐ¾ÑĤ ÐºÐ¸Ð¹
ĠÑįÐ¿Ð¸Ð·Ð¾Ð´ Ð¾Ð²
Ð¿ÑĢ Ð¸ÑĤÐ¾Ðº
ÐµÑĢ Ð½Ð¾Ðµ
ÐµÐº Ð¾Ð²
ĠÐ³ÑĢ Ð¾ÑģÑģ
ĠÐ½ÐµÐº Ð¾Ð¼
ĠÑģÐµÐº ÑĨÐ¸Ð¸
ĠÐ¿Ð¾Ð» Ñİ
Ð¿ÐµÑĢÐ² Ð¾Ð¹
ĠÐ²Ð»Ð°Ð´ ÐµÐ½Ð¸Ð¹
ĠÐ½Ð°Ð¿ÑĢ ÑıÐ¼
ĠÑģÐ¾ÑĨÐ¸Ð°Ð»Ð¸ÑģÑĤ Ð¸ÑĩÐµÑģÐºÐ¾Ð¹
ĠÑħ Ð°ÑĢÐ´
ÐµÑģÑģ Ð°
ĠÑģÐµÐ²ÐµÑĢ Ð½ÑĥÑİ
ĠÐ°Ð´ÑĢÐµ ÑģÑĥ
v en
Ð±ÑĭÐ² ÑĪÐ¸Ð¹
ÐµÐ»ÑĮ Ð½ÑĭÐ¼
Ð½Ñı Ñħ
ĠÐ´Ð¶ Ð¾Ð½Ð¾Ð¼
ĠÑĤÑĢÐ°Ð½ Ð·
ÐºÑĢÐ°Ñģ Ð½Ð°Ñı
ĠÐºÑĢÑĥÐ¿Ð½ÐµÐ¹ ÑĪÐ¸Ð¹
ĠÐ¿ÑĢÐ¾ÑģÑĮ Ð±Ðµ
Ð¼ Ð¾ÑģÑĤ
ĠÐ¾ÑĢ Ð»Ðµ
ĠÑĩÐ°Ñģ Ñĭ
ĠÐ½Ð°Ð´Ð¿Ð¸ÑģÑĮ Ñİ
ĠÐµ ÑĢÐµÐ²
ĠÑģÑĢÐµÐ´ Ð½ÐµÐµ
ĠÐ´ÐµÑģÑıÑĤ Ð¸Ð½
g er
Ñı ÐµÐ¼ÑĭÑħ
ĠÂ« Â»,
ÑĥÐ½ Ð´Ð°
ĠÑģÐ¾Ð² ÑħÐ¾Ð·
ĠÑĥÑģÑĤ ÑĮÐµ
ĠÐ¿Ð¾Ð´Ð´ÐµÑĢÐ¶ ÐºÐ¾Ð¹
ĠÐ¾Ð±ÑıÐ· Ð°ÑĤÐµÐ»ÑĮÐ½Ð¾
Ð² Ð°ÑĢÐ°
ĠÑģ Ð»ÐµÐ³ÐºÐ°
ĠÑģÑĤ Ð¾ÑĢÐ¾Ð¶
Ġm od
ĠÐ¿Ð¾ÑĤ Ð¾Ð¿
Ġd r
Ð¾Ð±ÑĬ ÐµÐ´Ð¸Ð½
ĠÐºÐ¾Ð½ÑĨ ÐµÑĢ
ĠÑĢÐ°ÑģÐ¿Ð¾ÑĢÑıÐ¶ ÐµÐ½Ð¸Ðµ
ĠÐº Ð¾Ð´Ð°
ĠÐ²ÑĭÐ¿Ð¾Ð»Ð½ Ð¸Ð»
ĠÐºÑĢÐ°ÑĤ ÐµÑĢÐ°
ĠÐ¿ÑĢÐµÐ´ÑĥÐ¿ ÑĢÐµÐ¶Ð´
ĠÐ¿ÑģÐ¸ÑħÐ¸Ð°ÑĤ ÑĢ
ÑģÐµÑĢÐ³ ÐµÐ¹
ÐºÐ° Ð¿Ð¸ÑĤÐ°Ð½
in ae
Ġ8 3
ĠÑģÑĥÑīÐµÑģÑĤÐ² Ð¾Ð²Ð°Ð»
ĠÐ¿ÑĢÐ¾ÑĦ Ð¸Ð»
ĠÑĢÐ°ÑģÑģ ÐµÐ»
ĠÐ·Ð°ÑıÐ² Ð¸Ð»Ð°
ĠÑģÑĤÐ¾Ð»Ðº Ð½Ð¾Ð²ÐµÐ½Ð¸Ñı
Ð¾ ÑĢÐ°Ð½
ÐµÑĢ Ð½ÑĭÐµ
Ð° ÑģÐ¿
ĠÐ¿ ÐµÑģÑĤ
ĠÐ´ ÑĥÐ±Ð»
ÐµÑĤ ÑģÐºÐ¾Ð³Ð¾
Ð¸Ñģ Ñĥ
ĠÑģÐ¾Ð±ÑģÑĤÐ²ÐµÐ½ Ð½Ð¾Ðµ
ĠÑĤÐµÐ¾ ÑĢÐµÐ¼
Ð½Ðµ ÑģÑģ
ĠÐ²Ð¾ ÑĪÐµÐ´
ĠÐ²Ð¾Ð» Ð¾ÐºÐ¾Ð»Ð°Ð¼
ĠÐ¿ÑĢÐ¾ÐµÐºÑĤ Ð¾Ð¼
ĠÑģÐ²Ð¾Ð±Ð¾Ð´ Ð½Ð¾
Ð¿Ð°ÑĢÐ° Ð»Ð»ÐµÐ»ÑĮ
Ġ180 2
ĠÑģÐ¾Ð³Ð»Ð°Ñģ Ð¸Ñı
ĠÐ´ÐµÐº Ð»Ð°
Ġ und
ĠÐ¿Ð¾Ð» Ð¸Ð¼
ĠÐµÐ´Ð¸Ð½ Ð¾Ð¹
195 9
ĠÑģÐµÑĢÑĮÑĳÐ· Ð½Ð¾
ĠÐ¼Ð°Ð³Ð¸ÑģÑĤ ÑĢÐ°
ĠÑĩÐ°ÑĢÐ»ÑĮ Ð·
ĠÐ½Ð°Ð¿ÑĢÑıÐ¼ ÑĥÑİ
ĠÐ¸ÑģÐº Ð°ÑĤÑĮ
ĠÑĤÑĢÐ¸Ð´ ÑĨÐ°ÑĤ
ĠÐ¼ÐµÑĤÐµ Ð¾ÑĢ
Ð» ÑĭÐ¼
ĠÐ²Ð¾Ð» Ð½
ĠÐ²ÑĭÑħÐ¾Ð´ ÑıÑĤ
ÐºÐ¾Ð½ÑģÑĤ ÑĢÑĥ
ÑĳÐ½ Ð½Ð¾
ĠÐ°Ð¼ÐµÑĢÐ¸ÐºÐ°Ð½ ÑģÐºÐ¸Ðµ
Ġ183 4
Ð´ÐµÐ» Ð¾
ĠÐ¿Ð°ÑĢ ÑĥÑģ
ÐºÐ¾Ð½ ÑĤ
ĠÐ·Ð¾Ð»Ð¾ÑĤ ÑĭÑħ
ĠÐ¸Ð´ ÑĥÑĤ
ÑģÐ¾Ð²Ð¼ÐµÑģÑĤ Ð½Ð¾
ĠÐ½Ðµ Ð¾ÑĤ
Ð°Ð½Ð´ Ð¶
ÐµÐ¿ ÐµÑĢÐµ
ĠÐ¶Ð¸Ð² Ð¾Ð¿Ð¸ÑģÑĮ
Ġn et
ĠÑĥÐºÑĢÐ°Ð¸Ð½ ÑģÐºÐ°Ñı
ĠÐ¾ÑģÑĤ Ð°ÑĤÑĮÑģÑı
ĠÐ¿Ð¾Ð³ ÑĢÑĥÐ¶
ĠÐ²ÑĭÐ¿ÑĥÑģÐº Ð°ÐµÑĤ
âĢľ .
ĠÐ½Ð°ÑĢÑĥÑĪ ÐµÐ½Ð¸Ðµ
ÑĥÑĢÐ¾Ð² ÐµÐ½ÑĮ
Ð°ÑģÑĤ ÑĢÐ¾
ĠÐ²ÐºÐ»ÑİÑĩ Ð°Ð»
ĠÐ¿ÑıÑĤ ÑĭÐ¹
ĠÑĤÑĢÑĥÐ´ Ð¾Ð¼
ĠÑĩ Ð°Ð½
ÐµÐ»ÑĮ ÑģÐºÐ¸Ð¹
Ð°Ð½Ð´ ÑĢÐµ
Ð¾Ð»Ð¾Ð³ Ð¸ÑĩÐµÑģÐºÐ¾Ðµ
ĠÐ²ÑĭÐ´ÐµÐ» ÑıÑİÑĤ
ĠÐ¿Ð¾ÑģÐ²ÑıÑī ÑĳÐ½
ĠÐ¾ÑĤÑĢÑıÐ´ Ð¾Ð¼
ĠÐ³Ð¾Ð¼ÐµÐ»ÑĮ ÑģÐºÐ¾Ð¹
ĠÐ¿Ð¾Ðº ÑĢÑĭÐ²
ĠÐ¼Ð¾ÑģÐºÐ¾Ð² ÑģÐºÐ¸Ñħ
ĠÑģÑĤÑĥÐ´ ÐµÐ½ÑĤ
ĠÐ¾ÐºÑĢÑĥÐ¶ ÐµÐ½Ð¸Ñı
ĠÐ¿Ð¾Ð²ÑĭÑĪ ÐµÐ½Ð¸Ðµ
ĠÑĥÐ³ÑĢÐ¾Ð· Ð¾Ð¹
ĠÐ³Ð¾ÑĢÑĮ ÐºÐ¾Ð³Ð¾
ÐµÑĤ ÑĤÐ°
Ġ9 1
ĠÑģÐ²Ð¾Ð±Ð¾Ð´ Ð½Ð¾Ð¹
qu e
Ðµ ÑģÑıÑĩ
Ð» ÐµÑĢÐ¾Ð¼
Ðº Ð°Ð²
ĠÐ² Ð½Ð¾Ñģ
ĠÑģÐµÐ½ÑĤ ÑıÐ±ÑĢÑĮ
Ð±Ð¾Ð»ÑĮÑĪ Ð¾Ðµ
ĠÐ½Ð°Ð± Ð¸ÑĢÐ°
ĠÑģÐ¸Ð»ÑĮ Ð½ÑĭÐµ
Ð»ÐµÑĩ ÐµÐ½Ð¸Ñı
Ðº Ð½ÑĥÑĤ
Ð¾Ñģ Ð¾Ð²
ĠÐ¾Ð±ÑĬ ÑıÐ²Ð»Ñı
ĠÑģÐ±Ð¾ÑĢ Ð½ÑĭÑħ
ĠÐºÑĢÐ¾Ð² ÑĮ
ĠÑĢÐµÐ±ÑĳÐ½ ÐºÐ¾Ð¼
ĠÐ½ ÑħÐ»
ĠÑĩÐµÐ» Ñı
ĠÐ¾ÑĤÐ½Ð¾Ñģ ÑıÑī
ĠÑģÐ¸Ð¼ Ð¿Ð°ÑĤ
ĠÑģÐ²ÑıÑīÐµÐ½ Ð½Ð¸Ðº
ĠÑİÐ±Ð¸Ð» ÐµÐ¹
ĠÑħ ÐµÑĢÑģÐ¾Ð½
ĠÑĢÐ°Ð· Ð³Ð¾Ð²Ð¾ÑĢ
Ð¿ÑĢ Ð¾Ð¶Ð¸Ð²
ĠÐ¶ÐµÐ»ÐµÐ· Ð°
ÑģÐ»ÐµÐ´ ÑĥÐµÑĤ
ĠÐ¾ÑĪÐ¸Ð± ÐºÐ¸
ĠÑĦÐ°Ñģ Ð°Ð´
ÑĨ Ð¸ÑĤ
ĠÐ¼ Ñİ
ĠÑĥÑĩÐ°ÑģÑĤ Ð½Ð¸ÐºÐ°Ð¼Ð¸
ĠÐ¿Ð¾Ð´Ð´ÐµÑĢÐ¶ Ð°Ð»
ĠÐ¿Ð¾ÑģÐ²ÑıÑī ÐµÐ½Ð°
ĠÑĤÐµÐ»ÐµÐºÐ°Ð½ Ð°Ð»Ð°
ĠÐ¾Ð¿ ÑĥÑħ
ĠÐ¿Ð¾Ð¼Ð¾Ñī Ð½Ð¸ÐºÐ°
ĠÐ½Ð°Ð³ Ð¾ÑĢ
ĠÐºÐ¾Ð¼Ð¿Ð¾Ð·Ð¸ÑĤ Ð¾ÑĢÐ¾Ð²
Ðº Ð¼ÐµÐ½
Ð´ Ð°ÑĢÐ¼
Ð³ ÑĢÐ°Ð½Ð¸Ñĩ
ĠÐ´ Ð½ÑĳÐ¼
ÑĦ Ð°Ð³
ĠÐ¾Ñģ ÐµÐ½Ð¸
ĠÐ´Ð¶ Ð¸Ð¼
ĠÐ°Ð²Ð¸Ð°ÑĨÐ¸Ð¾Ð½ Ð½ÑĭÐ¹
Ð¼ ÑĥÑģ
ĠÐ² ÑĤ
ĠÐ¿Ð» ÑĳÐ½
Ġm ed
ĠÐ´ÐµÑĤ Ð°Ð»Ð¸
ĠÐ²ÑģÐ¿Ð¾Ð¼Ð¸Ð½ Ð°Ð»
Ð²Ñĭ ÑħÐ¾Ð´
ĠÐ±Ð¾ÐµÐ² Ð¾Ð³Ð¾
ĠÐ¿ÑĢÐ¾ÑģÑĤ Ð¾Ð¹
ĠÐ¾ÑģÐ¾Ð± Ð¾Ðµ
ĠÐ¿ÑĢÐ¸Ð½ÑĨÐ¸Ð¿ Ñĭ
ĠÑĤÑĢÐ°Ð´ Ð¸ÑĨÐ¸Ñı
Ð¿ Ð¾Ð»ÑĮÐ·
ĠÐ¼ ÑįÐ¹
Ð¾Ð»ÑĮ Ð½ÑĭÐ¹
ĠÐºÐ¾ÑĢ ÑĢÐµÐºÑĤ
ÑĤÐ°Ðº Ð¾Ðµ
ÐµÑĪ ÑĮ
Ġ12 5
ĠÐ²Ð· Ð»ÑĳÑĤ
ĠÐ»Ð¸ÑģÑĤ ÑĮÐµÐ²
ĠÐ¿ÑĢÐ¸Ð² ÐµÐ·
ĠÐ°Ð½Ð³Ð» Ð¸Ð¹ÑģÐºÐ¸Ð¼
ĠÐ»Ð¸Ñĩ Ð½ÑĭÑħ
ĠÑģÑĢÐµÐ´ÑģÑĤÐ² Ð°Ð¼Ð¸
ĠÑĥÐ³Ð¾Ð»Ð¾Ð² Ð½Ð¾Ð³Ð¾
ĠÑĢÐµÐ³Ð¸ÑģÑĤ ÑĢÐ°ÑĨÐ¸Ð¸
ĠÐ¾ÑģÐº Ð¾Ð»
Ñĩ ÐµÑĢÐ½
ĠÑħ Ð¾ÑĢÐ°
ĠÐ¼Ð¾Ð» Ð¾ÑĤ
ĠÐ²ÑģÑĤÑĥÐ¿ Ð¸Ð»Ð°
ĠÐºÐ¾ÑģÐ¼ Ð¸ÑĩÐµÑģÐºÐ¸Ñħ
ĠÑįÐºÑģÑĤ ÑĢÐµÐ¼
ĠÐ½Ð°Ñĥ ÐºÐµ
ĠÐ¼ ÐµÐ±
ÑĥÑĤ Ð¾Ð¼
ĠÐ¾ ÑĢÐµÑħ
ĠÐ½Ð°ÑĨÐ¸Ð¾Ð½ Ð°Ð»ÑĮÐ½Ð°Ñı
ĠÐ°ÑĢÑĤ ÑĥÑĢ
ĠÑĥÑģÐ¿ÐµÑħ Ð¾Ð²
ĠÑģÐ¾Ð±ÑĢÐ°Ð½ Ð¸Ð¸
ĠÑĥ Ð¿Ð¾Ð»Ð½Ð¾Ð¼Ð¾Ñĩ
ĠÐ¿ÑĢÐµ ÑĤÐµÐ½
ĠÑĢÐ¾Ð´ Ð¾Ð¼
ĠÐºÐ¾Ð¼Ð¿ÑĮÑİÑĤÐµÑĢ Ð½ÑĭÑħ
Ð¾ÐºÑĤ ÑıÐ±ÑĢÑĮ
ÑĢÐ¾Ð´ Ðµ
ĠÐ¿Ð»Ð°Ð½ Ð¸ÑĢÑĥÐµÑĤÑģÑı
ĠÐ¿Ð¾ÑģÑĤÑĢÐ¾ ÐµÐ½Ð½ÑĭÐ¹
ĠÐ¿ÑĢÐ¾Ñģ Ð¼Ð¾ÑĤ
ĠÐ¾ÑģÑĤÐ°Ð½Ð¾Ð² Ð¸ÑĤÑĮ
ĠÑģÐµÐ´ ÑĮÐ¼
ÐµÐ» ÑıÐ¼Ð¸
ĠÐ· ÑĢÐµÐ»
ÑĳÐ² ÑģÐºÐ¾Ð³Ð¾
ĠÐ²ÐµÐ´ ÑĳÑĤÑģÑı
Ð¿Ð¾Ð»ÐºÐ¾Ð² Ð½Ð¸Ðº
ĠÑģÑĢÐµÐ´Ð¸Ð·ÐµÐ¼ Ð½Ð¾Ð¼Ð¾ÑĢ
Ð¾Ðº ÐºÐ¾
Ð¾Ð»ÑĮ Ð½Ð¾Ð³Ð¾
Ð¶Ðµ ÑĢÐ°
ĠÐ¿ÑĢÐ¾Ð³ÑĢÐ°Ð¼Ð¼ Ð¸ÑĢÐ¾Ð²Ð°Ð½Ð¸Ñı
ĠÐ»Ð¸ÑĤÐµÑĢÐ°ÑĤÑĥÑĢ Ð½Ð¾Ð¹
ÑģÐµÑĢÐ¸ Ð°Ð»
ĠÐ¾ÑĤ Ð¾Ð·Ð²
ÑĭÐ² Ð°ÑİÑīÐ¸Ð¹
ĠÐ²Ð¾Ð» ÑĭÐ½
ĠÐºÐ½Ð¸Ð³ Ð°Ñħ
ĠÑĢÐµÐ³Ð¸Ð¾Ð½ Ð°Ð»ÑĮÐ½ÑĭÑħ
ĠÐ¸Ð¼Ð¿ÐµÑĢÐ°ÑĤÑĢ Ð¸ÑĨÑĭ
ÑĨ Ð°ÑĢÑĮ
ĠÑĢÐµ Ð°Ð³
ĠÐ¶ Ð¸ÑĤ
ĠÐ»ÐµÑģ Ð½Ð¾Ð¹
ĠÐ´Ð¾Ñĩ ÐµÑĢÐµÐ¹
ĠÑģ ÑĥÐº
Ð¾Ð»Ð¾Ð³ Ð¸ÑĩÐµÑģÐºÐ¾Ð¼
ÑĢÐ°Ð±Ð¾ÑĤ Ð°
ĠÐ¾Ñħ Ð»Ð°Ð¶Ð´
ÑĢÐµÑĪ ÐµÐ½Ð¸Ðµ
ĠÐ¿Ð¾Ð¿ÑĭÑĤ ÐºÐµ
ĠÐ²ÑģÑĤÑĢÐµÑĤ Ð¸Ð»ÑģÑı
Ð½Ñĭ ÑĪ
ĠÑĢ Ñģ
Ð¾ÑĦ Ð¸Ð·
ĠÐ¼ÐµÐ´ Ð»ÐµÐ½Ð½Ð¾
ĠÐºÐ¾Ð½ÑĤ ÑĢÐ°ÐºÑĤÐ°
Ġ185 2
ĠÐ´Ð¾Ð¼Ð°ÑĪ Ð½ÐµÐ³Ð¾
ĠÐ¿ÐµÐ½Ñģ Ð¸Ñİ
Ð»Ð¸ Ð³Ðµ
ĠÑģ ÑĥÐ²
ĠÐ± ÑĥÑį
ĠÑĢÐµÑĪ ÑĳÑĤ
Ġg e
ĠÐ²ÑĭÑģÐ¾Ðº Ð¾Ð¼
ĠÐ¾Ð±ÑĬÑıÐ² Ð¸Ð»Ð¸
ĠÐ²Ð¾Ð´Ð¾ÑħÑĢÐ°Ð½Ð¸Ð»Ð¸Ñī Ð°
ÑĤÐ° Ð±
Ð½Ðµ ÑĦ
ĠÑģÐ²ÐµÑĤ Ð»Ð¾
ÑĢ ÐµÐ½ÑĤ
ĠÐºÐ°Ð¼ ÐµÑĢÑĭ
ĠÐ¿Ð¾Ð»ÑĮÐ· Ð¾Ð²Ð°Ð»ÑģÑı
ĠÐ´Ð²Ð¸Ð³ Ð°ÑĤÐµÐ»ÐµÐ¼
Ð½Ð°Ñĩ Ð°Ð»
ĠÐ´Ð¾Ð» Ð³Ð¾Ð²
ĠÐ¼Ð¾Ð»Ð¾Ð´ ÑĭÐµ
ĠÐ¿Ð° ÑĢÐ°Ð·
ĠÐ¾Ð² Ð¾Ñī
ÐµÐ»ÑĮ ÑģÐºÐ¾Ð³Ð¾
Ġ18 20
ĠÐ¾ÑģÐ½Ð¾Ð² Ð½ÑĭÐ¼Ð¸
ĠÐ°Ð½ÑĤ Ð¸Ñģ
ĠÐ»Ð¸ÑģÑģ Ð°Ð±
ÐºÐ¾Ð¼ Ð¼ÑĥÐ½
ĠÐ´Ð¾ÑģÑĤ Ð¾Ð¹
ĠÐ¾Ð±Ð»Ð°Ð´ Ð°ÑĤÐµÐ»ÑĮ
ÑĢÐµÐ¶Ð¸ÑģÑģ ÑĳÑĢ
ĠÑĩ Ð¸Ð½Ðµ
Ð¿Ð¾Ñģ ÐµÐ»
ĠÐ¿ÑĢÐ¸Ð½ ÑĳÑģ
ĠÐ¿Ð¾Ð² ÑĭÑģ
ĠÑģÑĥÐ± Ð±Ð¾ÑĤ
ĠÑĢÐ°ÑģÑĪÐ¸ÑĢ ÐµÐ½Ð¸Ðµ
ĠÐ³Ð¸ÑĤ Ð»ÐµÑĢÐ¾Ð²
ÑĨÐµÐ½ÑĤÑĢÐ°Ð»ÑĮ Ð½Ð°Ñı
ĠÑģ Ð»ÐµÐ¿
ĠÐ°Ð½ Ð¾Ð½Ñģ
ĠÑĢÐ°ÑģÐ¿ Ð¸Ñģ
ĠÐ°Ðº ÑĨÐµÐ½ÑĤ
ĠÑĪÑĤÐ°ÑĤ Ð°Ñħ
ĠÐ¸Ð½Ð¶ÐµÐ½ ÐµÑĢÐ¾Ð²
ĠÐ²ÑģÐµÐ¼Ð¸ÑĢ Ð½Ð¾Ð¹
ĠÐºÐ°Ð»Ð¸ÑĦÐ¾ÑĢ Ð½Ð¸Ð¸
ĠÑĩÐµÐ¼Ð¿Ð¸Ð¾Ð½ ÐºÐ°
ĠÐ¸ÑģÐºÑĥÑģ ÑģÑĤÐ²Ðµ
ĠÐ²Ð²ÐµÐ´ ÑĳÐ½
ĠÐ±Ð¾Ð¶ Ð¸ÐµÐ¹
Ġst ar
ĠÑĢÐ°ÑģÑģÐ¼Ð°ÑĤÑĢÐ¸Ð² Ð°ÐµÑĤÑģÑı
ĠÐ¾ÐºÑĢÐ° ÑĪ
ĠÐ¿ÑĢÐ¾Ð² Ð°Ð»
ĠÐ¿ÐµÑĢÐµÐ´Ð°Ñĩ Ðµ
ĠÑģÑĤÑİ Ð°ÑĢÑĤ
ÑĦ Ð°ÑĪÐ¸ÑģÑĤ
ÐºÐ¾Ð² ÑģÐºÐ¾Ð¼
Ð°Ð½ÑĤ Ð¾Ð½
ĠÑĥÐ² Ð¾Ð»ÑĮ
ĠÐ·Ð°ÐºÐ°Ð· Ñĥ
ĠÐ¼ Ð°Ñĩ
ĠÐ°Ð» Ð³ÐµÐ±
ar y
ĠÐ»ÐµÑĩ ÐµÐ½Ð¸Ðµ
ĠÐ±Ð°Ð½Ð³ Ð»Ð°Ð´ÐµÑĪ
Ñģ Ð¸Ñı
ÐµÑĢÐ° ÐºÑĤ
ÑĢÐ¾Ð² ÐºÐ°
[...]
